// Auto-generated by pipeline
#include <stdint.h>

const unsigned char audio_model[] = {
0x1c, 0x00, 0x00, 0x00, 0x54, 0x46, 0x4c, 0x33, 0x14, 0x00, 0x20, 0x00, 0x1c, 0x00, 0x18, 0x00, 0x14, 0x00, 0x10, 0x00, 0x0c, 0x00, 0x00, 0x00, 0x08, 0x00, 0x04, 0x00, 0x14, 0x00, 0x00, 0x00, 0x1c, 0x00, 0x00, 0x00, 0x8c, 0x00, 0x00, 0x00, 0x0c, 0x01, 0x00, 0x00, 0x48, 0x20, 0x00, 0x00, 0x58, 0x20, 0x00, 0x00, 0x18, 0x30, 0x00, 0x00, 0x03, 0x00, 0x00, 0x00, 0x01, 0x00, 0x00, 0x00, 0x04, 0x00, 0x00, 0x00, 0xae, 0xde, 0xff, 0xff, 0x0c, 0x00, 0x00, 0x00, 0x1c, 0x00, 0x00, 0x00, 0x3c, 0x00, 0x00, 0x00, 0x0f, 0x00, 0x00, 0x00, 0x73, 0x65, 0x72, 0x76, 0x69, 0x6e, 0x67, 0x5f, 0x64, 0x65, 0x66, 0x61, 0x75, 0x6c, 0x74, 0x00, 0x01, 0x00, 0x00, 0x00, 0x04, 0x00, 0x00, 0x00, 0x68, 0xff, 0xff, 0xff, 0x11, 0x00, 0x00, 0x00, 0x04, 0x00, 0x00, 0x00, 0x08, 0x00, 0x00, 0x00, 0x6f, 0x75, 0x74, 0x70, 0x75, 0x74, 0x5f, 0x30, 0x00, 0x00, 0x00, 0x00, 0x01, 0x00, 0x00, 0x00, 0x04, 0x00, 0x00, 0x00, 0x92, 0xdf, 0xff, 0xff, 0x04, 0x00, 0x00, 0x00, 0x0c, 0x00, 0x00, 0x00, 0x6b, 0x65, 0x72, 0x61, 0x73, 0x5f, 0x74, 0x65, 0x6e, 0x73, 0x6f, 0x72, 0x00, 0x00, 0x00, 0x00, 0x03, 0x00, 0x00, 0x00, 0x5c, 0x00, 0x00, 0x00, 0x2c, 0x00, 0x00, 0x00, 0x04, 0x00, 0x00, 0x00, 0xb8, 0xff, 0xff, 0xff, 0x15, 0x00, 0x00, 0x00, 0x04, 0x00, 0x00, 0x00, 0x13, 0x00, 0x00, 0x00, 0x43, 0x4f, 0x4e, 0x56, 0x45, 0x52, 0x53, 0x49, 0x4f, 0x4e, 0x5f, 0x4d, 0x45, 0x54, 0x41, 0x44, 0x41, 0x54, 0x41, 0x00, 0xdc, 0xff, 0xff, 0xff, 0x14, 0x00, 0x00, 0x00, 0x04, 0x00, 0x00, 0x00, 0x13, 0x00, 0x00, 0x00, 0x6d, 0x69, 0x6e, 0x5f, 0x72, 0x75, 0x6e, 0x74, 0x69, 0x6d, 0x65, 0x5f, 0x76, 0x65, 0x72, 0x73, 0x69, 0x6f, 0x6e, 0x00, 0x08, 0x00, 0x0c, 0x00, 0x08, 0x00, 0x04, 0x00, 0x08, 0x00, 0x00, 0x00, 0x13, 0x00, 0x00, 0x00, 0x04, 0x00, 0x00, 0x00, 0x13, 0x00, 0x00, 0x00, 0x6d, 0x69, 0x6e, 0x5f, 0x72, 0x75, 0x6e, 0x74, 0x69, 0x6d, 0x65, 0x5f, 0x76, 0x65, 0x72, 0x73, 0x69, 0x6f, 0x6e, 0x00, 0x16, 0x00, 0x00, 0x00, 0x38, 0x1f, 0x00, 0x00, 0x30, 0x1f, 0x00, 0x00, 0x18, 0x1f, 0x00, 0x00, 0xfc, 0x1e, 0x00, 0x00, 0xbc, 0x1e, 0x00, 0x00, 0x6c, 0x1e, 0x00, 0x00, 0x5c, 0x06, 0x00, 0x00, 0x0c, 0x06, 0x00, 0x00, 0x7c, 0x01, 0x00, 0x00, 0x4c, 0x01, 0x00, 0x00, 0xf4, 0x00, 0x00, 0x00, 0xec, 0x00, 0x00, 0x00, 0xe4, 0x00, 0x00, 0x00, 0xdc, 0x00, 0x00, 0x00, 0xd4, 0x00, 0x00, 0x00, 0xcc, 0x00, 0x00, 0x00, 0xc4, 0x00, 0x00, 0x00, 0xbc, 0x00, 0x00, 0x00, 0xb4, 0x00, 0x00, 0x00, 0x94, 0x00, 0x00, 0x00, 0x74, 0x00, 0x00, 0x00, 0x04, 0x00, 0x00, 0x00, 0x8e, 0xe0, 0xff, 0xff, 0x04, 0x00, 0x00, 0x00, 0x60, 0x00, 0x00, 0x00, 0x0c, 0x00, 0x00, 0x00, 0x08, 0x00, 0x0e, 0x00, 0x08, 0x00, 0x04, 0x00, 0x08, 0x00, 0x00, 0x00, 0x10, 0x00, 0x00, 0x00, 0x28, 0x00, 0x00, 0x00, 0x00, 0x00, 0x06, 0x00, 0x08, 0x00, 0x04, 0x00, 0x06, 0x00, 0x00, 0x00, 0x04, 0x00, 0x00, 0x00, 0x01, 0x00, 0x00, 0x00, 0xeb, 0x03, 0x00, 0x00, 0x0c, 0x00, 0x18, 0x00, 0x14, 0x00, 0x10, 0x00, 0x0c, 0x00, 0x04, 0x00, 0x0c, 0x00, 0x00, 0x00, 0xbb, 0x46, 0x89, 0xff, 0xc6, 0x44, 0x1d, 0x13, 0x02, 0x00, 0x00, 0x00, 0x02, 0x00, 0x00, 0x00, 0x04, 0x00, 0x00, 0x00, 0x06, 0x00, 0x00, 0x00, 0x32, 0x2e, 0x31, 0x39, 0x2e, 0x30, 0x00, 0x00, 0xfa, 0xe0, 0xff, 0xff, 0x04, 0x00, 0x00, 0x00, 0x10, 0x00, 0x00, 0x00, 0x00, 0x00, 0x00, 0x00, 0x00, 0x00, 0x00, 0x00, 0x00, 0x00, 0x00, 0x00, 0x00, 0x00, 0x00, 0x00, 0x16, 0xe1, 0xff, 0xff, 0x04, 0x00, 0x00, 0x00, 0x10, 0x00, 0x00, 0x00, 0x31, 0x2e, 0x31, 0x34, 0x2e, 0x30, 0x00, 0x00, 0x00, 0x00, 0x00, 0x00, 0x00, 0x00, 0x00, 0x00, 0xc0, 0xd2, 0xff, 0xff, 0xc4, 0xd2, 0xff, 0xff, 0xc8, 0xd2, 0xff, 0xff, 0xcc, 0xd2, 0xff, 0xff, 0xd0, 0xd2, 0xff, 0xff, 0xd4, 0xd2, 0xff, 0xff, 0xd8, 0xd2, 0xff, 0xff, 0xdc, 0xd2, 0xff, 0xff, 0x52, 0xe1, 0xff, 0xff, 0x04, 0x00, 0x00, 0x00, 0x48, 0x00, 0x00, 0x00, 0x7f, 0xf4, 0x1f, 0x48, 0x4d, 0x74, 0xeb, 0x04, 0x55, 0x5b, 0x7f, 0xda, 0x3a, 0x8c, 0x3c, 0xc9, 0xf5, 0x84, 0x21, 0xdc, 0x07, 0x8b, 0xa5, 0x57, 0x7f, 0x0c, 0x75, 0xb1, 0xa6, 0xd6, 0x65, 0xd5, 0x81, 0x95, 0x4a, 0x27, 0x48, 0xc8, 0xa9, 0x4b, 0xdb, 0xb2, 0x24, 0x81, 0xd3, 0xa1, 0x3f, 0xb9, 0xc1, 0xc7, 0xc8, 0xf8, 0x7f, 0xd1, 0x81, 0x7e, 0xd2, 0x26, 0x02, 0x21, 0xee, 0x26, 0x08, 0x87, 0xfa, 0x23, 0x0e, 0x94, 0x81, 0x76, 0x3a, 0x84, 0xa6, 0xe1, 0xff, 0xff, 0x04, 0x00, 0x00, 0x00, 0x20, 0x00, 0x00, 0x00, 0x00, 0x00, 0x00, 0x00, 0x00, 0x00, 0x00, 0x00, 0xff, 0xff, 0xff, 0xff, 0xfd, 0xff, 0xff, 0xff, 0x01, 0x00, 0x00, 0x00, 0xfe, 0xff, 0xff, 0xff, 0xfe, 0xff, 0xff, 0xff, 0xfe, 0xff, 0xff, 0xff, 0xd2, 0xe1, 0xff, 0xff, 0x04, 0x00, 0x00, 0x00, 0x80, 0x04, 0x00, 0x00, 0x5c, 0xbb, 0xdf, 0x78, 0x44, 0xc8, 0xe1, 0xb0, 0x76, 0x17, 0x94, 0x7f, 0x69, 0xa8, 0x3c, 0xbb, 0x64, 0x8a, 0x70, 0xba, 0xbf, 0x44, 0xc1, 0x32, 0xf8, 0x2e, 0x00, 0x6b, 0x72, 0x6b, 0x94, 0xc6, 0x40, 0xdd, 0xab, 0xc2, 0x88, 0xdd, 0x00, 0x1f, 0x1f, 0x5b, 0xf3, 0xe6, 0xde, 0x0c, 0x34, 0xa3, 0x6f, 0x37, 0xab, 0xc1, 0x5b, 0x56, 0x3c, 0xcd, 0xa5, 0xde, 0xeb, 0x56, 0x35, 0xd3, 0xb8, 0x5c, 0x38, 0x24, 0x5c, 0x9d, 0xc6, 0xac, 0x8c, 0x14, 0x36, 0x9b, 0x57, 0x9d, 0xe5, 0x53, 0x45, 0xfd, 0x9f, 0xef, 0x57, 0x7f, 0x1b, 0xce, 0x26, 0x7c, 0xaa, 0x5e, 0x25, 0xfb, 0x19, 0x8b, 0x0c, 0x1b, 0xfe, 0xd4, 0x52, 0xf6, 0xa6, 0x1e, 0xd6, 0xb6, 0x5d, 0x0f, 0x6a, 0xfc, 0x25, 0xec, 0x4b, 0xb5, 0xd2, 0xce, 0xd8, 0x6a, 0x20, 0x1a, 0x29, 0xbe, 0x08, 0x3c, 0xf7, 0xf1, 0xf4, 0x1f, 0x41, 0xb0, 0x0d, 0xe7, 0xfe, 0xba, 0xd6, 0xf9, 0x51, 0x98, 0x33, 0xbb, 0x61, 0xdf, 0xd0, 0xd8, 0x56, 0x2b, 0xf6, 0x26, 0x3f, 0xc1, 0x57, 0x55, 0x8c, 0x25, 0x6a, 0x20, 0xfe, 0xed, 0xe1, 0xc8, 0xd4, 0x6c, 0x8f, 0xc1, 0x92, 0xe6, 0x76, 0x3f, 0xc8, 0xef, 0x90, 0x81, 0x2c, 0xb1, 0xc8, 0xe9, 0xcd, 0xaa, 0x85, 0x6e, 0x50, 0x48, 0xf1, 0xbf, 0xaa, 0x87, 0xf4, 0x19, 0x5b, 0xe6, 0x08, 0x38, 0x5a, 0x60, 0x4b, 0x16, 0xb6, 0x73, 0x24, 0xa0, 0x53, 0xa6, 0xc0, 0x1e, 0x68, 0x54, 0x39, 0x58, 0xa3, 0x5b, 0xa5, 0x69, 0x09, 0x65, 0x26, 0x5c, 0xc2, 0x15, 0xdb, 0x7c, 0x52, 0x23, 0xe9, 0xab, 0x95, 0xf5, 0xe2, 0xb3, 0xd2, 0x30, 0x23, 0xe6, 0x32, 0x7f, 0xf0, 0x3b, 0xb7, 0xc7, 0x1f, 0xc5, 0x0d, 0x5f, 0x3c, 0xcd, 0x3e, 0xfb, 0x64, 0x29, 0xd8, 0x70, 0xa8, 0x29, 0xd5, 0x52, 0xb9, 0x39, 0x33, 0x11, 0xc2, 0x50, 0x41, 0x40, 0xcd, 0x70, 0x3a, 0xe0, 0x62, 0x5f, 0x41, 0x20, 0x1b, 0x02, 0xee, 0x93, 0xdb, 0x51, 0x68, 0xbf, 0x0c, 0xbf, 0xa1, 0xf4, 0xd3, 0x13, 0xe6, 0x52, 0x9c, 0xc2, 0xb0, 0xf6, 0x14, 0x16, 0xba, 0x4a, 0x41, 0x3e, 0x85, 0x44, 0x47, 0x6b, 0x40, 0x15, 0x56, 0xc8, 0xcd, 0x8e, 0xc5, 0x8c, 0x97, 0xa3, 0x3a, 0xb1, 0xd7, 0x97, 0x55, 0x1d, 0x6b, 0x88, 0xf0, 0x6b, 0xe5, 0x62, 0x1a, 0x50, 0x4f, 0xfa, 0xf2, 0x12, 0x38, 0xe1, 0x0a, 0x71, 0xb9, 0x99, 0x8d, 0x8e, 0x45, 0xcc, 0x16, 0x93, 0xb9, 0xdc, 0x0e, 0x0e, 0xe8, 0x09, 0xc3, 0x10, 0x84, 0x3c, 0xe6, 0x28, 0xf1, 0x2b, 0x40, 0x6f, 0x4a, 0x7f, 0x06, 0x9b, 0xb8, 0xd8, 0x0b, 0xf6, 0xfc, 0x96, 0x00, 0x07, 0x12, 0x50, 0x02, 0x12, 0xfd, 0xd4, 0xec, 0xf9, 0xf7, 0x03, 0x3e, 0xc2, 0x4a, 0x39, 0x5a, 0xe9, 0xbf, 0xac, 0x8b, 0xbe, 0xe2, 0x12, 0xdc, 0xd2, 0xd3, 0xb3, 0x05, 0x8b, 0x2d, 0x6c, 0x34, 0xef, 0x8e, 0x4a, 0xdb, 0x09, 0xcf, 0x8c, 0x8f, 0xb5, 0x24, 0x4f, 0x0f, 0xcc, 0x93, 0x91, 0x89, 0x71, 0xbf, 0x39, 0x8f, 0xf6, 0x32, 0xbd, 0x38, 0x49, 0xc5, 0x7f, 0x0f, 0x26, 0x7c, 0xa1, 0x7f, 0x2d, 0x5b, 0x73, 0x98, 0x28, 0x22, 0x2f, 0xd8, 0x5f, 0xba, 0x0e, 0x2e, 0xea, 0x22, 0xca, 0x49, 0x26, 0x9c, 0xb4, 0xb8, 0x54, 0x30, 0x93, 0xc6, 0xf4, 0xd2, 0xe2, 0x59, 0xb1, 0xc2, 0xdc, 0x81, 0x95, 0x75, 0xd3, 0xde, 0x74, 0x54, 0x1b, 0x49, 0xa1, 0x9c, 0xf2, 0x41, 0x2f, 0xd0, 0x5a, 0x60, 0x63, 0xd3, 0x65, 0x3f, 0xa3, 0xdf, 0xf1, 0x3c, 0xb9, 0xce, 0x32, 0x98, 0x71, 0x3d, 0xac, 0xd9, 0x2e, 0xb4, 0xfa, 0x33, 0x5f, 0x1e, 0x11, 0x59, 0xf9, 0x56, 0x99, 0x05, 0xb5, 0xd1, 0xe6, 0x54, 0x14, 0x45, 0x48, 0xe1, 0xa5, 0x01, 0xb7, 0xaf, 0x19, 0x39, 0x90, 0xae, 0xfd, 0x1d, 0x47, 0x35, 0x5a, 0x03, 0x3c, 0x66, 0x21, 0xbc, 0x9d, 0x93, 0xdf, 0x26, 0xb1, 0x8d, 0x64, 0xd6, 0x48, 0x47, 0x54, 0x1d, 0x3f, 0xd7, 0xa1, 0xf7, 0x59, 0x9b, 0x2e, 0x55, 0xaf, 0x11, 0x1b, 0x38, 0x5e, 0x69, 0xbf, 0x35, 0x51, 0x0b, 0x99, 0x43, 0x53, 0xac, 0x4f, 0xe5, 0x5e, 0x24, 0x81, 0xce, 0x8e, 0x06, 0x27, 0x6a, 0x05, 0xd8, 0xdf, 0xce, 0x57, 0xd3, 0xdf, 0x53, 0x41, 0xed, 0x03, 0x6a, 0x5b, 0xff, 0x43, 0x48, 0xe3, 0x82, 0x94, 0x04, 0xe3, 0xe3, 0x89, 0xc9, 0x9e, 0x47, 0x87, 0x9d, 0xde, 0x37, 0x07, 0xec, 0xb9, 0x18, 0xe8, 0xc5, 0x3a, 0xb1, 0x8c, 0x57, 0xc9, 0xe5, 0x1b, 0xa1, 0xbf, 0x49, 0x0f, 0x28, 0x81, 0x37, 0x49, 0x62, 0x51, 0xc5, 0xf1, 0x87, 0x36, 0x04, 0x8f, 0xd2, 0x67, 0x59, 0x61, 0xd1, 0x2c, 0x4c, 0x32, 0x5a, 0x4c, 0x33, 0xb5, 0xaf, 0xbd, 0x1a, 0xe9, 0x38, 0x17, 0x47, 0x5d, 0x39, 0x5f, 0xeb, 0xbd, 0x0d, 0x1b, 0xac, 0x18, 0xd6, 0xef, 0x4e, 0x5d, 0x25, 0x71, 0x49, 0x16, 0xbb, 0xc0, 0x9f, 0x60, 0xc3, 0x66, 0xac, 0xd7, 0x46, 0x50, 0x27, 0x1b, 0xf7, 0xc8, 0x38, 0xdc, 0x2e, 0x3b, 0x6c, 0xce, 0x15, 0xb3, 0xc6, 0xd3, 0xc2, 0xc0, 0xb0, 0x7f, 0xab, 0xc3, 0x61, 0x4b, 0xf3, 0xf6, 0x20, 0x0c, 0xbf, 0x57, 0xff, 0x23, 0xe9, 0x9c, 0x95, 0xd2, 0x4a, 0xd4, 0xb1, 0x4e, 0x48, 0x14, 0x9f, 0x1e, 0x53, 0x50, 0xf5, 0x6f, 0x22, 0x6e, 0xf8, 0x6d, 0xd7, 0x37, 0x6c, 0x8a, 0x0e, 0xcf, 0x23, 0x86, 0xab, 0x5e, 0x20, 0x41, 0x4a, 0x4a, 0x63, 0xd9, 0x18, 0xf5, 0x26, 0xbb, 0xac, 0xdf, 0x41, 0xea, 0x27, 0x2d, 0xb9, 0x85, 0xa4, 0x3e, 0x02, 0x8d, 0x81, 0x91, 0xec, 0xf5, 0xfa, 0xcd, 0xdc, 0x6e, 0x03, 0xee, 0x5c, 0x4b, 0x22, 0xf3, 0xec, 0x60, 0x18, 0xce, 0xf2, 0xf7, 0x19, 0x87, 0x08, 0xd0, 0x57, 0xb8, 0x54, 0x4c, 0x37, 0xee, 0x81, 0xf4, 0x05, 0x50, 0xa1, 0xf4, 0xaa, 0x07, 0xd8, 0x3f, 0xb9, 0xcf, 0xb0, 0x16, 0x95, 0x8f, 0x70, 0x1c, 0xc8, 0xf8, 0x6e, 0xab, 0x0e, 0x11, 0xec, 0xf4, 0x6a, 0x70, 0xef, 0x23, 0x61, 0x69, 0xb4, 0x59, 0xfd, 0xf1, 0x56, 0x0d, 0x2b, 0x5d, 0x88, 0xab, 0x50, 0xfa, 0xa2, 0x57, 0xa4, 0x62, 0x91, 0x54, 0xe8, 0x44, 0x98, 0x76, 0xcb, 0x16, 0x0f, 0x5e, 0x81, 0x03, 0x30, 0xe7, 0xe8, 0xcc, 0x11, 0x28, 0xdc, 0x74, 0x21, 0x59, 0x72, 0x23, 0x0a, 0x79, 0xbe, 0xf1, 0x19, 0x96, 0x75, 0xe6, 0xf3, 0x93, 0x6f, 0x6d, 0xe2, 0xf2, 0xa3, 0xd2, 0x60, 0x8b, 0x66, 0x20, 0x00, 0x53, 0xa6, 0x61, 0x7a, 0x34, 0x40, 0xf5, 0x04, 0x1b, 0xd6, 0x2b, 0xfd, 0xb4, 0x9a, 0xee, 0x0b, 0xc8, 0x2c, 0x0a, 0x46, 0xa7, 0xb0, 0xe5, 0xfe, 0x1f, 0x63, 0x1a, 0x0a, 0xc4, 0x2d, 0x45, 0x1e, 0xc3, 0xba, 0xba, 0xf7, 0xc1, 0x9a, 0xbb, 0x1f, 0x10, 0x5f, 0x0f, 0x21, 0x96, 0x9e, 0x81, 0x83, 0xb0, 0x8a, 0x35, 0xd4, 0xf1, 0xe0, 0x49, 0xe7, 0xaf, 0xea, 0xb0, 0x27, 0xd4, 0x58, 0x9a, 0xf8, 0x1f, 0x33, 0x00, 0x55, 0xd6, 0xf0, 0x01, 0x29, 0x72, 0x41, 0x39, 0x5a, 0x6f, 0x7f, 0xba, 0x3d, 0x3b, 0x4b, 0xbe, 0x05, 0xd2, 0xaf, 0xb8, 0xd7, 0x09, 0x2b, 0x33, 0x5d, 0xb1, 0x95, 0x63, 0xa1, 0x06, 0xd3, 0xbf, 0xac, 0x6d, 0xae, 0x40, 0x2f, 0x8f, 0xf3, 0xd0, 0x67, 0xc0, 0xa0, 0xc0, 0x75, 0xb7, 0x57, 0xb9, 0x68, 0x1f, 0x2e, 0xe8, 0x67, 0xe0, 0xdc, 0x0a, 0xe4, 0x2b, 0x36, 0xca, 0x67, 0xb7, 0x45, 0x9a, 0xd6, 0x87, 0x31, 0x6e, 0xb7, 0x25, 0x25, 0xd0, 0xf6, 0x4a, 0xf3, 0x9e, 0x98, 0x17, 0x63, 0xf6, 0x4b, 0xca, 0x28, 0xc6, 0xf6, 0x3e, 0x73, 0xe9, 0xa6, 0xf1, 0xbb, 0xde, 0xce, 0xd5, 0x35, 0x4d, 0x49, 0x88, 0x11, 0xfe, 0xa1, 0x63, 0xe5, 0x35, 0xf1, 0xe4, 0x0b, 0x59, 0x51, 0xaa, 0x18, 0xf9, 0x13, 0x18, 0x4c, 0x36, 0xf4, 0x0b, 0x63, 0xed, 0x08, 0xfa, 0x47, 0xe1, 0x68, 0x81, 0x8a, 0xd2, 0xbc, 0x63, 0x69, 0xc1, 0xae, 0x0a, 0xdb, 0xd0, 0xe3, 0xf2, 0x2f, 0xde, 0x8c, 0x30, 0x2e, 0xe1, 0xf8, 0xfc, 0xcd, 0xcf, 0x4a, 0x30, 0xa7, 0x2d, 0x9d, 0xea, 0xa8, 0x91, 0x57, 0x3a, 0xf9, 0x2f, 0xd2, 0x42, 0x0b, 0x4c, 0xf9, 0x05, 0x2f, 0xf2, 0x95, 0x9b, 0x7f, 0x38, 0xf9, 0x11, 0xd2, 0xdf, 0xc9, 0x9d, 0x3f, 0x63, 0x2d, 0x6f, 0xc4, 0x4e, 0xfc, 0x1b, 0xa0, 0x1f, 0xbe, 0xbb, 0xa1, 0x28, 0x2e, 0x48, 0xf1, 0xd1, 0xcc, 0x17, 0x7e, 0xbc, 0x5e, 0xe6, 0xff, 0xff, 0x04, 0x00, 0x00, 0x00, 0x40, 0x00, 0x00, 0x00, 0xf9, 0xff, 0xff, 0xff, 0x01, 0x00, 0x00, 0x00, 0x02, 0x00, 0x00, 0x00, 0xfe, 0xff, 0xff, 0xff, 0xff, 0xff, 0xff, 0xff, 0xfd, 0xff, 0xff, 0xff, 0x00, 0x00, 0x00, 0x00, 0xfa, 0xff, 0xff, 0xff, 0xf4, 0xff, 0xff, 0xff, 0x01, 0x00, 0x00, 0x00, 0xfe, 0xff, 0xff, 0xff, 0xfe, 0xff, 0xff, 0xff, 0x0a, 0x00, 0x00, 0x00, 0x05, 0x00, 0x00, 0x00, 0xff, 0xff, 0xff, 0xff, 0x00, 0x00, 0x00, 0x00, 0xaa, 0xe6, 0xff, 0xff, 0x04, 0x00, 0x00, 0x00, 0x00, 0x18, 0x00, 0x00, 0x0b, 0x81, 0xe0, 0x62, 0x0d, 0x98, 0x58, 0x2d, 0x12, 0x4a, 0x05, 0xf5, 0x65, 0x9a, 0xd1, 0x2c, 0x0c, 0x65, 0x57, 0xd0, 0xb3, 0xbd, 0x0b, 0x5b, 0x56, 0x06, 0xba, 0x9e, 0x8d, 0xf0, 0xd2, 0x52, 0x60, 0x6f, 0x8d, 0x44, 0x0f, 0xb5, 0x96, 0x26, 0x55, 0xc3, 0xd8, 0x5e, 0xdf, 0x56, 0x07, 0x6e, 0xd1, 0x62, 0xb4, 0x38, 0xe4, 0x46, 0xf6, 0xde, 0x0c, 0x54, 0xbe, 0x4d, 0x56, 0xa9, 0xd5, 0x96, 0x69, 0x58, 0x32, 0xd9, 0x36, 0xb6, 0x76, 0xfa, 0x4c, 0x1e, 0xf9, 0x5c, 0xe5, 0x63, 0x47, 0x57, 0x3d, 0xae, 0x92, 0xa8, 0xbb, 0x33, 0x59, 0xfe, 0xd7, 0x35, 0x46, 0xdb, 0xe7, 0x16, 0x54, 0x2e, 0x8e, 0xe8, 0x58, 0x28, 0x41, 0x5e, 0xcc, 0x56, 0xdc, 0xe6, 0x07, 0x59, 0xbd, 0xa8, 0xc2, 0xd9, 0x33, 0x32, 0x38, 0xf7, 0x63, 0x29, 0xae, 0xc5, 0x40, 0x27, 0x42, 0xb6, 0x63, 0xfe, 0x21, 0xf7, 0x9f, 0x60, 0x2d, 0x51, 0xdc, 0x41, 0xa8, 0x17, 0xb7, 0xb6, 0xae, 0xcd, 0xaa, 0x27, 0xa6, 0x1f, 0x5d, 0xa5, 0x0b, 0xe0, 0xd1, 0x63, 0x2f, 0x15, 0x5c, 0x08, 0x14, 0x61, 0xf2, 0x20, 0x3d, 0xee, 0xa4, 0x99, 0x13, 0xec, 0x1d, 0xd9, 0x9f, 0xef, 0x3f, 0x25, 0x57, 0x1d, 0xd1, 0x31, 0x41, 0x38, 0x21, 0x93, 0xe1, 0xd2, 0x15, 0xa5, 0x8f, 0x12, 0xe1, 0x25, 0x9a, 0xbd, 0xf2, 0xeb, 0x55, 0x00, 0x17, 0x0f, 0xdf, 0x34, 0xfa, 0xb6, 0x0a, 0x08, 0xcf, 0xba, 0x42, 0xf6, 0xca, 0x9c, 0x34, 0x64, 0xa1, 0x4a, 0xbf, 0xdb, 0xb8, 0x4f, 0x53, 0x65, 0x0d, 0xc4, 0x8f, 0x4b, 0x07, 0x90, 0xff, 0xab, 0x66, 0x5f, 0x47, 0xbf, 0xb7, 0x39, 0xd4, 0xfb, 0x95, 0xce, 0xe7, 0x22, 0x40, 0xcf, 0x4f, 0x97, 0x0c, 0xcc, 0xd5, 0x93, 0x0b, 0x42, 0xcc, 0x6b, 0x23, 0xbd, 0x42, 0x8e, 0x4a, 0xc7, 0x28, 0x18, 0xda, 0x52, 0xee, 0x61, 0x90, 0x44, 0xcb, 0x29, 0xdb, 0xb4, 0x46, 0x97, 0xbb, 0xd8, 0x1e, 0xd4, 0x68, 0xc4, 0xaf, 0x4c, 0xc6, 0x1b, 0x16, 0x49, 0x1d, 0xac, 0x9e, 0xe2, 0xa4, 0xa0, 0x42, 0x88, 0xed, 0x63, 0x1b, 0x60, 0x17, 0xd2, 0x55, 0xda, 0x40, 0xa9, 0xd4, 0xb4, 0xef, 0xac, 0xf3, 0xdf, 0x60, 0x1e, 0xe4, 0x0e, 0xe4, 0xca, 0x4c, 0x24, 0x6a, 0xe3, 0x08, 0x37, 0x0a, 0xc8, 0x38, 0xc8, 0xa5, 0xf8, 0x4c, 0x0a, 0xfa, 0x53, 0x61, 0x14, 0xdc, 0x58, 0xd8, 0x5c, 0xd9, 0x03, 0x29, 0xa8, 0xb8, 0x1a, 0x0c, 0xc5, 0x36, 0xec, 0x52, 0x4c, 0xe2, 0xb3, 0xdb, 0xbe, 0x93, 0xf1, 0x0b, 0x39, 0xca, 0x34, 0x3d, 0x2c, 0xa0, 0xab, 0xda, 0xc7, 0xe0, 0xfe, 0xd7, 0x0e, 0x60, 0x00, 0xb1, 0x15, 0xbd, 0xa1, 0xb4, 0x13, 0xe7, 0x9c, 0xce, 0x03, 0xb2, 0x66, 0xe5, 0xee, 0x52, 0x49, 0x49, 0xc3, 0xf3, 0xdc, 0xa2, 0x27, 0x25, 0x75, 0x5c, 0x60, 0x36, 0x27, 0xe5, 0xa8, 0x79, 0x58, 0x70, 0xcb, 0xc0, 0xc3, 0xb6, 0xd8, 0xa2, 0x90, 0x72, 0x19, 0x0f, 0x0c, 0xaf, 0x39, 0xd3, 0xd0, 0x83, 0x8f, 0x82, 0xbf, 0x9a, 0xa9, 0xc9, 0x75, 0xd9, 0xd2, 0x49, 0x44, 0xb1, 0xd2, 0x08, 0x8d, 0x5d, 0x78, 0xe0, 0xcd, 0x0c, 0xc4, 0xba, 0x36, 0x44, 0xf6, 0x63, 0xa1, 0xee, 0x4e, 0x0d, 0xfc, 0x55, 0xde, 0xca, 0x50, 0xea, 0x00, 0xdb, 0xb9, 0x1d, 0xf1, 0x76, 0x72, 0x92, 0x37, 0x89, 0x0d, 0x3e, 0x46, 0x31, 0xfa, 0x36, 0xf0, 0xd7, 0xea, 0x37, 0xc2, 0x31, 0x31, 0x96, 0x37, 0x62, 0x73, 0xcc, 0x1c, 0xe9, 0xa5, 0x70, 0x3b, 0x20, 0x64, 0xda, 0x81, 0x82, 0xb3, 0x0e, 0xef, 0xc1, 0x1d, 0xc8, 0xcb, 0xda, 0xae, 0x53, 0xc9, 0xbb, 0xcd, 0x60, 0x67, 0x46, 0x65, 0x0e, 0xc2, 0xd2, 0xf7, 0xdb, 0x84, 0xf8, 0x42, 0x40, 0xd5, 0xeb, 0x89, 0xe9, 0x9b, 0xa0, 0x56, 0x03, 0x02, 0xa4, 0x54, 0x98, 0xe5, 0x6b, 0x98, 0x33, 0x18, 0x8e, 0xd4, 0xf7, 0xea, 0xc6, 0xc5, 0xf1, 0x78, 0xe5, 0x46, 0x30, 0x9d, 0x27, 0x6d, 0xcf, 0x2b, 0x2b, 0xb5, 0xdb, 0x92, 0x93, 0xe3, 0xeb, 0x27, 0x65, 0xce, 0x26, 0xcf, 0x40, 0x54, 0xa8, 0x0a, 0xbf, 0xf8, 0xfa, 0x67, 0xaa, 0x60, 0xfa, 0xc8, 0x22, 0x97, 0x30, 0x9b, 0xab, 0xb3, 0xa0, 0x43, 0xcd, 0x50, 0x78, 0x19, 0x6e, 0x84, 0xf3, 0x60, 0x47, 0xce, 0x43, 0x22, 0x75, 0xdd, 0x59, 0xd8, 0xa1, 0xdc, 0xe9, 0xaa, 0xc8, 0xf2, 0xc6, 0xbe, 0x16, 0x24, 0x65, 0x8f, 0x95, 0x14, 0x19, 0xc5, 0x2b, 0x08, 0xc3, 0x07, 0x86, 0x4e, 0x5b, 0xa1, 0x8a, 0xcb, 0x64, 0xd2, 0xff, 0x0f, 0x8a, 0x98, 0x15, 0x85, 0x71, 0xcc, 0x1c, 0xd5, 0x74, 0xb5, 0x24, 0x48, 0x58, 0x17, 0x04, 0x8e, 0x86, 0xc9, 0x51, 0xab, 0x30, 0x1b, 0x13, 0xb4, 0xde, 0x34, 0x53, 0x53, 0xcb, 0x54, 0x41, 0x28, 0xdf, 0x4f, 0x29, 0xc4, 0xc8, 0xf7, 0xbb, 0x54, 0x74, 0xd2, 0xc5, 0xec, 0x0f, 0xea, 0xfa, 0x32, 0x35, 0xb7, 0x2c, 0x86, 0x56, 0xa9, 0x29, 0xb2, 0x8a, 0xc4, 0x16, 0x02, 0x95, 0x92, 0x3b, 0xae, 0x1c, 0x19, 0x69, 0x02, 0x5e, 0x59, 0x06, 0xf5, 0xe7, 0xf0, 0xa5, 0x92, 0xc2, 0xa0, 0x64, 0x01, 0xbb, 0xcd, 0xd0, 0x37, 0xb3, 0x70, 0xaf, 0x25, 0x38, 0x1b, 0x70, 0xda, 0xba, 0xd6, 0xf6, 0x86, 0xc9, 0xc7, 0xde, 0xb7, 0xc1, 0xd9, 0xcb, 0x55, 0xc8, 0x61, 0x8b, 0xf1, 0x22, 0x51, 0xf0, 0x55, 0x36, 0x50, 0x3c, 0xb7, 0xd0, 0xe3, 0x46, 0xb0, 0x3c, 0xf0, 0x64, 0x35, 0x28, 0x09, 0x65, 0x3a, 0x14, 0x30, 0xbb, 0xfe, 0xff, 0xc7, 0xba, 0x5a, 0xdc, 0x9b, 0x1e, 0x4c, 0x66, 0x71, 0xec, 0x87, 0x67, 0x8f, 0xe9, 0xf7, 0xaf, 0x1c, 0x40, 0xf6, 0xad, 0x21, 0x76, 0x4f, 0x8c, 0x73, 0x10, 0xbb, 0xee, 0xb4, 0x3c, 0x5e, 0x47, 0x24, 0xc6, 0x46, 0x20, 0x15, 0xd6, 0xf6, 0x27, 0xe5, 0x3b, 0xce, 0xc2, 0xf9, 0x36, 0x0f, 0x68, 0x72, 0x10, 0x3f, 0xfc, 0xc2, 0x84, 0xc3, 0xe3, 0xd0, 0xff, 0x92, 0x6c, 0xc8, 0x26, 0xfa, 0x1b, 0xf8, 0x6c, 0xa0, 0x38, 0x34, 0x0a, 0xf3, 0x05, 0xed, 0x94, 0xf6, 0xc7, 0x6a, 0x49, 0xe8, 0xf4, 0x3e, 0xf8, 0xe6, 0x84, 0x6a, 0x5b, 0x66, 0x09, 0xf8, 0x5c, 0x19, 0xf6, 0xe5, 0x22, 0x64, 0x46, 0x1a, 0x52, 0x43, 0xc0, 0xda, 0x44, 0x84, 0x0a, 0xa0, 0x56, 0x8f, 0x69, 0x68, 0xa3, 0x16, 0x2a, 0xb6, 0x94, 0x65, 0xa0, 0x96, 0x8b, 0x23, 0x0f, 0xa2, 0xa8, 0x88, 0xe3, 0xa1, 0xcb, 0xfe, 0x92, 0x89, 0x3b, 0x2d, 0x98, 0x2d, 0x58, 0x9b, 0x23, 0x4c, 0x3f, 0x0f, 0xee, 0x0f, 0x28, 0xc4, 0xb7, 0x2b, 0x73, 0x5e, 0x63, 0xfc, 0x89, 0xa9, 0xa5, 0x36, 0x09, 0x55, 0x3a, 0xa3, 0x2e, 0x5f, 0x35, 0xa7, 0xfe, 0xbd, 0x20, 0xdd, 0x3c, 0xcf, 0xe9, 0xfb, 0x65, 0xcf, 0x1b, 0xa4, 0x56, 0x81, 0x91, 0x33, 0x2d, 0xfa, 0x92, 0xe5, 0xf7, 0xc3, 0x6d, 0x43, 0xe3, 0x3d, 0xf2, 0xdf, 0x5d, 0x69, 0x4d, 0xf8, 0x60, 0x0f, 0xf9, 0xf0, 0xe7, 0x3d, 0xb0, 0x53, 0x35, 0x56, 0xef, 0xe3, 0xb9, 0xe8, 0xc2, 0xc3, 0xa7, 0x01, 0x27, 0x94, 0x56, 0x06, 0xc2, 0xaf, 0xee, 0xb0, 0x19, 0x9a, 0x12, 0x1b, 0xff, 0x9d, 0xce, 0xb4, 0x1f, 0x9d, 0xb3, 0x88, 0x2f, 0x58, 0x3b, 0xf4, 0xe9, 0xf2, 0xa0, 0x0e, 0x3f, 0xf6, 0x01, 0xc7, 0x1b, 0x67, 0x97, 0x37, 0xed, 0x1f, 0xa3, 0xc7, 0xb6, 0x96, 0x30, 0x67, 0x66, 0x61, 0xe0, 0xf4, 0xa6, 0x67, 0x91, 0x62, 0xc4, 0x5b, 0x20, 0xd3, 0x56, 0xc5, 0x65, 0xca, 0x29, 0x9e, 0x6e, 0x6a, 0x25, 0xcc, 0xb0, 0x82, 0xe2, 0x77, 0x4c, 0x9c, 0x18, 0x59, 0x48, 0xec, 0x88, 0x86, 0xec, 0x18, 0x93, 0xa7, 0x2f, 0x73, 0x9b, 0x37, 0xb2, 0xa1, 0xec, 0x13, 0xa7, 0x2c, 0x34, 0x3d, 0xea, 0x0b, 0x54, 0xb8, 0x50, 0x1e, 0x99, 0xa2, 0x60, 0x39, 0x9a, 0xa3, 0x5f, 0x5b, 0x63, 0x26, 0xe4, 0x35, 0xd8, 0x82, 0xcf, 0x34, 0xea, 0x9f, 0x3f, 0x2a, 0x9c, 0x82, 0xd0, 0xdf, 0x1a, 0x8e, 0x5d, 0x8e, 0xbb, 0x8a, 0x92, 0x0f, 0x34, 0x62, 0xaf, 0x65, 0x81, 0x36, 0x1a, 0xb9, 0x6b, 0x32, 0x25, 0x51, 0x53, 0x14, 0xe1, 0x82, 0x3d, 0xc4, 0xba, 0x41, 0x28, 0x22, 0xed, 0x3f, 0xaa, 0xc6, 0x2c, 0x4c, 0x24, 0x48, 0xb8, 0x43, 0xf1, 0xd3, 0x72, 0x34, 0xe9, 0xbf, 0xdb, 0x91, 0xb3, 0x1b, 0xbf, 0x2b, 0xd8, 0x64, 0xc3, 0x0e, 0xa9, 0x2e, 0x1a, 0x23, 0xb5, 0xf2, 0xf5, 0x43, 0xc1, 0xd5, 0xb6, 0xc4, 0x14, 0x12, 0x47, 0xc9, 0xc3, 0x29, 0xe5, 0x11, 0xcf, 0x2d, 0xbb, 0x1c, 0x45, 0x4c, 0x33, 0xcd, 0x24, 0xda, 0x07, 0xed, 0xc4, 0xd5, 0x23, 0xe2, 0x4c, 0xe6, 0x44, 0x0a, 0x1b, 0xe3, 0x18, 0x2b, 0xd2, 0x44, 0xfb, 0xeb, 0x18, 0x41, 0xe0, 0x4b, 0xd6, 0xc2, 0xcb, 0xad, 0x65, 0xc5, 0x42, 0x1f, 0xd1, 0x2a, 0xfe, 0xe3, 0xc8, 0xf8, 0x28, 0x05, 0xf6, 0xfd, 0x1d, 0xec, 0x39, 0xf1, 0x32, 0x3d, 0xdd, 0x54, 0x45, 0x3f, 0xc8, 0x23, 0x10, 0x43, 0x63, 0xe1, 0x25, 0xd2, 0x1f, 0x4b, 0x56, 0x1c, 0x11, 0x0e, 0xe0, 0xe5, 0x19, 0x16, 0xf3, 0xe0, 0xac, 0x00, 0xb8, 0xad, 0x0b, 0xfe, 0xd8, 0x01, 0xd9, 0x27, 0xbd, 0xe3, 0xb9, 0xcc, 0x4f, 0xad, 0x51, 0x63, 0xb0, 0x08, 0x33, 0xde, 0xb6, 0x7f, 0xeb, 0x67, 0x27, 0xb9, 0x11, 0x1d, 0x34, 0xf5, 0x61, 0x02, 0x1e, 0x67, 0xab, 0xeb, 0xbe, 0x68, 0x22, 0x3a, 0xe8, 0x27, 0x15, 0x13, 0x30, 0x4d, 0x45, 0x15, 0xff, 0xb0, 0x6a, 0xad, 0xed, 0x4a, 0x46, 0xf7, 0x2f, 0x63, 0x31, 0x05, 0x0c, 0x06, 0x23, 0x0e, 0xbd, 0x9b, 0x1f, 0x2f, 0xfb, 0xe9, 0x20, 0x64, 0xfb, 0xf7, 0xcd, 0x28, 0x34, 0x32, 0x64, 0xe4, 0x28, 0x01, 0xd6, 0x10, 0x39, 0x69, 0x3e, 0xee, 0xdc, 0xd9, 0xec, 0x1e, 0x44, 0xe7, 0x44, 0xdf, 0x33, 0x11, 0xb0, 0x1c, 0xbc, 0x0d, 0xf7, 0xfc, 0x01, 0xfd, 0xbb, 0xcf, 0xda, 0x0b, 0x38, 0xc4, 0x4e, 0x08, 0xaf, 0x2b, 0x4a, 0x7d, 0xeb, 0x41, 0x4d, 0xbb, 0x29, 0xff, 0xe5, 0xec, 0x38, 0x3c, 0x3f, 0xf1, 0xd2, 0xd6, 0x4d, 0x02, 0x31, 0x15, 0xed, 0x14, 0x19, 0xe8, 0xda, 0x4b, 0x22, 0x46, 0xce, 0xfc, 0x05, 0x11, 0x21, 0xf4, 0xcf, 0xce, 0xb6, 0x0a, 0xf9, 0x3f, 0xcb, 0xf0, 0x29, 0x1b, 0x1d, 0xde, 0xed, 0xcb, 0x47, 0x4c, 0xc0, 0xcf, 0xb0, 0x35, 0x03, 0x0b, 0x37, 0xdc, 0x17, 0xbc, 0x36, 0x10, 0xb8, 0xc1, 0xbb, 0xd0, 0xe1, 0xf9, 0xdb, 0x22, 0xed, 0xce, 0x0e, 0x3a, 0x34, 0xee, 0xc7, 0x44, 0x1e, 0x1b, 0xbf, 0x1a, 0xdf, 0xf9, 0xd5, 0xce, 0xd9, 0xbc, 0xf4, 0x25, 0x00, 0x34, 0x4e, 0xf2, 0xf1, 0x34, 0xcf, 0xfa, 0x29, 0xb3, 0x1d, 0x00, 0xbb, 0xd0, 0xa8, 0x05, 0xcc, 0x16, 0xd0, 0xd2, 0xc0, 0xd2, 0x0f, 0xcc, 0x39, 0xb5, 0xeb, 0xce, 0x53, 0x41, 0x46, 0xbd, 0x20, 0xba, 0x52, 0xeb, 0xd7, 0xb7, 0x3f, 0x2a, 0x3f, 0xb9, 0xaa, 0xcd, 0xd6, 0x49, 0xf0, 0xd6, 0x36, 0x30, 0xb0, 0x45, 0xf0, 0x3c, 0x21, 0xa5, 0x41, 0x31, 0x0a, 0xd0, 0x19, 0x49, 0xc5, 0xb9, 0xb3, 0x25, 0x24, 0xae, 0xfd, 0xda, 0xe5, 0xe2, 0xbd, 0x0c, 0xc8, 0x06, 0xac, 0xdd, 0x1d, 0x2a, 0x11, 0x9f, 0x01, 0x4b, 0x0a, 0x28, 0x2b, 0x2b, 0xa0, 0x34, 0x07, 0xe4, 0x2d, 0xdf, 0x52, 0xc2, 0x14, 0xfc, 0xb9, 0xfb, 0x5d, 0xba, 0x5b, 0x91, 0x3f, 0x2f, 0xf8, 0x34, 0x05, 0xef, 0x59, 0xe9, 0x07, 0x37, 0x59, 0x4a, 0x2e, 0xde, 0xf2, 0x64, 0x9a, 0xe9, 0xa7, 0x95, 0x21, 0x97, 0x20, 0xeb, 0xc7, 0x1e, 0x2b, 0xee, 0xe5, 0xf1, 0xb6, 0xff, 0xdd, 0xfa, 0xae, 0x1a, 0xac, 0xa7, 0xf0, 0xc3, 0x3f, 0xba, 0x53, 0xef, 0x04, 0x2a, 0xb8, 0x26, 0xa8, 0x32, 0xc6, 0x1b, 0x48, 0x16, 0xdc, 0xbd, 0xd0, 0x93, 0x10, 0x5f, 0x21, 0x49, 0xbb, 0xfb, 0x47, 0xe4, 0xb4, 0xbb, 0xa4, 0x43, 0x27, 0x24, 0x57, 0x1a, 0x1a, 0x00, 0x16, 0x27, 0x59, 0xfa, 0xd4, 0x5c, 0x9a, 0xec, 0x2a, 0x4f, 0x19, 0xc3, 0x14, 0x2b, 0x2f, 0xf7, 0xd0, 0x25, 0x3b, 0x5b, 0x08, 0x3a, 0xcf, 0x2c, 0xc4, 0x4e, 0x44, 0xfc, 0x0f, 0x0d, 0x03, 0x64, 0x4a, 0x61, 0x0a, 0x1b, 0x4a, 0x6a, 0x9d, 0x44, 0xf6, 0xbe, 0xbc, 0x2d, 0xa0, 0x48, 0x97, 0xad, 0xe0, 0x04, 0xd6, 0xf6, 0xeb, 0x0b, 0xa5, 0x4a, 0xe3, 0x03, 0x5b, 0x3f, 0x43, 0x9e, 0xdb, 0x1d, 0x4b, 0xd8, 0xfa, 0xf5, 0xec, 0xdf, 0xae, 0x5b, 0x04, 0xcf, 0x14, 0x43, 0x46, 0x5f, 0xab, 0x09, 0x63, 0x38, 0x48, 0xdd, 0x48, 0x57, 0x1c, 0x18, 0xa7, 0x18, 0xc2, 0x59, 0x05, 0x24, 0x4a, 0xb2, 0xa6, 0x01, 0x10, 0xcf, 0x1c, 0xcb, 0x0b, 0x13, 0x5e, 0xae, 0x3b, 0xc2, 0xc1, 0x64, 0x55, 0xcb, 0xdb, 0xac, 0xfd, 0xc8, 0x21, 0x6f, 0xab, 0xfe, 0xe8, 0x53, 0xb1, 0x32, 0x43, 0x9f, 0xc4, 0x04, 0x19, 0xab, 0xb5, 0x0b, 0xdb, 0xc9, 0x00, 0xd1, 0x3a, 0x1e, 0x01, 0xff, 0x61, 0x56, 0x0e, 0x3a, 0xc1, 0xef, 0x96, 0x05, 0x94, 0x13, 0x4f, 0xf9, 0xd9, 0x13, 0x55, 0x1c, 0x01, 0x14, 0xcc, 0xd5, 0x9e, 0x13, 0xf5, 0x6e, 0x1f, 0x6f, 0x9b, 0xc8, 0xe9, 0x15, 0x3a, 0x4d, 0xfd, 0x9b, 0x06, 0x3b, 0x07, 0x59, 0xfe, 0x1c, 0x4d, 0xc2, 0x93, 0x41, 0x36, 0xc1, 0xe1, 0xb7, 0x3f, 0x16, 0x9a, 0x3c, 0xaa, 0xce, 0xe2, 0x62, 0x02, 0xe8, 0xec, 0x17, 0x11, 0x28, 0x3f, 0x25, 0xed, 0x2e, 0x33, 0x41, 0xdc, 0xce, 0xee, 0x7f, 0xb8, 0x11, 0x3c, 0x95, 0xfc, 0xac, 0xb7, 0xfa, 0x1c, 0x4a, 0xc0, 0x99, 0x31, 0xde, 0x42, 0xba, 0xf7, 0x2e, 0x1d, 0xbc, 0xee, 0x96, 0xd2, 0x12, 0x13, 0xb6, 0x45, 0x39, 0xa8, 0xa5, 0xea, 0x0c, 0x4c, 0x96, 0x0e, 0x37, 0x34, 0xf3, 0x07, 0xad, 0xad, 0xbe, 0x13, 0xf7, 0x4a, 0xd9, 0x4d, 0x2e, 0xee, 0x60, 0x4b, 0x17, 0xea, 0x30, 0x0d, 0x22, 0xd4, 0xea, 0x37, 0xd2, 0xf1, 0xc3, 0xf0, 0x18, 0xf1, 0xc4, 0x4f, 0xfa, 0x98, 0xba, 0x27, 0xaf, 0xcb, 0x2e, 0xfa, 0x2c, 0xed, 0x1d, 0xf0, 0x1e, 0xfb, 0x28, 0xa9, 0x2a, 0x34, 0xb6, 0xda, 0xa3, 0xfc, 0xb7, 0x0a, 0x52, 0xa8, 0xf1, 0x42, 0xee, 0xfa, 0xc2, 0xae, 0x0c, 0x9e, 0xd5, 0x9b, 0x33, 0x5a, 0x1c, 0xe0, 0x41, 0xcb, 0xcb, 0xd1, 0xcf, 0xcf, 0x0a, 0xb1, 0x98, 0xb0, 0xf4, 0x97, 0x00, 0x15, 0xb3, 0xe5, 0xa4, 0xb7, 0x4a, 0x54, 0xe4, 0xf7, 0x4a, 0xf3, 0x3b, 0xcb, 0x3d, 0xee, 0xf2, 0xba, 0x43, 0x26, 0x02, 0xc9, 0x00, 0x38, 0xb2, 0xbd, 0xeb, 0xb6, 0x43, 0x92, 0x39, 0xe2, 0x10, 0x50, 0x08, 0xc4, 0x2b, 0xfd, 0x28, 0xc3, 0xeb, 0xf8, 0x03, 0xa8, 0xb7, 0x4c, 0x28, 0xc9, 0x52, 0x08, 0xa7, 0xf1, 0x98, 0x51, 0x3d, 0x43, 0x27, 0xd1, 0x91, 0xc7, 0xb7, 0xf5, 0x16, 0x33, 0x92, 0xb0, 0x5c, 0xce, 0xd2, 0x19, 0x4a, 0xdf, 0x51, 0x08, 0x59, 0xe3, 0x12, 0x1c, 0xce, 0x02, 0x0d, 0x10, 0x23, 0xc7, 0x5f, 0x31, 0x54, 0x01, 0x9e, 0xd4, 0xa5, 0x81, 0xbd, 0xe7, 0xa8, 0xae, 0xe1, 0x5f, 0x48, 0xe8, 0xe2, 0x1b, 0xed, 0xd5, 0x93, 0xa2, 0xbd, 0xcd, 0xcf, 0x0c, 0x3d, 0x38, 0xcc, 0xc0, 0x52, 0x46, 0xba, 0xd2, 0x02, 0x46, 0x49, 0xa6, 0x59, 0x35, 0x91, 0xe1, 0xbc, 0xfe, 0x48, 0xfa, 0x24, 0x5d, 0x19, 0x10, 0x9a, 0xec, 0x3a, 0x35, 0xe7, 0xff, 0x29, 0x31, 0x19, 0xc7, 0x53, 0x09, 0x1d, 0x1d, 0x29, 0xaf, 0xeb, 0xda, 0x1c, 0x4e, 0x02, 0xf2, 0x57, 0xf8, 0x4e, 0xb4, 0x14, 0x09, 0x41, 0x25, 0xf3, 0xe2, 0x2f, 0xa2, 0x1a, 0x13, 0xf6, 0x49, 0xbd, 0x34, 0x4e, 0xe8, 0xd9, 0x4f, 0xf5, 0xac, 0x58, 0xa9, 0x0d, 0xd5, 0x9d, 0x5a, 0xb2, 0x1e, 0xcc, 0xde, 0xe1, 0xee, 0x13, 0x51, 0xee, 0xc7, 0xb8, 0x1d, 0xea, 0x9e, 0x20, 0x17, 0xbd, 0x09, 0xb1, 0xfd, 0xae, 0x1e, 0x12, 0x30, 0x59, 0x3b, 0xae, 0x00, 0x1b, 0xa5, 0xe5, 0xd4, 0x5c, 0x03, 0x29, 0xf5, 0x67, 0x46, 0x47, 0xce, 0x30, 0x01, 0x20, 0x53, 0x03, 0xa6, 0xad, 0xfa, 0x18, 0xba, 0x40, 0x8f, 0xc9, 0x2d, 0xfe, 0xe3, 0xfc, 0x0b, 0x42, 0x1e, 0x0f, 0x1c, 0x12, 0x4a, 0xfa, 0x54, 0x1d, 0x0a, 0xae, 0x4b, 0x04, 0x38, 0xea, 0xe3, 0xe5, 0x4a, 0xf1, 0x4a, 0x2f, 0x31, 0x25, 0x23, 0x29, 0x20, 0x06, 0xec, 0x11, 0xfa, 0x3d, 0x2e, 0xde, 0xa1, 0xe2, 0x04, 0x2a, 0x2b, 0xa0, 0x10, 0xc4, 0xea, 0x0a, 0x2a, 0xbb, 0xe9, 0x23, 0x36, 0xf8, 0xd2, 0xdd, 0x56, 0x2c, 0x12, 0x54, 0x21, 0xa8, 0xa2, 0x1e, 0x41, 0x30, 0xa6, 0xe9, 0xf8, 0xfe, 0x56, 0xe9, 0x13, 0xaf, 0x34, 0xfd, 0xde, 0xcc, 0x92, 0x26, 0x0e, 0x08, 0x9f, 0xb8, 0xa7, 0x41, 0xe6, 0x3b, 0x49, 0xaa, 0xc1, 0x04, 0xb1, 0xec, 0x47, 0xf6, 0xbc, 0x8c, 0x79, 0x56, 0xf9, 0x98, 0x96, 0x85, 0x79, 0xfe, 0x8a, 0x38, 0xaf, 0x39, 0x3f, 0x59, 0x00, 0x5e, 0x7c, 0xe8, 0x1a, 0x67, 0xc5, 0x81, 0x3d, 0x7e, 0x15, 0x2b, 0x3f, 0xd1, 0xb2, 0xca, 0x8c, 0xac, 0xc9, 0x44, 0xcd, 0xc2, 0x12, 0x92, 0xe3, 0x1e, 0x33, 0xb0, 0x10, 0x4c, 0x6e, 0xf5, 0xf9, 0x26, 0x49, 0xe8, 0xca, 0x4c, 0xfc, 0x04, 0xf1, 0xaa, 0xd6, 0xe9, 0x0a, 0x6e, 0xa4, 0xa0, 0xcd, 0xc8, 0xae, 0x72, 0x48, 0x71, 0xb4, 0x93, 0xfe, 0xd8, 0x43, 0xa2, 0x70, 0x58, 0xa2, 0x62, 0x70, 0x2a, 0xb5, 0xff, 0x3e, 0x6b, 0x1b, 0x6c, 0x40, 0x1d, 0x42, 0x1f, 0x97, 0x5d, 0x2a, 0x05, 0x26, 0xfc, 0xcd, 0xd5, 0x3a, 0x71, 0xfe, 0xa2, 0x39, 0x4b, 0x7c, 0xd3, 0xa2, 0xfa, 0xc9, 0x65, 0xa7, 0xb3, 0xd2, 0xab, 0xc2, 0x99, 0x2b, 0x14, 0x3d, 0xed, 0x55, 0x00, 0xdb, 0x98, 0x8c, 0xa4, 0x19, 0xec, 0x5a, 0x0e, 0x63, 0x3b, 0x0e, 0x87, 0xfa, 0xd0, 0x5a, 0x97, 0xae, 0xa3, 0x22, 0x6e, 0xd2, 0xe1, 0xcd, 0x9c, 0x62, 0xdf, 0x58, 0xb3, 0xf7, 0xeb, 0x95, 0x8d, 0x44, 0x98, 0xf4, 0xd0, 0xd4, 0x9f, 0x82, 0xe2, 0x86, 0x83, 0xc0, 0x8d, 0x70, 0x18, 0xd1, 0x9d, 0xb7, 0x47, 0x42, 0x2c, 0xf1, 0x9f, 0xf7, 0x3e, 0x4c, 0x66, 0xad, 0x7d, 0xea, 0x95, 0xce, 0x77, 0x0c, 0x38, 0x05, 0xa0, 0xeb, 0x66, 0x3b, 0x18, 0x5a, 0xf2, 0x55, 0x08, 0xe0, 0xdb, 0x46, 0x7b, 0x5f, 0xec, 0x1d, 0xa8, 0xe2, 0xa3, 0x6f, 0x23, 0x7a, 0xbc, 0xb9, 0xac, 0x6b, 0x6d, 0xd6, 0x9f, 0x0b, 0xac, 0x3c, 0x52, 0x89, 0x34, 0x1e, 0x0c, 0x2a, 0xed, 0x46, 0xbd, 0x9b, 0x92, 0x66, 0xdb, 0x53, 0xd2, 0x88, 0xe6, 0xd3, 0x44, 0xf3, 0x3a, 0x9d, 0x98, 0x55, 0xbc, 0x36, 0xe5, 0xce, 0xfa, 0x43, 0x8f, 0x65, 0x5a, 0xcc, 0x3e, 0x8a, 0xb8, 0xab, 0xe7, 0x61, 0xd2, 0xe1, 0x94, 0x4c, 0xd2, 0x09, 0x94, 0x9f, 0x55, 0x0d, 0xe2, 0x31, 0x22, 0xca, 0x2c, 0x3b, 0xa0, 0x37, 0xdd, 0x34, 0x03, 0xf0, 0x8d, 0x59, 0x9b, 0x7f, 0xb4, 0xb5, 0x85, 0xcd, 0x28, 0x60, 0xdb, 0x39, 0x63, 0x6a, 0x2f, 0x1b, 0xdc, 0xdc, 0x04, 0xd7, 0xa6, 0x33, 0x19, 0x3b, 0x21, 0x4b, 0x42, 0xf2, 0x19, 0x61, 0xf1, 0xe6, 0x4d, 0x32, 0x10, 0xc6, 0x27, 0x50, 0x4c, 0xbc, 0xe9, 0x9f, 0x06, 0xe1, 0xf6, 0x9f, 0x51, 0xe0, 0xac, 0xea, 0xff, 0x1b, 0x7d, 0x4f, 0xe1, 0x04, 0x8c, 0xdd, 0xdd, 0xd5, 0xbd, 0x8d, 0xc1, 0x45, 0x65, 0x32, 0x11, 0x05, 0x1a, 0xc0, 0xaf, 0x06, 0x1f, 0x35, 0x7e, 0x78, 0xed, 0x21, 0xd6, 0x3a, 0xb8, 0x22, 0x33, 0xa9, 0xd4, 0x83, 0x14, 0x42, 0x44, 0x74, 0x2a, 0x4e, 0xcd, 0x4d, 0x54, 0x7a, 0xc6, 0x8b, 0x3f, 0x19, 0xed, 0x4f, 0xfe, 0x34, 0x90, 0xd7, 0xc0, 0x72, 0x07, 0x16, 0xcf, 0xc1, 0x9e, 0x99, 0xe1, 0xac, 0x30, 0x67, 0x14, 0x99, 0xe4, 0x93, 0x5b, 0x05, 0xf5, 0xa6, 0x3b, 0x69, 0x54, 0x0e, 0x68, 0x5a, 0x1c, 0xde, 0xb3, 0x98, 0xb7, 0x70, 0x75, 0xd6, 0xc8, 0x3b, 0x4b, 0xbf, 0x96, 0xe5, 0x7c, 0x06, 0x79, 0x99, 0xb5, 0x97, 0x55, 0xc7, 0x95, 0x51, 0x1d, 0x40, 0xf7, 0x5a, 0x63, 0xba, 0x9e, 0x7a, 0x49, 0xc1, 0xcd, 0x66, 0x6d, 0xe5, 0x16, 0x70, 0xf7, 0xcc, 0xe1, 0xf7, 0x94, 0xcd, 0xd1, 0xff, 0x90, 0x5f, 0xa2, 0xc3, 0x70, 0x68, 0x5d, 0xa8, 0xbc, 0xf7, 0xb7, 0x4e, 0x84, 0xc4, 0x00, 0x8a, 0x79, 0x01, 0x1c, 0x0e, 0xc7, 0xb0, 0xc8, 0x48, 0x94, 0x72, 0xa8, 0xd7, 0xc1, 0xc1, 0x06, 0xcd, 0x18, 0xbf, 0x82, 0x8e, 0x0f, 0x4e, 0x12, 0xd1, 0x5f, 0x15, 0xc5, 0x7e, 0xc9, 0xa9, 0x97, 0x68, 0x38, 0x13, 0x8c, 0x51, 0x65, 0xad, 0x88, 0xb4, 0x35, 0x9e, 0xe9, 0x6e, 0xbf, 0x69, 0x79, 0x88, 0x57, 0x4b, 0x7e, 0xbf, 0xbe, 0x98, 0xe6, 0x61, 0x2d, 0xc6, 0x15, 0xb4, 0x8d, 0x5b, 0x9d, 0x39, 0xbe, 0x47, 0x76, 0xa1, 0x92, 0xf0, 0xa5, 0xc5, 0xdf, 0x2a, 0xc1, 0xf4, 0x4e, 0xcf, 0xfc, 0xf5, 0xb8, 0x83, 0x43, 0x51, 0xe6, 0x96, 0x5d, 0x6b, 0xec, 0x59, 0x6a, 0xe1, 0x65, 0x3e, 0x6b, 0xfa, 0xd0, 0xca, 0xe1, 0xbb, 0x68, 0xaa, 0xa4, 0x4e, 0xd5, 0xfc, 0x32, 0xd4, 0x71, 0xa5, 0xb2, 0xb9, 0x5b, 0x0e, 0xae, 0x53, 0x86, 0xeb, 0x65, 0xd8, 0x49, 0x1a, 0xf0, 0xd1, 0x2b, 0xc8, 0xa7, 0x8e, 0x55, 0xb3, 0x37, 0x83, 0xce, 0xca, 0xf8, 0xf0, 0x71, 0xa8, 0x32, 0x9c, 0x81, 0x2b, 0xc4, 0xf5, 0x51, 0x58, 0x2b, 0x49, 0x6c, 0x53, 0x94, 0x50, 0x8d, 0x58, 0x6c, 0x87, 0xa5, 0x73, 0x1c, 0xbb, 0xf3, 0x88, 0xd4, 0xb0, 0x17, 0x3a, 0x76, 0x60, 0x0b, 0x2a, 0x28, 0xcd, 0xda, 0xbe, 0xc6, 0xaa, 0x79, 0x5e, 0xe0, 0x52, 0xfc, 0x92, 0xbc, 0xa6, 0x6d, 0x8c, 0xca, 0x65, 0xd2, 0x03, 0xc0, 0xb6, 0x11, 0x4a, 0xe5, 0xd9, 0xb8, 0xa0, 0xdf, 0xe3, 0xcf, 0x4d, 0xd5, 0x3b, 0xe1, 0x27, 0x27, 0xca, 0xb8, 0xee, 0x9a, 0xb0, 0x12, 0x14, 0x31, 0xfb, 0x73, 0x19, 0x08, 0xb8, 0xae, 0x29, 0xcf, 0x21, 0x97, 0x76, 0xe8, 0x77, 0x0f, 0x75, 0x19, 0x8e, 0x49, 0x9d, 0xb3, 0x40, 0xb2, 0xc8, 0x81, 0x00, 0x94, 0x59, 0x47, 0xd5, 0x6c, 0xde, 0x94, 0xa6, 0x64, 0x3d, 0xb2, 0x9f, 0xc1, 0x8b, 0xd4, 0x52, 0x95, 0x20, 0x49, 0xbd, 0xd4, 0x14, 0xc4, 0x3c, 0xea, 0x16, 0xd3, 0xed, 0x26, 0x3b, 0xe9, 0x81, 0xa2, 0xd2, 0x7c, 0x83, 0x06, 0x2c, 0x67, 0xc0, 0xcb, 0xe8, 0x01, 0xae, 0x64, 0x22, 0x5d, 0xa7, 0x16, 0xd2, 0xa4, 0x51, 0xaa, 0x61, 0x42, 0xb1, 0x03, 0x95, 0x0e, 0xbe, 0x51, 0x48, 0x0d, 0x81, 0x00, 0xa5, 0xee, 0xc3, 0x74, 0xd1, 0x10, 0x06, 0xff, 0x12, 0xcc, 0x31, 0x01, 0x23, 0x98, 0xa9, 0x32, 0xf5, 0x30, 0xb7, 0x0f, 0xa1, 0xa3, 0x56, 0xd4, 0xf8, 0x26, 0x75, 0x3f, 0xa2, 0x28, 0xa2, 0x81, 0xff, 0x23, 0xda, 0x87, 0xbc, 0x21, 0xe1, 0x72, 0x4d, 0xfd, 0xfe, 0x81, 0x1b, 0xba, 0xda, 0xea, 0xe7, 0xc6, 0xb6, 0xac, 0x4d, 0x15, 0xc8, 0x8d, 0xfe, 0x61, 0x1d, 0x31, 0x4f, 0xfb, 0x37, 0xfb, 0x36, 0x47, 0x61, 0x8f, 0x12, 0xb8, 0xfc, 0xd1, 0x82, 0xac, 0xfd, 0x2c, 0x9e, 0xd5, 0x08, 0xc8, 0xc2, 0xda, 0x4f, 0x0a, 0x99, 0x68, 0x13, 0xc0, 0x94, 0x1a, 0x29, 0x6c, 0xef, 0x73, 0x1c, 0x0f, 0x3e, 0x73, 0x87, 0xe9, 0x56, 0x49, 0x06, 0xb8, 0xf5, 0x64, 0xbe, 0xad, 0xe2, 0x89, 0x45, 0x17, 0x99, 0xe7, 0x93, 0x08, 0xbf, 0xdc, 0xeb, 0x8f, 0x43, 0x48, 0x6a, 0x1b, 0x2e, 0xf2, 0x71, 0xd2, 0xf4, 0xc3, 0xf4, 0x74, 0xfb, 0x41, 0x14, 0x75, 0x35, 0x21, 0xfe, 0x0c, 0x0e, 0x87, 0xde, 0x3a, 0xb9, 0xbf, 0x21, 0xc4, 0x47, 0x92, 0xec, 0xbc, 0x99, 0x9a, 0x0b, 0xa1, 0x46, 0x73, 0x49, 0xb2, 0x99, 0xc9, 0xb1, 0xcf, 0x52, 0x64, 0x54, 0xad, 0x54, 0xe6, 0x23, 0xd0, 0xe6, 0x82, 0x71, 0xb3, 0x1d, 0x99, 0x0b, 0x88, 0xe2, 0xe6, 0xa9, 0xab, 0xc0, 0x98, 0x43, 0x82, 0x1f, 0x05, 0x9c, 0x69, 0xfa, 0xec, 0xcc, 0xff, 0x28, 0x97, 0x55, 0x27, 0x99, 0xe6, 0x35, 0x04, 0xef, 0xd6, 0x37, 0x69, 0xd5, 0xce, 0xd6, 0xd3, 0x2b, 0x17, 0x2d, 0x2f, 0x15, 0x4a, 0x4d, 0x23, 0x6b, 0x87, 0xcb, 0x76, 0x22, 0xe1, 0xf2, 0xab, 0x24, 0x94, 0x19, 0x0d, 0xfe, 0x52, 0x66, 0x81, 0xe0, 0x9d, 0xec, 0x47, 0xc9, 0x4a, 0x3c, 0x4b, 0x48, 0x63, 0xb9, 0xd9, 0x3a, 0xa3, 0x2f, 0x8c, 0xe4, 0xdf, 0xe1, 0xa0, 0x35, 0xc4, 0xd2, 0x63, 0x42, 0x96, 0x4f, 0x1d, 0x30, 0xbc, 0xb8, 0x1c, 0x04, 0x1b, 0xd0, 0xd7, 0x62, 0xce, 0xcd, 0x2b, 0x01, 0x9f, 0xb2, 0x9a, 0x3c, 0x8a, 0x9e, 0xbc, 0x2b, 0x50, 0xe5, 0x4c, 0xb8, 0x64, 0x98, 0x1f, 0xbd, 0xd7, 0x3a, 0xb0, 0xcd, 0xa5, 0x8b, 0x36, 0x5f, 0x02, 0xe0, 0x43, 0x66, 0x58, 0xb1, 0xd7, 0xb9, 0x3b, 0xcb, 0x73, 0xa2, 0x44, 0xce, 0x63, 0xf4, 0xcc, 0x1f, 0xd4, 0xbe, 0x14, 0xcb, 0x5e, 0x67, 0x59, 0x18, 0x1a, 0x8a, 0x26, 0xbe, 0x98, 0xd3, 0x41, 0x34, 0xac, 0xfb, 0x06, 0x45, 0xef, 0x0d, 0xeb, 0x5f, 0x3b, 0xa8, 0x7a, 0x66, 0xfb, 0x67, 0xa6, 0x4f, 0x17, 0xc7, 0x54, 0xed, 0xfb, 0x02, 0x5e, 0xdc, 0xcb, 0x46, 0x59, 0xc4, 0x11, 0x46, 0xc2, 0x3d, 0x98, 0x2a, 0x8f, 0x5a, 0x05, 0x60, 0xc6, 0x3f, 0x4b, 0xe2, 0x4a, 0x52, 0xa4, 0xe5, 0xab, 0xb2, 0xef, 0x03, 0xdf, 0x49, 0xd0, 0x50, 0xb2, 0xfb, 0xe7, 0xc4, 0xab, 0x3b, 0xcd, 0x17, 0xe5, 0xfe, 0x4b, 0x0f, 0xdd, 0x1f, 0x16, 0x47, 0x4d, 0x0a, 0x78, 0xbb, 0xf7, 0x60, 0x09, 0xc6, 0x51, 0x0e, 0xc9, 0x47, 0x26, 0xd6, 0x4d, 0x49, 0xed, 0xed, 0x4a, 0x03, 0xaa, 0xc2, 0x10, 0x3e, 0xce, 0x39, 0x3d, 0x96, 0xb1, 0x23, 0x8a, 0xe4, 0x28, 0xe5, 0xbc, 0x71, 0xe3, 0x25, 0xba, 0xc1, 0xf0, 0xf5, 0x6c, 0xb6, 0xd0, 0x06, 0x2a, 0x2e, 0x4e, 0x41, 0xd3, 0x22, 0x9a, 0x62, 0xae, 0x78, 0x5a, 0x1d, 0xe5, 0x39, 0xe1, 0xe0, 0xb9, 0xea, 0xee, 0xc8, 0xc8, 0x30, 0xa6, 0x18, 0xd4, 0x22, 0xb7, 0x2d, 0x5c, 0xde, 0xfa, 0xd1, 0x25, 0x0a, 0x2f, 0x35, 0x64, 0x76, 0xa4, 0xc8, 0xc2, 0x09, 0xd5, 0x20, 0x9d, 0x28, 0x1e, 0x0c, 0xb5, 0xd4, 0x14, 0xda, 0x31, 0xef, 0xa7, 0x7f, 0x2b, 0x50, 0xe8, 0x3c, 0xf0, 0xec, 0x73, 0xa8, 0xde, 0xf9, 0x2d, 0x2f, 0xa3, 0x5e, 0x32, 0xe6, 0x41, 0x5b, 0x1e, 0x34, 0xb3, 0x2d, 0x96, 0x4e, 0x6b, 0x0e, 0xb1, 0xea, 0xb3, 0xb2, 0xcc, 0xaf, 0x1b, 0x6e, 0x5d, 0x6d, 0xdd, 0x5a, 0xf6, 0x1f, 0x3e, 0xd5, 0x16, 0x33, 0xac, 0xc1, 0x49, 0x2c, 0xec, 0xbc, 0x4c, 0x01, 0xad, 0xa9, 0x36, 0x66, 0x59, 0xee, 0x37, 0xc9, 0xc9, 0x1b, 0xea, 0xf6, 0x1b, 0x98, 0xbc, 0xe1, 0xb6, 0x1d, 0x02, 0xe0, 0xa8, 0xda, 0xe1, 0x52, 0xf9, 0xfa, 0x11, 0x07, 0x25, 0xf2, 0xc9, 0x30, 0x4e, 0x4b, 0x44, 0x95, 0x05, 0x13, 0x02, 0xb4, 0x41, 0x50, 0x6d, 0x72, 0x6f, 0xbc, 0x40, 0x93, 0x27, 0xc7, 0xd8, 0x46, 0x94, 0xd2, 0x18, 0x5a, 0x18, 0xdc, 0xe4, 0x60, 0xb2, 0x3b, 0x61, 0xef, 0x96, 0x99, 0xd8, 0x30, 0x86, 0x0c, 0x57, 0xea, 0xed, 0xe4, 0x18, 0xf6, 0x2d, 0xdb, 0x17, 0xef, 0xe8, 0xa7, 0x9d, 0x15, 0x97, 0xb0, 0xbd, 0x1b, 0xab, 0xa0, 0x63, 0xc4, 0xa9, 0x19, 0xff, 0x60, 0x05, 0x35, 0x91, 0xc6, 0x59, 0xac, 0x29, 0xde, 0x67, 0x5e, 0x8d, 0xc1, 0x30, 0x12, 0x3c, 0x42, 0x09, 0x90, 0x2c, 0x5e, 0x4d, 0x47, 0xa4, 0x6c, 0xeb, 0x64, 0xa8, 0xd3, 0x32, 0x9f, 0xe6, 0x34, 0xc9, 0x26, 0xa9, 0xa0, 0x66, 0x3f, 0x92, 0x24, 0xcf, 0x26, 0xb6, 0xe9, 0xa0, 0xe1, 0x2b, 0xfa, 0x2f, 0x0d, 0x52, 0x4c, 0xfd, 0x1c, 0xd0, 0x97, 0xed, 0xd9, 0xd0, 0x9a, 0xc2, 0x92, 0xc6, 0xa6, 0xda, 0x97, 0x8d, 0xa3, 0xda, 0x6c, 0x12, 0x58, 0xc6, 0xd8, 0x77, 0x04, 0xc3, 0x0e, 0xa6, 0x02, 0x10, 0x46, 0xbe, 0x99, 0x65, 0xc9, 0x4f, 0xd4, 0x06, 0x36, 0xcc, 0xee, 0xc6, 0x47, 0xf6, 0xcb, 0xfb, 0x27, 0x11, 0xb0, 0x16, 0x44, 0xb4, 0x3d, 0x27, 0x5a, 0xe2, 0xd4, 0x50, 0x5c, 0xd6, 0xd7, 0x05, 0x19, 0x4c, 0x19, 0xe3, 0xc1, 0x2d, 0x56, 0xfd, 0x31, 0x16, 0x34, 0x04, 0x48, 0x38, 0xa3, 0x1a, 0x4b, 0xc3, 0xea, 0xc7, 0xb9, 0xe3, 0x28, 0xae, 0x45, 0xd9, 0x21, 0xfe, 0x39, 0xbb, 0xfc, 0xec, 0x44, 0x3c, 0xd4, 0xc6, 0x99, 0x3b, 0xdc, 0xc3, 0x52, 0xd2, 0x9f, 0x2a, 0xf8, 0x07, 0x37, 0xcc, 0x3f, 0xb5, 0x21, 0xe0, 0x04, 0x01, 0x27, 0x0f, 0x47, 0xe9, 0x5b, 0x36, 0xab, 0xae, 0x0e, 0x41, 0xc4, 0x48, 0x1d, 0xf3, 0xc8, 0xb9, 0xfe, 0x3d, 0x9e, 0xb7, 0x28, 0xaf, 0xa2, 0x03, 0x26, 0xe8, 0xf6, 0x16, 0xb3, 0x26, 0x98, 0x57, 0x34, 0x28, 0x47, 0x20, 0x59, 0x2b, 0xe6, 0x5f, 0x27, 0x07, 0x96, 0x04, 0x1e, 0x0c, 0xcf, 0xad, 0xd1, 0xd7, 0xb0, 0x37, 0x26, 0x43, 0x37, 0xfc, 0x3f, 0x10, 0xfc, 0x9e, 0xb7, 0xcf, 0x10, 0x03, 0x9e, 0x25, 0x2b, 0x3e, 0xe8, 0xb4, 0xaf, 0x06, 0x2b, 0x3a, 0x34, 0x28, 0x0f, 0x3b, 0x20, 0xcf, 0x53, 0xae, 0xa2, 0xda, 0x12, 0x27, 0x3b, 0xa1, 0x06, 0x21, 0x1e, 0xe9, 0x21, 0x5e, 0xc7, 0xdc, 0x2d, 0xd1, 0x01, 0xc8, 0xe6, 0x1f, 0x1c, 0xd5, 0xa2, 0x50, 0xdc, 0x04, 0x0a, 0x08, 0xd4, 0xbd, 0x24, 0x06, 0x41, 0x2e, 0xdd, 0x15, 0x39, 0x2a, 0xe7, 0x12, 0x48, 0xf0, 0xf1, 0x48, 0x9d, 0xbe, 0x0e, 0xb4, 0xf1, 0x0a, 0x41, 0xbf, 0x14, 0x14, 0xfb, 0xf0, 0x2d, 0xed, 0x08, 0x1e, 0xe3, 0x4c, 0x3d, 0xa8, 0xef, 0x2d, 0x27, 0xb7, 0x0a, 0xcf, 0xf5, 0xa3, 0x13, 0xa6, 0xec, 0xe1, 0x36, 0x4f, 0xc2, 0xd5, 0x3a, 0x81, 0xb1, 0xb7, 0xf5, 0x16, 0xf1, 0x9f, 0xea, 0xcc, 0x55, 0x21, 0xe5, 0x27, 0xa1, 0x57, 0xae, 0xd7, 0xe7, 0x22, 0x29, 0x46, 0x3e, 0x0b, 0xc5, 0xec, 0xe0, 0x5d, 0xe2, 0x3c, 0x58, 0xf4, 0x1b, 0xea, 0x28, 0xf8, 0x27, 0xa0, 0xff, 0xe9, 0x44, 0x15, 0xb2, 0xd2, 0xc6, 0x5a, 0x14, 0x99, 0x28, 0xce, 0xc0, 0x4d, 0xad, 0xe8, 0xdf, 0x07, 0xe0, 0xd3, 0x04, 0xdd, 0x7c, 0xf6, 0x50, 0x1c, 0x31, 0xe8, 0x50, 0x29, 0xb5, 0xe2, 0x48, 0xcd, 0x0f, 0xd7, 0x49, 0x40, 0xf5, 0xbc, 0x4c, 0x21, 0x14, 0x45, 0xb3, 0x58, 0xc3, 0xbf, 0xa7, 0x57, 0xd2, 0x0a, 0xb1, 0xc4, 0xcb, 0xf6, 0x4e, 0x53, 0x0e, 0x5d, 0x3c, 0xb0, 0xf2, 0x16, 0x07, 0x2f, 0xc4, 0xe7, 0x03, 0xa0, 0x32, 0x3a, 0x27, 0x4f, 0x9c, 0x27, 0x49, 0xd6, 0xcf, 0xff, 0x1d, 0x48, 0x4b, 0x1a, 0xac, 0x37, 0x3a, 0x5b, 0x0f, 0x18, 0x12, 0x35, 0xf4, 0xef, 0x28, 0x2a, 0xb9, 0xb2, 0x44, 0xf3, 0xab, 0x0e, 0x63, 0xe2, 0xaa, 0x24, 0xad, 0x79, 0x2b, 0xec, 0x16, 0x4e, 0x9e, 0x19, 0x5e, 0xf2, 0xc6, 0x68, 0xf0, 0x5b, 0xbe, 0xca, 0x2a, 0x1b, 0x8c, 0x10, 0x97, 0x17, 0x2c, 0xc2, 0x8b, 0xb7, 0xb0, 0xf2, 0x83, 0x39, 0xae, 0x91, 0xbc, 0x56, 0xa9, 0x2f, 0xaa, 0xc1, 0x9a, 0xd0, 0x2e, 0x2a, 0x94, 0xc7, 0x87, 0x68, 0xa2, 0xe1, 0xd1, 0x56, 0xff, 0x43, 0x5d, 0x45, 0xc7, 0x6d, 0xd8, 0xb7, 0x02, 0x9e, 0x6c, 0x50, 0xde, 0x48, 0xd8, 0xe5, 0x74, 0xb9, 0x72, 0x5c, 0x49, 0xc4, 0x62, 0x0d, 0x84, 0xe3, 0x98, 0xf6, 0x39, 0x8e, 0x12, 0x8e, 0xd0, 0xbb, 0xf3, 0xc3, 0x21, 0x52, 0xd1, 0xdc, 0x6e, 0xce, 0x0d, 0x2f, 0x86, 0x24, 0xc0, 0xbe, 0x94, 0xd3, 0x46, 0x4f, 0xcc, 0xf3, 0xba, 0xee, 0xdd, 0xdf, 0xdd, 0x5e, 0x9b, 0xeb, 0xd2, 0x23, 0x5b, 0x85, 0xdb, 0x24, 0xf1, 0x43, 0xc2, 0x42, 0x05, 0x38, 0xf5, 0xfa, 0x26, 0x5f, 0x86, 0xf4, 0xf6, 0x86, 0x44, 0x1b, 0xca, 0x3f, 0xe1, 0x23, 0xae, 0x27, 0xe8, 0xbd, 0xe8, 0x1f, 0xc2, 0x5f, 0x82, 0xfc, 0xb8, 0x09, 0xce, 0x74, 0xec, 0xf3, 0x98, 0x6c, 0x37, 0x3a, 0xbe, 0xeb, 0x5c, 0x8e, 0x14, 0x9f, 0xa8, 0x8d, 0x99, 0x74, 0x1c, 0x5a, 0xc0, 0x34, 0x67, 0x50, 0xd5, 0xa4, 0xf9, 0xa0, 0x13, 0x92, 0x36, 0x82, 0xd2, 0xc2, 0x6c, 0xc3, 0xbb, 0x1d, 0x8f, 0xf7, 0x9e, 0xe9, 0xd7, 0x52, 0xae, 0xf9, 0xa2, 0x16, 0xd8, 0xd8, 0x39, 0xb4, 0x11, 0xcd, 0xb5, 0xd5, 0xea, 0x6b, 0x84, 0x9e, 0x6e, 0x54, 0x73, 0xc9, 0xd3, 0x64, 0x92, 0x48, 0xd7, 0xaa, 0x49, 0x43, 0x60, 0xfa, 0xf6, 0xb5, 0x9e, 0xb5, 0xe5, 0xe5, 0xeb, 0xbb, 0xa9, 0x47, 0x69, 0xcd, 0x37, 0x85, 0x85, 0x6d, 0x4a, 0x38, 0x72, 0x64, 0x9a, 0xc1, 0x23, 0xa9, 0xb9, 0xf2, 0xc4, 0x31, 0x4e, 0x16, 0xb5, 0x0d, 0x20, 0xfb, 0xcf, 0x98, 0x39, 0xca, 0x35, 0xbb, 0xde, 0x2b, 0x68, 0x32, 0x8f, 0xe7, 0x3a, 0xd9, 0x4a, 0x08, 0xbc, 0x03, 0xfb, 0xc5, 0x69, 0x6e, 0x81, 0x46, 0x51, 0xa1, 0x66, 0x50, 0x61, 0x57, 0x60, 0xfb, 0xaf, 0xce, 0x56, 0x46, 0xb7, 0x10, 0x26, 0x36, 0x0b, 0x43, 0xb9, 0x68, 0x43, 0xf6, 0x13, 0x07, 0x22, 0xe2, 0x2b, 0xd6, 0x57, 0xfb, 0xe1, 0x50, 0xa8, 0x5c, 0xa9, 0xcf, 0x3a, 0x64, 0x04, 0x50, 0xe2, 0xa2, 0xbe, 0xe2, 0xec, 0x66, 0x21, 0xe7, 0xff, 0x6b, 0x52, 0xec, 0x3f, 0x4f, 0x46, 0x3a, 0xe6, 0x48, 0x98, 0x67, 0xcd, 0x97, 0x23, 0x96, 0xe0, 0xbf, 0xa6, 0x90, 0x02, 0x4a, 0xf5, 0x0f, 0x8d, 0x60, 0xc5, 0xb4, 0xc2, 0xb2, 0x16, 0xa5, 0x13, 0x78, 0xbe, 0xf9, 0x58, 0x87, 0x2c, 0x9f, 0x9c, 0x13, 0x14, 0x9a, 0x65, 0xeb, 0x92, 0x2d, 0xc5, 0xf3, 0x5c, 0x05, 0x26, 0x44, 0x48, 0x84, 0x11, 0x51, 0x1a, 0x8e, 0xb9, 0x90, 0xe5, 0x06, 0x4d, 0x3f, 0x7f, 0xd9, 0x1c, 0xd9, 0x9f, 0x19, 0xcf, 0xd8, 0x28, 0x43, 0x07, 0x69, 0xf4, 0xe6, 0x24, 0x3a, 0xfb, 0xe6, 0xcd, 0xfb, 0x2f, 0xe2, 0xad, 0xf2, 0xfa, 0xf3, 0xac, 0x5d, 0xb2, 0xad, 0x2c, 0x19, 0xbb, 0xbd, 0x15, 0x37, 0x2c, 0x2c, 0x07, 0xad, 0x01, 0xca, 0xfa, 0xc9, 0x0e, 0x5b, 0x08, 0xce, 0xfa, 0x46, 0x14, 0x48, 0x2e, 0xde, 0xcb, 0x13, 0x59, 0xf1, 0xc4, 0x57, 0x37, 0x14, 0xd8, 0xb7, 0x11, 0xa0, 0xaf, 0xb1, 0xcb, 0x02, 0x12, 0xcb, 0x1b, 0xc9, 0x01, 0xd6, 0xd2, 0xf0, 0xe2, 0xc4, 0x16, 0x5d, 0x3b, 0x5c, 0x16, 0x03, 0xfc, 0x40, 0xbc, 0xbc, 0xa0, 0xf9, 0xe7, 0x03, 0x3f, 0x55, 0x53, 0xdb, 0x02, 0x31, 0x0e, 0x1b, 0x32, 0x18, 0xeb, 0x4b, 0xdb, 0xdc, 0x54, 0xc0, 0xce, 0xfc, 0x49, 0xa2, 0x4f, 0xd5, 0xdb, 0xab, 0xef, 0x39, 0x07, 0xdd, 0xe8, 0x28, 0x0b, 0xfa, 0xf6, 0x21, 0x24, 0x0b, 0x32, 0x42, 0xc1, 0xb3, 0x3f, 0x0e, 0x48, 0x12, 0x63, 0xce, 0x2f, 0xeb, 0x2f, 0xd1, 0x1f, 0x5f, 0xa6, 0xe5, 0xa3, 0xbe, 0xe8, 0x52, 0x53, 0xd8, 0xf8, 0x93, 0xce, 0xea, 0x62, 0xb3, 0xda, 0x04, 0xed, 0x33, 0x21, 0xd7, 0xa7, 0x45, 0x0c, 0xf5, 0x29, 0x4e, 0xd7, 0xc8, 0xb0, 0xdd, 0x14, 0xb8, 0xc3, 0x58, 0xcd, 0xba, 0x62, 0xc8, 0x4f, 0xe5, 0xbf, 0x2a, 0xc1, 0x1e, 0x53, 0x4d, 0x16, 0xc6, 0x61, 0xbb, 0xf9, 0x63, 0x9a, 0xf9, 0xbd, 0x2a, 0x60, 0xf6, 0x3d, 0xe2, 0x24, 0xa7, 0x2f, 0x2e, 0x16, 0xf6, 0xfd, 0xa5, 0x52, 0x38, 0x2e, 0xe2, 0x45, 0x20, 0xff, 0x07, 0xc9, 0x27, 0x45, 0xfb, 0x51, 0x01, 0x23, 0xf8, 0x3d, 0x46, 0x43, 0x33, 0xc5, 0x5e, 0x3f, 0x42, 0x03, 0x54, 0xcc, 0xcc, 0x03, 0x3f, 0xbf, 0x56, 0xba, 0xce, 0x45, 0xcb, 0xef, 0xca, 0x41, 0xf8, 0x46, 0x15, 0x54, 0x99, 0x45, 0x5c, 0xb6, 0xf0, 0xae, 0x0e, 0x28, 0xd5, 0xe6, 0xb8, 0x0c, 0x27, 0x3a, 0x13, 0x4a, 0xb4, 0x16, 0x37, 0xbe, 0x24, 0x27, 0xc7, 0xd5, 0x12, 0x34, 0xa2, 0x9a, 0xb9, 0x2a, 0x06, 0x04, 0x19, 0xe9, 0x49, 0x5a, 0x4a, 0x2a, 0xea, 0xa8, 0xf1, 0x5e, 0x55, 0xe4, 0xde, 0x0f, 0x44, 0xd4, 0xb0, 0xd8, 0x41, 0xe8, 0x54, 0x2d, 0xf7, 0xbb, 0x5e, 0x09, 0xd3, 0x0b, 0xa7, 0x30, 0x04, 0xac, 0x55, 0x9f, 0xf5, 0x07, 0x24, 0x1b, 0xab, 0x69, 0xe5, 0x43, 0x1f, 0x5a, 0xf3, 0x40, 0x5d, 0xf5, 0xfc, 0x10, 0x15, 0xe7, 0xb7, 0x14, 0xac, 0xf5, 0xf0, 0x25, 0x46, 0x19, 0x3f, 0x31, 0x5a, 0x3d, 0x4e, 0xb5, 0xcd, 0x07, 0xc3, 0xf3, 0xf8, 0xb5, 0xe0, 0xa6, 0xa1, 0xbd, 0x0d, 0xd7, 0xcb, 0xe2, 0xab, 0x4a, 0xe8, 0x18, 0x02, 0x32, 0xdf, 0x20, 0xd2, 0xa4, 0x75, 0x68, 0xf7, 0xc3, 0xe0, 0x94, 0xcd, 0xff, 0xb2, 0x76, 0x3c, 0x73, 0xbc, 0x95, 0xa9, 0xcc, 0x1c, 0x2b, 0x5d, 0x0f, 0xec, 0x65, 0x94, 0x77, 0x12, 0x9e, 0xc1, 0xab, 0xae, 0xa0, 0xeb, 0x82, 0x97, 0x33, 0x8b, 0x22, 0x0a, 0xd5, 0x3b, 0x7c, 0xc8, 0x4b, 0x1e, 0x6a, 0x0a, 0x76, 0x3f, 0x06, 0x29, 0xd4, 0x20, 0xc8, 0x7d, 0x96, 0x66, 0x0b, 0xc2, 0x8b, 0x21, 0xdb, 0x77, 0x75, 0x8e, 0x84, 0x71, 0xcf, 0x3d, 0x94, 0x78, 0x87, 0xce, 0x8c, 0x60, 0x00, 0xdb, 0x90, 0x14, 0x3b, 0x61, 0x17, 0xd8, 0xd2, 0xe8, 0x86, 0x9f, 0x5d, 0x43, 0xee, 0x7e, 0x52, 0x99, 0x27, 0x1b, 0x83, 0xda, 0x00, 0x09, 0x18, 0x46, 0x05, 0x70, 0xbb, 0x17, 0x84, 0x45, 0xe6, 0x8c, 0x83, 0xb8, 0x12, 0xd6, 0x46, 0x34, 0xbb, 0xd4, 0x93, 0x15, 0x6b, 0x6b, 0xaf, 0x7a, 0x22, 0xb5, 0x23, 0x25, 0xe1, 0x86, 0xa1, 0xe8, 0x71, 0x34, 0xfd, 0x64, 0x37, 0x3e, 0x08, 0x78, 0xc8, 0xa2, 0xa5, 0xdb, 0xf6, 0x09, 0x1a, 0xd5, 0x88, 0x84, 0xe9, 0x07, 0xd6, 0xd7, 0xad, 0xde, 0x64, 0x1f, 0x4c, 0x9a, 0xe0, 0x99, 0xa3, 0x4f, 0x3e, 0x88, 0xac, 0xef, 0x8a, 0x56, 0xda, 0x74, 0x48, 0x3e, 0xd4, 0x51, 0xc2, 0x6c, 0x20, 0xd9, 0x66, 0xb9, 0xb2, 0xeb, 0x78, 0xf0, 0xae, 0xa9, 0xbc, 0x90, 0x29, 0xa5, 0x21, 0x9d, 0x8e, 0xf6, 0xfc, 0x00, 0xac, 0x1d, 0x7f, 0x6e, 0x17, 0xb4, 0xf9, 0xcf, 0x24, 0xd8, 0x74, 0x2c, 0x84, 0xf4, 0x32, 0x1e, 0xf3, 0x4f, 0x08, 0x1d, 0xc8, 0xbc, 0xd9, 0x6b, 0xd5, 0x8b, 0x3b, 0x0d, 0x60, 0xbd, 0x27, 0xc4, 0xe7, 0x1e, 0xd8, 0x9a, 0x8f, 0x6d, 0xaf, 0x58, 0xf0, 0x88, 0xbe, 0x64, 0x12, 0xb9, 0xe8, 0xba, 0x3e, 0xe0, 0x01, 0x13, 0xb9, 0x5c, 0x10, 0x01, 0x9b, 0xf7, 0x2f, 0xa3, 0x96, 0xf5, 0xb5, 0xae, 0x3e, 0x57, 0xd3, 0xc2, 0xf3, 0x46, 0x60, 0x68, 0xd2, 0xb1, 0x49, 0x57, 0x13, 0x6e, 0xb5, 0x8b, 0x4e, 0x00, 0xbe, 0xb0, 0xd5, 0xe5, 0x58, 0x20, 0x2b, 0x88, 0x03, 0xd0, 0xdb, 0x34, 0xff, 0x17, 0xc6, 0xca, 0x70, 0x83, 0xa7, 0x5b, 0x69, 0x5d, 0x1c, 0xea, 0xb3, 0x19, 0x7c, 0x92, 0x19, 0xb2, 0x35, 0x28, 0xcb, 0x5a, 0xef, 0x8d, 0xde, 0x22, 0x2d, 0x84, 0x83, 0xe2, 0xb0, 0x4b, 0x98, 0x01, 0x74, 0x6d, 0xcc, 0x7a, 0x4e, 0x44, 0x69, 0xf1, 0xab, 0x8c, 0xb0, 0x27, 0x1a, 0xcd, 0xfc, 0x68, 0x5b, 0x56, 0x2c, 0x79, 0xd7, 0x01, 0xa1, 0xfe, 0xfa, 0x8e, 0xed, 0xb4, 0x93, 0x5c, 0xbe, 0x07, 0x11, 0x24, 0xfe, 0xe7, 0xb4, 0x4d, 0xce, 0x89, 0x8c, 0xb5, 0xc7, 0xe3, 0x65, 0xfd, 0x64, 0x9b, 0xc8, 0xc1, 0x4f, 0x28, 0x70, 0x9e, 0x1c, 0x29, 0x7e, 0x6d, 0xa6, 0xe3, 0xfd, 0xe5, 0x01, 0xf5, 0xa3, 0x61, 0x20, 0xec, 0xc4, 0xed, 0xee, 0x09, 0x26, 0x65, 0x53, 0xf7, 0x64, 0xc5, 0x11, 0xa6, 0x8f, 0xca, 0xda, 0x5d, 0xa0, 0xd1, 0xc2, 0x46, 0x18, 0x46, 0xa6, 0x2a, 0x3d, 0x1a, 0xa9, 0xb9, 0xc0, 0x50, 0x53, 0x99, 0xc8, 0x21, 0x46, 0x68, 0xc8, 0x66, 0xbf, 0x96, 0x4d, 0x59, 0x4e, 0xd8, 0x3e, 0xc8, 0x21, 0x19, 0xe7, 0xa3, 0xc7, 0x05, 0x3c, 0xb2, 0xff, 0x31, 0x91, 0x32, 0x0b, 0xf2, 0xa8, 0xac, 0x59, 0xea, 0xc4, 0x29, 0xe3, 0xd7, 0xc7, 0x30, 0xcd, 0xfa, 0x18, 0xff, 0xcc, 0x05, 0x68, 0x4b, 0x07, 0x23, 0x5e, 0x90, 0x02, 0xc4, 0x4c, 0xdc, 0x1d, 0xd9, 0xf2, 0x9f, 0xe4, 0xab, 0x1c, 0xf8, 0xe8, 0x18, 0x22, 0xef, 0xfb, 0x07, 0xc9, 0x1b, 0x52, 0x55, 0xd5, 0xed, 0xfe, 0x68, 0x14, 0x54, 0x17, 0x01, 0x61, 0x55, 0x1f, 0x16, 0x5d, 0x6a, 0x0d, 0x2e, 0xb1, 0x9f, 0x66, 0x95, 0xea, 0xa1, 0x20, 0x04, 0xf5, 0xff, 0x06, 0x50, 0x70, 0xf6, 0xe0, 0xd9, 0x38, 0x6a, 0x0f, 0x1a, 0xcd, 0x3c, 0xc4, 0x3a, 0xc2, 0x29, 0xcb, 0x0d, 0xfe, 0x09, 0xdb, 0xa2, 0x11, 0xef, 0x3a, 0x03, 0x10, 0x38, 0x5e, 0x2b, 0xd0, 0x3d, 0xe4, 0xc3, 0x48, 0xda, 0x37, 0xd1, 0x91, 0x01, 0xbb, 0x9e, 0xce, 0xdd, 0x90, 0x15, 0xeb, 0x92, 0x0d, 0x93, 0x7f, 0xdd, 0xe9, 0x4e, 0x3b, 0x0f, 0x49, 0xa9, 0xd1, 0xc2, 0x1d, 0x04, 0x69, 0xc7, 0x0a, 0xaf, 0x1e, 0xc7, 0x0b, 0xe2, 0xa8, 0x20, 0xa4, 0xbe, 0xfd, 0x4a, 0xf8, 0x31, 0x63, 0xce, 0xf3, 0x50, 0x2a, 0x23, 0x48, 0xcb, 0xc1, 0x10, 0x4f, 0x30, 0x60, 0x96, 0x0f, 0xea, 0x0a, 0x3d, 0xec, 0x9a, 0x0b, 0xcb, 0xeb, 0xe1, 0xc2, 0xb1, 0xbd, 0xd0, 0x05, 0xfb, 0x24, 0x13, 0xfa, 0x05, 0xfb, 0xc2, 0xda, 0x05, 0x31, 0x3b, 0xc2, 0x4e, 0xe4, 0x0c, 0xbf, 0xf3, 0xa3, 0xec, 0x1a, 0x35, 0x43, 0xc2, 0x3a, 0x11, 0xab, 0x98, 0x6a, 0x92, 0xe6, 0xd0, 0x19, 0x3f, 0x13, 0xe1, 0xb0, 0xc1, 0x8e, 0x27, 0x2b, 0x9d, 0xc6, 0xa4, 0xb4, 0x09, 0xc3, 0xb2, 0x22, 0x1d, 0xb8, 0x0f, 0x3b, 0x48, 0xcb, 0x1c, 0x6d, 0x26, 0x62, 0x19, 0xcb, 0x97, 0xb3, 0xf6, 0xbe, 0xbe, 0xf6, 0xc6, 0xf8, 0x58, 0xd2, 0xdd, 0x29, 0x17, 0xfb, 0x30, 0x14, 0xc9, 0x8d, 0x57, 0xf1, 0x46, 0x17, 0x4f, 0x6a, 0xc0, 0xeb, 0x9f, 0x4c, 0x0a, 0xeb, 0x3e, 0x5d, 0x02, 0xec, 0xff, 0xb8, 0x91, 0x53, 0xcc, 0xeb, 0xe3, 0xac, 0x18, 0x04, 0xec, 0xa5, 0x1d, 0x46, 0x11, 0x1b, 0xaf, 0xf7, 0x11, 0x97, 0x5b, 0x68, 0x18, 0x49, 0x6d, 0x9d, 0x10, 0x35, 0x6a, 0xb2, 0x3b, 0x19, 0x9f, 0x66, 0xa0, 0xa8, 0xe8, 0x1e, 0x15, 0xde, 0xb5, 0xa5, 0xdd, 0xb0, 0x97, 0x2d, 0x73, 0x61, 0xc9, 0xf1, 0x60, 0x86, 0xd5, 0x68, 0xbc, 0xe3, 0x08, 0xb8, 0xea, 0xf7, 0xd2, 0x1a, 0x92, 0x01, 0x22, 0x43, 0xca, 0x9f, 0xff, 0x28, 0x81, 0xd1, 0x15, 0x44, 0x4d, 0x1d, 0xba, 0xa4, 0x8b, 0xb9, 0x90, 0x13, 0x36, 0xe1, 0xe9, 0x90, 0x3b, 0xce, 0x1c, 0x46, 0xc6, 0x17, 0x16, 0xfe, 0x97, 0x8c, 0xec, 0xdf, 0xf9, 0x9d, 0xfa, 0x33, 0x5b, 0x59, 0xfe, 0x1c, 0xb3, 0xea, 0x4c, 0x34, 0x58, 0x49, 0xbf, 0xf4, 0x31, 0x46, 0x38, 0x40, 0xa0, 0x3b, 0x54, 0xe1, 0xb8, 0x33, 0x3b, 0x56, 0xa8, 0xf9, 0xbf, 0x0b, 0x61, 0xec, 0xca, 0x02, 0x00, 0xcf, 0xa3, 0x57, 0x3f, 0x89, 0xcd, 0xc0, 0xc6, 0xb0, 0xb8, 0xb4, 0x40, 0x5c, 0x68, 0x4c, 0xeb, 0x5b, 0x39, 0x66, 0x94, 0x08, 0x9d, 0x59, 0x5a, 0x03, 0x18, 0xae, 0x20, 0x5b, 0xcb, 0x8f, 0x34, 0xae, 0xd7, 0x96, 0xc0, 0xb1, 0x53, 0xc2, 0xba, 0x05, 0xfc, 0x11, 0x72, 0x38, 0x42, 0x63, 0xc9, 0x96, 0x17, 0xc7, 0xc9, 0x21, 0x98, 0x9f, 0xc4, 0x65, 0xb5, 0x32, 0x95, 0x5e, 0x1d, 0x50, 0x5a, 0xde, 0x0d, 0xa1, 0x33, 0x59, 0x4c, 0x1b, 0xbc, 0xd5, 0xf6, 0x1f, 0xb5, 0xd6, 0x08, 0x09, 0x44, 0x56, 0xe4, 0xa8, 0x2a, 0xd4, 0x1c, 0xb2, 0xd3, 0x26, 0x9e, 0x3d, 0x1f, 0xbc, 0xf8, 0x2e, 0xc9, 0x4d, 0xb8, 0x0f, 0x1b, 0x3b, 0xe4, 0xcc, 0x4a, 0x19, 0x01, 0xf6, 0x0c, 0x93, 0x03, 0x64, 0x46, 0x24, 0x97, 0x29, 0xe5, 0x59, 0xa9, 0xf4, 0xeb, 0xa6, 0x48, 0xeb, 0xde, 0xd3, 0xa9, 0xc9, 0xc1, 0xd6, 0x6b, 0xad, 0xfd, 0xa4, 0x68, 0xeb, 0x22, 0x05, 0x0d, 0xdc, 0x5e, 0x1a, 0x04, 0x5f, 0x43, 0x20, 0x5d, 0x43, 0x3e, 0xd1, 0x40, 0xc8, 0xfa, 0xc4, 0x59, 0x9d, 0x02, 0x5a, 0x37, 0x9b, 0x08, 0xef, 0xc2, 0x1f, 0xb8, 0x35, 0xed, 0xf4, 0xae, 0x5c, 0xfe, 0x4b, 0x7a, 0xf9, 0xd4, 0x01, 0x8d, 0x24, 0xe3, 0xc1, 0xd3, 0x3d, 0x0a, 0xbe, 0x1b, 0x45, 0xc7, 0x25, 0x48, 0xab, 0x61, 0x4c, 0x05, 0x39, 0xf1, 0x2d, 0x92, 0x46, 0xb4, 0x25, 0xd7, 0x06, 0xa9, 0x9b, 0xaf, 0xf5, 0xc6, 0xcd, 0xb7, 0x3f, 0x63, 0xef, 0x09, 0xce, 0x3c, 0x61, 0xb4, 0xe7, 0x22, 0x2e, 0x46, 0x4e, 0x95, 0xcd, 0x5b, 0xb6, 0xae, 0x5f, 0xbc, 0x55, 0x24, 0x9e, 0x22, 0xc4, 0xb5, 0xd3, 0xcb, 0xdc, 0xdc, 0x11, 0xc5, 0xcb, 0x0d, 0x2a, 0x94, 0x9d, 0xac, 0x30, 0x92, 0x28, 0x06, 0xa0, 0x46, 0xf6, 0x0e, 0x34, 0x61, 0x53, 0x00, 0xc8, 0x15, 0x1a, 0xe0, 0x44, 0x0d, 0xdf, 0xa6, 0x1e, 0x17, 0x24, 0x31, 0xa9, 0xf2, 0xfd, 0x55, 0xc4, 0x06, 0xdb, 0x90, 0xd1, 0x38, 0xe9, 0x9a, 0x01, 0xd2, 0x38, 0x37, 0x22, 0xaf, 0x11, 0xa3, 0xeb, 0x9b, 0xbf, 0xcc, 0xb6, 0xfe, 0xff, 0xff, 0x04, 0x00, 0x00, 0x00, 0x40, 0x00, 0x00, 0x00, 0xfc, 0xff, 0xff, 0xff, 0xf9, 0xff, 0xff, 0xff, 0xf7, 0xff, 0xff, 0xff, 0xfb, 0xff, 0xff, 0xff, 0xf9, 0xff, 0xff, 0xff, 0xf0, 0xff, 0xff, 0xff, 0x00, 0x00, 0x00, 0x00, 0x00, 0x00, 0x00, 0x00, 0xf7, 0xff, 0xff, 0xff, 0xfe, 0xff, 0xff, 0xff, 0xfa, 0xff, 0xff, 0xff, 0xf7, 0xff, 0xff, 0xff, 0x00, 0x00, 0x00, 0x00, 0x00, 0x00, 0x00, 0x00, 0xfd, 0xff, 0xff, 0xff, 0xf8, 0xff, 0xff, 0xff, 0x02, 0xff, 0xff, 0xff, 0x04, 0x00, 0x00, 0x00, 0x30, 0x00, 0x00, 0x00, 0xce, 0x5d, 0x7f, 0xd2, 0xb5, 0xfa, 0x06, 0x4c, 0xcc, 0x37, 0x08, 0x23, 0x95, 0xe6, 0x77, 0x4d, 0xaa, 0xae, 0x7f, 0x1f, 0x54, 0x40, 0x22, 0xa8, 0x52, 0x0d, 0xef, 0x36, 0x88, 0x8c, 0xce, 0x4e, 0x67, 0x4a, 0xb7, 0x10, 0xed, 0xec, 0x6f, 0xe1, 0x81, 0x7e, 0xb8, 0x8c, 0xa9, 0xd0, 0x7d, 0xc5, 0x3e, 0xff, 0xff, 0xff, 0x04, 0x00, 0x00, 0x00, 0x0c, 0x00, 0x00, 0x00, 0x1f, 0x00, 0x00, 0x00, 0xf3, 0xff, 0xff, 0xff, 0xfc, 0xff, 0xff, 0xff, 0x56, 0xff, 0xff, 0xff, 0x04, 0x00, 0x00, 0x00, 0x08, 0x00, 0x00, 0x00, 0xff, 0xff, 0xff, 0xff, 0x80, 0x01, 0x00, 0x00, 0xf8, 0xf0, 0xff, 0xff, 0xfc, 0xf0, 0xff, 0xff, 0x0f, 0x00, 0x00, 0x00, 0x4d, 0x4c, 0x49, 0x52, 0x20, 0x43, 0x6f, 0x6e, 0x76, 0x65, 0x72, 0x74, 0x65, 0x64, 0x2e, 0x00, 0x01, 0x00, 0x00, 0x00, 0x14, 0x00, 0x00, 0x00, 0x00, 0x00, 0x0e, 0x00, 0x18, 0x00, 0x14, 0x00, 0x10, 0x00, 0x0c, 0x00, 0x08, 0x00, 0x04, 0x00, 0x0e, 0x00, 0x00, 0x00, 0x14, 0x00, 0x00, 0x00, 0x1c, 0x00, 0x00, 0x00, 0x4c, 0x02, 0x00, 0x00, 0x50, 0x02, 0x00, 0x00, 0x54, 0x02, 0x00, 0x00, 0x04, 0x00, 0x00, 0x00, 0x6d, 0x61, 0x69, 0x6e, 0x00, 0x00, 0x00, 0x00, 0x08, 0x00, 0x00, 0x00, 0xe8, 0x01, 0x00, 0x00, 0x84, 0x01, 0x00, 0x00, 0x34, 0x01, 0x00, 0x00, 0xf0, 0x00, 0x00, 0x00, 0xc8, 0x00, 0x00, 0x00, 0x78, 0x00, 0x00, 0x00, 0x40, 0x00, 0x00, 0x00, 0x04, 0x00, 0x00, 0x00, 0xa6, 0xfe, 0xff, 0xff, 0x1c, 0x00, 0x00, 0x00, 0x00, 0x00, 0x00, 0x09, 0x1c, 0x00, 0x00, 0x00, 0x20, 0x00, 0x00, 0x00, 0x04, 0x00, 0x00, 0x00, 0x00, 0x00, 0x06, 0x00, 0x08, 0x00, 0x04, 0x00, 0x06, 0x00, 0x00, 0x00, 0x00, 0x00, 0x80, 0x3f, 0x01, 0x00, 0x00, 0x00, 0x11, 0x00, 0x00, 0x00, 0x01, 0x00, 0x00, 0x00, 0x10, 0x00, 0x00, 0x00, 0xde, 0xfe, 0xff, 0xff, 0x14, 0x00, 0x00, 0x00, 0x00, 0x00, 0x00, 0x08, 0x10, 0x00, 0x00, 0x00, 0x14, 0x00, 0x00, 0x00, 0x03, 0x00, 0x00, 0x00, 0xc4, 0xf1, 0xff, 0xff, 0x01, 0x00, 0x00, 0x00, 0x10, 0x00, 0x00, 0x00, 0x03, 0x00, 0x00, 0x00, 0x0f, 0x00, 0x00, 0x00, 0x03, 0x00, 0x00, 0x00, 0x02, 0x00, 0x00, 0x00, 0x12, 0xff, 0xff, 0xff, 0x1c, 0x00, 0x00, 0x00, 0x00, 0x00, 0x00, 0x08, 0x1c, 0x00, 0x00, 0x00, 0x20, 0x00, 0x00, 0x00, 0x03, 0x00, 0x00, 0x00, 0x00, 0x00, 0x06, 0x00, 0x08, 0x00, 0x07, 0x00, 0x06, 0x00, 0x00, 0x00, 0x00, 0x00, 0x00, 0x01, 0x01, 0x00, 0x00, 0x00, 0x0f, 0x00, 0x00, 0x00, 0x03, 0x00, 0x00, 0x00, 0x0e, 0x00, 0x00, 0x00, 0x05, 0x00, 0x00, 0x00, 0x04, 0x00, 0x00, 0x00, 0x00, 0x00, 0x0a, 0x00, 0x10, 0x00, 0x0c, 0x00, 0x08, 0x00, 0x04, 0x00, 0x0a, 0x00, 0x00, 0x00, 0x0c, 0x00, 0x00, 0x00, 0x10, 0x00, 0x00, 0x00, 0x02, 0x00, 0x00, 0x00, 0x01, 0x00, 0x00, 0x00, 0x0e, 0x00, 0x00, 0x00, 0x02, 0x00, 0x00, 0x00, 0x0d, 0x00, 0x00, 0x00, 0x01, 0x00, 0x00, 0x00, 0x82, 0xff, 0xff, 0xff, 0x14, 0x00, 0x00, 0x00, 0x00, 0x00, 0x00, 0x05, 0x24, 0x00, 0x00, 0x00, 0x28, 0x00, 0x00, 0x00, 0x01, 0x00, 0x00, 0x00, 0x72, 0xff, 0xff, 0xff, 0x02, 0x00, 0x00, 0x00, 0x02, 0x00, 0x00, 0x00, 0x02, 0x00, 0x00, 0x00, 0x02, 0x00, 0x00, 0x00, 0x00, 0x00, 0x00, 0x01, 0x01, 0x00, 0x00, 0x00, 0x0d, 0x00, 0x00, 0x00, 0x01, 0x00, 0x00, 0x00, 0x0c, 0x00, 0x00, 0x00, 0x62, 0xff, 0xff, 0xff, 0x10, 0x00, 0x00, 0x00, 0x00, 0x00, 0x00, 0x01, 0x18, 0x00, 0x00, 0x00, 0x1c, 0x00, 0x00, 0x00, 0x54, 0xff, 0xff, 0xff, 0x00, 0x00, 0x00, 0x01, 0x01, 0x00, 0x00, 0x00, 0x01, 0x00, 0x00, 0x00, 0x01, 0x00, 0x00, 0x00, 0x0c, 0x00, 0x00, 0x00, 0x03, 0x00, 0x00, 0x00, 0x0b, 0x00, 0x00, 0x00, 0x07, 0x00, 0x00, 0x00, 0x06, 0x00, 0x00, 0x00, 0x00, 0x00, 0x0e, 0x00, 0x1a, 0x00, 0x14, 0x00, 0x10, 0x00, 0x0c, 0x00, 0x0b, 0x00, 0x04, 0x00, 0x0e, 0x00, 0x00, 0x00, 0x24, 0x00, 0x00, 0x00, 0x00, 0x00, 0x00, 0x05, 0x34, 0x00, 0x00, 0x00, 0x38, 0x00, 0x00, 0x00, 0x01, 0x00, 0x00, 0x00, 0x00, 0x00, 0x0e, 0x00, 0x18, 0x00, 0x17, 0x00, 0x10, 0x00, 0x0c, 0x00, 0x08, 0x00, 0x04, 0x00, 0x0e, 0x00, 0x00, 0x00, 0x02, 0x00, 0x00, 0x00, 0x02, 0x00, 0x00, 0x00, 0x02, 0x00, 0x00, 0x00, 0x02, 0x00, 0x00, 0x00, 0x00, 0x00, 0x00, 0x01, 0x01, 0x00, 0x00, 0x00, 0x0b, 0x00, 0x00, 0x00, 0x01, 0x00, 0x00, 0x00, 0x0a, 0x00, 0x00, 0x00, 0x00, 0x00, 0x0e, 0x00, 0x14, 0x00, 0x00, 0x00, 0x10, 0x00, 0x0c, 0x00, 0x0b, 0x00, 0x04, 0x00, 0x0e, 0x00, 0x00, 0x00, 0x1c, 0x00, 0x00, 0x00, 0x00, 0x00, 0x00, 0x01, 0x24, 0x00, 0x00, 0x00, 0x28, 0x00, 0x00, 0x00, 0x0c, 0x00, 0x10, 0x00, 0x00, 0x00, 0x0c, 0x00, 0x08, 0x00, 0x07, 0x00, 0x0c, 0x00, 0x00, 0x00, 0x00, 0x00, 0x00, 0x01, 0x01, 0x00, 0x00, 0x00, 0x01, 0x00, 0x00, 0x00, 0x01, 0x00, 0x00, 0x00, 0x0a, 0x00, 0x00, 0x00, 0x03, 0x00, 0x00, 0x00, 0x00, 0x00, 0x00, 0x00, 0x09, 0x00, 0x00, 0x00, 0x08, 0x00, 0x00, 0x00, 0x01, 0x00, 0x00, 0x00, 0x11, 0x00, 0x00, 0x00, 0x01, 0x00, 0x00, 0x00, 0x00, 0x00, 0x00, 0x00, 0x12, 0x00, 0x00, 0x00, 0xa4, 0x0c, 0x00, 0x00, 0x48, 0x0c, 0x00, 0x00, 0xb8, 0x0b, 0x00, 0x00, 0x3c, 0x0b, 0x00, 0x00, 0x28, 0x0a, 0x00, 0x00, 0x0c, 0x09, 0x00, 0x00, 0xf8, 0x07, 0x00, 0x00, 0xd4, 0x06, 0x00, 0x00, 0x20, 0x06, 0x00, 0x00, 0x5c, 0x05, 0x00, 0x00, 0x88, 0x04, 0x00, 0x00, 0xec, 0x03, 0x00, 0x00, 0xf8, 0x02, 0x00, 0x00, 0x5c, 0x02, 0x00, 0x00, 0xd8, 0x01, 0x00, 0x00, 0x24, 0x01, 0x00, 0x00, 0x80, 0x00, 0x00, 0x00, 0x04, 0x00, 0x00, 0x00, 0xba, 0xf3, 0xff, 0xff, 0x00, 0x00, 0x00, 0x01, 0x18, 0x00, 0x00, 0x00, 0x20, 0x00, 0x00, 0x00, 0x3c, 0x00, 0x00, 0x00, 0x12, 0x00, 0x00, 0x00, 0x00, 0x00, 0x00, 0x09, 0x50, 0x00, 0x00, 0x00, 0x02, 0x00, 0x00, 0x00, 0xff, 0xff, 0xff, 0xff, 0x03, 0x00, 0x00, 0x00, 0x9c, 0xf3, 0xff, 0xff, 0x08, 0x00, 0x00, 0x00, 0x10, 0x00, 0x00, 0x00, 0x01, 0x00, 0x00, 0x00, 0x80, 0xff, 0xff, 0xff, 0xff, 0xff, 0xff, 0xff, 0x01, 0x00, 0x00, 0x00, 0x00, 0x00, 0x80, 0x3b, 0x1b, 0x00, 0x00, 0x00, 0x53, 0x74, 0x61, 0x74, 0x65, 0x66, 0x75, 0x6c, 0x50, 0x61, 0x72, 0x74, 0x69, 0x74, 0x69, 0x6f, 0x6e, 0x65, 0x64, 0x43, 0x61, 0x6c, 0x6c, 0x5f, 0x31, 0x3a, 0x30, 0x00, 0x02, 0x00, 0x00, 0x00, 0x01, 0x00, 0x00, 0x00, 0x03, 0x00, 0x00, 0x00, 0x32, 0xf4, 0xff, 0xff, 0x00, 0x00, 0x00, 0x01, 0x18, 0x00, 0x00, 0x00, 0x20, 0x00, 0x00, 0x00, 0x40, 0x00, 0x00, 0x00, 0x11, 0x00, 0x00, 0x00, 0x00, 0x00, 0x00, 0x09, 0x78, 0x00, 0x00, 0x00, 0x02, 0x00, 0x00, 0x00, 0xff, 0xff, 0xff, 0xff, 0x03, 0x00, 0x00, 0x00, 0x14, 0xf4, 0xff, 0xff, 0x08, 0x00, 0x00, 0x00, 0x14, 0x00, 0x00, 0x00, 0x01, 0x00, 0x00, 0x00, 0x1b, 0x00, 0x00, 0x00, 0x00, 0x00, 0x00, 0x00, 0x00, 0x00, 0x00, 0x00, 0x01, 0x00, 0x00, 0x00, 0x0f, 0xcf, 0x0b, 0x3e, 0x3c, 0x00, 0x00, 0x00, 0x73, 0x65, 0x71, 0x75, 0x65, 0x6e, 0x74, 0x69, 0x61, 0x6c, 0x5f, 0x31, 0x2f, 0x64, 0x65, 0x6e, 0x73, 0x65, 0x5f, 0x31, 0x5f, 0x32, 0x2f, 0x4d, 0x61, 0x74, 0x4d, 0x75, 0x6c, 0x3b, 0x73, 0x65, 0x71, 0x75, 0x65, 0x6e, 0x74, 0x69, 0x61, 0x6c, 0x5f, 0x31, 0x2f, 0x64, 0x65, 0x6e, 0x73, 0x65, 0x5f, 0x31, 0x5f, 0x32, 0x2f, 0x42, 0x69, 0x61, 0x73, 0x41, 0x64, 0x64, 0x00, 0x00, 0x00, 0x00, 0x02, 0x00, 0x00, 0x00, 0x01, 0x00, 0x00, 0x00, 0x03, 0x00, 0x00, 0x00, 0xd2, 0xf4, 0xff, 0xff, 0x00, 0x00, 0x00, 0x01, 0x18, 0x00, 0x00, 0x00, 0x20, 0x00, 0x00, 0x00, 0x3c, 0x00, 0x00, 0x00, 0x10, 0x00, 0x00, 0x00, 0x00, 0x00, 0x00, 0x09, 0x88, 0x00, 0x00, 0x00, 0x02, 0x00, 0x00, 0x00, 0xff, 0xff, 0xff, 0xff, 0x10, 0x00, 0x00, 0x00, 0xb4, 0xf4, 0xff, 0xff, 0x08, 0x00, 0x00, 0x00, 0x10, 0x00, 0x00, 0x00, 0x01, 0x00, 0x00, 0x00, 0x80, 0xff, 0xff, 0xff, 0xff, 0xff, 0xff, 0xff, 0x01, 0x00, 0x00, 0x00, 0xf1, 0x92, 0x2a, 0x3e, 0x52, 0x00, 0x00, 0x00, 0x73, 0x65, 0x71, 0x75, 0x65, 0x6e, 0x74, 0x69, 0x61, 0x6c, 0x5f, 0x31, 0x2f, 0x64, 0x65, 0x6e, 0x73, 0x65, 0x5f, 0x31, 0x2f, 0x4d, 0x61, 0x74, 0x4d, 0x75, 0x6c, 0x3b, 0x73, 0x65, 0x71, 0x75, 0x65, 0x6e, 0x74, 0x69, 0x61, 0x6c, 0x5f, 0x31, 0x2f, 0x64, 0x65, 0x6e, 0x73, 0x65, 0x5f, 0x31, 0x2f, 0x52, 0x65, 0x6c, 0x75, 0x3b, 0x73, 0x65, 0x71, 0x75, 0x65, 0x6e, 0x74, 0x69, 0x61, 0x6c, 0x5f, 0x31, 0x2f, 0x64, 0x65, 0x6e, 0x73, 0x65, 0x5f, 0x31, 0x2f, 0x42, 0x69, 0x61, 0x73, 0x41, 0x64, 0x64, 0x00, 0x00, 0x02, 0x00, 0x00, 0x00, 0x01, 0x00, 0x00, 0x00, 0x10, 0x00, 0x00, 0x00, 0x82, 0xf5, 0xff, 0xff, 0x00, 0x00, 0x00, 0x01, 0x18, 0x00, 0x00, 0x00, 0x20, 0x00, 0x00, 0x00, 0x40, 0x00, 0x00, 0x00, 0x0f, 0x00, 0x00, 0x00, 0x00, 0x00, 0x00, 0x09, 0x58, 0x00, 0x00, 0x00, 0x02, 0x00, 0x00, 0x00, 0xff, 0xff, 0xff, 0xff, 0x80, 0x01, 0x00, 0x00, 0x64, 0xf5, 0xff, 0xff, 0x08, 0x00, 0x00, 0x00, 0x14, 0x00, 0x00, 0x00, 0x01, 0x00, 0x00, 0x00, 0x80, 0xff, 0xff, 0xff, 0xff, 0xff, 0xff, 0xff, 0x00, 0x00, 0x00, 0x00, 0x01, 0x00, 0x00, 0x00, 0xfa, 0x11, 0x32, 0x3f, 0x1e, 0x00, 0x00, 0x00, 0x73, 0x65, 0x71, 0x75, 0x65, 0x6e, 0x74, 0x69, 0x61, 0x6c, 0x5f, 0x31, 0x2f, 0x66, 0x6c, 0x61, 0x74, 0x74, 0x65, 0x6e, 0x5f, 0x31, 0x2f, 0x52, 0x65, 0x73, 0x68, 0x61, 0x70, 0x65, 0x00, 0x00, 0x02, 0x00, 0x00, 0x00, 0x01, 0x00, 0x00, 0x00, 0x80, 0x01, 0x00, 0x00, 0x02, 0xf6, 0xff, 0xff, 0x00, 0x00, 0x00, 0x01, 0x18, 0x00, 0x00, 0x00, 0x28, 0x00, 0x00, 0x00, 0x44, 0x00, 0x00, 0x00, 0x0e, 0x00, 0x00, 0x00, 0x00, 0x00, 0x00, 0x09, 0x68, 0x00, 0x00, 0x00, 0x04, 0x00, 0x00, 0x00, 0xff, 0xff, 0xff, 0xff, 0x08, 0x00, 0x00, 0x00, 0x03, 0x00, 0x00, 0x00, 0x10, 0x00, 0x00, 0x00, 0xec, 0xf5, 0xff, 0xff, 0x08, 0x00, 0x00, 0x00, 0x10, 0x00, 0x00, 0x00, 0x01, 0x00, 0x00, 0x00, 0x80, 0xff, 0xff, 0xff, 0xff, 0xff, 0xff, 0xff, 0x01, 0x00, 0x00, 0x00, 0xfa, 0x11, 0x32, 0x3f, 0x28, 0x00, 0x00, 0x00, 0x73, 0x65, 0x71, 0x75, 0x65, 0x6e, 0x74, 0x69, 0x61, 0x6c, 0x5f, 0x31, 0x2f, 0x6d, 0x61, 0x78, 0x5f, 0x70, 0x6f, 0x6f, 0x6c, 0x69, 0x6e, 0x67, 0x32, 0x64, 0x5f, 0x31, 0x5f, 0x32, 0x2f, 0x4d, 0x61, 0x78, 0x50, 0x6f, 0x6f, 0x6c, 0x32, 0x64, 0x00, 0x00, 0x00, 0x00, 0x04, 0x00, 0x00, 0x00, 0x01, 0x00, 0x00, 0x00, 0x08, 0x00, 0x00, 0x00, 0x03, 0x00, 0x00, 0x00, 0x10, 0x00, 0x00, 0x00, 0x9a, 0xf6, 0xff, 0xff, 0x00, 0x00, 0x00, 0x01, 0x18, 0x00, 0x00, 0x00, 0x28, 0x00, 0x00, 0x00, 0x44, 0x00, 0x00, 0x00, 0x0d, 0x00, 0x00, 0x00, 0x00, 0x00, 0x00, 0x09, 0xc0, 0x00, 0x00, 0x00, 0x04, 0x00, 0x00, 0x00, 0xff, 0xff, 0xff, 0xff, 0x10, 0x00, 0x00, 0x00, 0x06, 0x00, 0x00, 0x00, 0x10, 0x00, 0x00, 0x00, 0x84, 0xf6, 0xff, 0xff, 0x08, 0x00, 0x00, 0x00, 0x10, 0x00, 0x00, 0x00, 0x01, 0x00, 0x00, 0x00, 0x80, 0xff, 0xff, 0xff, 0xff, 0xff, 0xff, 0xff, 0x01, 0x00, 0x00, 0x00, 0xfa, 0x11, 0x32, 0x3f, 0x80, 0x00, 0x00, 0x00, 0x73, 0x65, 0x71, 0x75, 0x65, 0x6e, 0x74, 0x69, 0x61, 0x6c, 0x5f, 0x31, 0x2f, 0x63, 0x6f, 0x6e, 0x76, 0x32, 0x64, 0x5f, 0x31, 0x5f, 0x32, 0x2f, 0x52, 0x65, 0x6c, 0x75, 0x3b, 0x73, 0x65, 0x71, 0x75, 0x65, 0x6e, 0x74, 0x69, 0x61, 0x6c, 0x5f, 0x31, 0x2f, 0x63, 0x6f, 0x6e, 0x76, 0x32, 0x64, 0x5f, 0x31, 0x5f, 0x32, 0x2f, 0x42, 0x69, 0x61, 0x73, 0x41, 0x64, 0x64, 0x3b, 0x73, 0x65, 0x71, 0x75, 0x65, 0x6e, 0x74, 0x69, 0x61, 0x6c, 0x5f, 0x31, 0x2f, 0x63, 0x6f, 0x6e, 0x76, 0x32, 0x64, 0x5f, 0x31, 0x5f, 0x32, 0x2f, 0x63, 0x6f, 0x6e, 0x76, 0x6f, 0x6c, 0x75, 0x74, 0x69, 0x6f, 0x6e, 0x3b, 0x73, 0x65, 0x71, 0x75, 0x65, 0x6e, 0x74, 0x69, 0x61, 0x6c, 0x5f, 0x31, 0x2f, 0x63, 0x6f, 0x6e, 0x76, 0x32, 0x64, 0x5f, 0x31, 0x5f, 0x32, 0x2f, 0x53, 0x71, 0x75, 0x65, 0x65, 0x7a, 0x65, 0x00, 0x00, 0x00, 0x00, 0x04, 0x00, 0x00, 0x00, 0x01, 0x00, 0x00, 0x00, 0x10, 0x00, 0x00, 0x00, 0x06, 0x00, 0x00, 0x00, 0x10, 0x00, 0x00, 0x00, 0x8a, 0xf7, 0xff, 0xff, 0x00, 0x00, 0x00, 0x01, 0x18, 0x00, 0x00, 0x00, 0x28, 0x00, 0x00, 0x00, 0x48, 0x00, 0x00, 0x00, 0x0c, 0x00, 0x00, 0x00, 0x00, 0x00, 0x00, 0x09, 0x68, 0x00, 0x00, 0x00, 0x04, 0x00, 0x00, 0x00, 0xff, 0xff, 0xff, 0xff, 0x10, 0x00, 0x00, 0x00, 0x06, 0x00, 0x00, 0x00, 0x08, 0x00, 0x00, 0x00, 0x74, 0xf7, 0xff, 0xff, 0x08, 0x00, 0x00, 0x00, 0x14, 0x00, 0x00, 0x00, 0x01, 0x00, 0x00, 0x00, 0x80, 0xff, 0xff, 0xff, 0xff, 0xff, 0xff, 0xff, 0x00, 0x00, 0x00, 0x00, 0x01, 0x00, 0x00, 0x00, 0x71, 0x94, 0xaf, 0x3f, 0x26, 0x00, 0x00, 0x00, 0x73, 0x65, 0x71, 0x75, 0x65, 0x6e, 0x74, 0x69, 0x61, 0x6c, 0x5f, 0x31, 0x2f, 0x6d, 0x61, 0x78, 0x5f, 0x70, 0x6f, 0x6f, 0x6c, 0x69, 0x6e, 0x67, 0x32, 0x64, 0x5f, 0x31, 0x2f, 0x4d, 0x61, 0x78, 0x50, 0x6f, 0x6f, 0x6c, 0x32, 0x64, 0x00, 0x00, 0x04, 0x00, 0x00, 0x00, 0x01, 0x00, 0x00, 0x00, 0x10, 0x00, 0x00, 0x00, 0x06, 0x00, 0x00, 0x00, 0x08, 0x00, 0x00, 0x00, 0x22, 0xf8, 0xff, 0xff, 0x00, 0x00, 0x00, 0x01, 0x18, 0x00, 0x00, 0x00, 0x28, 0x00, 0x00, 0x00, 0x48, 0x00, 0x00, 0x00, 0x0b, 0x00, 0x00, 0x00, 0x00, 0x00, 0x00, 0x09, 0xa0, 0x00, 0x00, 0x00, 0x04, 0x00, 0x00, 0x00, 0xff, 0xff, 0xff, 0xff, 0x20, 0x00, 0x00, 0x00, 0x0d, 0x00, 0x00, 0x00, 0x08, 0x00, 0x00, 0x00, 0x0c, 0xf8, 0xff, 0xff, 0x08, 0x00, 0x00, 0x00, 0x14, 0x00, 0x00, 0x00, 0x01, 0x00, 0x00, 0x00, 0x80, 0xff, 0xff, 0xff, 0xff, 0xff, 0xff, 0xff, 0x00, 0x00, 0x00, 0x00, 0x01, 0x00, 0x00, 0x00, 0x71, 0x94, 0xaf, 0x3f, 0x5c, 0x00, 0x00, 0x00, 0x73, 0x65, 0x71, 0x75, 0x65, 0x6e, 0x74, 0x69, 0x61, 0x6c, 0x5f, 0x31, 0x2f, 0x63, 0x6f, 0x6e, 0x76, 0x32, 0x64, 0x5f, 0x31, 0x2f, 0x52, 0x65, 0x6c, 0x75, 0x3b, 0x73, 0x65, 0x71, 0x75, 0x65, 0x6e, 0x74, 0x69, 0x61, 0x6c, 0x5f, 0x31, 0x2f, 0x63, 0x6f, 0x6e, 0x76, 0x32, 0x64, 0x5f, 0x31, 0x2f, 0x42, 0x69, 0x61, 0x73, 0x41, 0x64, 0x64, 0x3b, 0x73, 0x65, 0x71, 0x75, 0x65, 0x6e, 0x74, 0x69, 0x61, 0x6c, 0x5f, 0x31, 0x2f, 0x63, 0x6f, 0x6e, 0x76, 0x32, 0x64, 0x5f, 0x31, 0x2f, 0x63, 0x6f, 0x6e, 0x76, 0x6f, 0x6c, 0x75, 0x74, 0x69, 0x6f, 0x6e, 0x3b, 0x31, 0x00, 0x00, 0x00, 0x00, 0x04, 0x00, 0x00, 0x00, 0x01, 0x00, 0x00, 0x00, 0x20, 0x00, 0x00, 0x00, 0x0d, 0x00, 0x00, 0x00, 0x08, 0x00, 0x00, 0x00, 0x4a, 0xf9, 0xff, 0xff, 0x00, 0x00, 0x00, 0x01, 0x14, 0x00, 0x00, 0x00, 0x88, 0x00, 0x00, 0x00, 0x0a, 0x00, 0x00, 0x00, 0x00, 0x00, 0x00, 0x09, 0x94, 0x00, 0x00, 0x00, 0xc4, 0xf8, 0xff, 0xff, 0x08, 0x00, 0x00, 0x00, 0x4c, 0x00, 0x00, 0x00, 0x08, 0x00, 0x00, 0x00, 0x00, 0x00, 0x00, 0x00, 0x00, 0x00, 0x00, 0x00, 0x00, 0x00, 0x00, 0x00, 0x00, 0x00, 0x00, 0x00, 0x00, 0x00, 0x00, 0x00, 0x00, 0x00, 0x00, 0x00, 0x00, 0x00, 0x00, 0x00, 0x00, 0x00, 0x00, 0x00, 0x00, 0x00, 0x00, 0x00, 0x00, 0x00, 0x00, 0x00, 0x00, 0x00, 0x00, 0x00, 0x00, 0x00, 0x00, 0x00, 0x00, 0x00, 0x00, 0x00, 0x00, 0x00, 0x00, 0x00, 0x00, 0x00, 0x00, 0x00, 0x00, 0x00, 0x00, 0x00, 0x00, 0x00, 0x00, 0x00, 0x08, 0x00, 0x00, 0x00, 0x87, 0x9b, 0x02, 0x3b, 0xf7, 0x09, 0xfc, 0x3a, 0x00, 0xff, 0xad, 0x3a, 0x7d, 0x02, 0x13, 0x3b, 0x09, 0xfb, 0xfa, 0x3a, 0x65, 0x91, 0x01, 0x3b, 0xcf, 0xf2, 0xfc, 0x3a, 0x14, 0xa1, 0xf7, 0x3a, 0x12, 0x00, 0x00, 0x00, 0x74, 0x66, 0x6c, 0x2e, 0x70, 0x73, 0x65, 0x75, 0x64, 0x6f, 0x5f, 0x71, 0x63, 0x6f, 0x6e, 0x73, 0x74, 0x37, 0x00, 0x00, 0x04, 0x00, 0x00, 0x00, 0x08, 0x00, 0x00, 0x00, 0x03, 0x00, 0x00, 0x00, 0x03, 0x00, 0x00, 0x00, 0x01, 0x00, 0x00, 0x00, 0x0a, 0xfa, 0xff, 0xff, 0x00, 0x00, 0x00, 0x01, 0x14, 0x00, 0x00, 0x00, 0x84, 0x00, 0x00, 0x00, 0x09, 0x00, 0x00, 0x00, 0x00, 0x00, 0x00, 0x02, 0x90, 0x00, 0x00, 0x00, 0x84, 0xf9, 0xff, 0xff, 0x08, 0x00, 0x00, 0x00, 0x48, 0x00, 0x00, 0x00, 0x08, 0x00, 0x00, 0x00, 0x00, 0x00, 0x00, 0x00, 0x00, 0x00, 0x00, 0x00, 0x00, 0x00, 0x00, 0x00, 0x00, 0x00, 0x00, 0x00, 0x00, 0x00, 0x00, 0x00, 0x00, 0x00, 0x00, 0x00, 0x00, 0x00, 0x00, 0x00, 0x00, 0x00, 0x00, 0x00, 0x00, 0x00, 0x00, 0x00, 0x00, 0x00, 0x00, 0x00, 0x00, 0x00, 0x00, 0x00, 0x00, 0x00, 0x00, 0x00, 0x00, 0x00, 0x00, 0x00, 0x00, 0x00, 0x00, 0x00, 0x00, 0x00, 0x00, 0x00, 0x00, 0x00, 0x00, 0x00, 0x08, 0x00, 0x00, 0x00, 0xe9, 0xa1, 0x00, 0x3c, 0x42, 0x3a, 0xf8, 0x3b, 0x6a, 0x5d, 0xab, 0x3b, 0x60, 0xc9, 0x10, 0x3c, 0x6c, 0x2f, 0xf7, 0x3b, 0x9b, 0x37, 0xff, 0x3b, 0x94, 0x1f, 0xf9, 0x3b, 0x71, 0xe2, 0xf3, 0x3b, 0x12, 0x00, 0x00, 0x00, 0x74, 0x66, 0x6c, 0x2e, 0x70, 0x73, 0x65, 0x75, 0x64, 0x6f, 0x5f, 0x71, 0x63, 0x6f, 0x6e, 0x73, 0x74, 0x36, 0x00, 0x00, 0x01, 0x00, 0x00, 0x00, 0x08, 0x00, 0x00, 0x00, 0xba, 0xfa, 0xff, 0xff, 0x00, 0x00, 0x00, 0x01, 0x14, 0x00, 0x00, 0x00, 0xe8, 0x00, 0x00, 0x00, 0x08, 0x00, 0x00, 0x00, 0x00, 0x00, 0x00, 0x09, 0xf4, 0x00, 0x00, 0x00, 0x34, 0xfa, 0xff, 0xff, 0x08, 0x00, 0x00, 0x00, 0x8c, 0x00, 0x00, 0x00, 0x10, 0x00, 0x00, 0x00, 0x00, 0x00, 0x00, 0x00, 0x00, 0x00, 0x00, 0x00, 0x00, 0x00, 0x00, 0x00, 0x00, 0x00, 0x00, 0x00, 0x00, 0x00, 0x00, 0x00, 0x00, 0x00, 0x00, 0x00, 0x00, 0x00, 0x00, 0x00, 0x00, 0x00, 0x00, 0x00, 0x00, 0x00, 0x00, 0x00, 0x00, 0x00, 0x00, 0x00, 0x00, 0x00, 0x00, 0x00, 0x00, 0x00, 0x00, 0x00, 0x00, 0x00, 0x00, 0x00, 0x00, 0x00, 0x00, 0x00, 0x00, 0x00, 0x00, 0x00, 0x00, 0x00, 0x00, 0x00, 0x00, 0x00, 0x00, 0x00, 0x00, 0x00, 0x00, 0x00, 0x00, 0x00, 0x00, 0x00, 0x00, 0x00, 0x00, 0x00, 0x00, 0x00, 0x00, 0x00, 0x00, 0x00, 0x00, 0x00, 0x00, 0x00, 0x00, 0x00, 0x00, 0x00, 0x00, 0x00, 0x00, 0x00, 0x00, 0x00, 0x00, 0x00, 0x00, 0x00, 0x00, 0x00, 0x00, 0x00, 0x00, 0x00, 0x00, 0x00, 0x00, 0x00, 0x00, 0x00, 0x00, 0x00, 0x00, 0x00, 0x00, 0x00, 0x00, 0x00, 0x00, 0x00, 0x00, 0x00, 0x00, 0x00, 0x00, 0x00, 0x10, 0x00, 0x00, 0x00, 0x20, 0x92, 0xb0, 0x3a, 0x3a, 0x7e, 0xad, 0x3a, 0x42, 0xb2, 0xae, 0x3a, 0xf4, 0xb7, 0xbf, 0x3a, 0xae, 0x21, 0xb1, 0x3a, 0x5f, 0xe6, 0xa6, 0x3a, 0x03, 0x37, 0xbe, 0x3a, 0xef, 0x67, 0xb4, 0x3a, 0xfb, 0x7c, 0xbc, 0x3a, 0x93, 0x33, 0xbb, 0x3a, 0x4b, 0x9d, 0xbd, 0x3a, 0xd4, 0xa1, 0xb1, 0x3a, 0x56, 0x44, 0xb3, 0x3a, 0x1b, 0xd4, 0xb5, 0x3a, 0xa9, 0x44, 0xb8, 0x3a, 0xbc, 0x87, 0xb6, 0x3a, 0x12, 0x00, 0x00, 0x00, 0x74, 0x66, 0x6c, 0x2e, 0x70, 0x73, 0x65, 0x75, 0x64, 0x6f, 0x5f, 0x71, 0x63, 0x6f, 0x6e, 0x73, 0x74, 0x35, 0x00, 0x00, 0x04, 0x00, 0x00, 0x00, 0x10, 0x00, 0x00, 0x00, 0x03, 0x00, 0x00, 0x00, 0x03, 0x00, 0x00, 0x00, 0x08, 0x00, 0x00, 0x00, 0xda, 0xfb, 0xff, 0xff, 0x00, 0x00, 0x00, 0x01, 0x14, 0x00, 0x00, 0x00, 0xe4, 0x00, 0x00, 0x00, 0x07, 0x00, 0x00, 0x00, 0x00, 0x00, 0x00, 0x02, 0xf0, 0x00, 0x00, 0x00, 0x54, 0xfb, 0xff, 0xff, 0x08, 0x00, 0x00, 0x00, 0x88, 0x00, 0x00, 0x00, 0x10, 0x00, 0x00, 0x00, 0x00, 0x00, 0x00, 0x00, 0x00, 0x00, 0x00, 0x00, 0x00, 0x00, 0x00, 0x00, 0x00, 0x00, 0x00, 0x00, 0x00, 0x00, 0x00, 0x00, 0x00, 0x00, 0x00, 0x00, 0x00, 0x00, 0x00, 0x00, 0x00, 0x00, 0x00, 0x00, 0x00, 0x00, 0x00, 0x00, 0x00, 0x00, 0x00, 0x00, 0x00, 0x00, 0x00, 0x00, 0x00, 0x00, 0x00, 0x00, 0x00, 0x00, 0x00, 0x00, 0x00, 0x00, 0x00, 0x00, 0x00, 0x00, 0x00, 0x00, 0x00, 0x00, 0x00, 0x00, 0x00, 0x00, 0x00, 0x00, 0x00, 0x00, 0x00, 0x00, 0x00, 0x00, 0x00, 0x00, 0x00, 0x00, 0x00, 0x00, 0x00, 0x00, 0x00, 0x00, 0x00, 0x00, 0x00, 0x00, 0x00, 0x00, 0x00, 0x00, 0x00, 0x00, 0x00, 0x00, 0x00, 0x00, 0x00, 0x00, 0x00, 0x00, 0x00, 0x00, 0x00, 0x00, 0x00, 0x00, 0x00, 0x00, 0x00, 0x00, 0x00, 0x00, 0x00, 0x00, 0x00, 0x00, 0x00, 0x00, 0x00, 0x00, 0x00, 0x00, 0x00, 0x00, 0x00, 0x00, 0x10, 0x00, 0x00, 0x00, 0x8d, 0x34, 0xf2, 0x3a, 0xc6, 0xfb, 0xed, 0x3a, 0x4f, 0xa2, 0xef, 0x3a, 0xeb, 0x7d, 0x03, 0x3b, 0x77, 0xf9, 0xf2, 0x3a, 0x84, 0xf0, 0xe4, 0x3a, 0xe7, 0x75, 0x02, 0x3b, 0x50, 0x77, 0xf7, 0x3a, 0xbb, 0x46, 0x01, 0x3b, 0xce, 0x64, 0x00, 0x3b, 0x79, 0x0c, 0x02, 0x3b, 0x40, 0xa9, 0xf3, 0x3a, 0x53, 0xe7, 0xf5, 0x3a, 0xdb, 0x6a, 0xf9, 0x3a, 0x91, 0xc3, 0xfc, 0x3a, 0x41, 0x61, 0xfa, 0x3a, 0x12, 0x00, 0x00, 0x00, 0x74, 0x66, 0x6c, 0x2e, 0x70, 0x73, 0x65, 0x75, 0x64, 0x6f, 0x5f, 0x71, 0x63, 0x6f, 0x6e, 0x73, 0x74, 0x34, 0x00, 0x00, 0x01, 0x00, 0x00, 0x00, 0x10, 0x00, 0x00, 0x00, 0xea, 0xfc, 0xff, 0xff, 0x00, 0x00, 0x00, 0x01, 0x14, 0x00, 0x00, 0x00, 0xe8, 0x00, 0x00, 0x00, 0x06, 0x00, 0x00, 0x00, 0x00, 0x00, 0x00, 0x09, 0xf4, 0x00, 0x00, 0x00, 0x64, 0xfc, 0xff, 0xff, 0x08, 0x00, 0x00, 0x00, 0x8c, 0x00, 0x00, 0x00, 0x10, 0x00, 0x00, 0x00, 0x00, 0x00, 0x00, 0x00, 0x00, 0x00, 0x00, 0x00, 0x00, 0x00, 0x00, 0x00, 0x00, 0x00, 0x00, 0x00, 0x00, 0x00, 0x00, 0x00, 0x00, 0x00, 0x00, 0x00, 0x00, 0x00, 0x00, 0x00, 0x00, 0x00, 0x00, 0x00, 0x00, 0x00, 0x00, 0x00, 0x00, 0x00, 0x00, 0x00, 0x00, 0x00, 0x00, 0x00, 0x00, 0x00, 0x00, 0x00, 0x00, 0x00, 0x00, 0x00, 0x00, 0x00, 0x00, 0x00, 0x00, 0x00, 0x00, 0x00, 0x00, 0x00, 0x00, 0x00, 0x00, 0x00, 0x00, 0x00, 0x00, 0x00, 0x00, 0x00, 0x00, 0x00, 0x00, 0x00, 0x00, 0x00, 0x00, 0x00, 0x00, 0x00, 0x00, 0x00, 0x00, 0x00, 0x00, 0x00, 0x00, 0x00, 0x00, 0x00, 0x00, 0x00, 0x00, 0x00, 0x00, 0x00, 0x00, 0x00, 0x00, 0x00, 0x00, 0x00, 0x00, 0x00, 0x00, 0x00, 0x00, 0x00, 0x00, 0x00, 0x00, 0x00, 0x00, 0x00, 0x00, 0x00, 0x00, 0x00, 0x00, 0x00, 0x00, 0x00, 0x00, 0x00, 0x00, 0x00, 0x00, 0x00, 0x00, 0x00, 0x10, 0x00, 0x00, 0x00, 0x6a, 0xa2, 0x90, 0x3a, 0x50, 0x46, 0x82, 0x3a, 0x64, 0xf0, 0x83, 0x3a, 0xb3, 0x99, 0xc2, 0x3a, 0x58, 0x01, 0x9b, 0x3a, 0xd2, 0xfa, 0xa4, 0x3a, 0xa4, 0xa7, 0x7c, 0x3a, 0xbd, 0x40, 0x7c, 0x3a, 0xa2, 0x77, 0x82, 0x3a, 0x13, 0x0b, 0x8f, 0x3a, 0xb7, 0xb9, 0xab, 0x3a, 0xe4, 0x11, 0x83, 0x3a, 0xf5, 0x47, 0xa2, 0x3a, 0xc3, 0x76, 0x7c, 0x3a, 0xc7, 0x35, 0x8f, 0x3a, 0xf2, 0xce, 0x95, 0x3a, 0x12, 0x00, 0x00, 0x00, 0x74, 0x66, 0x6c, 0x2e, 0x70, 0x73, 0x65, 0x75, 0x64, 0x6f, 0x5f, 0x71, 0x63, 0x6f, 0x6e, 0x73, 0x74, 0x33, 0x00, 0x00, 0x02, 0x00, 0x00, 0x00, 0x10, 0x00, 0x00, 0x00, 0x80, 0x01, 0x00, 0x00, 0x02, 0xfe, 0xff, 0xff, 0x00, 0x00, 0x00, 0x01, 0x14, 0x00, 0x00, 0x00, 0xe4, 0x00, 0x00, 0x00, 0x05, 0x00, 0x00, 0x00, 0x00, 0x00, 0x00, 0x02, 0xf0, 0x00, 0x00, 0x00, 0x7c, 0xfd, 0xff, 0xff, 0x08, 0x00, 0x00, 0x00, 0x88, 0x00, 0x00, 0x00, 0x10, 0x00, 0x00, 0x00, 0x00, 0x00, 0x00, 0x00, 0x00, 0x00, 0x00, 0x00, 0x00, 0x00, 0x00, 0x00, 0x00, 0x00, 0x00, 0x00, 0x00, 0x00, 0x00, 0x00, 0x00, 0x00, 0x00, 0x00, 0x00, 0x00, 0x00, 0x00, 0x00, 0x00, 0x00, 0x00, 0x00, 0x00, 0x00, 0x00, 0x00, 0x00, 0x00, 0x00, 0x00, 0x00, 0x00, 0x00, 0x00, 0x00, 0x00, 0x00, 0x00, 0x00, 0x00, 0x00, 0x00, 0x00, 0x00, 0x00, 0x00, 0x00, 0x00, 0x00, 0x00, 0x00, 0x00, 0x00, 0x00, 0x00, 0x00, 0x00, 0x00, 0x00, 0x00, 0x00, 0x00, 0x00, 0x00, 0x00, 0x00, 0x00, 0x00, 0x00, 0x00, 0x00, 0x00, 0x00, 0x00, 0x00, 0x00, 0x00, 0x00, 0x00, 0x00, 0x00, 0x00, 0x00, 0x00, 0x00, 0x00, 0x00, 0x00, 0x00, 0x00, 0x00, 0x00, 0x00, 0x00, 0x00, 0x00, 0x00, 0x00, 0x00, 0x00, 0x00, 0x00, 0x00, 0x00, 0x00, 0x00, 0x00, 0x00, 0x00, 0x00, 0x00, 0x00, 0x00, 0x00, 0x00, 0x00, 0x00, 0x10, 0x00, 0x00, 0x00, 0x2b, 0x36, 0x49, 0x3a, 0x13, 0x3c, 0x35, 0x3a, 0xd3, 0x8c, 0x37, 0x3a, 0x89, 0x5c, 0x87, 0x3a, 0xa3, 0xa3, 0x57, 0x3a, 0xf8, 0x83, 0x65, 0x3a, 0x4e, 0xbe, 0x2f, 0x3a, 0xba, 0x76, 0x2f, 0x3a, 0xb0, 0x80, 0x35, 0x3a, 0x7d, 0xff, 0x46, 0x3a, 0x61, 0xe6, 0x6e, 0x3a, 0x49, 0x57, 0x36, 0x3a, 0xdb, 0xc2, 0x61, 0x3a, 0x4e, 0x9c, 0x2f, 0x3a, 0xe6, 0x3a, 0x47, 0x3a, 0xd3, 0x68, 0x50, 0x3a, 0x12, 0x00, 0x00, 0x00, 0x74, 0x66, 0x6c, 0x2e, 0x70, 0x73, 0x65, 0x75, 0x64, 0x6f, 0x5f, 0x71, 0x63, 0x6f, 0x6e, 0x73, 0x74, 0x32, 0x00, 0x00, 0x01, 0x00, 0x00, 0x00, 0x10, 0x00, 0x00, 0x00, 0x12, 0xff, 0xff, 0xff, 0x00, 0x00, 0x00, 0x01, 0x14, 0x00, 0x00, 0x00, 0x48, 0x00, 0x00, 0x00, 0x04, 0x00, 0x00, 0x00, 0x00, 0x00, 0x00, 0x09, 0x54, 0x00, 0x00, 0x00, 0x8c, 0xfe, 0xff, 0xff, 0x08, 0x00, 0x00, 0x00, 0x20, 0x00, 0x00, 0x00, 0x03, 0x00, 0x00, 0x00, 0x00, 0x00, 0x00, 0x00, 0x00, 0x00, 0x00, 0x00, 0x00, 0x00, 0x00, 0x00, 0x00, 0x00, 0x00, 0x00, 0x00, 0x00, 0x00, 0x00, 0x00, 0x00, 0x00, 0x00, 0x03, 0x00, 0x00, 0x00, 0xc3, 0x84, 0x82, 0x3b, 0x2c, 0xc2, 0x89, 0x3b, 0xa7, 0xcb, 0x87, 0x3b, 0x12, 0x00, 0x00, 0x00, 0x74, 0x66, 0x6c, 0x2e, 0x70, 0x73, 0x65, 0x75, 0x64, 0x6f, 0x5f, 0x71, 0x63, 0x6f, 0x6e, 0x73, 0x74, 0x31, 0x00, 0x00, 0x02, 0x00, 0x00, 0x00, 0x03, 0x00, 0x00, 0x00, 0x10, 0x00, 0x00, 0x00, 0x8a, 0xff, 0xff, 0xff, 0x00, 0x00, 0x00, 0x01, 0x14, 0x00, 0x00, 0x00, 0x48, 0x00, 0x00, 0x00, 0x03, 0x00, 0x00, 0x00, 0x00, 0x00, 0x00, 0x02, 0x54, 0x00, 0x00, 0x00, 0x04, 0xff, 0xff, 0xff, 0x08, 0x00, 0x00, 0x00, 0x20, 0x00, 0x00, 0x00, 0x03, 0x00, 0x00, 0x00, 0x00, 0x00, 0x00, 0x00, 0x00, 0x00, 0x00, 0x00, 0x00, 0x00, 0x00, 0x00, 0x00, 0x00, 0x00, 0x00, 0x00, 0x00, 0x00, 0x00, 0x00, 0x00, 0x00, 0x00, 0x03, 0x00, 0x00, 0x00, 0x28, 0xee, 0x2d, 0x3a, 0x07, 0x94, 0x37, 0x3a, 0x5e, 0xf6, 0x34, 0x3a, 0x11, 0x00, 0x00, 0x00, 0x74, 0x66, 0x6c, 0x2e, 0x70, 0x73, 0x65, 0x75, 0x64, 0x6f, 0x5f, 0x71, 0x63, 0x6f, 0x6e, 0x73, 0x74, 0x00, 0x00, 0x00, 0x01, 0x00, 0x00, 0x00, 0x03, 0x00, 0x00, 0x00, 0x00, 0x00, 0x16, 0x00, 0x1c, 0x00, 0x18, 0x00, 0x17, 0x00, 0x10, 0x00, 0x0c, 0x00, 0x08, 0x00, 0x00, 0x00, 0x00, 0x00, 0x00, 0x00, 0x07, 0x00, 0x16, 0x00, 0x00, 0x00, 0x00, 0x00, 0x00, 0x01, 0x18, 0x00, 0x00, 0x00, 0x18, 0x00, 0x00, 0x00, 0x02, 0x00, 0x00, 0x00, 0x00, 0x00, 0x00, 0x02, 0x20, 0x00, 0x00, 0x00, 0x04, 0x00, 0x04, 0x00, 0x04, 0x00, 0x00, 0x00, 0x0e, 0x00, 0x00, 0x00, 0x61, 0x72, 0x69, 0x74, 0x68, 0x2e, 0x63, 0x6f, 0x6e, 0x73, 0x74, 0x61, 0x6e, 0x74, 0x00, 0x00, 0x01, 0x00, 0x00, 0x00, 0x02, 0x00, 0x00, 0x00, 0x00, 0x00, 0x16, 0x00, 0x20, 0x00, 0x1c, 0x00, 0x1b, 0x00, 0x14, 0x00, 0x10, 0x00, 0x0c, 0x00, 0x00, 0x00, 0x00, 0x00, 0x08, 0x00, 0x07, 0x00, 0x16, 0x00, 0x00, 0x00, 0x00, 0x00, 0x00, 0x01, 0x18, 0x00, 0x00, 0x00, 0x34, 0x00, 0x00, 0x00, 0x54, 0x00, 0x00, 0x00, 0x01, 0x00, 0x00, 0x00, 0x00, 0x00, 0x00, 0x09, 0x6c, 0x00, 0x00, 0x00, 0x04, 0x00, 0x00, 0x00, 0xff, 0xff, 0xff, 0xff, 0x20, 0x00, 0x00, 0x00, 0x0d, 0x00, 0x00, 0x00, 0x01, 0x00, 0x00, 0x00, 0x0c, 0x00, 0x0c, 0x00, 0x00, 0x00, 0x00, 0x00, 0x08, 0x00, 0x04, 0x00, 0x0c, 0x00, 0x00, 0x00, 0x08, 0x00, 0x00, 0x00, 0x14, 0x00, 0x00, 0x00, 0x01, 0x00, 0x00, 0x00, 0x53, 0x00, 0x00, 0x00, 0x00, 0x00, 0x00, 0x00, 0x00, 0x00, 0x00, 0x00, 0x01, 0x00, 0x00, 0x00, 0xf5, 0x20, 0x7c, 0x40, 0x1e, 0x00, 0x00, 0x00, 0x73, 0x65, 0x72, 0x76, 0x69, 0x6e, 0x67, 0x5f, 0x64, 0x65, 0x66, 0x61, 0x75, 0x6c, 0x74, 0x5f, 0x6b, 0x65, 0x72, 0x61, 0x73, 0x5f, 0x74, 0x65, 0x6e, 0x73, 0x6f, 0x72, 0x3a, 0x30, 0x00, 0x00, 0x04, 0x00, 0x00, 0x00, 0x01, 0x00, 0x00, 0x00, 0x20, 0x00, 0x00, 0x00, 0x0d, 0x00, 0x00, 0x00, 0x01, 0x00, 0x00, 0x00, 0x05, 0x00, 0x00, 0x00, 0x68, 0x00, 0x00, 0x00, 0x48, 0x00, 0x00, 0x00, 0x38, 0x00, 0x00, 0x00, 0x18, 0x00, 0x00, 0x00, 0x04, 0x00, 0x00, 0x00, 0xb8, 0xff, 0xff, 0xff, 0x19, 0x00, 0x00, 0x00, 0x02, 0x00, 0x00, 0x00, 0x00, 0x00, 0x00, 0x19, 0xc8, 0xff, 0xff, 0xff, 0x09, 0x00, 0x00, 0x00, 0x04, 0x00, 0x00, 0x00, 0x00, 0x00, 0x00, 0x09, 0x0c, 0x00, 0x0c, 0x00, 0x0b, 0x00, 0x00, 0x00, 0x00, 0x00, 0x04, 0x00, 0x0c, 0x00, 0x00, 0x00, 0x16, 0x00, 0x00, 0x00, 0x00, 0x00, 0x00, 0x16, 0xf0, 0xff, 0xff, 0xff, 0x11, 0x00, 0x00, 0x00, 0x02, 0x00, 0x00, 0x00, 0x00, 0x00, 0x00, 0x11, 0x0c, 0x00, 0x10, 0x00, 0x0f, 0x00, 0x00, 0x00, 0x08, 0x00, 0x04, 0x00, 0x0c, 0x00, 0x00, 0x00, 0x03, 0x00, 0x00, 0x00, 0x03, 0x00, 0x00, 0x00, 0x00, 0x00, 0x00, 0x03
};
const unsigned int audio_model_len = 12488;
