// Auto-generated by pipeline
#include <stdint.h>

const unsigned char audio_model[] = {
0x1c, 0x00, 0x00, 0x00, 0x54, 0x46, 0x4c, 0x33, 0x14, 0x00, 0x20, 0x00, 0x1c, 0x00, 0x18, 0x00, 0x14, 0x00, 0x10, 0x00, 0x0c, 0x00, 0x00, 0x00, 0x08, 0x00, 0x04, 0x00, 0x14, 0x00, 0x00, 0x00, 0x1c, 0x00, 0x00, 0x00, 0x8c, 0x00, 0x00, 0x00, 0x0c, 0x01, 0x00, 0x00, 0x48, 0x20, 0x00, 0x00, 0x58, 0x20, 0x00, 0x00, 0x18, 0x30, 0x00, 0x00, 0x03, 0x00, 0x00, 0x00, 0x01, 0x00, 0x00, 0x00, 0x04, 0x00, 0x00, 0x00, 0xae, 0xde, 0xff, 0xff, 0x0c, 0x00, 0x00, 0x00, 0x1c, 0x00, 0x00, 0x00, 0x3c, 0x00, 0x00, 0x00, 0x0f, 0x00, 0x00, 0x00, 0x73, 0x65, 0x72, 0x76, 0x69, 0x6e, 0x67, 0x5f, 0x64, 0x65, 0x66, 0x61, 0x75, 0x6c, 0x74, 0x00, 0x01, 0x00, 0x00, 0x00, 0x04, 0x00, 0x00, 0x00, 0x68, 0xff, 0xff, 0xff, 0x11, 0x00, 0x00, 0x00, 0x04, 0x00, 0x00, 0x00, 0x08, 0x00, 0x00, 0x00, 0x6f, 0x75, 0x74, 0x70, 0x75, 0x74, 0x5f, 0x30, 0x00, 0x00, 0x00, 0x00, 0x01, 0x00, 0x00, 0x00, 0x04, 0x00, 0x00, 0x00, 0x92, 0xdf, 0xff, 0xff, 0x04, 0x00, 0x00, 0x00, 0x0c, 0x00, 0x00, 0x00, 0x6b, 0x65, 0x72, 0x61, 0x73, 0x5f, 0x74, 0x65, 0x6e, 0x73, 0x6f, 0x72, 0x00, 0x00, 0x00, 0x00, 0x03, 0x00, 0x00, 0x00, 0x5c, 0x00, 0x00, 0x00, 0x2c, 0x00, 0x00, 0x00, 0x04, 0x00, 0x00, 0x00, 0xb8, 0xff, 0xff, 0xff, 0x15, 0x00, 0x00, 0x00, 0x04, 0x00, 0x00, 0x00, 0x13, 0x00, 0x00, 0x00, 0x43, 0x4f, 0x4e, 0x56, 0x45, 0x52, 0x53, 0x49, 0x4f, 0x4e, 0x5f, 0x4d, 0x45, 0x54, 0x41, 0x44, 0x41, 0x54, 0x41, 0x00, 0xdc, 0xff, 0xff, 0xff, 0x14, 0x00, 0x00, 0x00, 0x04, 0x00, 0x00, 0x00, 0x13, 0x00, 0x00, 0x00, 0x6d, 0x69, 0x6e, 0x5f, 0x72, 0x75, 0x6e, 0x74, 0x69, 0x6d, 0x65, 0x5f, 0x76, 0x65, 0x72, 0x73, 0x69, 0x6f, 0x6e, 0x00, 0x08, 0x00, 0x0c, 0x00, 0x08, 0x00, 0x04, 0x00, 0x08, 0x00, 0x00, 0x00, 0x13, 0x00, 0x00, 0x00, 0x04, 0x00, 0x00, 0x00, 0x13, 0x00, 0x00, 0x00, 0x6d, 0x69, 0x6e, 0x5f, 0x72, 0x75, 0x6e, 0x74, 0x69, 0x6d, 0x65, 0x5f, 0x76, 0x65, 0x72, 0x73, 0x69, 0x6f, 0x6e, 0x00, 0x16, 0x00, 0x00, 0x00, 0x38, 0x1f, 0x00, 0x00, 0x30, 0x1f, 0x00, 0x00, 0x18, 0x1f, 0x00, 0x00, 0xfc, 0x1e, 0x00, 0x00, 0xbc, 0x1e, 0x00, 0x00, 0x6c, 0x1e, 0x00, 0x00, 0x5c, 0x06, 0x00, 0x00, 0x0c, 0x06, 0x00, 0x00, 0x7c, 0x01, 0x00, 0x00, 0x4c, 0x01, 0x00, 0x00, 0xf4, 0x00, 0x00, 0x00, 0xec, 0x00, 0x00, 0x00, 0xe4, 0x00, 0x00, 0x00, 0xdc, 0x00, 0x00, 0x00, 0xd4, 0x00, 0x00, 0x00, 0xcc, 0x00, 0x00, 0x00, 0xc4, 0x00, 0x00, 0x00, 0xbc, 0x00, 0x00, 0x00, 0xb4, 0x00, 0x00, 0x00, 0x94, 0x00, 0x00, 0x00, 0x74, 0x00, 0x00, 0x00, 0x04, 0x00, 0x00, 0x00, 0x8e, 0xe0, 0xff, 0xff, 0x04, 0x00, 0x00, 0x00, 0x60, 0x00, 0x00, 0x00, 0x0c, 0x00, 0x00, 0x00, 0x08, 0x00, 0x0e, 0x00, 0x08, 0x00, 0x04, 0x00, 0x08, 0x00, 0x00, 0x00, 0x10, 0x00, 0x00, 0x00, 0x28, 0x00, 0x00, 0x00, 0x00, 0x00, 0x06, 0x00, 0x08, 0x00, 0x04, 0x00, 0x06, 0x00, 0x00, 0x00, 0x04, 0x00, 0x00, 0x00, 0x01, 0x00, 0x00, 0x00, 0xeb, 0x03, 0x00, 0x00, 0x0c, 0x00, 0x18, 0x00, 0x14, 0x00, 0x10, 0x00, 0x0c, 0x00, 0x04, 0x00, 0x0c, 0x00, 0x00, 0x00, 0xbb, 0x46, 0x89, 0xff, 0xc6, 0x44, 0x1d, 0x13, 0x02, 0x00, 0x00, 0x00, 0x02, 0x00, 0x00, 0x00, 0x04, 0x00, 0x00, 0x00, 0x06, 0x00, 0x00, 0x00, 0x32, 0x2e, 0x31, 0x39, 0x2e, 0x30, 0x00, 0x00, 0xfa, 0xe0, 0xff, 0xff, 0x04, 0x00, 0x00, 0x00, 0x10, 0x00, 0x00, 0x00, 0x00, 0x00, 0x00, 0x00, 0x00, 0x00, 0x00, 0x00, 0x00, 0x00, 0x00, 0x00, 0x00, 0x00, 0x00, 0x00, 0x16, 0xe1, 0xff, 0xff, 0x04, 0x00, 0x00, 0x00, 0x10, 0x00, 0x00, 0x00, 0x31, 0x2e, 0x31, 0x34, 0x2e, 0x30, 0x00, 0x00, 0x00, 0x00, 0x00, 0x00, 0x00, 0x00, 0x00, 0x00, 0xc0, 0xd2, 0xff, 0xff, 0xc4, 0xd2, 0xff, 0xff, 0xc8, 0xd2, 0xff, 0xff, 0xcc, 0xd2, 0xff, 0xff, 0xd0, 0xd2, 0xff, 0xff, 0xd4, 0xd2, 0xff, 0xff, 0xd8, 0xd2, 0xff, 0xff, 0xdc, 0xd2, 0xff, 0xff, 0x52, 0xe1, 0xff, 0xff, 0x04, 0x00, 0x00, 0x00, 0x48, 0x00, 0x00, 0x00, 0x9e, 0x3b, 0xa9, 0x3a, 0x82, 0x77, 0xc1, 0x81, 0x58, 0x2a, 0xa6, 0x87, 0x1d, 0x10, 0x81, 0x8a, 0xdd, 0x5f, 0xec, 0xd5, 0xb9, 0xa0, 0x58, 0xf8, 0x78, 0x46, 0x7f, 0xd7, 0x81, 0xc2, 0xa0, 0xdc, 0xb6, 0xee, 0x25, 0x7d, 0x22, 0x39, 0x0c, 0xe8, 0x8d, 0x06, 0x93, 0x7f, 0x34, 0x51, 0x1b, 0x1e, 0x03, 0xcf, 0x03, 0x24, 0x81, 0x32, 0xfa, 0xab, 0xc1, 0x5e, 0x16, 0x81, 0xf5, 0x1c, 0x93, 0x49, 0x81, 0x8a, 0x0d, 0xf9, 0x71, 0x26, 0x05, 0x1b, 0xa6, 0xe1, 0xff, 0xff, 0x04, 0x00, 0x00, 0x00, 0x20, 0x00, 0x00, 0x00, 0xff, 0xff, 0xff, 0xff, 0x04, 0x00, 0x00, 0x00, 0x01, 0x00, 0x00, 0x00, 0x01, 0x00, 0x00, 0x00, 0xfd, 0xff, 0xff, 0xff, 0x02, 0x00, 0x00, 0x00, 0x06, 0x00, 0x00, 0x00, 0x01, 0x00, 0x00, 0x00, 0xd2, 0xe1, 0xff, 0xff, 0x04, 0x00, 0x00, 0x00, 0x80, 0x04, 0x00, 0x00, 0x4e, 0xf6, 0x03, 0x6a, 0x5b, 0xec, 0x95, 0xac, 0x98, 0x4e, 0xac, 0xc8, 0x3b, 0x9e, 0x43, 0x8e, 0xdf, 0xbf, 0x88, 0x1a, 0x22, 0xb5, 0xcd, 0x54, 0xa8, 0x24, 0xb4, 0x47, 0xda, 0xbb, 0xf5, 0x33, 0x3a, 0x92, 0x13, 0xf2, 0x15, 0x1a, 0xc8, 0x0e, 0x87, 0x9a, 0xed, 0x19, 0x3a, 0x8e, 0xfe, 0x81, 0x13, 0x58, 0x36, 0xd3, 0x20, 0x06, 0x41, 0x01, 0xb6, 0x4c, 0xde, 0xf4, 0xc9, 0x4c, 0xb0, 0x1e, 0xe4, 0x90, 0x42, 0x32, 0x40, 0x25, 0xb4, 0x47, 0x4f, 0xe4, 0x3d, 0xbb, 0x12, 0x31, 0xe4, 0x41, 0xbb, 0x70, 0x12, 0xcd, 0x09, 0xc6, 0x42, 0x6c, 0x87, 0x32, 0x16, 0xab, 0xde, 0x55, 0xe1, 0xd8, 0x07, 0x9d, 0xe8, 0x05, 0x24, 0x49, 0x01, 0x5a, 0x03, 0x18, 0x6a, 0xfb, 0xd8, 0xb2, 0x0f, 0xfb, 0x21, 0xa4, 0x16, 0xdb, 0xa0, 0xc2, 0xe7, 0x9a, 0xb8, 0x11, 0x16, 0xf7, 0x88, 0x2b, 0x56, 0xb6, 0x4c, 0x65, 0x69, 0xad, 0x49, 0x57, 0xd6, 0xfd, 0x57, 0x8b, 0x7f, 0x60, 0xc5, 0x5c, 0xba, 0x2c, 0x52, 0xbb, 0xc8, 0xf3, 0x09, 0x0d, 0x4d, 0xc3, 0x4e, 0x84, 0x36, 0xb8, 0xee, 0xc2, 0x4d, 0xb1, 0x99, 0xe5, 0xf6, 0x51, 0x9b, 0x2c, 0x06, 0x9a, 0xd3, 0x45, 0x33, 0xa2, 0xaa, 0x3c, 0xf7, 0x8d, 0x92, 0x2f, 0x8a, 0x8f, 0xec, 0x89, 0x9d, 0xbf, 0x3a, 0xb6, 0x6c, 0x04, 0x74, 0x00, 0xcf, 0x86, 0xdd, 0x3e, 0xba, 0x97, 0xf0, 0xf4, 0x2f, 0xdc, 0xcb, 0x2e, 0x1d, 0x93, 0x4c, 0x62, 0xf7, 0x26, 0xfa, 0x45, 0xac, 0x92, 0x30, 0x81, 0x49, 0x9f, 0xe1, 0xfd, 0x1e, 0x48, 0x07, 0xa2, 0x75, 0x4a, 0x99, 0x09, 0xd2, 0xd1, 0xf1, 0x5b, 0x2e, 0xd5, 0xf9, 0xba, 0x99, 0x0d, 0xbb, 0xd2, 0x18, 0x83, 0x95, 0x2f, 0xbc, 0x3f, 0x87, 0x4e, 0xe0, 0xef, 0x9c, 0xf8, 0x35, 0x1f, 0x70, 0x96, 0xab, 0x36, 0xd8, 0xc9, 0xf4, 0xa2, 0xf2, 0xe4, 0xf7, 0x98, 0x51, 0xae, 0x60, 0x2b, 0x19, 0x69, 0x98, 0x16, 0x4b, 0x6e, 0x65, 0xf8, 0xef, 0x41, 0x4c, 0x10, 0x54, 0x8d, 0x5f, 0x11, 0x33, 0xc0, 0x0c, 0x81, 0x03, 0x5c, 0xba, 0xc1, 0xd4, 0xd7, 0x2d, 0x3e, 0xe4, 0xa1, 0x33, 0xcb, 0x05, 0x27, 0x59, 0xa2, 0xc1, 0x42, 0xb9, 0xc9, 0x2c, 0xb3, 0xbb, 0xeb, 0x1a, 0x0b, 0xa5, 0xb0, 0x9c, 0x14, 0x36, 0xbe, 0x51, 0x37, 0x4a, 0x36, 0x0d, 0x2b, 0xc3, 0xd8, 0x55, 0xb7, 0xa2, 0x8d, 0x1d, 0x5d, 0x73, 0xae, 0x2c, 0x4c, 0xfe, 0x09, 0xce, 0xe5, 0x1b, 0x23, 0x3f, 0x06, 0x48, 0xb4, 0xdb, 0x44, 0x86, 0xcb, 0xde, 0x7f, 0xec, 0xf7, 0xaf, 0xda, 0x1d, 0xd9, 0xe9, 0x4e, 0x16, 0x4b, 0x5b, 0x57, 0x1c, 0xac, 0x58, 0xfe, 0xa4, 0xa0, 0x9c, 0xd8, 0x41, 0x04, 0xcf, 0x5a, 0xe5, 0x65, 0xc0, 0xfc, 0x6d, 0x7f, 0x99, 0x35, 0x1e, 0xc0, 0xde, 0xc4, 0x0e, 0x0b, 0xdb, 0xc3, 0xd9, 0xc6, 0x11, 0x18, 0x99, 0xa0, 0x21, 0xe6, 0xf0, 0x2e, 0x4a, 0x5f, 0x2b, 0x36, 0xbf, 0xb7, 0x23, 0xd0, 0x1e, 0x26, 0x5d, 0x09, 0x60, 0xc5, 0xfc, 0xcb, 0x2b, 0x34, 0xe1, 0xa8, 0x50, 0x0b, 0xcb, 0x3f, 0xce, 0xf1, 0xcd, 0x62, 0xc5, 0x49, 0x2d, 0xac, 0xe0, 0x2d, 0xab, 0x2f, 0x22, 0x9c, 0x07, 0xcc, 0xf5, 0x15, 0x3a, 0x41, 0xe5, 0x6c, 0x91, 0x53, 0xe1, 0xfd, 0x40, 0x10, 0xee, 0xf7, 0xaf, 0x12, 0x9d, 0xcf, 0x02, 0x5e, 0x36, 0xe3, 0xff, 0x26, 0xcf, 0x23, 0xb9, 0x5d, 0xeb, 0x4c, 0xf3, 0xc7, 0x5a, 0xb2, 0xdc, 0x0c, 0xb0, 0x14, 0x22, 0x40, 0x81, 0x0e, 0x44, 0x12, 0xc5, 0x15, 0x9f, 0xab, 0x67, 0xe9, 0xd3, 0xd0, 0x2d, 0xfd, 0x3e, 0x2b, 0x2c, 0xba, 0x52, 0x8a, 0x20, 0x55, 0x61, 0x31, 0x9e, 0x5b, 0xed, 0x3c, 0x56, 0xf6, 0xfe, 0x14, 0x9d, 0xbb, 0x79, 0xe4, 0x02, 0xdc, 0xbd, 0x67, 0x02, 0xe2, 0x50, 0xf4, 0x15, 0x06, 0x9d, 0xa2, 0xd7, 0xe2, 0x44, 0xf6, 0xa1, 0xa8, 0xc3, 0x08, 0x06, 0x26, 0xea, 0x4e, 0xe8, 0xb1, 0xd2, 0xcc, 0xdd, 0x9f, 0xc0, 0xdb, 0xe3, 0xb1, 0x7f, 0x4d, 0xac, 0xce, 0x49, 0xe8, 0xc3, 0x52, 0xa2, 0x41, 0x9d, 0x38, 0x6a, 0x04, 0x52, 0x23, 0xc0, 0x54, 0xc3, 0x1b, 0xd1, 0x04, 0x71, 0x38, 0xc5, 0xb9, 0xd7, 0x09, 0xf9, 0x50, 0x19, 0xb5, 0x81, 0x0e, 0xf4, 0xcd, 0x3b, 0xe1, 0x4a, 0xb1, 0x2a, 0x5f, 0x3a, 0x3d, 0x35, 0x2e, 0xc5, 0x36, 0x2b, 0x8f, 0xf0, 0x2f, 0xc4, 0x26, 0xad, 0x21, 0xc9, 0x3f, 0x02, 0xd3, 0x5e, 0xdd, 0xfe, 0x65, 0x16, 0x1e, 0x5a, 0xa4, 0xdf, 0xfa, 0xde, 0x48, 0x9e, 0x33, 0xdb, 0xf8, 0x93, 0x36, 0xd6, 0xe8, 0x09, 0x36, 0xa2, 0xc2, 0x1d, 0x0b, 0x29, 0x20, 0xca, 0x40, 0x1e, 0x10, 0x09, 0x38, 0x3f, 0x33, 0xe7, 0x37, 0x3b, 0x08, 0xe4, 0xce, 0x28, 0x33, 0xf0, 0xf3, 0x5c, 0x2e, 0xf9, 0x22, 0x0c, 0xc4, 0x8a, 0xac, 0xb1, 0xd8, 0xe1, 0xc0, 0x55, 0x5d, 0x22, 0x4f, 0xf8, 0xeb, 0x97, 0xe7, 0x9e, 0x09, 0x8f, 0xe0, 0x2c, 0xfe, 0xa3, 0x72, 0xd3, 0x44, 0x81, 0xa9, 0x5a, 0x09, 0x30, 0xee, 0x54, 0x1b, 0x8c, 0xab, 0x4c, 0xf9, 0x87, 0x95, 0x01, 0xaa, 0xa3, 0x8c, 0xd9, 0xb8, 0x3d, 0x2f, 0x2b, 0x3b, 0xdb, 0x51, 0xd2, 0xc8, 0x6c, 0x1d, 0x59, 0x42, 0xf1, 0x1b, 0xfe, 0xd7, 0x7c, 0xb5, 0xfa, 0x59, 0x4f, 0x6b, 0x0b, 0xfa, 0xcb, 0xd6, 0xd2, 0x5a, 0x08, 0x25, 0x9e, 0x4d, 0x01, 0xef, 0x2b, 0x19, 0x06, 0x2a, 0x3c, 0xd4, 0x7f, 0xd2, 0xd4, 0x95, 0xff, 0xec, 0xb9, 0xf0, 0x04, 0xca, 0xdb, 0xc5, 0x7a, 0x06, 0xd2, 0x47, 0x66, 0x08, 0x07, 0x22, 0x00, 0xd3, 0xfb, 0xb8, 0xda, 0xb0, 0x27, 0xf6, 0x60, 0xdc, 0xc1, 0x2f, 0xca, 0x07, 0x1b, 0x75, 0xf5, 0xd3, 0xc7, 0x1a, 0xf5, 0x54, 0x08, 0x0c, 0x08, 0x5c, 0xb8, 0x1b, 0x68, 0xae, 0x8e, 0x3d, 0xca, 0x45, 0x3c, 0xf5, 0x40, 0xb7, 0x6a, 0xfa, 0x0a, 0x68, 0x23, 0xb6, 0xc4, 0x34, 0x01, 0x63, 0x5c, 0xf6, 0xf6, 0x37, 0x62, 0x31, 0xe6, 0x81, 0xc1, 0x13, 0x51, 0xa6, 0xd8, 0x09, 0x02, 0x05, 0xe2, 0xa7, 0x3e, 0xa8, 0xc9, 0x1f, 0x65, 0xfa, 0xb9, 0xda, 0x0f, 0xdb, 0x79, 0xb1, 0xd6, 0x56, 0xc1, 0xac, 0x7f, 0x9b, 0x0d, 0xe5, 0x53, 0x33, 0xb4, 0x71, 0x7d, 0xad, 0x14, 0x89, 0xac, 0x63, 0x3d, 0x9f, 0x7c, 0x2a, 0x12, 0xa8, 0x50, 0xbc, 0xa7, 0xc5, 0xd6, 0xab, 0x75, 0xf4, 0xc0, 0x9d, 0x65, 0xff, 0x26, 0xd3, 0xa5, 0x23, 0x47, 0xa0, 0x8b, 0x2a, 0xcd, 0x5d, 0x17, 0x90, 0x6b, 0xbe, 0xe2, 0xdc, 0xa2, 0x63, 0x0d, 0xa0, 0x18, 0x7b, 0x35, 0x30, 0x9b, 0x10, 0xb2, 0xa2, 0xad, 0x7f, 0xcb, 0xa2, 0x3f, 0xed, 0x27, 0xf2, 0x08, 0x4d, 0xdf, 0x43, 0x03, 0xfa, 0xba, 0x34, 0x6f, 0xa9, 0x61, 0x4b, 0x10, 0x47, 0xd0, 0x57, 0x48, 0xb2, 0x2e, 0xdf, 0x29, 0xca, 0x81, 0x9a, 0x65, 0x31, 0x22, 0xa2, 0x1a, 0xf6, 0x6e, 0xf0, 0x45, 0xfb, 0xae, 0xa3, 0xf7, 0x88, 0x41, 0xf5, 0x89, 0xdc, 0xfc, 0x4a, 0x6b, 0xdf, 0xec, 0x22, 0xd5, 0x6a, 0x63, 0x1f, 0x18, 0xaf, 0x15, 0x5e, 0x27, 0x21, 0x4d, 0xbe, 0x65, 0x1a, 0xfb, 0x96, 0xe3, 0x33, 0xb2, 0x2a, 0x2f, 0x81, 0x5a, 0xe2, 0x5c, 0xaa, 0xd5, 0xb8, 0x4e, 0x62, 0x5b, 0x94, 0xf0, 0x43, 0xf8, 0x34, 0x41, 0x5c, 0x45, 0x03, 0xb1, 0x46, 0x77, 0x23, 0xef, 0x19, 0x1c, 0xe5, 0x53, 0x08, 0x6e, 0xdd, 0xc9, 0x47, 0xf7, 0x6c, 0x85, 0x1a, 0x0e, 0xcb, 0x60, 0x9e, 0xf9, 0xaa, 0x41, 0x4a, 0x21, 0x81, 0x95, 0xd7, 0xc1, 0x3b, 0x0a, 0x58, 0x5e, 0xec, 0xfe, 0xa0, 0x39, 0x78, 0x1a, 0x20, 0x26, 0x36, 0x0c, 0xb7, 0x26, 0xf8, 0xfa, 0x01, 0x5b, 0xae, 0xc8, 0xac, 0x1f, 0x3f, 0xcf, 0xa0, 0x79, 0xf1, 0x50, 0x3a, 0x2b, 0xc7, 0x05, 0x07, 0x75, 0xa0, 0x1a, 0xf8, 0x8c, 0xa9, 0xe1, 0x0b, 0xa2, 0x6c, 0x2e, 0xe6, 0x9c, 0x5b, 0xf9, 0x8b, 0x9d, 0xd3, 0xb6, 0x1f, 0x4f, 0x59, 0xfc, 0x9f, 0xb0, 0x51, 0x3a, 0x46, 0xc2, 0x1c, 0x1b, 0xd7, 0x47, 0x10, 0x9d, 0x3e, 0x08, 0x17, 0xa5, 0x3b, 0xff, 0xfa, 0xbc, 0xbf, 0xdc, 0xd3, 0xb4, 0x1c, 0x48, 0xcd, 0xc2, 0xfd, 0x6b, 0x39, 0xd5, 0xf5, 0x0b, 0x42, 0xb3, 0xbc, 0x81, 0x49, 0xba, 0x04, 0xf9, 0x18, 0x3a, 0x5a, 0x22, 0x1a, 0x24, 0xe1, 0xbf, 0x6a, 0x9d, 0x25, 0xe4, 0x2d, 0x5e, 0xe6, 0xff, 0xff, 0x04, 0x00, 0x00, 0x00, 0x40, 0x00, 0x00, 0x00, 0xf6, 0xff, 0xff, 0xff, 0x01, 0x00, 0x00, 0x00, 0xf8, 0xff, 0xff, 0xff, 0xfb, 0xff, 0xff, 0xff, 0x03, 0x00, 0x00, 0x00, 0x09, 0x00, 0x00, 0x00, 0x09, 0x00, 0x00, 0x00, 0x05, 0x00, 0x00, 0x00, 0x02, 0x00, 0x00, 0x00, 0xf9, 0xff, 0xff, 0xff, 0x0b, 0x00, 0x00, 0x00, 0xf7, 0xff, 0xff, 0xff, 0xfe, 0xff, 0xff, 0xff, 0xfd, 0xff, 0xff, 0xff, 0x10, 0x00, 0x00, 0x00, 0x02, 0x00, 0x00, 0x00, 0xaa, 0xe6, 0xff, 0xff, 0x04, 0x00, 0x00, 0x00, 0x00, 0x18, 0x00, 0x00, 0xc7, 0xf9, 0x98, 0x38, 0x85, 0x60, 0x95, 0xe4, 0xb9, 0x47, 0xc9, 0xec, 0x93, 0x41, 0x5a, 0x1a, 0xd4, 0xae, 0xbf, 0x4b, 0x2c, 0xa9, 0x91, 0x26, 0xdf, 0x60, 0x15, 0x4f, 0xc1, 0x49, 0xf7, 0xa3, 0x93, 0xa2, 0x96, 0x31, 0xe1, 0x66, 0x02, 0x63, 0x5f, 0x89, 0x4e, 0x95, 0x2f, 0x18, 0xe5, 0xd3, 0x60, 0xc3, 0x99, 0xf4, 0x4f, 0xe9, 0x1c, 0x1d, 0xbb, 0x0c, 0x2c, 0x4b, 0x40, 0x95, 0x87, 0x8c, 0x53, 0xd0, 0xcb, 0xba, 0x98, 0x08, 0xb4, 0xd0, 0x28, 0xbd, 0xaa, 0x08, 0x08, 0x90, 0xff, 0xe9, 0x10, 0xcd, 0xe2, 0xc2, 0x04, 0x5f, 0xd5, 0x4c, 0x4c, 0xb1, 0x34, 0x31, 0x52, 0xd7, 0xaf, 0x27, 0xd1, 0x8c, 0xfb, 0xdc, 0xca, 0x38, 0x0f, 0xb3, 0x35, 0x51, 0x55, 0xe9, 0xa9, 0xff, 0xdb, 0x5a, 0xba, 0x23, 0x10, 0x9c, 0x93, 0xb0, 0xf4, 0x5c, 0xb9, 0x06, 0x34, 0x68, 0x50, 0xfc, 0x54, 0xd3, 0x1f, 0x9a, 0xd4, 0x29, 0x1e, 0x1e, 0xcf, 0x9b, 0x0d, 0xab, 0x1a, 0x21, 0x14, 0x8c, 0x25, 0x0e, 0x91, 0xd2, 0xd4, 0xaa, 0x6b, 0xb8, 0x0c, 0x9e, 0xd8, 0xdb, 0xd1, 0x55, 0xcf, 0x06, 0xed, 0x81, 0x1c, 0x10, 0x2a, 0xa3, 0x33, 0x12, 0x67, 0xa7, 0x12, 0x84, 0x64, 0x1a, 0x20, 0x5f, 0x9f, 0x41, 0xa2, 0xd4, 0xb3, 0x2f, 0x04, 0xc6, 0x36, 0xf4, 0x62, 0x69, 0xe3, 0x3b, 0xb9, 0x2d, 0xdf, 0xdf, 0xfe, 0x1a, 0xc7, 0xfb, 0x52, 0x9b, 0x04, 0xca, 0x33, 0x16, 0x2d, 0x2f, 0xee, 0x5a, 0xf7, 0xf5, 0xcc, 0x83, 0xe4, 0xd8, 0x1b, 0xf9, 0xbc, 0x06, 0x60, 0x48, 0x38, 0x99, 0xa3, 0x18, 0xf4, 0x31, 0xcf, 0x49, 0xed, 0x57, 0x23, 0x06, 0xa9, 0x52, 0xca, 0xb4, 0xaf, 0x55, 0x28, 0xe2, 0x56, 0x1c, 0xa2, 0x61, 0xd7, 0x02, 0xb3, 0x05, 0x07, 0xc5, 0xdb, 0x16, 0xb5, 0xe2, 0xdd, 0xc8, 0xda, 0x0c, 0xcc, 0xc1, 0x07, 0xc1, 0x18, 0xd3, 0xb5, 0xe8, 0x5b, 0xb7, 0x42, 0xec, 0xb7, 0xf0, 0x32, 0x62, 0x8e, 0x49, 0x16, 0xaa, 0x6f, 0x2f, 0x16, 0x44, 0xd0, 0x3d, 0x9a, 0x1b, 0xc7, 0xa9, 0xd4, 0x03, 0x33, 0x42, 0x2b, 0xe5, 0x5d, 0xce, 0xc5, 0x48, 0x3b, 0x8a, 0xa7, 0x93, 0x3e, 0xaa, 0xc9, 0xbf, 0xda, 0x5a, 0xf3, 0xe3, 0x21, 0xab, 0xc7, 0x1e, 0x88, 0x0e, 0x6b, 0xbf, 0x4e, 0x69, 0x2c, 0xea, 0x2b, 0x4c, 0x32, 0x69, 0x48, 0xf6, 0x0f, 0xa0, 0x33, 0x59, 0xe5, 0x47, 0x87, 0xe3, 0x65, 0x96, 0xec, 0x64, 0x57, 0x2e, 0x0c, 0x5b, 0x0a, 0x99, 0xf9, 0x3a, 0x21, 0xeb, 0xab, 0xb1, 0x9d, 0x4c, 0xff, 0xbc, 0xe1, 0xd2, 0xd4, 0x0a, 0xe8, 0xc8, 0xa3, 0x8e, 0x50, 0xfe, 0xec, 0xcd, 0x3c, 0x1e, 0x4e, 0x5e, 0x01, 0xd5, 0x54, 0x09, 0xb8, 0xea, 0xca, 0x2b, 0xc2, 0x34, 0xd8, 0x07, 0x65, 0xcb, 0xed, 0xcb, 0x2d, 0x4e, 0x9a, 0x0a, 0x84, 0x89, 0x20, 0x9d, 0x55, 0x64, 0x0e, 0xba, 0xa4, 0x92, 0x11, 0x9e, 0x89, 0x61, 0x16, 0x17, 0x0e, 0xf7, 0x1f, 0x18, 0xa3, 0xbd, 0xcf, 0xde, 0xe5, 0xc4, 0x69, 0x89, 0xb9, 0x5f, 0xac, 0x0a, 0x43, 0x9d, 0x21, 0xfc, 0x6b, 0xb0, 0x34, 0xd2, 0x31, 0x2f, 0xb8, 0xfd, 0x03, 0x1d, 0xcc, 0x4d, 0x3b, 0x09, 0x89, 0xd4, 0xc1, 0x5e, 0x9d, 0xea, 0x87, 0x2a, 0xd7, 0x1d, 0x41, 0x1b, 0xef, 0x4a, 0xd6, 0x63, 0x27, 0x63, 0x4e, 0xb3, 0x8a, 0xdf, 0xbe, 0x58, 0x41, 0xd1, 0x66, 0x6d, 0xd1, 0xa1, 0x81, 0xc1, 0x85, 0xe3, 0xf4, 0x92, 0x14, 0xf6, 0x98, 0xa6, 0xb9, 0xaf, 0x15, 0xb2, 0xc3, 0x66, 0x0a, 0xfe, 0x8e, 0x5a, 0x55, 0xbf, 0x8e, 0x9e, 0xa1, 0x90, 0x9d, 0xc6, 0xd3, 0x57, 0x20, 0xe3, 0xbb, 0x27, 0xce, 0x55, 0x90, 0xa6, 0x2d, 0x96, 0x83, 0xab, 0x52, 0x8c, 0x63, 0xde, 0x1c, 0x61, 0xda, 0xa3, 0x00, 0xfd, 0xf4, 0xdf, 0x99, 0x69, 0xd4, 0x98, 0x3d, 0x94, 0xe3, 0x9d, 0x17, 0x3e, 0x0a, 0x27, 0x41, 0xac, 0xf4, 0x60, 0x13, 0xc1, 0xd8, 0x55, 0x2a, 0xc1, 0x51, 0x96, 0x43, 0x08, 0x2a, 0xc0, 0x2a, 0xb4, 0xf8, 0xf8, 0xc9, 0x3c, 0xdf, 0xd0, 0x36, 0xd6, 0x93, 0x50, 0xf3, 0x44, 0x0b, 0xa6, 0x98, 0xde, 0x3f, 0xfe, 0x48, 0xc0, 0x8d, 0xe8, 0x27, 0xb9, 0xb5, 0x68, 0x6e, 0xb1, 0x6a, 0xea, 0x23, 0xda, 0x61, 0x44, 0x05, 0x49, 0xd9, 0x0b, 0x47, 0x43, 0xe3, 0xa0, 0x4a, 0x86, 0xc1, 0x22, 0xa2, 0xbd, 0xfc, 0x44, 0xc1, 0xba, 0xd4, 0xec, 0xd0, 0xca, 0xf8, 0x98, 0x30, 0x89, 0xdb, 0xa9, 0x02, 0x0b, 0x10, 0x37, 0x13, 0x8d, 0xef, 0xd3, 0xb2, 0x5b, 0x16, 0xe8, 0x95, 0xb5, 0xf2, 0xcf, 0xfe, 0x5a, 0x3f, 0x5f, 0x16, 0xcd, 0x41, 0xe9, 0x2a, 0x41, 0xb1, 0xb5, 0xc8, 0xc8, 0x19, 0xe6, 0x89, 0x88, 0x62, 0x86, 0x8b, 0x27, 0x18, 0x03, 0x6a, 0xd4, 0x35, 0x18, 0xd8, 0x86, 0xf4, 0x50, 0xb0, 0x18, 0xaf, 0x0d, 0x31, 0xef, 0xc6, 0x37, 0x3d, 0xd1, 0xaf, 0x93, 0x8e, 0x2c, 0x5a, 0x5e, 0x3e, 0x39, 0x93, 0xdc, 0x66, 0x58, 0x90, 0x0a, 0xca, 0x89, 0x32, 0x5b, 0xea, 0x16, 0x95, 0x8d, 0x63, 0x82, 0xa2, 0x94, 0x3c, 0xd2, 0x4b, 0x4a, 0xe9, 0x6a, 0x3b, 0xe2, 0x96, 0x1a, 0x39, 0xf4, 0x38, 0x39, 0x2f, 0x61, 0x3f, 0x5c, 0x14, 0x59, 0x6b, 0x0b, 0xac, 0xb2, 0x72, 0x3e, 0x1d, 0xda, 0x6e, 0x56, 0xa3, 0xd2, 0xf7, 0xcc, 0xb6, 0x06, 0x18, 0xed, 0x60, 0x0b, 0x4c, 0xb5, 0x91, 0x18, 0xe1, 0x96, 0x13, 0x9d, 0x32, 0xef, 0x08, 0x8d, 0xd4, 0xf7, 0xdf, 0x0c, 0xe2, 0x66, 0x0c, 0x96, 0x3f, 0xd4, 0xbd, 0xee, 0x15, 0x6d, 0xd7, 0x60, 0xb3, 0x49, 0x1a, 0x1a, 0x06, 0x5b, 0xf4, 0xd9, 0x40, 0xd5, 0xa8, 0xca, 0x66, 0x07, 0x4a, 0xdc, 0x22, 0xec, 0xbf, 0x32, 0xe4, 0xff, 0x4d, 0xce, 0xf1, 0x24, 0x1a, 0xf5, 0x48, 0x51, 0x3e, 0x0c, 0xcd, 0xe4, 0xf7, 0x4b, 0x1c, 0xe7, 0x48, 0x05, 0x10, 0xa2, 0xd0, 0xf3, 0x16, 0x44, 0xba, 0x46, 0x55, 0xf2, 0xa6, 0x11, 0x1a, 0xb6, 0x0d, 0xca, 0xbd, 0x3f, 0xa8, 0x50, 0x65, 0x44, 0xe3, 0x4c, 0xc9, 0x08, 0x0e, 0xfa, 0xe4, 0x91, 0xbe, 0xb8, 0xa1, 0xb1, 0x3d, 0xea, 0xe4, 0xe8, 0x11, 0xf1, 0x48, 0x0a, 0x14, 0x28, 0x2b, 0x99, 0x92, 0xa7, 0xa6, 0x10, 0xda, 0x37, 0x19, 0x4e, 0x55, 0x0c, 0xfc, 0x0d, 0x3d, 0x3b, 0x04, 0x57, 0x02, 0xfc, 0x11, 0xbf, 0x0c, 0x64, 0xea, 0xbd, 0x30, 0xf6, 0xad, 0x50, 0xc0, 0xd2, 0x2e, 0xe3, 0x2f, 0x9c, 0x05, 0x4f, 0x2b, 0xa7, 0x9d, 0x53, 0x11, 0x73, 0x19, 0xed, 0x54, 0x4e, 0xb9, 0x23, 0x67, 0x9e, 0xe5, 0xf6, 0xe4, 0x9c, 0x22, 0xc8, 0x0c, 0xbe, 0x2c, 0xad, 0x16, 0xe2, 0xfb, 0x34, 0x59, 0x1a, 0x15, 0x2a, 0xaa, 0x01, 0x45, 0xc3, 0xe5, 0x23, 0xed, 0xfe, 0xdf, 0xfe, 0xd5, 0xc8, 0x1c, 0x41, 0x06, 0x15, 0xc0, 0xfe, 0xed, 0xd4, 0x19, 0xe6, 0x34, 0xb7, 0xdd, 0xd3, 0xbe, 0xb2, 0xd1, 0xd0, 0xc2, 0xce, 0x24, 0xe8, 0xcd, 0xe5, 0x07, 0x2d, 0xdf, 0xff, 0x5d, 0x1b, 0xa2, 0x09, 0x22, 0xca, 0xb6, 0x53, 0x7f, 0x62, 0xbe, 0x2a, 0x08, 0x31, 0x1a, 0xe5, 0x4b, 0xa9, 0xf6, 0x4f, 0xad, 0xb9, 0xa2, 0x62, 0xa7, 0xdc, 0xe1, 0xb9, 0x3f, 0x04, 0xd2, 0xa2, 0xe5, 0xb4, 0x22, 0xeb, 0x44, 0x17, 0x14, 0x0b, 0xc2, 0xfa, 0x2e, 0x18, 0xc4, 0x09, 0xf7, 0xb3, 0xc1, 0xec, 0xf7, 0x67, 0xc4, 0xe6, 0xe9, 0xf5, 0x2f, 0xc3, 0xd6, 0x61, 0x1d, 0xdb, 0xce, 0xea, 0xe0, 0x44, 0x51, 0x02, 0xee, 0x37, 0xbe, 0x23, 0x87, 0x3a, 0xff, 0xfd, 0xc9, 0x5f, 0x19, 0x0c, 0xd0, 0xbd, 0x13, 0x89, 0xa3, 0x3f, 0xd9, 0x39, 0xed, 0xc8, 0xce, 0x5a, 0x28, 0x04, 0xbe, 0x18, 0xb5, 0x65, 0x5f, 0xff, 0xbc, 0xe1, 0x3c, 0xa4, 0x20, 0x54, 0x2b, 0x2e, 0xc1, 0x00, 0x28, 0xbd, 0xc6, 0xd8, 0x57, 0x54, 0x05, 0xe8, 0xf0, 0xdd, 0xca, 0x51, 0xd9, 0x22, 0xd8, 0x0d, 0x2a, 0xc3, 0x56, 0xf2, 0xaa, 0x20, 0xbc, 0xcd, 0x47, 0x36, 0xca, 0x69, 0xd4, 0xe5, 0xfc, 0xc5, 0x00, 0x0f, 0xb6, 0xd6, 0x3f, 0xd0, 0xe2, 0x4d, 0xd1, 0x60, 0xb5, 0xe6, 0x1c, 0xf5, 0xd9, 0xc5, 0xee, 0x2c, 0x5e, 0xa6, 0xfc, 0xca, 0x62, 0x1c, 0x0f, 0x30, 0x19, 0x38, 0x3f, 0xb8, 0x5c, 0xa8, 0x49, 0xd8, 0xcf, 0x0f, 0x67, 0x2b, 0x54, 0x6a, 0x3d, 0xc0, 0x51, 0xbb, 0xfc, 0xfc, 0x47, 0x46, 0x1b, 0xda, 0xf7, 0x2b, 0xcf, 0xf5, 0x2c, 0x62, 0xfc, 0x43, 0x90, 0xad, 0xbe, 0x5a, 0xc8, 0xfe, 0xa3, 0xe4, 0xb2, 0xc6, 0x5a, 0xc1, 0xd0, 0xbe, 0x29, 0x6d, 0x3b, 0x5d, 0xd7, 0xe6, 0x46, 0x9f, 0x9d, 0x90, 0x75, 0x8d, 0x5d, 0xd8, 0xab, 0x08, 0xc5, 0xfd, 0x6a, 0xf2, 0xaa, 0xf6, 0xc0, 0x29, 0xdf, 0xd1, 0x11, 0x9c, 0xc8, 0xe5, 0xb3, 0x2f, 0x61, 0x90, 0xf9, 0x35, 0x9c, 0x85, 0xad, 0xc8, 0x1f, 0x11, 0xc1, 0x3b, 0x42, 0xbd, 0x46, 0x5a, 0x21, 0xcd, 0x40, 0x3e, 0xd9, 0xa4, 0xa8, 0xb6, 0xb9, 0xb2, 0xdb, 0x1f, 0xda, 0x89, 0xb1, 0x96, 0x17, 0xe4, 0xd1, 0x2c, 0x57, 0xf2, 0x3e, 0x15, 0x4e, 0x41, 0x91, 0x27, 0x65, 0x95, 0xeb, 0x92, 0x15, 0x96, 0x97, 0xe7, 0x36, 0x9b, 0x6b, 0xf3, 0xe1, 0xc0, 0x58, 0x9e, 0xaa, 0xb9, 0xdf, 0xc1, 0xb3, 0x6b, 0xb8, 0x29, 0x4c, 0x48, 0xa3, 0x9d, 0x67, 0x48, 0x5a, 0x93, 0xfd, 0x97, 0x42, 0x10, 0x05, 0xf4, 0x40, 0xc5, 0xa5, 0xfb, 0x47, 0xcd, 0x2c, 0x67, 0x97, 0x60, 0xd4, 0x77, 0x5d, 0x2b, 0x0b, 0xa6, 0xb2, 0x6d, 0x52, 0x67, 0x2e, 0x02, 0xa4, 0xd1, 0xce, 0x67, 0xde, 0xf2, 0x98, 0x21, 0x6c, 0x6f, 0xf5, 0x40, 0x0f, 0x0c, 0xb4, 0x15, 0x91, 0xe2, 0xc5, 0xac, 0xdd, 0x40, 0x51, 0x0e, 0xf5, 0x3a, 0x81, 0xfc, 0xf5, 0x2c, 0x8e, 0xed, 0x2f, 0x04, 0xfb, 0x53, 0xb5, 0x23, 0xf4, 0x43, 0xc3, 0x3b, 0x9c, 0xbe, 0x33, 0xc8, 0x3d, 0xfa, 0x40, 0xf9, 0x5d, 0xa6, 0xd5, 0x39, 0x4f, 0xa3, 0x50, 0x90, 0x49, 0x30, 0x26, 0x6e, 0x61, 0x24, 0x6a, 0x8a, 0x4d, 0x8e, 0xd6, 0x4f, 0xa6, 0x14, 0xa2, 0x6d, 0xcc, 0xd4, 0xc4, 0x0c, 0x45, 0xe3, 0x3a, 0x0e, 0x71, 0xa7, 0x16, 0xff, 0xb9, 0xbe, 0x8c, 0xe5, 0xe3, 0x88, 0x6b, 0xdb, 0xb9, 0xdb, 0x93, 0xe7, 0x49, 0x13, 0x53, 0xd0, 0xb9, 0xa2, 0x3f, 0xf4, 0x3b, 0xa1, 0xcc, 0xe1, 0x4e, 0x42, 0x0d, 0xea, 0x55, 0x61, 0xbb, 0xc0, 0x03, 0xcf, 0xc2, 0x4d, 0x1e, 0xa3, 0x40, 0xad, 0xa9, 0x11, 0xba, 0xdd, 0x93, 0x56, 0xff, 0x04, 0x16, 0x36, 0x07, 0xd1, 0x54, 0x95, 0x16, 0xe6, 0x16, 0x10, 0xcd, 0x58, 0xb9, 0x56, 0x49, 0xca, 0x12, 0x89, 0x45, 0x98, 0x59, 0xcf, 0x07, 0xca, 0xa7, 0x41, 0x31, 0xa7, 0x11, 0x22, 0x5c, 0xd4, 0xcb, 0x24, 0xe5, 0x92, 0x97, 0xcf, 0x08, 0x1d, 0x41, 0xd4, 0x03, 0x93, 0x3b, 0x8e, 0x91, 0x43, 0x29, 0xe8, 0x20, 0x5f, 0x9d, 0x34, 0x28, 0x68, 0x09, 0x53, 0x5d, 0x36, 0xb1, 0x4c, 0xe7, 0x25, 0xfb, 0x21, 0x33, 0xfd, 0x6c, 0x6f, 0x16, 0xd1, 0xae, 0x15, 0x5f, 0x28, 0x99, 0x4f, 0xc1, 0xc1, 0x4b, 0x99, 0x00, 0x07, 0x3a, 0xc0, 0x8c, 0x8a, 0x86, 0x1f, 0xae, 0xf1, 0x15, 0x41, 0x00, 0xc8, 0x27, 0x5c, 0x3d, 0x4a, 0xbf, 0x24, 0x00, 0xc3, 0xc3, 0x45, 0xc9, 0x4a, 0x18, 0xb1, 0x37, 0x2e, 0x00, 0x4d, 0xfe, 0x2c, 0x0e, 0xf8, 0x10, 0x2d, 0xec, 0x0c, 0xdd, 0xf3, 0xff, 0x30, 0x03, 0x08, 0xba, 0xfd, 0x56, 0x33, 0xe0, 0x0b, 0x57, 0xf3, 0x3c, 0x11, 0xba, 0xf6, 0x2b, 0x2c, 0x0e, 0x36, 0xdf, 0xe2, 0x04, 0x3e, 0x2b, 0xc8, 0xde, 0xe0, 0x3c, 0x1a, 0x22, 0xd0, 0x0c, 0xc3, 0x07, 0xe1, 0x35, 0x37, 0x01, 0xf8, 0x62, 0x54, 0xdc, 0xc0, 0x29, 0x2a, 0xfa, 0xb2, 0x4d, 0x3f, 0xcb, 0x18, 0x39, 0x26, 0x3b, 0x19, 0x11, 0x58, 0x32, 0xfc, 0xb1, 0x59, 0x05, 0x01, 0x22, 0x06, 0xd2, 0x94, 0xcb, 0x5a, 0xdf, 0x31, 0xca, 0x22, 0x16, 0x31, 0xc5, 0xfc, 0xb3, 0x13, 0x0d, 0x45, 0x41, 0x19, 0x0f, 0x4a, 0xf5, 0xfc, 0xeb, 0x06, 0x47, 0xd3, 0x09, 0x15, 0xd6, 0xd7, 0x3c, 0x16, 0xbd, 0x5e, 0xb7, 0x7f, 0xc9, 0x2b, 0x14, 0xf1, 0x40, 0x0c, 0xf5, 0x4b, 0xaa, 0x0e, 0xd0, 0xbb, 0x4a, 0x21, 0x1f, 0xe7, 0xb5, 0xbe, 0x1b, 0x2a, 0x02, 0x32, 0xca, 0xc1, 0xf4, 0xbc, 0xf4, 0xc1, 0x22, 0xd6, 0xf4, 0x26, 0x04, 0xe8, 0x60, 0x40, 0x18, 0xbf, 0xf0, 0x1e, 0xc2, 0xe8, 0x40, 0x09, 0x28, 0x7e, 0x36, 0xf4, 0x36, 0xf5, 0xe4, 0xfb, 0xb7, 0x53, 0xfc, 0xf1, 0xde, 0x26, 0xe6, 0x3f, 0x53, 0xc2, 0x31, 0xda, 0xf0, 0xd5, 0x06, 0xfb, 0xf0, 0xe9, 0x08, 0x26, 0x3e, 0x3b, 0x14, 0xbc, 0x5e, 0x19, 0x06, 0x31, 0x0b, 0x0a, 0xea, 0x19, 0xd5, 0xe3, 0xf4, 0x26, 0xf0, 0xee, 0xcd, 0xcb, 0x0b, 0x43, 0x46, 0xfc, 0x0f, 0xe9, 0x51, 0xe7, 0x05, 0xcf, 0x10, 0x1c, 0xac, 0xe0, 0x41, 0xe9, 0x02, 0x2d, 0x0e, 0x02, 0xe0, 0xeb, 0xc0, 0xae, 0xc5, 0x35, 0xd8, 0x47, 0xbe, 0xd6, 0xca, 0xfc, 0xdc, 0x25, 0xcc, 0xec, 0xdf, 0x15, 0x55, 0x27, 0x16, 0x37, 0x07, 0xfb, 0x40, 0x0b, 0x03, 0x2b, 0x98, 0xed, 0x04, 0x36, 0x57, 0x2a, 0x0f, 0x2b, 0xa7, 0xbf, 0xf6, 0x19, 0xc0, 0xeb, 0xf1, 0x44, 0xf8, 0x2d, 0x4f, 0xad, 0xe0, 0x1a, 0x0c, 0xd8, 0x26, 0x22, 0xf3, 0xc2, 0x18, 0x0d, 0x3f, 0x06, 0xd5, 0xc5, 0xcc, 0x32, 0xb8, 0xc2, 0x12, 0x22, 0xd7, 0x97, 0x20, 0x3c, 0xf7, 0x1f, 0x03, 0xf1, 0xdf, 0xe6, 0xf1, 0xdf, 0x38, 0xef, 0xe5, 0xbc, 0xd0, 0x3e, 0x0b, 0x03, 0x49, 0xe8, 0xb2, 0x17, 0x14, 0x33, 0xb6, 0xc8, 0x12, 0x06, 0x20, 0x49, 0xd5, 0x2b, 0x00, 0x24, 0xd9, 0xfe, 0x33, 0x23, 0xd1, 0x43, 0x40, 0xdb, 0x36, 0x24, 0xa6, 0x1c, 0xb7, 0xc5, 0x40, 0xbd, 0xa7, 0xbe, 0xf6, 0x32, 0xd0, 0x29, 0x1f, 0xe6, 0x41, 0x10, 0x12, 0x1c, 0xe9, 0xb9, 0x18, 0xbc, 0xaf, 0xd1, 0x17, 0xca, 0x0c, 0x1a, 0x0b, 0x1b, 0xe8, 0xff, 0xb7, 0x26, 0x51, 0x18, 0x01, 0x34, 0x1d, 0xfb, 0xdb, 0x06, 0x4b, 0x2c, 0x1e, 0x38, 0x4a, 0x52, 0xd0, 0xfe, 0xd8, 0x3d, 0xf8, 0xfc, 0x24, 0xca, 0x36, 0xa8, 0xf9, 0x33, 0xf4, 0x42, 0x4d, 0x06, 0xf5, 0x1c, 0x1d, 0x4c, 0x2c, 0xfc, 0x42, 0xf8, 0xaf, 0x09, 0x11, 0x1e, 0x20, 0x3b, 0xfc, 0xb0, 0x1d, 0xe0, 0xb8, 0xb3, 0x1e, 0x10, 0xfc, 0x1a, 0xb8, 0x1e, 0x17, 0xb1, 0xd0, 0x61, 0x55, 0xb8, 0x58, 0x3e, 0x3b, 0xf4, 0x18, 0x0a, 0xd2, 0xc5, 0x16, 0x45, 0xb0, 0x49, 0x38, 0xd7, 0xee, 0xf5, 0x26, 0x2f, 0xd4, 0xf3, 0xbb, 0x29, 0x2a, 0xc4, 0x04, 0x33, 0x1f, 0xb0, 0xed, 0x14, 0xd1, 0x47, 0xd5, 0xa1, 0xb0, 0xd6, 0x16, 0x33, 0xfc, 0x05, 0xf4, 0xfc, 0x0d, 0xc7, 0x34, 0x50, 0xee, 0xf0, 0xd7, 0x52, 0xb0, 0xde, 0x35, 0xc6, 0x36, 0x14, 0x31, 0x0c, 0x2c, 0xcc, 0x33, 0x42, 0xdd, 0xb2, 0xfa, 0x42, 0x12, 0x56, 0xee, 0xce, 0xbc, 0xdf, 0xde, 0xd8, 0xc1, 0xc2, 0x09, 0xd8, 0xda, 0x16, 0x0e, 0x3d, 0x1b, 0x51, 0xd4, 0x03, 0xf6, 0xb7, 0x39, 0xfb, 0x12, 0xeb, 0xfc, 0xde, 0xfe, 0xd3, 0x23, 0x45, 0xcf, 0xef, 0xf5, 0x3c, 0xb2, 0xec, 0xf0, 0xeb, 0xde, 0x49, 0x61, 0x1a, 0xd8, 0xc0, 0x0b, 0xdd, 0x32, 0xf3, 0x32, 0xbd, 0xc1, 0x46, 0xb9, 0x1d, 0x1b, 0xe2, 0x06, 0x04, 0x11, 0xfc, 0xca, 0xae, 0xeb, 0xed, 0xbc, 0x36, 0xce, 0xda, 0x1b, 0xe2, 0xe0, 0xdd, 0xeb, 0x47, 0xd4, 0x1a, 0x56, 0x14, 0xc2, 0x30, 0xc8, 0xe2, 0x37, 0xe2, 0x23, 0x0b, 0x35, 0x22, 0x33, 0x55, 0xd9, 0xf9, 0x55, 0xba, 0xcc, 0x57, 0xb3, 0xce, 0x4a, 0xe5, 0x2b, 0xbb, 0xda, 0x73, 0x18, 0x29, 0x05, 0x4f, 0xf0, 0x39, 0x0a, 0x41, 0xdd, 0xcd, 0x09, 0xbd, 0xcd, 0xd2, 0xe4, 0xe6, 0xdb, 0x35, 0xed, 0x30, 0x31, 0x20, 0x17, 0xc5, 0x10, 0x11, 0x10, 0xb0, 0x1d, 0x28, 0x33, 0xf4, 0x02, 0x5d, 0xfc, 0xc7, 0x3d, 0x04, 0x27, 0xc1, 0x01, 0x0d, 0x33, 0x13, 0x04, 0x0d, 0x5e, 0x1a, 0xfa, 0x12, 0x4e, 0xcf, 0x32, 0x1b, 0xd5, 0x3c, 0x11, 0xef, 0x17, 0xdd, 0x48, 0x11, 0x2c, 0x33, 0x26, 0xf7, 0x0b, 0x33, 0x7f, 0xe1, 0xce, 0xe5, 0x1b, 0x33, 0x33, 0xc4, 0xe6, 0x21, 0xd0, 0x24, 0x42, 0x26, 0x23, 0xb6, 0x29, 0xf0, 0x3c, 0x51, 0xfb, 0x47, 0x0c, 0xb8, 0xb0, 0x18, 0xd2, 0xec, 0xe9, 0xe8, 0x13, 0x48, 0xca, 0x26, 0x0b, 0xf4, 0xba, 0x3b, 0xf3, 0xe6, 0x36, 0x1a, 0xbd, 0x42, 0x30, 0x3c, 0xfc, 0x3f, 0x46, 0xcb, 0xba, 0xd0, 0xc3, 0xeb, 0x1b, 0x45, 0xdb, 0xb4, 0x2b, 0x4f, 0xfd, 0x3c, 0xef, 0xd3, 0xc3, 0x32, 0xd1, 0xf6, 0xb6, 0xd6, 0x35, 0x0a, 0xc7, 0xe5, 0x71, 0xed, 0x4c, 0xb1, 0xe8, 0xa0, 0x0e, 0xd5, 0x47, 0xf9, 0x4c, 0xfd, 0x16, 0xbb, 0x63, 0xbe, 0x54, 0x51, 0x73, 0xf1, 0xf6, 0xbd, 0xad, 0xd2, 0xf2, 0xb8, 0x29, 0xac, 0x2d, 0xa8, 0x63, 0xc4, 0x3e, 0xd3, 0xed, 0x4a, 0x98, 0x60, 0xc1, 0xfc, 0xbd, 0x34, 0x48, 0xcd, 0x3d, 0x94, 0x64, 0xbe, 0x81, 0xde, 0x1e, 0x20, 0xcb, 0xb8, 0x52, 0x9c, 0x58, 0x9b, 0xc3, 0xb1, 0x4d, 0xe8, 0xc0, 0xfe, 0xf9, 0x13, 0x0e, 0x68, 0xfd, 0xee, 0x06, 0xc4, 0x96, 0x27, 0xc2, 0xa7, 0xf4, 0x44, 0xf6, 0xbe, 0xef, 0xcb, 0xea, 0xde, 0x05, 0x9e, 0x37, 0x8e, 0x4d, 0x15, 0x11, 0xea, 0x0c, 0xf6, 0x01, 0xaa, 0xd9, 0xc8, 0x42, 0x93, 0xb8, 0xc0, 0x29, 0xcd, 0xd7, 0x1a, 0xfe, 0xfa, 0x55, 0xae, 0x26, 0x2a, 0xc3, 0x29, 0xe6, 0xf6, 0xa5, 0xbe, 0xdf, 0x54, 0x13, 0x28, 0xb2, 0x2e, 0xd6, 0x1e, 0x62, 0x50, 0xa9, 0x14, 0xf0, 0x28, 0x93, 0x99, 0x1f, 0xeb, 0xaf, 0xd8, 0x20, 0x13, 0xee, 0x2f, 0xf5, 0x53, 0xd5, 0xa5, 0x2a, 0x1e, 0x38, 0x27, 0xe4, 0x0e, 0xe4, 0xe9, 0xe6, 0x22, 0xcb, 0xe7, 0xc3, 0xe4, 0x11, 0xc1, 0x3f, 0xd3, 0xbc, 0xa7, 0x47, 0x17, 0x17, 0x57, 0xfd, 0xed, 0xab, 0x38, 0x52, 0xb1, 0x0f, 0x4b, 0x5a, 0x68, 0x4b, 0xea, 0x0b, 0xa9, 0xa4, 0x0f, 0x5c, 0xd0, 0x59, 0xf7, 0x16, 0x2a, 0xc4, 0x37, 0x17, 0xde, 0xa5, 0x3b, 0xae, 0x33, 0x06, 0x54, 0x0b, 0x0a, 0x05, 0x99, 0x52, 0xae, 0xb4, 0x04, 0xfb, 0x3c, 0x99, 0x25, 0xef, 0xfd, 0x60, 0x0e, 0xd4, 0xb0, 0xd9, 0x2c, 0x10, 0x1a, 0x13, 0x67, 0x13, 0x0f, 0x57, 0x34, 0x08, 0xf1, 0xd6, 0x61, 0x9e, 0x3c, 0xa7, 0x12, 0xd8, 0x4d, 0x2c, 0x74, 0x3e, 0xf8, 0xcc, 0x44, 0xef, 0x49, 0x63, 0x9c, 0x35, 0x41, 0xa3, 0xc2, 0xdd, 0xa3, 0x45, 0x01, 0xc5, 0x97, 0x91, 0x20, 0xab, 0x38, 0x4c, 0xde, 0x5d, 0x44, 0x05, 0xe8, 0xe5, 0xd4, 0x32, 0xd9, 0x5f, 0xec, 0x3b, 0xd3, 0xf9, 0x39, 0xe9, 0xda, 0xb0, 0x04, 0x46, 0x15, 0xa1, 0xb8, 0xff, 0xd0, 0x46, 0xf1, 0x2a, 0xe2, 0x0a, 0xe1, 0x20, 0x53, 0xd4, 0x29, 0x1d, 0x26, 0xc1, 0x22, 0x0d, 0x2e, 0xc7, 0xea, 0x28, 0x3d, 0x3e, 0x31, 0x13, 0x40, 0xd4, 0xa9, 0xba, 0xfc, 0xf5, 0xaa, 0x1b, 0xfd, 0x5c, 0xdc, 0xc7, 0xd4, 0x99, 0xe5, 0xe5, 0xb7, 0x28, 0x9e, 0x13, 0xc0, 0xc2, 0x9c, 0xde, 0xf5, 0x5a, 0xa8, 0xd2, 0x0f, 0xbc, 0x1a, 0xb9, 0xe9, 0x4e, 0x01, 0x3f, 0xb2, 0x0d, 0xb7, 0xfb, 0xe8, 0x2e, 0xe1, 0x53, 0x24, 0xd9, 0xbe, 0xc3, 0xcd, 0xcc, 0x06, 0xb2, 0xf9, 0xa4, 0xa5, 0xcf, 0x53, 0x55, 0xd9, 0x34, 0x40, 0x97, 0x0b, 0x37, 0xbd, 0x4a, 0x3c, 0x75, 0xf7, 0x66, 0x6f, 0x53, 0x63, 0x1a, 0x35, 0x6a, 0xc7, 0x04, 0xed, 0x18, 0xae, 0xab, 0xfe, 0xc5, 0x05, 0xb8, 0x17, 0xf5, 0x93, 0x2c, 0x83, 0xd4, 0x61, 0x3f, 0x54, 0x5d, 0xd5, 0xfb, 0xbc, 0xf1, 0xd5, 0x2c, 0xf6, 0xe1, 0x99, 0x9c, 0x64, 0xc4, 0xf1, 0x20, 0x00, 0x55, 0x3a, 0x7a, 0xe5, 0xa7, 0xd5, 0x01, 0x9b, 0xb5, 0x93, 0x73, 0xb9, 0xa7, 0x64, 0x41, 0x2d, 0xe2, 0x82, 0xae, 0x14, 0x9b, 0x40, 0xf9, 0x21, 0x43, 0xa2, 0x67, 0xee, 0xfb, 0x00, 0x57, 0x05, 0x6b, 0x52, 0x38, 0x4e, 0xbd, 0x70, 0x5c, 0x00, 0x9f, 0x47, 0x98, 0x10, 0x37, 0x84, 0xf5, 0x56, 0xd8, 0x3a, 0x63, 0xe1, 0xd3, 0x95, 0xe5, 0x84, 0x98, 0xc1, 0x7f, 0xdf, 0xeb, 0xe3, 0x30, 0x74, 0xfc, 0xcd, 0x8b, 0xc6, 0xe8, 0x7d, 0xf5, 0x1f, 0x78, 0x61, 0x0f, 0x26, 0x81, 0x24, 0x77, 0x87, 0x3f, 0xb6, 0xe6, 0xfa, 0x5e, 0xdd, 0xd8, 0xba, 0xb0, 0x05, 0x98, 0x4d, 0xbe, 0x02, 0x84, 0x96, 0x1b, 0xff, 0xb3, 0x3c, 0xef, 0x90, 0x75, 0x13, 0x0a, 0x9d, 0xa5, 0x07, 0x77, 0x9f, 0x2e, 0x58, 0xff, 0xc0, 0x68, 0x89, 0xd9, 0xcb, 0xdb, 0xb3, 0x9f, 0x4a, 0xe6, 0x6e, 0xbf, 0xe1, 0x2f, 0x0c, 0x42, 0xd3, 0x5e, 0x21, 0xe4, 0xf5, 0xdc, 0xcf, 0x2f, 0x22, 0xf5, 0x17, 0x97, 0x19, 0xd9, 0x8f, 0x15, 0xbb, 0x7d, 0x50, 0x28, 0x2c, 0x00, 0x6f, 0xcd, 0x84, 0x88, 0x63, 0xe8, 0x25, 0xc0, 0x36, 0x25, 0x71, 0x47, 0x8a, 0x34, 0x30, 0x69, 0x06, 0x10, 0x1a, 0x31, 0xdc, 0x78, 0xba, 0x22, 0xd7, 0x22, 0x05, 0x97, 0x02, 0x61, 0x5b, 0xe3, 0xf3, 0xa2, 0x3a, 0xa8, 0x22, 0x16, 0x9b, 0x43, 0xee, 0xf0, 0xf2, 0x10, 0xf1, 0xc6, 0x8f, 0xb5, 0x9a, 0x14, 0xb2, 0x72, 0x15, 0xf9, 0x61, 0x83, 0xb3, 0x2a, 0x06, 0x00, 0x46, 0xd5, 0x58, 0x90, 0xea, 0x7c, 0x96, 0xfa, 0xfa, 0xb5, 0x7b, 0xc8, 0xcc, 0xd6, 0x2e, 0x9a, 0x52, 0x8c, 0xc8, 0x3d, 0x63, 0x67, 0x1c, 0x5a, 0xfe, 0xb8, 0x40, 0xc6, 0x95, 0xba, 0xbd, 0xc4, 0x1b, 0xdc, 0xde, 0x4e, 0x33, 0xaf, 0x62, 0x88, 0xba, 0xe5, 0x6b, 0x8d, 0xac, 0xdb, 0x1d, 0x41, 0x81, 0x6e, 0x89, 0xf4, 0x6e, 0xb4, 0x29, 0x99, 0x8c, 0x09, 0x29, 0x6a, 0x4c, 0x4b, 0xe0, 0x78, 0x00, 0xfc, 0x84, 0x8d, 0xc2, 0x9b, 0xec, 0x47, 0xe7, 0xfd, 0xf1, 0x66, 0x8d, 0x1a, 0xdf, 0xa1, 0x1a, 0x83, 0xa7, 0x03, 0xe9, 0xf0, 0xd5, 0xce, 0x60, 0xb8, 0xee, 0x82, 0x8d, 0xcb, 0xaf, 0xcf, 0x93, 0x3a, 0x1b, 0x3f, 0x7e, 0xf9, 0x22, 0x32, 0x70, 0xf7, 0x04, 0x44, 0xe7, 0x99, 0xf9, 0xea, 0x49, 0x77, 0x43, 0xd0, 0x38, 0xca, 0xcc, 0x9c, 0xe3, 0x06, 0xd7, 0xd1, 0x24, 0x54, 0x3f, 0x23, 0x55, 0xe2, 0xc8, 0x28, 0x20, 0x95, 0x26, 0xd7, 0x9f, 0xe8, 0xd9, 0xac, 0x60, 0x27, 0x12, 0x3e, 0x9d, 0xd3, 0xfa, 0x2d, 0x18, 0xa6, 0x65, 0x89, 0x27, 0xfe, 0xda, 0x26, 0x54, 0x29, 0xe8, 0xb5, 0x13, 0x34, 0xd6, 0xd1, 0x04, 0x11, 0xf1, 0xce, 0x66, 0x46, 0x19, 0x1b, 0xbe, 0xb2, 0xe3, 0xef, 0xe2, 0xc8, 0xdc, 0xe9, 0x0f, 0x6c, 0xcd, 0xf6, 0xea, 0xaf, 0xdc, 0x5f, 0xee, 0x26, 0xdf, 0x39, 0x49, 0x21, 0x2c, 0xf1, 0x52, 0xd8, 0x16, 0xac, 0xb1, 0x03, 0x17, 0x2d, 0xc8, 0x1d, 0x1a, 0x98, 0x2c, 0x62, 0xe5, 0x3a, 0xd0, 0x28, 0x33, 0x51, 0x21, 0x4b, 0x44, 0x51, 0x17, 0x1b, 0x97, 0x4b, 0x6c, 0x9e, 0x60, 0x43, 0x58, 0x62, 0xd1, 0xcb, 0x2f, 0xe8, 0x32, 0xc0, 0xbc, 0x0a, 0xe0, 0xe6, 0xa6, 0xc7, 0xe7, 0x22, 0x40, 0x2c, 0x3a, 0x3a, 0xb3, 0x39, 0x51, 0xba, 0xda, 0xaf, 0x5b, 0xa1, 0xf8, 0xf8, 0x6b, 0x48, 0x9e, 0x0b, 0xa0, 0xa1, 0x2b, 0xed, 0x4b, 0xb1, 0x36, 0xb6, 0x97, 0x02, 0xf6, 0xa5, 0xa3, 0xf0, 0xe4, 0xfd, 0x4f, 0x0c, 0x0a, 0xe9, 0x4b, 0x7f, 0x57, 0xb7, 0xc7, 0xd4, 0x55, 0xf5, 0xbd, 0x23, 0xf3, 0x35, 0x36, 0xed, 0x61, 0x35, 0xfe, 0xb4, 0x3c, 0xdd, 0x55, 0x42, 0x10, 0x58, 0xa1, 0xe9, 0x39, 0xe3, 0x12, 0x4d, 0xaa, 0xa7, 0x43, 0x39, 0xfa, 0xce, 0xfc, 0x47, 0x9b, 0x53, 0x4a, 0xdc, 0x37, 0x1f, 0x3a, 0x5d, 0xc8, 0xa7, 0x39, 0x42, 0xe3, 0xda, 0xbe, 0xac, 0x5e, 0x53, 0xb1, 0xee, 0xba, 0x52, 0x13, 0x08, 0x4e, 0x00, 0xd2, 0xaa, 0x13, 0x10, 0x08, 0xbb, 0x52, 0x0d, 0xf1, 0xb2, 0x0c, 0x40, 0xa0, 0xe0, 0x41, 0xb9, 0x4f, 0xc3, 0xf5, 0x0d, 0xec, 0xb2, 0xf5, 0x08, 0x5d, 0x07, 0x12, 0xac, 0x20, 0x66, 0xde, 0xf5, 0x5d, 0x41, 0x4e, 0xf4, 0xfc, 0x49, 0x0f, 0x19, 0x5a, 0x9c, 0xb4, 0xd5, 0xb9, 0x1b, 0x17, 0xcd, 0xc6, 0x0b, 0xdc, 0x44, 0xf3, 0x3a, 0x2f, 0x0d, 0x5a, 0xc0, 0xf2, 0xa5, 0xfc, 0xe9, 0xc0, 0xbb, 0xc2, 0x97, 0xee, 0xda, 0x26, 0xa5, 0xcc, 0xc8, 0xc8, 0x52, 0xb8, 0xfa, 0x2d, 0xf9, 0x2b, 0x38, 0x58, 0xad, 0x09, 0x39, 0x50, 0x9f, 0xf6, 0xe2, 0xe2, 0x1e, 0xd8, 0x3e, 0x4c, 0x16, 0x23, 0x16, 0xe4, 0xc3, 0x44, 0x3f, 0xb0, 0x58, 0xd0, 0xd7, 0xc0, 0xc4, 0xf3, 0xac, 0xab, 0x30, 0x4b, 0x40, 0xfa, 0x8d, 0xb1, 0x26, 0xfe, 0x3a, 0xee, 0xb3, 0x4c, 0xf1, 0xd1, 0x81, 0x45, 0x32, 0xec, 0x44, 0xb3, 0x2c, 0xc5, 0xdc, 0x5d, 0xf0, 0xbc, 0x6e, 0xa7, 0x0e, 0x01, 0x36, 0x50, 0x36, 0xb6, 0x4d, 0x44, 0x3b, 0x00, 0xf6, 0x31, 0xb6, 0xa7, 0x26, 0x4c, 0xb8, 0x11, 0x2d, 0xa3, 0x12, 0xd6, 0xc7, 0xf9, 0xd4, 0x20, 0x1e, 0x08, 0xc1, 0xae, 0x13, 0x2d, 0xb8, 0x47, 0x38, 0x3e, 0x45, 0x34, 0xca, 0x1d, 0xea, 0xe1, 0xc1, 0xcc, 0x0d, 0x19, 0x24, 0x3f, 0x14, 0x26, 0x20, 0xd9, 0x1f, 0xf4, 0xb1, 0xb5, 0xcb, 0x28, 0xff, 0x26, 0x53, 0xf0, 0xcd, 0xea, 0x2f, 0x3d, 0xee, 0x20, 0x30, 0xe4, 0xc4, 0x0c, 0xba, 0x3a, 0xfe, 0x15, 0x4c, 0xe6, 0x3a, 0xd5, 0x49, 0xd2, 0xee, 0x23, 0x05, 0x24, 0x09, 0x3c, 0xfc, 0x2a, 0x13, 0x0d, 0x24, 0xcc, 0x14, 0x20, 0x41, 0x44, 0x44, 0xb1, 0xd8, 0x01, 0x1d, 0x31, 0x10, 0x1c, 0xd7, 0x0c, 0x09, 0x34, 0x0e, 0x45, 0x42, 0x31, 0xea, 0x40, 0xf7, 0xc0, 0x22, 0x1b, 0x0a, 0x40, 0xf7, 0x3c, 0x44, 0x36, 0xf9, 0x33, 0xba, 0x4c, 0x81, 0xa8, 0x03, 0x11, 0xd4, 0x2f, 0xb2, 0x11, 0xcf, 0x40, 0xb9, 0x4d, 0x3f, 0xc9, 0x3b, 0x1a, 0xe9, 0x0f, 0xca, 0xdc, 0x17, 0x3f, 0xa9, 0x13, 0xbf, 0x28, 0x12, 0x33, 0xf2, 0x33, 0xcb, 0x27, 0xd5, 0xc6, 0xca, 0xaf, 0x9b, 0xa7, 0x42, 0xbe, 0xd7, 0xbb, 0x49, 0xb6, 0xe0, 0x09, 0x34, 0x26, 0xd0, 0xeb, 0xb3, 0x9f, 0x07, 0x14, 0xf8, 0xdb, 0xcf, 0x18, 0xdc, 0x23, 0xf5, 0xdc, 0x51, 0x34, 0x1a, 0x23, 0xb7, 0x19, 0x38, 0xf0, 0xb4, 0xc2, 0x34, 0xb6, 0x34, 0xb1, 0xfd, 0x04, 0x3e, 0xdf, 0x15, 0x32, 0xc8, 0x39, 0x39, 0x14, 0xff, 0xa3, 0xbe, 0x36, 0xda, 0xc9, 0xd3, 0xca, 0xf0, 0x3d, 0xd8, 0xea, 0xc9, 0x53, 0xd1, 0xf6, 0x3d, 0xbf, 0x4a, 0xba, 0xf0, 0x3c, 0xf7, 0x4b, 0x19, 0x2e, 0xfc, 0x0c, 0xde, 0xc1, 0xb8, 0x2b, 0xe3, 0x41, 0x58, 0x1a, 0x13, 0x2c, 0x04, 0xfc, 0xe6, 0xf3, 0xdb, 0x0b, 0xea, 0xad, 0x05, 0x18, 0xbf, 0xb9, 0x15, 0x2f, 0x13, 0xbe, 0x1d, 0x37, 0x11, 0x43, 0x42, 0x50, 0xf5, 0x63, 0xb4, 0x02, 0x6c, 0x4a, 0xc9, 0x06, 0xbd, 0xb1, 0x26, 0xc6, 0xf9, 0x37, 0xfe, 0x20, 0x42, 0xba, 0x16, 0xdd, 0xdc, 0x44, 0xcc, 0xc2, 0x28, 0x05, 0xb1, 0xf1, 0x34, 0x18, 0x0b, 0x1d, 0x54, 0xb4, 0x05, 0x07, 0xca, 0xfd, 0x18, 0xe3, 0xba, 0xdf, 0xda, 0x20, 0x46, 0x23, 0x2f, 0xe2, 0x2d, 0xe6, 0xc8, 0x42, 0x5b, 0x19, 0xb5, 0xe1, 0xe1, 0xb4, 0xbc, 0xb7, 0xcf, 0x1a, 0xeb, 0xe0, 0xdb, 0xc4, 0x1b, 0xc6, 0x34, 0xe7, 0xde, 0x06, 0xab, 0xa1, 0x2e, 0x43, 0x2e, 0x42, 0x0c, 0xae, 0xa5, 0x52, 0xfb, 0xc8, 0xcc, 0xfa, 0xe4, 0x0d, 0x27, 0x30, 0x08, 0x1d, 0xd0, 0x29, 0xd6, 0x0c, 0xf5, 0x44, 0xd4, 0xb0, 0x15, 0x24, 0xc2, 0xd8, 0x1b, 0xfc, 0xd5, 0x2b, 0xae, 0x35, 0xc2, 0x55, 0xed, 0xb6, 0x1a, 0xf5, 0xde, 0xe3, 0x42, 0xf4, 0x23, 0x17, 0x51, 0x11, 0x1d, 0xf1, 0x4f, 0x3f, 0xea, 0x2b, 0xe8, 0xd4, 0x58, 0x1b, 0xc8, 0x4d, 0xc5, 0x19, 0xb9, 0x57, 0x17, 0x3f, 0x27, 0x4a, 0xaa, 0x5f, 0xbd, 0xbe, 0x4f, 0xee, 0xc7, 0xb5, 0x16, 0x19, 0xf0, 0xc7, 0x4d, 0x96, 0x73, 0x7c, 0x1b, 0xfc, 0xb8, 0xc5, 0xf2, 0xf2, 0x73, 0x16, 0x60, 0x66, 0x3f, 0xef, 0x40, 0xff, 0x30, 0xca, 0xdd, 0xf3, 0x6c, 0xca, 0x04, 0x92, 0xf3, 0x32, 0xff, 0x3a, 0xa4, 0x79, 0x09, 0xaf, 0xcf, 0x18, 0x34, 0xb3, 0xd8, 0xc1, 0x4a, 0x00, 0x43, 0xc1, 0xe6, 0x84, 0xdc, 0x96, 0xb8, 0x67, 0x9c, 0x25, 0x63, 0x12, 0x92, 0xf1, 0xa4, 0xa8, 0xc7, 0xae, 0x58, 0x15, 0xb6, 0xaf, 0x26, 0x57, 0x26, 0x3d, 0x4a, 0x97, 0xcd, 0x74, 0x21, 0xf8, 0x86, 0xcd, 0x36, 0xb4, 0xa0, 0x6e, 0x55, 0x22, 0x91, 0x04, 0xaf, 0x67, 0x16, 0xe7, 0x38, 0xef, 0xea, 0xa4, 0xd7, 0xab, 0xe0, 0xf8, 0x91, 0x19, 0x61, 0xd4, 0xa6, 0x01, 0xcc, 0x4e, 0x39, 0x94, 0xf5, 0x20, 0xbf, 0x46, 0xd8, 0x20, 0x95, 0x61, 0xdf, 0x4e, 0x6f, 0xa0, 0x55, 0x01, 0x69, 0x6c, 0x7d, 0x7b, 0xe4, 0x6e, 0x04, 0xbb, 0xff, 0x36, 0x3e, 0xd3, 0xcc, 0x84, 0xb1, 0xbe, 0x12, 0x92, 0x8b, 0x71, 0xd6, 0xe5, 0x1b, 0x4d, 0xb2, 0xb0, 0x4a, 0x9c, 0x6e, 0x35, 0x60, 0x95, 0x0c, 0x26, 0x06, 0x0a, 0x47, 0x92, 0xbb, 0xd6, 0x4e, 0xd8, 0x32, 0x3a, 0x3d, 0x02, 0x6f, 0x79, 0xe4, 0xfd, 0x95, 0xcf, 0x14, 0x7a, 0x84, 0x21, 0xd3, 0xe3, 0xd1, 0x70, 0x18, 0x26, 0x53, 0xf7, 0x02, 0xa8, 0x41, 0xea, 0xf0, 0x3b, 0xda, 0x68, 0xcf, 0x76, 0x40, 0xbc, 0xdf, 0x8e, 0x0c, 0x2f, 0x5d, 0x31, 0x5a, 0x0d, 0x8b, 0x9e, 0x58, 0x01, 0x0c, 0x4a, 0x24, 0x54, 0xd0, 0xa9, 0x39, 0x42, 0x82, 0xd9, 0xd3, 0x2f, 0x4a, 0x7c, 0xa1, 0x4c, 0x7b, 0x87, 0xfb, 0x33, 0x0d, 0xf4, 0xb1, 0xa6, 0x91, 0xc5, 0xa3, 0xb1, 0x14, 0x22, 0x41, 0xc1, 0xe8, 0x4b, 0x02, 0x3b, 0xb2, 0x25, 0xe3, 0x50, 0x25, 0x3b, 0xd0, 0xd7, 0x93, 0x79, 0x9c, 0x36, 0x2f, 0x61, 0x6a, 0x3e, 0xd4, 0x9c, 0x52, 0x47, 0xea, 0x30, 0x0d, 0xa4, 0xbe, 0x5c, 0xa8, 0x3a, 0x63, 0x6a, 0x4b, 0xf6, 0x65, 0xea, 0x83, 0x98, 0x4f, 0x05, 0xf4, 0x04, 0x82, 0xbf, 0xed, 0xcc, 0x11, 0x51, 0xe4, 0x5f, 0xeb, 0xc5, 0x73, 0x2a, 0xd7, 0x2e, 0xac, 0xe5, 0xd3, 0x9a, 0x7d, 0x7e, 0x60, 0x83, 0x64, 0x84, 0x95, 0x00, 0x9d, 0x30, 0x62, 0x85, 0x3f, 0x1e, 0x88, 0xc7, 0xf4, 0xe9, 0xec, 0x75, 0x87, 0x2c, 0xa1, 0x41, 0x04, 0x7f, 0xbf, 0xdb, 0xd4, 0xa7, 0xab, 0x9c, 0x49, 0x70, 0xbc, 0x4b, 0xe0, 0xfb, 0x86, 0x6e, 0x63, 0x17, 0xdd, 0xfd, 0x9f, 0x85, 0x33, 0x7f, 0xe2, 0xf0, 0xf1, 0x6e, 0x99, 0x7b, 0xdd, 0x2f, 0x7c, 0x31, 0x45, 0x5f, 0x3d, 0x4f, 0x64, 0xf5, 0xea, 0x98, 0xbf, 0x5b, 0x7f, 0x9a, 0xf7, 0xbb, 0xe4, 0x34, 0xac, 0x56, 0x60, 0x99, 0xfb, 0xc0, 0xc2, 0x15, 0xdd, 0x04, 0xfe, 0x90, 0x79, 0x66, 0x27, 0x31, 0x0b, 0x0f, 0x9f, 0xa3, 0x3e, 0xf8, 0xf9, 0x03, 0x51, 0x02, 0x54, 0xab, 0xdc, 0x49, 0xd2, 0x56, 0xe4, 0xd0, 0x3a, 0x44, 0xaf, 0x2c, 0x16, 0xd9, 0x0a, 0x1f, 0x09, 0xc2, 0xd7, 0xe3, 0x53, 0x40, 0x92, 0xa2, 0x0d, 0xd3, 0x01, 0x47, 0xe0, 0x1a, 0xbe, 0xdc, 0xd5, 0x39, 0xac, 0x0d, 0x42, 0xdb, 0xea, 0x77, 0x91, 0xf4, 0xca, 0x8d, 0x32, 0x2e, 0x45, 0xda, 0x0e, 0xc9, 0xc7, 0xbd, 0x18, 0x3f, 0xe6, 0x59, 0x97, 0x5a, 0x32, 0xe2, 0x4b, 0x15, 0x6a, 0x87, 0xe5, 0x58, 0xf0, 0x47, 0xc2, 0x18, 0x9a, 0x2f, 0xba, 0xd0, 0xee, 0x47, 0x49, 0xc4, 0x29, 0x60, 0xba, 0xb3, 0xf2, 0x60, 0x12, 0x2d, 0x22, 0x48, 0xe8, 0xe6, 0x49, 0x03, 0x20, 0x25, 0x63, 0xf8, 0x18, 0xb1, 0xce, 0x7b, 0x8e, 0x2e, 0xbb, 0xb8, 0xc3, 0x09, 0x89, 0xea, 0x92, 0x14, 0xdc, 0xa8, 0xb6, 0x0b, 0x23, 0xb1, 0xf1, 0x5f, 0x5a, 0xf0, 0xe6, 0x03, 0xa2, 0xd7, 0x55, 0x63, 0x26, 0xca, 0x5a, 0x20, 0xe4, 0x53, 0xc1, 0x54, 0x38, 0xd1, 0xdf, 0x23, 0x5d, 0xdc, 0x92, 0xd9, 0x58, 0xcf, 0xc2, 0x2f, 0xe6, 0x6d, 0x4e, 0xd4, 0x55, 0xff, 0x5d, 0xcd, 0x33, 0x6e, 0x2b, 0x2c, 0x63, 0xcf, 0x1a, 0x9d, 0x9a, 0x1c, 0xdf, 0x1e, 0x05, 0xd8, 0x17, 0x4e, 0x34, 0xf1, 0x3c, 0x21, 0x49, 0x45, 0x49, 0x3a, 0xf8, 0x5b, 0x3a, 0xb7, 0xdb, 0xef, 0x4c, 0x3b, 0xe0, 0x33, 0xa2, 0xef, 0x52, 0xc6, 0xc4, 0x08, 0x4c, 0x30, 0x49, 0x12, 0xbc, 0x2e, 0xb0, 0x12, 0x09, 0xbb, 0x2d, 0xa5, 0x20, 0x9c, 0x66, 0x5e, 0x56, 0x50, 0x8f, 0x4a, 0xa4, 0x35, 0xb2, 0xcd, 0x46, 0xce, 0xaf, 0x98, 0x6e, 0x5e, 0xde, 0xde, 0x4f, 0x10, 0x1b, 0x91, 0x71, 0x41, 0x37, 0x86, 0xd3, 0x48, 0x57, 0xac, 0xd6, 0x32, 0x04, 0x5c, 0x68, 0x19, 0x55, 0x33, 0xc9, 0x30, 0xb5, 0x4a, 0xaa, 0x4e, 0x5b, 0xce, 0xfd, 0xf3, 0x30, 0x07, 0x33, 0xa3, 0x36, 0x16, 0xc5, 0x42, 0xb6, 0xcb, 0x0a, 0xce, 0x60, 0x0c, 0x1f, 0x3f, 0x5b, 0x12, 0x28, 0x41, 0xaf, 0x4b, 0xcc, 0xd7, 0xbe, 0x9d, 0x1b, 0xa1, 0xa8, 0x90, 0x8d, 0x06, 0x42, 0xdb, 0x2f, 0xbf, 0x15, 0xaf, 0x07, 0xdb, 0xb8, 0x9f, 0xbb, 0x04, 0xe8, 0xf8, 0x1d, 0xfe, 0x47, 0xa0, 0xb5, 0xe0, 0x4c, 0x51, 0x47, 0x5d, 0x3c, 0xf7, 0x89, 0x36, 0xee, 0x50, 0x66, 0x09, 0x57, 0x28, 0x98, 0x38, 0x99, 0x61, 0xe6, 0x3a, 0x22, 0x55, 0xb1, 0x26, 0x0d, 0x5a, 0xc6, 0xa0, 0x2c, 0xdd, 0xfe, 0xce, 0x5b, 0xe9, 0x4c, 0xe6, 0x91, 0xd3, 0x8d, 0x1f, 0x5f, 0xd4, 0x09, 0x25, 0x31, 0x6f, 0xc3, 0x17, 0x6b, 0x3e, 0xa8, 0xf6, 0x32, 0xa1, 0xc7, 0x49, 0x52, 0x28, 0xbb, 0x06, 0xb9, 0xf8, 0xec, 0x9a, 0x9c, 0xd8, 0x21, 0x00, 0xdb, 0xcb, 0xf5, 0x58, 0xd0, 0xd3, 0xf3, 0x42, 0xd6, 0x3c, 0x0a, 0xd5, 0xa2, 0x35, 0xff, 0x34, 0xa0, 0xd0, 0xe9, 0x60, 0xe2, 0x42, 0x0c, 0xdc, 0xe7, 0x1f, 0x03, 0x97, 0x2d, 0xd8, 0xb2, 0xc9, 0x2f, 0xbe, 0x02, 0xfa, 0x0e, 0x31, 0x21, 0x18, 0xc5, 0x9a, 0x46, 0xd3, 0xe5, 0xb5, 0xd5, 0xab, 0x29, 0xca, 0x41, 0x3e, 0xa2, 0x07, 0x3e, 0xcc, 0xf8, 0x0b, 0xf7, 0xed, 0xd8, 0x2c, 0xda, 0xb0, 0x06, 0x04, 0x38, 0x29, 0x5f, 0xfb, 0xb6, 0xef, 0x0a, 0x0b, 0x23, 0xe2, 0xbb, 0x16, 0xde, 0x2d, 0xee, 0xdf, 0x1e, 0xe9, 0xdd, 0x38, 0xc9, 0xf4, 0x51, 0x35, 0x9a, 0xcc, 0x1b, 0xad, 0xea, 0x0c, 0xdc, 0xea, 0x1f, 0x4b, 0xdd, 0x62, 0x03, 0xef, 0x2e, 0x86, 0xde, 0x07, 0xdc, 0xa8, 0xb5, 0xef, 0x08, 0xe3, 0xff, 0xb7, 0x29, 0xcc, 0x14, 0x37, 0xd7, 0x02, 0x31, 0xaf, 0x03, 0x21, 0xf5, 0x0c, 0x48, 0xc3, 0x43, 0x20, 0xf1, 0xd6, 0x0b, 0x16, 0x9f, 0xb0, 0x06, 0x45, 0xc9, 0xa4, 0xde, 0xf4, 0xab, 0xee, 0x9e, 0xed, 0x43, 0xd4, 0xe0, 0x23, 0xe6, 0x10, 0xec, 0xf2, 0xe8, 0x08, 0xed, 0xd5, 0xff, 0xc0, 0x4a, 0xba, 0x11, 0xe4, 0x59, 0x57, 0xcd, 0x56, 0xeb, 0x12, 0x09, 0x47, 0x43, 0x59, 0xb0, 0x10, 0x4d, 0xf9, 0x0c, 0x2a, 0xd9, 0x2f, 0x29, 0x38, 0x13, 0x4b, 0xc8, 0xfb, 0xb0, 0xd7, 0x05, 0xe7, 0x37, 0x3e, 0xb6, 0x61, 0x1c, 0xe6, 0xf8, 0xa0, 0x3e, 0xe7, 0x2c, 0x9f, 0x21, 0xd4, 0x16, 0x18, 0xe2, 0xf5, 0xf1, 0xd4, 0xfd, 0x29, 0xee, 0x23, 0xac, 0x01, 0x55, 0x23, 0x1a, 0xe8, 0x0d, 0x4a, 0x5c, 0xaf, 0x36, 0xfe, 0xca, 0xcf, 0x9f, 0x0a, 0x7f, 0xd9, 0x9c, 0x6a, 0x3b, 0x17, 0x39, 0x06, 0xe6, 0xe2, 0x37, 0xdc, 0xe1, 0x16, 0x2f, 0xb2, 0xe1, 0xfb, 0xc1, 0x4c, 0x1f, 0x1b, 0x5f, 0x09, 0xd6, 0xfb, 0xfa, 0xbd, 0xab, 0xca, 0x3d, 0x0b, 0xd6, 0x27, 0x1b, 0x5c, 0x24, 0x48, 0xbd, 0xc6, 0xed, 0xb9, 0x15, 0x4d, 0xb1, 0xd8, 0xc1, 0x46, 0xc4, 0xff, 0x4e, 0x03, 0x25, 0x55, 0xf6, 0xfd, 0xdb, 0x2f, 0xfd, 0xf9, 0x4b, 0xc0, 0xaf, 0x09, 0x56, 0x53, 0x2c, 0xc8, 0x08, 0x5b, 0x3a, 0x4c, 0x1a, 0xa1, 0xd0, 0x01, 0x37, 0x4a, 0x13, 0xc9, 0x1f, 0x48, 0xbe, 0xd9, 0xe0, 0xa1, 0x2d, 0x1b, 0xc1, 0x0e, 0x47, 0xb4, 0xc4, 0x2e, 0xfb, 0xd4, 0x52, 0xe1, 0x30, 0xcc, 0x52, 0x12, 0x59, 0xb2, 0x47, 0x49, 0xc0, 0x4b, 0xb7, 0x08, 0xca, 0xfd, 0x12, 0x12, 0x72, 0x00, 0xe7, 0xfb, 0x73, 0x3a, 0x47, 0xb2, 0x4a, 0xf3, 0xc3, 0x64, 0xc6, 0xb3, 0xc6, 0xc9, 0x9d, 0x5b, 0x2e, 0x57, 0xa2, 0x3b, 0xe0, 0x06, 0x12, 0x5b, 0xd3, 0xf3, 0x0f, 0x62, 0x97, 0x4b, 0x42, 0xc1, 0x38, 0x48, 0xe1, 0x05, 0xff, 0x4f, 0xec, 0x22, 0x1e, 0x16, 0x26, 0xd6, 0x24, 0xd6, 0x11, 0xcf, 0x54, 0x21, 0x5c, 0x00, 0xf4, 0xa5, 0xd0, 0xad, 0xfa, 0x0c, 0xd9, 0x23, 0x31, 0xbe, 0xc3, 0xb7, 0x0c, 0x56, 0xd8, 0x3a, 0xa0, 0xc9, 0x62, 0x3e, 0xf6, 0xb6, 0x99, 0xbb, 0xaf, 0xdd, 0x4a, 0xc6, 0xbf, 0xec, 0x29, 0x0d, 0x08, 0xdd, 0xc5, 0xe9, 0x23, 0x9f, 0xe9, 0x21, 0xed, 0xa7, 0xed, 0xf0, 0xd6, 0x58, 0xb7, 0x50, 0x56, 0xab, 0xd8, 0x50, 0xbc, 0xc1, 0x53, 0x4b, 0xa9, 0x31, 0xf1, 0xa0, 0x30, 0xf7, 0x33, 0x3f, 0xa7, 0xab, 0xc9, 0xba, 0xec, 0x02, 0x09, 0x38, 0x52, 0x2f, 0xce, 0x4b, 0xdc, 0xc5, 0x1d, 0x1e, 0x16, 0xc5, 0x0d, 0xd0, 0x13, 0xc6, 0xbb, 0x37, 0xd0, 0x52, 0x26, 0xc7, 0xca, 0x69, 0xf2, 0xb2, 0x02, 0x9b, 0x0b, 0xc0, 0x0b, 0xd9, 0x54, 0xe3, 0xdb, 0x00, 0x47, 0xfa, 0x44, 0x00, 0xf7, 0x04, 0xb0, 0x5f, 0x56, 0x48, 0xa7, 0x3b, 0xcb, 0xda, 0xa3, 0x3e, 0x9d, 0x63, 0x33, 0xab, 0xf5, 0x30, 0x03, 0x28, 0x66, 0x3e, 0x63, 0x10, 0x4a, 0xfe, 0xb0, 0x9d, 0x0d, 0x5e, 0xc7, 0xe8, 0x4d, 0xa0, 0xb4, 0x34, 0x55, 0xde, 0x25, 0x42, 0xf7, 0xfd, 0xb1, 0xfa, 0xcc, 0xa7, 0x91, 0xd1, 0x57, 0xda, 0xa8, 0xbf, 0xc9, 0x10, 0x35, 0x2d, 0x07, 0x2e, 0xe0, 0x4d, 0x51, 0xda, 0x03, 0x5c, 0x1f, 0x3d, 0x5c, 0xf6, 0x27, 0xd2, 0x5f, 0x32, 0x21, 0x20, 0x15, 0xf6, 0x10, 0xd7, 0xab, 0xb8, 0xef, 0x1f, 0x41, 0x93, 0xed, 0x0d, 0xbd, 0x0b, 0xe2, 0xae, 0x4d, 0x9f, 0xbf, 0x3e, 0xae, 0xae, 0xb2, 0x09, 0x05, 0x2c, 0xfa, 0xbe, 0xbf, 0xb8, 0x08, 0xcf, 0x2c, 0x10, 0x03, 0xc6, 0xb2, 0xb1, 0xbe, 0xc6, 0xd6, 0xb1, 0xd9, 0x39, 0x12, 0x3f, 0x09, 0xf3, 0xf9, 0x24, 0xcd, 0xff, 0xe2, 0xa2, 0xed, 0x18, 0x17, 0xfe, 0x54, 0x05, 0xb8, 0xb2, 0xe7, 0xb9, 0x15, 0x33, 0x06, 0x63, 0x72, 0x4a, 0x23, 0x00, 0x38, 0xb5, 0x42, 0x05, 0x3c, 0xc0, 0x6e, 0x08, 0xaf, 0x24, 0xbd, 0x10, 0xd3, 0xcd, 0xe5, 0x4a, 0xe1, 0xed, 0x10, 0x3e, 0xed, 0x08, 0x03, 0xda, 0x15, 0xa1, 0x07, 0xbe, 0x4f, 0x5c, 0xbb, 0x3d, 0xc7, 0xc2, 0x17, 0x55, 0x34, 0x11, 0x81, 0xb2, 0x4f, 0xab, 0x28, 0x3b, 0x24, 0xed, 0x0c, 0xc6, 0x1e, 0x22, 0xca, 0xf4, 0x3e, 0xf3, 0x40, 0x27, 0x39, 0x13, 0xd0, 0xc8, 0xad, 0x24, 0xfe, 0xfd, 0x02, 0xcc, 0x0f, 0xfe, 0x40, 0x4b, 0xca, 0x53, 0x15, 0xbb, 0xa2, 0x4b, 0x0c, 0x2a, 0xe8, 0xf8, 0x4e, 0x4f, 0x42, 0xec, 0x03, 0xf6, 0xbe, 0x3e, 0xda, 0xe5, 0x32, 0x92, 0xe4, 0x2f, 0x3f, 0x47, 0x4a, 0xc0, 0x3d, 0x79, 0x8e, 0x44, 0xce, 0xff, 0x17, 0x57, 0x98, 0xc0, 0xea, 0xbf, 0x4b, 0xf5, 0x06, 0xd0, 0x4b, 0xd1, 0xd0, 0xd2, 0xd4, 0x1e, 0x4c, 0xe2, 0xc9, 0x61, 0xbb, 0xf1, 0x03, 0xd0, 0xaa, 0x44, 0x82, 0x68, 0xd1, 0x4d, 0xb1, 0xb9, 0x3c, 0x37, 0xf9, 0x92, 0xdf, 0x11, 0xdf, 0xc4, 0x53, 0x60, 0x8b, 0xab, 0x22, 0x4a, 0xa0, 0xd0, 0xaa, 0x20, 0x28, 0x06, 0x75, 0x8f, 0x3b, 0x8e, 0x11, 0x31, 0x1d, 0xc9, 0x87, 0x40, 0xe8, 0x22, 0x52, 0x19, 0xc0, 0x99, 0x64, 0xa0, 0xb6, 0x3a, 0xda, 0xce, 0xdf, 0xf1, 0xb9, 0xc2, 0xff, 0x5c, 0xd9, 0x91, 0xb3, 0x87, 0xe7, 0x6e, 0x78, 0x86, 0x28, 0x47, 0xa2, 0xef, 0xea, 0x0f, 0x1c, 0x81, 0x6a, 0x25, 0xe8, 0xd4, 0x99, 0xf3, 0xab, 0x6b, 0x07, 0x32, 0x05, 0x64, 0x90, 0x99, 0xe4, 0xc8, 0xaa, 0x7d, 0x47, 0x5c, 0xa4, 0x10, 0x26, 0x76, 0x48, 0x43, 0x8e, 0xab, 0x44, 0x2a, 0x08, 0x57, 0x96, 0xe3, 0x03, 0x5e, 0xfc, 0xd9, 0x8a, 0xeb, 0x86, 0xac, 0xd6, 0xb5, 0xdb, 0x55, 0x00, 0x7e, 0xb8, 0x18, 0xc2, 0x4d, 0x00, 0x2a, 0x03, 0x93, 0x8f, 0xa6, 0x6e, 0x77, 0xbc, 0x1f, 0x4b, 0xb4, 0x64, 0x4b, 0xdf, 0x2d, 0x00, 0xce, 0x4e, 0x8e, 0xd4, 0x0a, 0x22, 0x3c, 0x99, 0x97, 0xc0, 0xca, 0xe0, 0xfe, 0x17, 0xb4, 0xa6, 0xf5, 0xfd, 0x37, 0xb3, 0xd5, 0x3c, 0x5b, 0xbb, 0xab, 0xe0, 0x86, 0x6b, 0xf7, 0x21, 0xa1, 0x2e, 0xab, 0x0f, 0x43, 0x40, 0x75, 0x21, 0xd9, 0x7c, 0xd0, 0xc1, 0xed, 0x10, 0x0f, 0x2c, 0x37, 0xc1, 0xc5, 0x72, 0xb7, 0xa2, 0x9a, 0xc9, 0x43, 0x83, 0xd8, 0xe4, 0xe2, 0xb2, 0x49, 0xd0, 0xdd, 0x9a, 0x7f, 0x4e, 0x3b, 0x36, 0x94, 0xf8, 0x94, 0x1c, 0xd4, 0xda, 0xc6, 0x2f, 0x40, 0x97, 0x93, 0x0f, 0xd0, 0xca, 0x34, 0x7c, 0xd3, 0xfe, 0x5d, 0x8c, 0x91, 0x64, 0xa0, 0x4d, 0xb8, 0x71, 0x67, 0x48, 0xf8, 0x88, 0x8e, 0xe1, 0x40, 0x28, 0xa0, 0x19, 0xa8, 0x7f, 0x8d, 0xf7, 0xf6, 0x94, 0x65, 0x85, 0x79, 0xe2, 0xa8, 0x19, 0x98, 0xb1, 0x40, 0x9f, 0x69, 0xe8, 0xf7, 0x96, 0x61, 0xe4, 0x31, 0x79, 0x03, 0x10, 0xd4, 0x2b, 0xeb, 0xe2, 0xfe, 0x8e, 0xb4, 0xcb, 0x33, 0xe2, 0x5b, 0x8d, 0x7a, 0xa8, 0xfd, 0x36, 0xe0, 0x69, 0xf0, 0x2d, 0x78, 0x7c, 0xa1, 0x8b, 0xb5, 0xc4, 0xea, 0x00, 0x0d, 0x9d, 0x09, 0xbd, 0x56, 0x4b, 0xa6, 0x7c, 0x83, 0xff, 0x25, 0x78, 0x89, 0x75, 0x51, 0x77, 0x52, 0x65, 0xcf, 0x71, 0x0b, 0x60, 0x77, 0x8d, 0xd1, 0x54, 0x53, 0x60, 0xca, 0x24, 0x22, 0xd8, 0x6b, 0x5d, 0xd2, 0x16, 0xdc, 0xf4, 0x00, 0x3f, 0x82, 0x56, 0xaa, 0x4c, 0x45, 0x05, 0x7e, 0x8e, 0xbd, 0x0c, 0xe4, 0xdb, 0xa2, 0x52, 0x2d, 0xcb, 0x91, 0x7e, 0x8c, 0x73, 0x8e, 0x68, 0xb1, 0xbe, 0xd7, 0x66, 0x54, 0xd1, 0xa7, 0x00, 0x12, 0x59, 0x08, 0x31, 0xa5, 0xb2, 0xd7, 0xe3, 0xaa, 0x70, 0x51, 0x7a, 0x0e, 0xbd, 0x78, 0x2f, 0xd6, 0xcb, 0x54, 0xd8, 0x53, 0x92, 0xc6, 0xbb, 0xed, 0xaa, 0xe0, 0xb6, 0xae, 0x62, 0x0b, 0xf2, 0x6d, 0x0c, 0xe9, 0xa4, 0x5f, 0xed, 0x6b, 0xe9, 0x1a, 0x09, 0x5a, 0x13, 0xc9, 0xe7, 0xbe, 0x3f, 0x4e, 0x2b, 0xfc, 0x00, 0x44, 0xcf, 0x90, 0xbc, 0x5d, 0x6d, 0x16, 0x81, 0x34, 0xf3, 0x7e, 0xf4, 0x73, 0xa4, 0xdd, 0x74, 0x31, 0xd9, 0x7a, 0x68, 0xbf, 0xc0, 0x36, 0xa0, 0xed, 0xdc, 0x95, 0x83, 0xb6, 0xe7, 0x0b, 0x42, 0x7a, 0x48, 0x3f, 0x83, 0xf8, 0x14, 0x04, 0x3e, 0xb4, 0x2c, 0x4b, 0x83, 0x96, 0x72, 0x91, 0x6d, 0xaa, 0x87, 0x52, 0xba, 0x68, 0xbb, 0xce, 0xc8, 0x55, 0x0f, 0xb4, 0x29, 0xf1, 0xf7, 0xad, 0xa1, 0xda, 0xf4, 0xa0, 0x8c, 0xd7, 0x17, 0xa4, 0xb1, 0xb3, 0xa0, 0xe7, 0xbc, 0xf7, 0x97, 0x07, 0x37, 0xca, 0xcf, 0x32, 0x60, 0xd1, 0x14, 0xda, 0x28, 0x12, 0x94, 0xe5, 0xeb, 0x23, 0x7a, 0x67, 0x42, 0x35, 0xf1, 0xf2, 0x05, 0xa6, 0xbb, 0x79, 0x66, 0x16, 0xde, 0xd8, 0x93, 0xcf, 0xe9, 0x85, 0xb4, 0xab, 0x62, 0x4b, 0x99, 0xdb, 0x7e, 0x70, 0x86, 0x68, 0xa4, 0xc6, 0xd3, 0x18, 0x35, 0x50, 0x1b, 0xea, 0xa9, 0xd7, 0x4c, 0x9e, 0x63, 0xd4, 0xf9, 0x63, 0x61, 0x00, 0xca, 0xcd, 0x2d, 0x7c, 0xf9, 0x72, 0xc3, 0xb7, 0x51, 0x76, 0xb1, 0x24, 0x41, 0xd8, 0x16, 0x25, 0xe1, 0x7b, 0x2c, 0x01, 0xd7, 0xfb, 0x41, 0x3b, 0x3b, 0x2f, 0xdb, 0x76, 0xea, 0x78, 0xa4, 0x88, 0xd9, 0x3f, 0x8d, 0x4f, 0x17, 0x55, 0x2d, 0xd3, 0xe0, 0x13, 0xb7, 0xc4, 0xb6, 0x2b, 0xe7, 0xc3, 0x9b, 0x67, 0x8a, 0x2b, 0x52, 0x0c, 0x40, 0x02, 0xfe, 0x6a, 0x23, 0x38, 0x51, 0x77, 0xe9, 0x0d, 0xed, 0xbf, 0x1e, 0x75, 0xf9, 0x91, 0x0a, 0xcc, 0x93, 0xac, 0x65, 0x34, 0x1f, 0x94, 0x34, 0x5c, 0x69, 0xa0, 0xf3, 0x83, 0x88, 0x5e, 0x45, 0x58, 0x16, 0x5c, 0x3f, 0x2a, 0x75, 0xce, 0x30, 0x86, 0xb6, 0xdd, 0xa7, 0xc1, 0x02, 0x26, 0x72, 0x4d, 0x96, 0x43, 0xe9, 0x33, 0x01, 0x69, 0xbb, 0xbf, 0x6f, 0xe4, 0xa5, 0x3f, 0x67, 0x4f, 0xd0, 0xa9, 0x09, 0x3f, 0x9f, 0x91, 0x53, 0x3a, 0x87, 0xf3, 0xd1, 0x73, 0xf8, 0xf0, 0x30, 0xd0, 0x27, 0x24, 0x44, 0x2c, 0x36, 0x52, 0xe1, 0x5e, 0x5a, 0x34, 0x0d, 0xc6, 0x15, 0xc5, 0xfc, 0xd7, 0xcf, 0xb5, 0x93, 0x03, 0xcc, 0xec, 0xc1, 0xdb, 0xbf, 0x84, 0xef, 0xa9, 0xb6, 0xfe, 0xff, 0xff, 0x04, 0x00, 0x00, 0x00, 0x40, 0x00, 0x00, 0x00, 0xdb, 0xff, 0xff, 0xff, 0xdb, 0xff, 0xff, 0xff, 0x17, 0x00, 0x00, 0x00, 0xe0, 0xff, 0xff, 0xff, 0xf4, 0xff, 0xff, 0xff, 0xf6, 0xff, 0xff, 0xff, 0xec, 0xff, 0xff, 0xff, 0x00, 0x00, 0x00, 0x00, 0xfd, 0xff, 0xff, 0xff, 0xfe, 0xff, 0xff, 0xff, 0x00, 0x00, 0x00, 0x00, 0xde, 0xff, 0xff, 0xff, 0x18, 0x00, 0x00, 0x00, 0x00, 0x00, 0x00, 0x00, 0x00, 0x00, 0x00, 0x00, 0x00, 0x00, 0x00, 0x00, 0x02, 0xff, 0xff, 0xff, 0x04, 0x00, 0x00, 0x00, 0x30, 0x00, 0x00, 0x00, 0xa5, 0x7d, 0x42, 0x58, 0xcb, 0xd3, 0x53, 0x6d, 0xee, 0x7f, 0x65, 0x0d, 0x71, 0x8b, 0x3a, 0x94, 0xb6, 0x27, 0xbe, 0x81, 0xf1, 0x30, 0x54, 0xa3, 0xde, 0x52, 0xf5, 0x2b, 0x31, 0xc0, 0x4c, 0xce, 0x97, 0xcc, 0x1f, 0x31, 0xd1, 0xaa, 0x00, 0x52, 0x7f, 0xed, 0xdd, 0xbe, 0x0d, 0x66, 0x75, 0x86, 0x3e, 0xff, 0xff, 0xff, 0x04, 0x00, 0x00, 0x00, 0x0c, 0x00, 0x00, 0x00, 0x85, 0xff, 0xff, 0xff, 0xf1, 0xff, 0xff, 0xff, 0x4d, 0x00, 0x00, 0x00, 0x56, 0xff, 0xff, 0xff, 0x04, 0x00, 0x00, 0x00, 0x08, 0x00, 0x00, 0x00, 0xff, 0xff, 0xff, 0xff, 0x80, 0x01, 0x00, 0x00, 0xf8, 0xf0, 0xff, 0xff, 0xfc, 0xf0, 0xff, 0xff, 0x0f, 0x00, 0x00, 0x00, 0x4d, 0x4c, 0x49, 0x52, 0x20, 0x43, 0x6f, 0x6e, 0x76, 0x65, 0x72, 0x74, 0x65, 0x64, 0x2e, 0x00, 0x01, 0x00, 0x00, 0x00, 0x14, 0x00, 0x00, 0x00, 0x00, 0x00, 0x0e, 0x00, 0x18, 0x00, 0x14, 0x00, 0x10, 0x00, 0x0c, 0x00, 0x08, 0x00, 0x04, 0x00, 0x0e, 0x00, 0x00, 0x00, 0x14, 0x00, 0x00, 0x00, 0x1c, 0x00, 0x00, 0x00, 0x4c, 0x02, 0x00, 0x00, 0x50, 0x02, 0x00, 0x00, 0x54, 0x02, 0x00, 0x00, 0x04, 0x00, 0x00, 0x00, 0x6d, 0x61, 0x69, 0x6e, 0x00, 0x00, 0x00, 0x00, 0x08, 0x00, 0x00, 0x00, 0xe8, 0x01, 0x00, 0x00, 0x84, 0x01, 0x00, 0x00, 0x34, 0x01, 0x00, 0x00, 0xf0, 0x00, 0x00, 0x00, 0xc8, 0x00, 0x00, 0x00, 0x78, 0x00, 0x00, 0x00, 0x40, 0x00, 0x00, 0x00, 0x04, 0x00, 0x00, 0x00, 0xa6, 0xfe, 0xff, 0xff, 0x1c, 0x00, 0x00, 0x00, 0x00, 0x00, 0x00, 0x09, 0x1c, 0x00, 0x00, 0x00, 0x20, 0x00, 0x00, 0x00, 0x04, 0x00, 0x00, 0x00, 0x00, 0x00, 0x06, 0x00, 0x08, 0x00, 0x04, 0x00, 0x06, 0x00, 0x00, 0x00, 0x00, 0x00, 0x80, 0x3f, 0x01, 0x00, 0x00, 0x00, 0x11, 0x00, 0x00, 0x00, 0x01, 0x00, 0x00, 0x00, 0x10, 0x00, 0x00, 0x00, 0xde, 0xfe, 0xff, 0xff, 0x14, 0x00, 0x00, 0x00, 0x00, 0x00, 0x00, 0x08, 0x10, 0x00, 0x00, 0x00, 0x14, 0x00, 0x00, 0x00, 0x03, 0x00, 0x00, 0x00, 0xc4, 0xf1, 0xff, 0xff, 0x01, 0x00, 0x00, 0x00, 0x10, 0x00, 0x00, 0x00, 0x03, 0x00, 0x00, 0x00, 0x0f, 0x00, 0x00, 0x00, 0x03, 0x00, 0x00, 0x00, 0x02, 0x00, 0x00, 0x00, 0x12, 0xff, 0xff, 0xff, 0x1c, 0x00, 0x00, 0x00, 0x00, 0x00, 0x00, 0x08, 0x1c, 0x00, 0x00, 0x00, 0x20, 0x00, 0x00, 0x00, 0x03, 0x00, 0x00, 0x00, 0x00, 0x00, 0x06, 0x00, 0x08, 0x00, 0x07, 0x00, 0x06, 0x00, 0x00, 0x00, 0x00, 0x00, 0x00, 0x01, 0x01, 0x00, 0x00, 0x00, 0x0f, 0x00, 0x00, 0x00, 0x03, 0x00, 0x00, 0x00, 0x0e, 0x00, 0x00, 0x00, 0x05, 0x00, 0x00, 0x00, 0x04, 0x00, 0x00, 0x00, 0x00, 0x00, 0x0a, 0x00, 0x10, 0x00, 0x0c, 0x00, 0x08, 0x00, 0x04, 0x00, 0x0a, 0x00, 0x00, 0x00, 0x0c, 0x00, 0x00, 0x00, 0x10, 0x00, 0x00, 0x00, 0x02, 0x00, 0x00, 0x00, 0x01, 0x00, 0x00, 0x00, 0x0e, 0x00, 0x00, 0x00, 0x02, 0x00, 0x00, 0x00, 0x0d, 0x00, 0x00, 0x00, 0x01, 0x00, 0x00, 0x00, 0x82, 0xff, 0xff, 0xff, 0x14, 0x00, 0x00, 0x00, 0x00, 0x00, 0x00, 0x05, 0x24, 0x00, 0x00, 0x00, 0x28, 0x00, 0x00, 0x00, 0x01, 0x00, 0x00, 0x00, 0x72, 0xff, 0xff, 0xff, 0x02, 0x00, 0x00, 0x00, 0x02, 0x00, 0x00, 0x00, 0x02, 0x00, 0x00, 0x00, 0x02, 0x00, 0x00, 0x00, 0x00, 0x00, 0x00, 0x01, 0x01, 0x00, 0x00, 0x00, 0x0d, 0x00, 0x00, 0x00, 0x01, 0x00, 0x00, 0x00, 0x0c, 0x00, 0x00, 0x00, 0x62, 0xff, 0xff, 0xff, 0x10, 0x00, 0x00, 0x00, 0x00, 0x00, 0x00, 0x01, 0x18, 0x00, 0x00, 0x00, 0x1c, 0x00, 0x00, 0x00, 0x54, 0xff, 0xff, 0xff, 0x00, 0x00, 0x00, 0x01, 0x01, 0x00, 0x00, 0x00, 0x01, 0x00, 0x00, 0x00, 0x01, 0x00, 0x00, 0x00, 0x0c, 0x00, 0x00, 0x00, 0x03, 0x00, 0x00, 0x00, 0x0b, 0x00, 0x00, 0x00, 0x07, 0x00, 0x00, 0x00, 0x06, 0x00, 0x00, 0x00, 0x00, 0x00, 0x0e, 0x00, 0x1a, 0x00, 0x14, 0x00, 0x10, 0x00, 0x0c, 0x00, 0x0b, 0x00, 0x04, 0x00, 0x0e, 0x00, 0x00, 0x00, 0x24, 0x00, 0x00, 0x00, 0x00, 0x00, 0x00, 0x05, 0x34, 0x00, 0x00, 0x00, 0x38, 0x00, 0x00, 0x00, 0x01, 0x00, 0x00, 0x00, 0x00, 0x00, 0x0e, 0x00, 0x18, 0x00, 0x17, 0x00, 0x10, 0x00, 0x0c, 0x00, 0x08, 0x00, 0x04, 0x00, 0x0e, 0x00, 0x00, 0x00, 0x02, 0x00, 0x00, 0x00, 0x02, 0x00, 0x00, 0x00, 0x02, 0x00, 0x00, 0x00, 0x02, 0x00, 0x00, 0x00, 0x00, 0x00, 0x00, 0x01, 0x01, 0x00, 0x00, 0x00, 0x0b, 0x00, 0x00, 0x00, 0x01, 0x00, 0x00, 0x00, 0x0a, 0x00, 0x00, 0x00, 0x00, 0x00, 0x0e, 0x00, 0x14, 0x00, 0x00, 0x00, 0x10, 0x00, 0x0c, 0x00, 0x0b, 0x00, 0x04, 0x00, 0x0e, 0x00, 0x00, 0x00, 0x1c, 0x00, 0x00, 0x00, 0x00, 0x00, 0x00, 0x01, 0x24, 0x00, 0x00, 0x00, 0x28, 0x00, 0x00, 0x00, 0x0c, 0x00, 0x10, 0x00, 0x00, 0x00, 0x0c, 0x00, 0x08, 0x00, 0x07, 0x00, 0x0c, 0x00, 0x00, 0x00, 0x00, 0x00, 0x00, 0x01, 0x01, 0x00, 0x00, 0x00, 0x01, 0x00, 0x00, 0x00, 0x01, 0x00, 0x00, 0x00, 0x0a, 0x00, 0x00, 0x00, 0x03, 0x00, 0x00, 0x00, 0x00, 0x00, 0x00, 0x00, 0x09, 0x00, 0x00, 0x00, 0x08, 0x00, 0x00, 0x00, 0x01, 0x00, 0x00, 0x00, 0x11, 0x00, 0x00, 0x00, 0x01, 0x00, 0x00, 0x00, 0x00, 0x00, 0x00, 0x00, 0x12, 0x00, 0x00, 0x00, 0xa4, 0x0c, 0x00, 0x00, 0x48, 0x0c, 0x00, 0x00, 0xb8, 0x0b, 0x00, 0x00, 0x3c, 0x0b, 0x00, 0x00, 0x28, 0x0a, 0x00, 0x00, 0x0c, 0x09, 0x00, 0x00, 0xf8, 0x07, 0x00, 0x00, 0xd4, 0x06, 0x00, 0x00, 0x20, 0x06, 0x00, 0x00, 0x5c, 0x05, 0x00, 0x00, 0x88, 0x04, 0x00, 0x00, 0xec, 0x03, 0x00, 0x00, 0xf8, 0x02, 0x00, 0x00, 0x5c, 0x02, 0x00, 0x00, 0xd8, 0x01, 0x00, 0x00, 0x24, 0x01, 0x00, 0x00, 0x80, 0x00, 0x00, 0x00, 0x04, 0x00, 0x00, 0x00, 0xba, 0xf3, 0xff, 0xff, 0x00, 0x00, 0x00, 0x01, 0x18, 0x00, 0x00, 0x00, 0x20, 0x00, 0x00, 0x00, 0x3c, 0x00, 0x00, 0x00, 0x12, 0x00, 0x00, 0x00, 0x00, 0x00, 0x00, 0x09, 0x50, 0x00, 0x00, 0x00, 0x02, 0x00, 0x00, 0x00, 0xff, 0xff, 0xff, 0xff, 0x03, 0x00, 0x00, 0x00, 0x9c, 0xf3, 0xff, 0xff, 0x08, 0x00, 0x00, 0x00, 0x10, 0x00, 0x00, 0x00, 0x01, 0x00, 0x00, 0x00, 0x80, 0xff, 0xff, 0xff, 0xff, 0xff, 0xff, 0xff, 0x01, 0x00, 0x00, 0x00, 0x00, 0x00, 0x80, 0x3b, 0x1b, 0x00, 0x00, 0x00, 0x53, 0x74, 0x61, 0x74, 0x65, 0x66, 0x75, 0x6c, 0x50, 0x61, 0x72, 0x74, 0x69, 0x74, 0x69, 0x6f, 0x6e, 0x65, 0x64, 0x43, 0x61, 0x6c, 0x6c, 0x5f, 0x31, 0x3a, 0x30, 0x00, 0x02, 0x00, 0x00, 0x00, 0x01, 0x00, 0x00, 0x00, 0x03, 0x00, 0x00, 0x00, 0x32, 0xf4, 0xff, 0xff, 0x00, 0x00, 0x00, 0x01, 0x18, 0x00, 0x00, 0x00, 0x20, 0x00, 0x00, 0x00, 0x40, 0x00, 0x00, 0x00, 0x11, 0x00, 0x00, 0x00, 0x00, 0x00, 0x00, 0x09, 0x78, 0x00, 0x00, 0x00, 0x02, 0x00, 0x00, 0x00, 0xff, 0xff, 0xff, 0xff, 0x03, 0x00, 0x00, 0x00, 0x14, 0xf4, 0xff, 0xff, 0x08, 0x00, 0x00, 0x00, 0x14, 0x00, 0x00, 0x00, 0x01, 0x00, 0x00, 0x00, 0xf5, 0xff, 0xff, 0xff, 0xff, 0xff, 0xff, 0xff, 0x00, 0x00, 0x00, 0x00, 0x01, 0x00, 0x00, 0x00, 0x6f, 0xbf, 0x4d, 0x3e, 0x3c, 0x00, 0x00, 0x00, 0x73, 0x65, 0x71, 0x75, 0x65, 0x6e, 0x74, 0x69, 0x61, 0x6c, 0x5f, 0x31, 0x2f, 0x64, 0x65, 0x6e, 0x73, 0x65, 0x5f, 0x31, 0x5f, 0x32, 0x2f, 0x4d, 0x61, 0x74, 0x4d, 0x75, 0x6c, 0x3b, 0x73, 0x65, 0x71, 0x75, 0x65, 0x6e, 0x74, 0x69, 0x61, 0x6c, 0x5f, 0x31, 0x2f, 0x64, 0x65, 0x6e, 0x73, 0x65, 0x5f, 0x31, 0x5f, 0x32, 0x2f, 0x42, 0x69, 0x61, 0x73, 0x41, 0x64, 0x64, 0x00, 0x00, 0x00, 0x00, 0x02, 0x00, 0x00, 0x00, 0x01, 0x00, 0x00, 0x00, 0x03, 0x00, 0x00, 0x00, 0xd2, 0xf4, 0xff, 0xff, 0x00, 0x00, 0x00, 0x01, 0x18, 0x00, 0x00, 0x00, 0x20, 0x00, 0x00, 0x00, 0x3c, 0x00, 0x00, 0x00, 0x10, 0x00, 0x00, 0x00, 0x00, 0x00, 0x00, 0x09, 0x88, 0x00, 0x00, 0x00, 0x02, 0x00, 0x00, 0x00, 0xff, 0xff, 0xff, 0xff, 0x10, 0x00, 0x00, 0x00, 0xb4, 0xf4, 0xff, 0xff, 0x08, 0x00, 0x00, 0x00, 0x10, 0x00, 0x00, 0x00, 0x01, 0x00, 0x00, 0x00, 0x80, 0xff, 0xff, 0xff, 0xff, 0xff, 0xff, 0xff, 0x01, 0x00, 0x00, 0x00, 0x31, 0xe0, 0x25, 0x3e, 0x52, 0x00, 0x00, 0x00, 0x73, 0x65, 0x71, 0x75, 0x65, 0x6e, 0x74, 0x69, 0x61, 0x6c, 0x5f, 0x31, 0x2f, 0x64, 0x65, 0x6e, 0x73, 0x65, 0x5f, 0x31, 0x2f, 0x4d, 0x61, 0x74, 0x4d, 0x75, 0x6c, 0x3b, 0x73, 0x65, 0x71, 0x75, 0x65, 0x6e, 0x74, 0x69, 0x61, 0x6c, 0x5f, 0x31, 0x2f, 0x64, 0x65, 0x6e, 0x73, 0x65, 0x5f, 0x31, 0x2f, 0x52, 0x65, 0x6c, 0x75, 0x3b, 0x73, 0x65, 0x71, 0x75, 0x65, 0x6e, 0x74, 0x69, 0x61, 0x6c, 0x5f, 0x31, 0x2f, 0x64, 0x65, 0x6e, 0x73, 0x65, 0x5f, 0x31, 0x2f, 0x42, 0x69, 0x61, 0x73, 0x41, 0x64, 0x64, 0x00, 0x00, 0x02, 0x00, 0x00, 0x00, 0x01, 0x00, 0x00, 0x00, 0x10, 0x00, 0x00, 0x00, 0x82, 0xf5, 0xff, 0xff, 0x00, 0x00, 0x00, 0x01, 0x18, 0x00, 0x00, 0x00, 0x20, 0x00, 0x00, 0x00, 0x40, 0x00, 0x00, 0x00, 0x0f, 0x00, 0x00, 0x00, 0x00, 0x00, 0x00, 0x09, 0x58, 0x00, 0x00, 0x00, 0x02, 0x00, 0x00, 0x00, 0xff, 0xff, 0xff, 0xff, 0x80, 0x01, 0x00, 0x00, 0x64, 0xf5, 0xff, 0xff, 0x08, 0x00, 0x00, 0x00, 0x14, 0x00, 0x00, 0x00, 0x01, 0x00, 0x00, 0x00, 0x80, 0xff, 0xff, 0xff, 0xff, 0xff, 0xff, 0xff, 0x00, 0x00, 0x00, 0x00, 0x01, 0x00, 0x00, 0x00, 0x93, 0xb9, 0x86, 0x3e, 0x1e, 0x00, 0x00, 0x00, 0x73, 0x65, 0x71, 0x75, 0x65, 0x6e, 0x74, 0x69, 0x61, 0x6c, 0x5f, 0x31, 0x2f, 0x66, 0x6c, 0x61, 0x74, 0x74, 0x65, 0x6e, 0x5f, 0x31, 0x2f, 0x52, 0x65, 0x73, 0x68, 0x61, 0x70, 0x65, 0x00, 0x00, 0x02, 0x00, 0x00, 0x00, 0x01, 0x00, 0x00, 0x00, 0x80, 0x01, 0x00, 0x00, 0x02, 0xf6, 0xff, 0xff, 0x00, 0x00, 0x00, 0x01, 0x18, 0x00, 0x00, 0x00, 0x28, 0x00, 0x00, 0x00, 0x44, 0x00, 0x00, 0x00, 0x0e, 0x00, 0x00, 0x00, 0x00, 0x00, 0x00, 0x09, 0x68, 0x00, 0x00, 0x00, 0x04, 0x00, 0x00, 0x00, 0xff, 0xff, 0xff, 0xff, 0x08, 0x00, 0x00, 0x00, 0x03, 0x00, 0x00, 0x00, 0x10, 0x00, 0x00, 0x00, 0xec, 0xf5, 0xff, 0xff, 0x08, 0x00, 0x00, 0x00, 0x10, 0x00, 0x00, 0x00, 0x01, 0x00, 0x00, 0x00, 0x80, 0xff, 0xff, 0xff, 0xff, 0xff, 0xff, 0xff, 0x01, 0x00, 0x00, 0x00, 0x93, 0xb9, 0x86, 0x3e, 0x28, 0x00, 0x00, 0x00, 0x73, 0x65, 0x71, 0x75, 0x65, 0x6e, 0x74, 0x69, 0x61, 0x6c, 0x5f, 0x31, 0x2f, 0x6d, 0x61, 0x78, 0x5f, 0x70, 0x6f, 0x6f, 0x6c, 0x69, 0x6e, 0x67, 0x32, 0x64, 0x5f, 0x31, 0x5f, 0x32, 0x2f, 0x4d, 0x61, 0x78, 0x50, 0x6f, 0x6f, 0x6c, 0x32, 0x64, 0x00, 0x00, 0x00, 0x00, 0x04, 0x00, 0x00, 0x00, 0x01, 0x00, 0x00, 0x00, 0x08, 0x00, 0x00, 0x00, 0x03, 0x00, 0x00, 0x00, 0x10, 0x00, 0x00, 0x00, 0x9a, 0xf6, 0xff, 0xff, 0x00, 0x00, 0x00, 0x01, 0x18, 0x00, 0x00, 0x00, 0x28, 0x00, 0x00, 0x00, 0x44, 0x00, 0x00, 0x00, 0x0d, 0x00, 0x00, 0x00, 0x00, 0x00, 0x00, 0x09, 0xc0, 0x00, 0x00, 0x00, 0x04, 0x00, 0x00, 0x00, 0xff, 0xff, 0xff, 0xff, 0x10, 0x00, 0x00, 0x00, 0x06, 0x00, 0x00, 0x00, 0x10, 0x00, 0x00, 0x00, 0x84, 0xf6, 0xff, 0xff, 0x08, 0x00, 0x00, 0x00, 0x10, 0x00, 0x00, 0x00, 0x01, 0x00, 0x00, 0x00, 0x80, 0xff, 0xff, 0xff, 0xff, 0xff, 0xff, 0xff, 0x01, 0x00, 0x00, 0x00, 0x93, 0xb9, 0x86, 0x3e, 0x80, 0x00, 0x00, 0x00, 0x73, 0x65, 0x71, 0x75, 0x65, 0x6e, 0x74, 0x69, 0x61, 0x6c, 0x5f, 0x31, 0x2f, 0x63, 0x6f, 0x6e, 0x76, 0x32, 0x64, 0x5f, 0x31, 0x5f, 0x32, 0x2f, 0x52, 0x65, 0x6c, 0x75, 0x3b, 0x73, 0x65, 0x71, 0x75, 0x65, 0x6e, 0x74, 0x69, 0x61, 0x6c, 0x5f, 0x31, 0x2f, 0x63, 0x6f, 0x6e, 0x76, 0x32, 0x64, 0x5f, 0x31, 0x5f, 0x32, 0x2f, 0x42, 0x69, 0x61, 0x73, 0x41, 0x64, 0x64, 0x3b, 0x73, 0x65, 0x71, 0x75, 0x65, 0x6e, 0x74, 0x69, 0x61, 0x6c, 0x5f, 0x31, 0x2f, 0x63, 0x6f, 0x6e, 0x76, 0x32, 0x64, 0x5f, 0x31, 0x5f, 0x32, 0x2f, 0x63, 0x6f, 0x6e, 0x76, 0x6f, 0x6c, 0x75, 0x74, 0x69, 0x6f, 0x6e, 0x3b, 0x73, 0x65, 0x71, 0x75, 0x65, 0x6e, 0x74, 0x69, 0x61, 0x6c, 0x5f, 0x31, 0x2f, 0x63, 0x6f, 0x6e, 0x76, 0x32, 0x64, 0x5f, 0x31, 0x5f, 0x32, 0x2f, 0x53, 0x71, 0x75, 0x65, 0x65, 0x7a, 0x65, 0x00, 0x00, 0x00, 0x00, 0x04, 0x00, 0x00, 0x00, 0x01, 0x00, 0x00, 0x00, 0x10, 0x00, 0x00, 0x00, 0x06, 0x00, 0x00, 0x00, 0x10, 0x00, 0x00, 0x00, 0x8a, 0xf7, 0xff, 0xff, 0x00, 0x00, 0x00, 0x01, 0x18, 0x00, 0x00, 0x00, 0x28, 0x00, 0x00, 0x00, 0x48, 0x00, 0x00, 0x00, 0x0c, 0x00, 0x00, 0x00, 0x00, 0x00, 0x00, 0x09, 0x68, 0x00, 0x00, 0x00, 0x04, 0x00, 0x00, 0x00, 0xff, 0xff, 0xff, 0xff, 0x10, 0x00, 0x00, 0x00, 0x06, 0x00, 0x00, 0x00, 0x08, 0x00, 0x00, 0x00, 0x74, 0xf7, 0xff, 0xff, 0x08, 0x00, 0x00, 0x00, 0x14, 0x00, 0x00, 0x00, 0x01, 0x00, 0x00, 0x00, 0x80, 0xff, 0xff, 0xff, 0xff, 0xff, 0xff, 0xff, 0x00, 0x00, 0x00, 0x00, 0x01, 0x00, 0x00, 0x00, 0xa4, 0x21, 0x56, 0x3f, 0x26, 0x00, 0x00, 0x00, 0x73, 0x65, 0x71, 0x75, 0x65, 0x6e, 0x74, 0x69, 0x61, 0x6c, 0x5f, 0x31, 0x2f, 0x6d, 0x61, 0x78, 0x5f, 0x70, 0x6f, 0x6f, 0x6c, 0x69, 0x6e, 0x67, 0x32, 0x64, 0x5f, 0x31, 0x2f, 0x4d, 0x61, 0x78, 0x50, 0x6f, 0x6f, 0x6c, 0x32, 0x64, 0x00, 0x00, 0x04, 0x00, 0x00, 0x00, 0x01, 0x00, 0x00, 0x00, 0x10, 0x00, 0x00, 0x00, 0x06, 0x00, 0x00, 0x00, 0x08, 0x00, 0x00, 0x00, 0x22, 0xf8, 0xff, 0xff, 0x00, 0x00, 0x00, 0x01, 0x18, 0x00, 0x00, 0x00, 0x28, 0x00, 0x00, 0x00, 0x48, 0x00, 0x00, 0x00, 0x0b, 0x00, 0x00, 0x00, 0x00, 0x00, 0x00, 0x09, 0xa0, 0x00, 0x00, 0x00, 0x04, 0x00, 0x00, 0x00, 0xff, 0xff, 0xff, 0xff, 0x20, 0x00, 0x00, 0x00, 0x0d, 0x00, 0x00, 0x00, 0x08, 0x00, 0x00, 0x00, 0x0c, 0xf8, 0xff, 0xff, 0x08, 0x00, 0x00, 0x00, 0x14, 0x00, 0x00, 0x00, 0x01, 0x00, 0x00, 0x00, 0x80, 0xff, 0xff, 0xff, 0xff, 0xff, 0xff, 0xff, 0x00, 0x00, 0x00, 0x00, 0x01, 0x00, 0x00, 0x00, 0xa4, 0x21, 0x56, 0x3f, 0x5c, 0x00, 0x00, 0x00, 0x73, 0x65, 0x71, 0x75, 0x65, 0x6e, 0x74, 0x69, 0x61, 0x6c, 0x5f, 0x31, 0x2f, 0x63, 0x6f, 0x6e, 0x76, 0x32, 0x64, 0x5f, 0x31, 0x2f, 0x52, 0x65, 0x6c, 0x75, 0x3b, 0x73, 0x65, 0x71, 0x75, 0x65, 0x6e, 0x74, 0x69, 0x61, 0x6c, 0x5f, 0x31, 0x2f, 0x63, 0x6f, 0x6e, 0x76, 0x32, 0x64, 0x5f, 0x31, 0x2f, 0x42, 0x69, 0x61, 0x73, 0x41, 0x64, 0x64, 0x3b, 0x73, 0x65, 0x71, 0x75, 0x65, 0x6e, 0x74, 0x69, 0x61, 0x6c, 0x5f, 0x31, 0x2f, 0x63, 0x6f, 0x6e, 0x76, 0x32, 0x64, 0x5f, 0x31, 0x2f, 0x63, 0x6f, 0x6e, 0x76, 0x6f, 0x6c, 0x75, 0x74, 0x69, 0x6f, 0x6e, 0x3b, 0x31, 0x00, 0x00, 0x00, 0x00, 0x04, 0x00, 0x00, 0x00, 0x01, 0x00, 0x00, 0x00, 0x20, 0x00, 0x00, 0x00, 0x0d, 0x00, 0x00, 0x00, 0x08, 0x00, 0x00, 0x00, 0x4a, 0xf9, 0xff, 0xff, 0x00, 0x00, 0x00, 0x01, 0x14, 0x00, 0x00, 0x00, 0x88, 0x00, 0x00, 0x00, 0x0a, 0x00, 0x00, 0x00, 0x00, 0x00, 0x00, 0x09, 0x94, 0x00, 0x00, 0x00, 0xc4, 0xf8, 0xff, 0xff, 0x08, 0x00, 0x00, 0x00, 0x4c, 0x00, 0x00, 0x00, 0x08, 0x00, 0x00, 0x00, 0x00, 0x00, 0x00, 0x00, 0x00, 0x00, 0x00, 0x00, 0x00, 0x00, 0x00, 0x00, 0x00, 0x00, 0x00, 0x00, 0x00, 0x00, 0x00, 0x00, 0x00, 0x00, 0x00, 0x00, 0x00, 0x00, 0x00, 0x00, 0x00, 0x00, 0x00, 0x00, 0x00, 0x00, 0x00, 0x00, 0x00, 0x00, 0x00, 0x00, 0x00, 0x00, 0x00, 0x00, 0x00, 0x00, 0x00, 0x00, 0x00, 0x00, 0x00, 0x00, 0x00, 0x00, 0x00, 0x00, 0x00, 0x00, 0x00, 0x00, 0x00, 0x00, 0x00, 0x00, 0x00, 0x00, 0x00, 0x00, 0x08, 0x00, 0x00, 0x00, 0x4c, 0xba, 0xe3, 0x3a, 0x30, 0xa1, 0x03, 0x3b, 0x23, 0x2a, 0xfd, 0x3a, 0xa1, 0x88, 0xfa, 0x3a, 0xe7, 0x7e, 0x02, 0x3b, 0x02, 0x38, 0xe8, 0x3a, 0x3c, 0xa1, 0x1f, 0x3b, 0x20, 0x1f, 0x06, 0x3b, 0x12, 0x00, 0x00, 0x00, 0x74, 0x66, 0x6c, 0x2e, 0x70, 0x73, 0x65, 0x75, 0x64, 0x6f, 0x5f, 0x71, 0x63, 0x6f, 0x6e, 0x73, 0x74, 0x37, 0x00, 0x00, 0x04, 0x00, 0x00, 0x00, 0x08, 0x00, 0x00, 0x00, 0x03, 0x00, 0x00, 0x00, 0x03, 0x00, 0x00, 0x00, 0x01, 0x00, 0x00, 0x00, 0x0a, 0xfa, 0xff, 0xff, 0x00, 0x00, 0x00, 0x01, 0x14, 0x00, 0x00, 0x00, 0x84, 0x00, 0x00, 0x00, 0x09, 0x00, 0x00, 0x00, 0x00, 0x00, 0x00, 0x02, 0x90, 0x00, 0x00, 0x00, 0x84, 0xf9, 0xff, 0xff, 0x08, 0x00, 0x00, 0x00, 0x48, 0x00, 0x00, 0x00, 0x08, 0x00, 0x00, 0x00, 0x00, 0x00, 0x00, 0x00, 0x00, 0x00, 0x00, 0x00, 0x00, 0x00, 0x00, 0x00, 0x00, 0x00, 0x00, 0x00, 0x00, 0x00, 0x00, 0x00, 0x00, 0x00, 0x00, 0x00, 0x00, 0x00, 0x00, 0x00, 0x00, 0x00, 0x00, 0x00, 0x00, 0x00, 0x00, 0x00, 0x00, 0x00, 0x00, 0x00, 0x00, 0x00, 0x00, 0x00, 0x00, 0x00, 0x00, 0x00, 0x00, 0x00, 0x00, 0x00, 0x00, 0x00, 0x00, 0x00, 0x00, 0x00, 0x00, 0x00, 0x00, 0x00, 0x00, 0x00, 0x08, 0x00, 0x00, 0x00, 0x3a, 0x3e, 0xa1, 0x3b, 0xba, 0x66, 0xba, 0x3b, 0xf3, 0x40, 0xb3, 0x3b, 0x12, 0x64, 0xb1, 0x3b, 0xa7, 0xcb, 0xb8, 0x3b, 0x48, 0x6c, 0xa4, 0x3b, 0x6d, 0x0d, 0xe2, 0x3b, 0x1c, 0xee, 0xbd, 0x3b, 0x12, 0x00, 0x00, 0x00, 0x74, 0x66, 0x6c, 0x2e, 0x70, 0x73, 0x65, 0x75, 0x64, 0x6f, 0x5f, 0x71, 0x63, 0x6f, 0x6e, 0x73, 0x74, 0x36, 0x00, 0x00, 0x01, 0x00, 0x00, 0x00, 0x08, 0x00, 0x00, 0x00, 0xba, 0xfa, 0xff, 0xff, 0x00, 0x00, 0x00, 0x01, 0x14, 0x00, 0x00, 0x00, 0xe8, 0x00, 0x00, 0x00, 0x08, 0x00, 0x00, 0x00, 0x00, 0x00, 0x00, 0x09, 0xf4, 0x00, 0x00, 0x00, 0x34, 0xfa, 0xff, 0xff, 0x08, 0x00, 0x00, 0x00, 0x8c, 0x00, 0x00, 0x00, 0x10, 0x00, 0x00, 0x00, 0x00, 0x00, 0x00, 0x00, 0x00, 0x00, 0x00, 0x00, 0x00, 0x00, 0x00, 0x00, 0x00, 0x00, 0x00, 0x00, 0x00, 0x00, 0x00, 0x00, 0x00, 0x00, 0x00, 0x00, 0x00, 0x00, 0x00, 0x00, 0x00, 0x00, 0x00, 0x00, 0x00, 0x00, 0x00, 0x00, 0x00, 0x00, 0x00, 0x00, 0x00, 0x00, 0x00, 0x00, 0x00, 0x00, 0x00, 0x00, 0x00, 0x00, 0x00, 0x00, 0x00, 0x00, 0x00, 0x00, 0x00, 0x00, 0x00, 0x00, 0x00, 0x00, 0x00, 0x00, 0x00, 0x00, 0x00, 0x00, 0x00, 0x00, 0x00, 0x00, 0x00, 0x00, 0x00, 0x00, 0x00, 0x00, 0x00, 0x00, 0x00, 0x00, 0x00, 0x00, 0x00, 0x00, 0x00, 0x00, 0x00, 0x00, 0x00, 0x00, 0x00, 0x00, 0x00, 0x00, 0x00, 0x00, 0x00, 0x00, 0x00, 0x00, 0x00, 0x00, 0x00, 0x00, 0x00, 0x00, 0x00, 0x00, 0x00, 0x00, 0x00, 0x00, 0x00, 0x00, 0x00, 0x00, 0x00, 0x00, 0x00, 0x00, 0x00, 0x00, 0x00, 0x00, 0x00, 0x00, 0x00, 0x00, 0x00, 0x00, 0x10, 0x00, 0x00, 0x00, 0x0a, 0xd3, 0xc0, 0x3a, 0xcd, 0xcd, 0xb3, 0x3a, 0x85, 0xe0, 0xb0, 0x3a, 0x63, 0x9a, 0xb4, 0x3a, 0x76, 0x0f, 0xd9, 0x3a, 0xe3, 0x57, 0xcb, 0x3a, 0x1f, 0xd3, 0xbc, 0x3a, 0xa2, 0x8f, 0xd1, 0x3a, 0x62, 0x0d, 0xbe, 0x3a, 0x8e, 0xcc, 0xb1, 0x3a, 0xea, 0xd7, 0xd6, 0x3a, 0x16, 0x73, 0xc5, 0x3a, 0x19, 0xae, 0xbd, 0x3a, 0xa0, 0x91, 0xbe, 0x3a, 0xf0, 0x00, 0xa8, 0x3a, 0x9c, 0x90, 0xcb, 0x3a, 0x12, 0x00, 0x00, 0x00, 0x74, 0x66, 0x6c, 0x2e, 0x70, 0x73, 0x65, 0x75, 0x64, 0x6f, 0x5f, 0x71, 0x63, 0x6f, 0x6e, 0x73, 0x74, 0x35, 0x00, 0x00, 0x04, 0x00, 0x00, 0x00, 0x10, 0x00, 0x00, 0x00, 0x03, 0x00, 0x00, 0x00, 0x03, 0x00, 0x00, 0x00, 0x08, 0x00, 0x00, 0x00, 0xda, 0xfb, 0xff, 0xff, 0x00, 0x00, 0x00, 0x01, 0x14, 0x00, 0x00, 0x00, 0xe4, 0x00, 0x00, 0x00, 0x07, 0x00, 0x00, 0x00, 0x00, 0x00, 0x00, 0x02, 0xf0, 0x00, 0x00, 0x00, 0x54, 0xfb, 0xff, 0xff, 0x08, 0x00, 0x00, 0x00, 0x88, 0x00, 0x00, 0x00, 0x10, 0x00, 0x00, 0x00, 0x00, 0x00, 0x00, 0x00, 0x00, 0x00, 0x00, 0x00, 0x00, 0x00, 0x00, 0x00, 0x00, 0x00, 0x00, 0x00, 0x00, 0x00, 0x00, 0x00, 0x00, 0x00, 0x00, 0x00, 0x00, 0x00, 0x00, 0x00, 0x00, 0x00, 0x00, 0x00, 0x00, 0x00, 0x00, 0x00, 0x00, 0x00, 0x00, 0x00, 0x00, 0x00, 0x00, 0x00, 0x00, 0x00, 0x00, 0x00, 0x00, 0x00, 0x00, 0x00, 0x00, 0x00, 0x00, 0x00, 0x00, 0x00, 0x00, 0x00, 0x00, 0x00, 0x00, 0x00, 0x00, 0x00, 0x00, 0x00, 0x00, 0x00, 0x00, 0x00, 0x00, 0x00, 0x00, 0x00, 0x00, 0x00, 0x00, 0x00, 0x00, 0x00, 0x00, 0x00, 0x00, 0x00, 0x00, 0x00, 0x00, 0x00, 0x00, 0x00, 0x00, 0x00, 0x00, 0x00, 0x00, 0x00, 0x00, 0x00, 0x00, 0x00, 0x00, 0x00, 0x00, 0x00, 0x00, 0x00, 0x00, 0x00, 0x00, 0x00, 0x00, 0x00, 0x00, 0x00, 0x00, 0x00, 0x00, 0x00, 0x00, 0x00, 0x00, 0x00, 0x00, 0x00, 0x00, 0x00, 0x10, 0x00, 0x00, 0x00, 0xc1, 0x49, 0xa1, 0x3a, 0xaa, 0x65, 0x96, 0x3a, 0xed, 0xf2, 0x93, 0x3a, 0xca, 0x10, 0x97, 0x3a, 0x73, 0x8f, 0xb5, 0x3a, 0x30, 0x16, 0xaa, 0x3a, 0x4c, 0xf1, 0x9d, 0x3a, 0x9b, 0x49, 0xaf, 0x3a, 0x29, 0xf8, 0x9e, 0x3a, 0x5c, 0xb8, 0x94, 0x3a, 0xb9, 0xb4, 0xb3, 0x3a, 0x27, 0x28, 0xa5, 0x3a, 0x76, 0xa8, 0x9e, 0x3a, 0xc7, 0x66, 0x9f, 0x3a, 0xdc, 0x86, 0x8c, 0x3a, 0xa2, 0x45, 0xaa, 0x3a, 0x12, 0x00, 0x00, 0x00, 0x74, 0x66, 0x6c, 0x2e, 0x70, 0x73, 0x65, 0x75, 0x64, 0x6f, 0x5f, 0x71, 0x63, 0x6f, 0x6e, 0x73, 0x74, 0x34, 0x00, 0x00, 0x01, 0x00, 0x00, 0x00, 0x10, 0x00, 0x00, 0x00, 0xea, 0xfc, 0xff, 0xff, 0x00, 0x00, 0x00, 0x01, 0x14, 0x00, 0x00, 0x00, 0xe8, 0x00, 0x00, 0x00, 0x06, 0x00, 0x00, 0x00, 0x00, 0x00, 0x00, 0x09, 0xf4, 0x00, 0x00, 0x00, 0x64, 0xfc, 0xff, 0xff, 0x08, 0x00, 0x00, 0x00, 0x8c, 0x00, 0x00, 0x00, 0x10, 0x00, 0x00, 0x00, 0x00, 0x00, 0x00, 0x00, 0x00, 0x00, 0x00, 0x00, 0x00, 0x00, 0x00, 0x00, 0x00, 0x00, 0x00, 0x00, 0x00, 0x00, 0x00, 0x00, 0x00, 0x00, 0x00, 0x00, 0x00, 0x00, 0x00, 0x00, 0x00, 0x00, 0x00, 0x00, 0x00, 0x00, 0x00, 0x00, 0x00, 0x00, 0x00, 0x00, 0x00, 0x00, 0x00, 0x00, 0x00, 0x00, 0x00, 0x00, 0x00, 0x00, 0x00, 0x00, 0x00, 0x00, 0x00, 0x00, 0x00, 0x00, 0x00, 0x00, 0x00, 0x00, 0x00, 0x00, 0x00, 0x00, 0x00, 0x00, 0x00, 0x00, 0x00, 0x00, 0x00, 0x00, 0x00, 0x00, 0x00, 0x00, 0x00, 0x00, 0x00, 0x00, 0x00, 0x00, 0x00, 0x00, 0x00, 0x00, 0x00, 0x00, 0x00, 0x00, 0x00, 0x00, 0x00, 0x00, 0x00, 0x00, 0x00, 0x00, 0x00, 0x00, 0x00, 0x00, 0x00, 0x00, 0x00, 0x00, 0x00, 0x00, 0x00, 0x00, 0x00, 0x00, 0x00, 0x00, 0x00, 0x00, 0x00, 0x00, 0x00, 0x00, 0x00, 0x00, 0x00, 0x00, 0x00, 0x00, 0x00, 0x00, 0x00, 0x00, 0x10, 0x00, 0x00, 0x00, 0x0a, 0xad, 0x88, 0x3a, 0x33, 0x9d, 0x86, 0x3a, 0xae, 0xec, 0xa2, 0x3a, 0x21, 0xc5, 0x89, 0x3a, 0xac, 0xfe, 0xc9, 0x3a, 0xbd, 0x06, 0xbe, 0x3a, 0x76, 0x08, 0x9d, 0x3a, 0xdf, 0x71, 0x7c, 0x3a, 0x57, 0x71, 0x9a, 0x3a, 0x39, 0x62, 0xc3, 0x3a, 0x6a, 0x92, 0x7c, 0x3a, 0xf7, 0xce, 0x92, 0x3a, 0xa8, 0xec, 0xa7, 0x3a, 0x54, 0x0f, 0xa2, 0x3a, 0xcf, 0xb6, 0x7c, 0x3a, 0xdd, 0x89, 0x7c, 0x3a, 0x12, 0x00, 0x00, 0x00, 0x74, 0x66, 0x6c, 0x2e, 0x70, 0x73, 0x65, 0x75, 0x64, 0x6f, 0x5f, 0x71, 0x63, 0x6f, 0x6e, 0x73, 0x74, 0x33, 0x00, 0x00, 0x02, 0x00, 0x00, 0x00, 0x10, 0x00, 0x00, 0x00, 0x80, 0x01, 0x00, 0x00, 0x02, 0xfe, 0xff, 0xff, 0x00, 0x00, 0x00, 0x01, 0x14, 0x00, 0x00, 0x00, 0xe4, 0x00, 0x00, 0x00, 0x05, 0x00, 0x00, 0x00, 0x00, 0x00, 0x00, 0x02, 0xf0, 0x00, 0x00, 0x00, 0x7c, 0xfd, 0xff, 0xff, 0x08, 0x00, 0x00, 0x00, 0x88, 0x00, 0x00, 0x00, 0x10, 0x00, 0x00, 0x00, 0x00, 0x00, 0x00, 0x00, 0x00, 0x00, 0x00, 0x00, 0x00, 0x00, 0x00, 0x00, 0x00, 0x00, 0x00, 0x00, 0x00, 0x00, 0x00, 0x00, 0x00, 0x00, 0x00, 0x00, 0x00, 0x00, 0x00, 0x00, 0x00, 0x00, 0x00, 0x00, 0x00, 0x00, 0x00, 0x00, 0x00, 0x00, 0x00, 0x00, 0x00, 0x00, 0x00, 0x00, 0x00, 0x00, 0x00, 0x00, 0x00, 0x00, 0x00, 0x00, 0x00, 0x00, 0x00, 0x00, 0x00, 0x00, 0x00, 0x00, 0x00, 0x00, 0x00, 0x00, 0x00, 0x00, 0x00, 0x00, 0x00, 0x00, 0x00, 0x00, 0x00, 0x00, 0x00, 0x00, 0x00, 0x00, 0x00, 0x00, 0x00, 0x00, 0x00, 0x00, 0x00, 0x00, 0x00, 0x00, 0x00, 0x00, 0x00, 0x00, 0x00, 0x00, 0x00, 0x00, 0x00, 0x00, 0x00, 0x00, 0x00, 0x00, 0x00, 0x00, 0x00, 0x00, 0x00, 0x00, 0x00, 0x00, 0x00, 0x00, 0x00, 0x00, 0x00, 0x00, 0x00, 0x00, 0x00, 0x00, 0x00, 0x00, 0x00, 0x00, 0x00, 0x00, 0x00, 0x00, 0x10, 0x00, 0x00, 0x00, 0x4e, 0xdb, 0x8f, 0x39, 0xbb, 0xaf, 0x8d, 0x39, 0xfb, 0x7b, 0xab, 0x39, 0x1c, 0x02, 0x91, 0x39, 0x76, 0x9b, 0xd4, 0x39, 0x8e, 0x02, 0xc8, 0x39, 0x86, 0x48, 0xa5, 0x39, 0x9a, 0xda, 0x84, 0x39, 0x90, 0x8e, 0xa2, 0x39, 0x18, 0xa6, 0xcd, 0x39, 0xba, 0xeb, 0x84, 0x39, 0x82, 0x85, 0x9a, 0x39, 0x35, 0xbf, 0xb0, 0x39, 0x00, 0x93, 0xaa, 0x39, 0xe2, 0xfe, 0x84, 0x39, 0x3a, 0xe7, 0x84, 0x39, 0x12, 0x00, 0x00, 0x00, 0x74, 0x66, 0x6c, 0x2e, 0x70, 0x73, 0x65, 0x75, 0x64, 0x6f, 0x5f, 0x71, 0x63, 0x6f, 0x6e, 0x73, 0x74, 0x32, 0x00, 0x00, 0x01, 0x00, 0x00, 0x00, 0x10, 0x00, 0x00, 0x00, 0x12, 0xff, 0xff, 0xff, 0x00, 0x00, 0x00, 0x01, 0x14, 0x00, 0x00, 0x00, 0x48, 0x00, 0x00, 0x00, 0x04, 0x00, 0x00, 0x00, 0x00, 0x00, 0x00, 0x09, 0x54, 0x00, 0x00, 0x00, 0x8c, 0xfe, 0xff, 0xff, 0x08, 0x00, 0x00, 0x00, 0x20, 0x00, 0x00, 0x00, 0x03, 0x00, 0x00, 0x00, 0x00, 0x00, 0x00, 0x00, 0x00, 0x00, 0x00, 0x00, 0x00, 0x00, 0x00, 0x00, 0x00, 0x00, 0x00, 0x00, 0x00, 0x00, 0x00, 0x00, 0x00, 0x00, 0x00, 0x00, 0x03, 0x00, 0x00, 0x00, 0x71, 0x14, 0x86, 0x3b, 0x10, 0x13, 0x7e, 0x3b, 0xf0, 0x4f, 0x8e, 0x3b, 0x12, 0x00, 0x00, 0x00, 0x74, 0x66, 0x6c, 0x2e, 0x70, 0x73, 0x65, 0x75, 0x64, 0x6f, 0x5f, 0x71, 0x63, 0x6f, 0x6e, 0x73, 0x74, 0x31, 0x00, 0x00, 0x02, 0x00, 0x00, 0x00, 0x03, 0x00, 0x00, 0x00, 0x10, 0x00, 0x00, 0x00, 0x8a, 0xff, 0xff, 0xff, 0x00, 0x00, 0x00, 0x01, 0x14, 0x00, 0x00, 0x00, 0x48, 0x00, 0x00, 0x00, 0x03, 0x00, 0x00, 0x00, 0x00, 0x00, 0x00, 0x02, 0x54, 0x00, 0x00, 0x00, 0x04, 0xff, 0xff, 0xff, 0x08, 0x00, 0x00, 0x00, 0x20, 0x00, 0x00, 0x00, 0x03, 0x00, 0x00, 0x00, 0x00, 0x00, 0x00, 0x00, 0x00, 0x00, 0x00, 0x00, 0x00, 0x00, 0x00, 0x00, 0x00, 0x00, 0x00, 0x00, 0x00, 0x00, 0x00, 0x00, 0x00, 0x00, 0x00, 0x00, 0x03, 0x00, 0x00, 0x00, 0x31, 0xc1, 0x2d, 0x3a, 0xcb, 0xa0, 0x24, 0x3a, 0x4e, 0x6c, 0x38, 0x3a, 0x11, 0x00, 0x00, 0x00, 0x74, 0x66, 0x6c, 0x2e, 0x70, 0x73, 0x65, 0x75, 0x64, 0x6f, 0x5f, 0x71, 0x63, 0x6f, 0x6e, 0x73, 0x74, 0x00, 0x00, 0x00, 0x01, 0x00, 0x00, 0x00, 0x03, 0x00, 0x00, 0x00, 0x00, 0x00, 0x16, 0x00, 0x1c, 0x00, 0x18, 0x00, 0x17, 0x00, 0x10, 0x00, 0x0c, 0x00, 0x08, 0x00, 0x00, 0x00, 0x00, 0x00, 0x00, 0x00, 0x07, 0x00, 0x16, 0x00, 0x00, 0x00, 0x00, 0x00, 0x00, 0x01, 0x18, 0x00, 0x00, 0x00, 0x18, 0x00, 0x00, 0x00, 0x02, 0x00, 0x00, 0x00, 0x00, 0x00, 0x00, 0x02, 0x20, 0x00, 0x00, 0x00, 0x04, 0x00, 0x04, 0x00, 0x04, 0x00, 0x00, 0x00, 0x0e, 0x00, 0x00, 0x00, 0x61, 0x72, 0x69, 0x74, 0x68, 0x2e, 0x63, 0x6f, 0x6e, 0x73, 0x74, 0x61, 0x6e, 0x74, 0x00, 0x00, 0x01, 0x00, 0x00, 0x00, 0x02, 0x00, 0x00, 0x00, 0x00, 0x00, 0x16, 0x00, 0x20, 0x00, 0x1c, 0x00, 0x1b, 0x00, 0x14, 0x00, 0x10, 0x00, 0x0c, 0x00, 0x00, 0x00, 0x00, 0x00, 0x08, 0x00, 0x07, 0x00, 0x16, 0x00, 0x00, 0x00, 0x00, 0x00, 0x00, 0x01, 0x18, 0x00, 0x00, 0x00, 0x34, 0x00, 0x00, 0x00, 0x54, 0x00, 0x00, 0x00, 0x01, 0x00, 0x00, 0x00, 0x00, 0x00, 0x00, 0x09, 0x6c, 0x00, 0x00, 0x00, 0x04, 0x00, 0x00, 0x00, 0xff, 0xff, 0xff, 0xff, 0x20, 0x00, 0x00, 0x00, 0x0d, 0x00, 0x00, 0x00, 0x01, 0x00, 0x00, 0x00, 0x0c, 0x00, 0x0c, 0x00, 0x00, 0x00, 0x00, 0x00, 0x08, 0x00, 0x04, 0x00, 0x0c, 0x00, 0x00, 0x00, 0x08, 0x00, 0x00, 0x00, 0x14, 0x00, 0x00, 0x00, 0x01, 0x00, 0x00, 0x00, 0x44, 0x00, 0x00, 0x00, 0x00, 0x00, 0x00, 0x00, 0x00, 0x00, 0x00, 0x00, 0x01, 0x00, 0x00, 0x00, 0xe6, 0x42, 0x35, 0x40, 0x1e, 0x00, 0x00, 0x00, 0x73, 0x65, 0x72, 0x76, 0x69, 0x6e, 0x67, 0x5f, 0x64, 0x65, 0x66, 0x61, 0x75, 0x6c, 0x74, 0x5f, 0x6b, 0x65, 0x72, 0x61, 0x73, 0x5f, 0x74, 0x65, 0x6e, 0x73, 0x6f, 0x72, 0x3a, 0x30, 0x00, 0x00, 0x04, 0x00, 0x00, 0x00, 0x01, 0x00, 0x00, 0x00, 0x20, 0x00, 0x00, 0x00, 0x0d, 0x00, 0x00, 0x00, 0x01, 0x00, 0x00, 0x00, 0x05, 0x00, 0x00, 0x00, 0x68, 0x00, 0x00, 0x00, 0x48, 0x00, 0x00, 0x00, 0x38, 0x00, 0x00, 0x00, 0x18, 0x00, 0x00, 0x00, 0x04, 0x00, 0x00, 0x00, 0xb8, 0xff, 0xff, 0xff, 0x19, 0x00, 0x00, 0x00, 0x02, 0x00, 0x00, 0x00, 0x00, 0x00, 0x00, 0x19, 0xc8, 0xff, 0xff, 0xff, 0x09, 0x00, 0x00, 0x00, 0x04, 0x00, 0x00, 0x00, 0x00, 0x00, 0x00, 0x09, 0x0c, 0x00, 0x0c, 0x00, 0x0b, 0x00, 0x00, 0x00, 0x00, 0x00, 0x04, 0x00, 0x0c, 0x00, 0x00, 0x00, 0x16, 0x00, 0x00, 0x00, 0x00, 0x00, 0x00, 0x16, 0xf0, 0xff, 0xff, 0xff, 0x11, 0x00, 0x00, 0x00, 0x02, 0x00, 0x00, 0x00, 0x00, 0x00, 0x00, 0x11, 0x0c, 0x00, 0x10, 0x00, 0x0f, 0x00, 0x00, 0x00, 0x08, 0x00, 0x04, 0x00, 0x0c, 0x00, 0x00, 0x00, 0x03, 0x00, 0x00, 0x00, 0x03, 0x00, 0x00, 0x00, 0x00, 0x00, 0x00, 0x03
};
const unsigned int audio_model_len = 12488;
