// Auto-generated by pipeline
#include <stdint.h>

const unsigned char audio_model[] = {
0x1c, 0x00, 0x00, 0x00, 0x54, 0x46, 0x4c, 0x33, 0x14, 0x00, 0x20, 0x00, 0x1c, 0x00, 0x18, 0x00, 0x14, 0x00, 0x10, 0x00, 0x0c, 0x00, 0x00, 0x00, 0x08, 0x00, 0x04, 0x00, 0x14, 0x00, 0x00, 0x00, 0x1c, 0x00, 0x00, 0x00, 0x8c, 0x00, 0x00, 0x00, 0x0c, 0x01, 0x00, 0x00, 0x48, 0x20, 0x00, 0x00, 0x58, 0x20, 0x00, 0x00, 0x18, 0x30, 0x00, 0x00, 0x03, 0x00, 0x00, 0x00, 0x01, 0x00, 0x00, 0x00, 0x04, 0x00, 0x00, 0x00, 0xae, 0xde, 0xff, 0xff, 0x0c, 0x00, 0x00, 0x00, 0x1c, 0x00, 0x00, 0x00, 0x3c, 0x00, 0x00, 0x00, 0x0f, 0x00, 0x00, 0x00, 0x73, 0x65, 0x72, 0x76, 0x69, 0x6e, 0x67, 0x5f, 0x64, 0x65, 0x66, 0x61, 0x75, 0x6c, 0x74, 0x00, 0x01, 0x00, 0x00, 0x00, 0x04, 0x00, 0x00, 0x00, 0x68, 0xff, 0xff, 0xff, 0x11, 0x00, 0x00, 0x00, 0x04, 0x00, 0x00, 0x00, 0x08, 0x00, 0x00, 0x00, 0x6f, 0x75, 0x74, 0x70, 0x75, 0x74, 0x5f, 0x30, 0x00, 0x00, 0x00, 0x00, 0x01, 0x00, 0x00, 0x00, 0x04, 0x00, 0x00, 0x00, 0x92, 0xdf, 0xff, 0xff, 0x04, 0x00, 0x00, 0x00, 0x0c, 0x00, 0x00, 0x00, 0x6b, 0x65, 0x72, 0x61, 0x73, 0x5f, 0x74, 0x65, 0x6e, 0x73, 0x6f, 0x72, 0x00, 0x00, 0x00, 0x00, 0x03, 0x00, 0x00, 0x00, 0x5c, 0x00, 0x00, 0x00, 0x2c, 0x00, 0x00, 0x00, 0x04, 0x00, 0x00, 0x00, 0xb8, 0xff, 0xff, 0xff, 0x15, 0x00, 0x00, 0x00, 0x04, 0x00, 0x00, 0x00, 0x13, 0x00, 0x00, 0x00, 0x43, 0x4f, 0x4e, 0x56, 0x45, 0x52, 0x53, 0x49, 0x4f, 0x4e, 0x5f, 0x4d, 0x45, 0x54, 0x41, 0x44, 0x41, 0x54, 0x41, 0x00, 0xdc, 0xff, 0xff, 0xff, 0x14, 0x00, 0x00, 0x00, 0x04, 0x00, 0x00, 0x00, 0x13, 0x00, 0x00, 0x00, 0x6d, 0x69, 0x6e, 0x5f, 0x72, 0x75, 0x6e, 0x74, 0x69, 0x6d, 0x65, 0x5f, 0x76, 0x65, 0x72, 0x73, 0x69, 0x6f, 0x6e, 0x00, 0x08, 0x00, 0x0c, 0x00, 0x08, 0x00, 0x04, 0x00, 0x08, 0x00, 0x00, 0x00, 0x13, 0x00, 0x00, 0x00, 0x04, 0x00, 0x00, 0x00, 0x13, 0x00, 0x00, 0x00, 0x6d, 0x69, 0x6e, 0x5f, 0x72, 0x75, 0x6e, 0x74, 0x69, 0x6d, 0x65, 0x5f, 0x76, 0x65, 0x72, 0x73, 0x69, 0x6f, 0x6e, 0x00, 0x16, 0x00, 0x00, 0x00, 0x38, 0x1f, 0x00, 0x00, 0x30, 0x1f, 0x00, 0x00, 0x18, 0x1f, 0x00, 0x00, 0xfc, 0x1e, 0x00, 0x00, 0xbc, 0x1e, 0x00, 0x00, 0x6c, 0x1e, 0x00, 0x00, 0x5c, 0x06, 0x00, 0x00, 0x0c, 0x06, 0x00, 0x00, 0x7c, 0x01, 0x00, 0x00, 0x4c, 0x01, 0x00, 0x00, 0xf4, 0x00, 0x00, 0x00, 0xec, 0x00, 0x00, 0x00, 0xe4, 0x00, 0x00, 0x00, 0xdc, 0x00, 0x00, 0x00, 0xd4, 0x00, 0x00, 0x00, 0xcc, 0x00, 0x00, 0x00, 0xc4, 0x00, 0x00, 0x00, 0xbc, 0x00, 0x00, 0x00, 0xb4, 0x00, 0x00, 0x00, 0x94, 0x00, 0x00, 0x00, 0x74, 0x00, 0x00, 0x00, 0x04, 0x00, 0x00, 0x00, 0x8e, 0xe0, 0xff, 0xff, 0x04, 0x00, 0x00, 0x00, 0x60, 0x00, 0x00, 0x00, 0x0c, 0x00, 0x00, 0x00, 0x08, 0x00, 0x0e, 0x00, 0x08, 0x00, 0x04, 0x00, 0x08, 0x00, 0x00, 0x00, 0x10, 0x00, 0x00, 0x00, 0x28, 0x00, 0x00, 0x00, 0x00, 0x00, 0x06, 0x00, 0x08, 0x00, 0x04, 0x00, 0x06, 0x00, 0x00, 0x00, 0x04, 0x00, 0x00, 0x00, 0x01, 0x00, 0x00, 0x00, 0xeb, 0x03, 0x00, 0x00, 0x0c, 0x00, 0x18, 0x00, 0x14, 0x00, 0x10, 0x00, 0x0c, 0x00, 0x04, 0x00, 0x0c, 0x00, 0x00, 0x00, 0xbb, 0x46, 0x89, 0xff, 0xc6, 0x44, 0x1d, 0x13, 0x02, 0x00, 0x00, 0x00, 0x02, 0x00, 0x00, 0x00, 0x04, 0x00, 0x00, 0x00, 0x06, 0x00, 0x00, 0x00, 0x32, 0x2e, 0x31, 0x39, 0x2e, 0x30, 0x00, 0x00, 0xfa, 0xe0, 0xff, 0xff, 0x04, 0x00, 0x00, 0x00, 0x10, 0x00, 0x00, 0x00, 0x00, 0x00, 0x00, 0x00, 0x00, 0x00, 0x00, 0x00, 0x00, 0x00, 0x00, 0x00, 0x00, 0x00, 0x00, 0x00, 0x16, 0xe1, 0xff, 0xff, 0x04, 0x00, 0x00, 0x00, 0x10, 0x00, 0x00, 0x00, 0x31, 0x2e, 0x31, 0x34, 0x2e, 0x30, 0x00, 0x00, 0x00, 0x00, 0x00, 0x00, 0x00, 0x00, 0x00, 0x00, 0xc0, 0xd2, 0xff, 0xff, 0xc4, 0xd2, 0xff, 0xff, 0xc8, 0xd2, 0xff, 0xff, 0xcc, 0xd2, 0xff, 0xff, 0xd0, 0xd2, 0xff, 0xff, 0xd4, 0xd2, 0xff, 0xff, 0xd8, 0xd2, 0xff, 0xff, 0xdc, 0xd2, 0xff, 0xff, 0x52, 0xe1, 0xff, 0xff, 0x04, 0x00, 0x00, 0x00, 0x48, 0x00, 0x00, 0x00, 0x39, 0xb7, 0x14, 0x9e, 0x81, 0xf2, 0x22, 0x3a, 0x0e, 0xb0, 0x75, 0x3a, 0x66, 0x1a, 0xb3, 0x0c, 0x81, 0x8d, 0x06, 0xc2, 0xaf, 0x00, 0x41, 0x17, 0xc2, 0x12, 0x81, 0xa8, 0x89, 0x81, 0x06, 0xfe, 0x64, 0x29, 0x4d, 0x72, 0x02, 0xd2, 0xe8, 0x62, 0xb7, 0x78, 0x77, 0xb3, 0x7f, 0x99, 0xc6, 0xcf, 0x90, 0xaa, 0x81, 0xba, 0x94, 0x35, 0xb6, 0x7f, 0xa0, 0x60, 0xdb, 0x2d, 0xd3, 0xf2, 0xe2, 0xa2, 0xe5, 0xfd, 0xd4, 0x8a, 0xf3, 0x81, 0xb2, 0x94, 0xa6, 0xe1, 0xff, 0xff, 0x04, 0x00, 0x00, 0x00, 0x20, 0x00, 0x00, 0x00, 0x00, 0x00, 0x00, 0x00, 0x01, 0x00, 0x00, 0x00, 0x00, 0x00, 0x00, 0x00, 0xfe, 0xff, 0xff, 0xff, 0x01, 0x00, 0x00, 0x00, 0x02, 0x00, 0x00, 0x00, 0x00, 0x00, 0x00, 0x00, 0xff, 0xff, 0xff, 0xff, 0xd2, 0xe1, 0xff, 0xff, 0x04, 0x00, 0x00, 0x00, 0x80, 0x04, 0x00, 0x00, 0x18, 0x55, 0x3d, 0xda, 0x3d, 0xb4, 0x28, 0xc4, 0x0c, 0xc7, 0xd6, 0x36, 0x41, 0x71, 0x4a, 0xc0, 0x3a, 0x9d, 0x68, 0xa0, 0x30, 0x9d, 0x0f, 0xab, 0x21, 0xeb, 0x0c, 0x8d, 0xed, 0x8f, 0x00, 0xe2, 0x9c, 0xb8, 0xc4, 0x3d, 0x33, 0xe2, 0x25, 0x27, 0xf8, 0x43, 0xe3, 0x95, 0x4f, 0x81, 0x73, 0x2e, 0xd0, 0x4b, 0x3e, 0xd4, 0xa5, 0x37, 0x22, 0x4c, 0x06, 0xeb, 0xe7, 0xa2, 0x1b, 0xd2, 0x33, 0x9f, 0xd8, 0x16, 0xdc, 0xa6, 0xf2, 0x89, 0x73, 0x21, 0xf4, 0x40, 0x3f, 0x3f, 0x03, 0x21, 0xa8, 0xd7, 0x12, 0x9d, 0xe4, 0x50, 0x5a, 0xbe, 0xe9, 0xfb, 0xc4, 0xab, 0x20, 0xdc, 0xf4, 0xee, 0x5b, 0x2c, 0xab, 0xc6, 0x7f, 0x19, 0x79, 0x41, 0x9d, 0x6c, 0xbe, 0xc9, 0xf6, 0x68, 0xd3, 0xf2, 0xbf, 0xb5, 0x52, 0xc2, 0xc6, 0x06, 0x53, 0x9e, 0xad, 0x1f, 0xba, 0x1c, 0xa0, 0x7a, 0x0e, 0x11, 0x33, 0xea, 0x0b, 0x58, 0x0c, 0x99, 0x3b, 0x83, 0x25, 0x89, 0xd4, 0xb7, 0x08, 0x19, 0xe1, 0x15, 0x57, 0xf2, 0xf3, 0x5c, 0x3b, 0xbf, 0xcd, 0xe3, 0x7a, 0xaf, 0x90, 0xee, 0x9b, 0x65, 0x0e, 0x5a, 0x31, 0xb2, 0x52, 0xc0, 0x05, 0xe6, 0xaa, 0xaa, 0x62, 0xa6, 0xa8, 0x71, 0xcb, 0x68, 0x02, 0xde, 0xaf, 0xc0, 0xae, 0x9e, 0x60, 0x67, 0x59, 0xa1, 0x4a, 0x4d, 0x1f, 0x23, 0x1d, 0x2b, 0x3d, 0x4f, 0x11, 0xa6, 0xcf, 0x5b, 0xda, 0x09, 0xec, 0xd0, 0xda, 0xaf, 0x0f, 0x81, 0x0e, 0x1a, 0xa8, 0x64, 0xb4, 0x5c, 0xc9, 0xb8, 0x0c, 0x4b, 0x57, 0x44, 0x59, 0x6e, 0x0c, 0xdf, 0xd4, 0x01, 0x40, 0x92, 0x2e, 0x63, 0xa1, 0x0a, 0xcd, 0x51, 0x4c, 0x84, 0xe6, 0x89, 0x44, 0x31, 0x98, 0xc1, 0xe9, 0x9f, 0x32, 0x2c, 0xd5, 0x51, 0x28, 0x34, 0x5c, 0xf2, 0x3c, 0xb0, 0x62, 0x3c, 0xa3, 0xcc, 0xc9, 0x4d, 0xe1, 0xd1, 0xfb, 0x69, 0x58, 0x5f, 0x0a, 0xb8, 0x4d, 0x55, 0x26, 0xbe, 0xc6, 0xce, 0xec, 0xed, 0x23, 0x27, 0xdb, 0x13, 0xe9, 0x51, 0x1b, 0x98, 0xee, 0x4f, 0xef, 0x31, 0xe8, 0x3e, 0x14, 0x7f, 0xe4, 0xe4, 0x9a, 0x06, 0xb1, 0x86, 0x8f, 0x02, 0x29, 0xb5, 0xb1, 0x67, 0x29, 0x0b, 0x2c, 0x43, 0x3b, 0x8c, 0x95, 0x32, 0x6c, 0x84, 0xae, 0xe1, 0xeb, 0xa0, 0xcd, 0x68, 0xfd, 0xea, 0x4f, 0x54, 0x06, 0x10, 0x66, 0x16, 0x48, 0xa6, 0x0f, 0x47, 0x7f, 0xbf, 0xf7, 0x98, 0xd5, 0xc4, 0x4f, 0xa4, 0x91, 0x5b, 0xc0, 0x18, 0xd4, 0x94, 0x9d, 0xd3, 0xd6, 0x9f, 0xd7, 0x7c, 0x27, 0x3a, 0xe7, 0x95, 0x96, 0x2d, 0x56, 0x24, 0x6a, 0xae, 0x0c, 0xbe, 0x44, 0x32, 0x01, 0xff, 0x5d, 0x1a, 0xb2, 0xe1, 0xf5, 0xcc, 0x5f, 0x28, 0xab, 0x7f, 0xb9, 0x7b, 0xdd, 0x00, 0xeb, 0x0d, 0xc8, 0x14, 0xf4, 0xf0, 0xed, 0xba, 0x0e, 0xd0, 0xab, 0xa4, 0x77, 0xb6, 0x43, 0x63, 0x54, 0xc3, 0xd9, 0xd4, 0x0c, 0x0b, 0x43, 0x64, 0x65, 0xf4, 0x44, 0x19, 0xdb, 0x20, 0x64, 0xc2, 0x1d, 0x19, 0x7a, 0xe3, 0xaa, 0x0e, 0x99, 0x73, 0xf9, 0x00, 0xe6, 0xec, 0xa5, 0xf8, 0x53, 0xd1, 0x8d, 0x48, 0xe0, 0xed, 0xd0, 0xe9, 0x0e, 0xe2, 0xe5, 0x21, 0x8b, 0x49, 0x69, 0x0a, 0x40, 0xbb, 0x37, 0xfd, 0x0b, 0xd2, 0xf2, 0x41, 0x1c, 0xb3, 0x81, 0x9f, 0x83, 0xdd, 0xa1, 0x01, 0x9e, 0x58, 0x0f, 0xb6, 0x0a, 0x65, 0x29, 0x67, 0x19, 0xb0, 0x47, 0x53, 0x66, 0x8c, 0xa2, 0x61, 0x4d, 0x60, 0xb3, 0x32, 0x46, 0xdc, 0xb5, 0xb4, 0xd6, 0x8d, 0x49, 0x1f, 0x62, 0x66, 0xae, 0xd3, 0xa6, 0x40, 0x42, 0x3d, 0x1b, 0xf2, 0x34, 0x1d, 0x47, 0xe6, 0x2f, 0x11, 0xa3, 0x2c, 0xb2, 0x92, 0x4d, 0x12, 0xb6, 0x53, 0xe3, 0xa5, 0x2f, 0xd3, 0x31, 0x2e, 0x92, 0x2e, 0x9d, 0xb4, 0xe0, 0xb7, 0x2b, 0x92, 0xd4, 0x56, 0x3f, 0x5f, 0x97, 0xb5, 0x35, 0xe7, 0xcb, 0xd3, 0x69, 0x17, 0x0d, 0xf5, 0x1a, 0x52, 0x69, 0xb8, 0xb8, 0xb5, 0xbe, 0xe3, 0x25, 0x81, 0xfa, 0xc6, 0x71, 0x45, 0x11, 0xed, 0x93, 0xdb, 0x8b, 0xa8, 0x95, 0xf0, 0x81, 0x3f, 0xf3, 0xfa, 0x34, 0x19, 0x34, 0xb0, 0x24, 0x91, 0xd1, 0x97, 0x36, 0xfc, 0xb3, 0x9c, 0xfb, 0x2c, 0x1f, 0x50, 0xec, 0x00, 0xf8, 0x14, 0x41, 0xc0, 0x27, 0x04, 0xf8, 0xdf, 0xe8, 0xe5, 0x5a, 0x48, 0x1d, 0x0e, 0xbb, 0x0e, 0x5a, 0xc5, 0xe2, 0x12, 0xd3, 0xd4, 0xe8, 0x19, 0x30, 0x35, 0xb1, 0xf6, 0xba, 0x34, 0xc1, 0x0b, 0x6c, 0x12, 0xf8, 0xb7, 0x55, 0x1f, 0x02, 0xe0, 0xdb, 0xe2, 0xff, 0x71, 0xc7, 0x4c, 0xd7, 0x0b, 0x04, 0x25, 0xf4, 0x58, 0x05, 0x0b, 0x5c, 0xd1, 0x41, 0x5e, 0xa9, 0xb2, 0x15, 0xed, 0x75, 0xf0, 0x58, 0x0c, 0xca, 0x3f, 0x76, 0x7f, 0x43, 0x39, 0xab, 0x45, 0x8e, 0x8b, 0xff, 0xde, 0xdd, 0xdf, 0xae, 0xac, 0xe1, 0xe5, 0x2b, 0x6e, 0x09, 0xbb, 0x15, 0xbb, 0xbe, 0x1f, 0xdd, 0xa1, 0x52, 0xca, 0x1c, 0x89, 0x86, 0x3a, 0xc0, 0x43, 0x8f, 0x25, 0xba, 0xc9, 0xc0, 0x2a, 0xde, 0xbf, 0x81, 0x56, 0x2b, 0x52, 0x38, 0xe3, 0x34, 0x5d, 0xa4, 0x2b, 0x82, 0x07, 0x2f, 0x95, 0x8c, 0x8b, 0x4a, 0xfa, 0xe8, 0x5c, 0xe5, 0x54, 0xd7, 0x33, 0xeb, 0xfa, 0xf2, 0x11, 0x56, 0x47, 0x4d, 0x06, 0x37, 0xed, 0x1d, 0xca, 0x61, 0xeb, 0xc4, 0xa7, 0xff, 0x94, 0xb6, 0xc3, 0xf5, 0x6d, 0x35, 0xb0, 0x17, 0x06, 0x57, 0x4f, 0x44, 0x1e, 0xbb, 0x22, 0x90, 0x64, 0xb4, 0x85, 0xc7, 0xf6, 0x38, 0xb1, 0x1e, 0xb7, 0x72, 0x24, 0xf9, 0xab, 0x50, 0x40, 0x06, 0xed, 0x58, 0xd9, 0xa6, 0xf9, 0x6b, 0xc7, 0x45, 0xf7, 0xc9, 0xba, 0x53, 0xe9, 0xe2, 0xc7, 0x24, 0xbf, 0xc7, 0xf9, 0xa5, 0x9c, 0x4a, 0x2b, 0xd6, 0x81, 0xc1, 0x32, 0x5e, 0xdb, 0xe3, 0xe3, 0xb6, 0x3b, 0x20, 0x5f, 0x4e, 0xe7, 0x64, 0x0b, 0x81, 0xc6, 0x9e, 0xbe, 0xda, 0xda, 0x41, 0xa7, 0x0a, 0x33, 0xbb, 0x9b, 0xbb, 0x2e, 0xc6, 0x51, 0x64, 0x27, 0x65, 0x91, 0x45, 0x1a, 0x0b, 0x39, 0xdc, 0xf4, 0x00, 0x49, 0xe6, 0x2d, 0xcf, 0xe0, 0x19, 0x9e, 0xd0, 0x60, 0x3c, 0x48, 0x52, 0x07, 0x68, 0x6b, 0xf8, 0x16, 0x4b, 0x1a, 0xfc, 0x95, 0x02, 0xf5, 0x0f, 0xb1, 0xfd, 0xf8, 0x05, 0x3d, 0xa1, 0xe9, 0x27, 0xa8, 0x05, 0xe3, 0xc6, 0x17, 0x08, 0x72, 0x36, 0x4e, 0xd8, 0xe5, 0x33, 0x5b, 0x4e, 0xb2, 0xb8, 0x9e, 0xf5, 0x51, 0x0c, 0x9d, 0xfb, 0x5c, 0x51, 0x65, 0x0f, 0x14, 0x07, 0x27, 0x93, 0x54, 0xdb, 0xf2, 0xa8, 0x56, 0x1f, 0xc0, 0xd2, 0xda, 0x97, 0x7b, 0xf4, 0x4d, 0x49, 0x25, 0xb7, 0xee, 0x36, 0xe6, 0x31, 0x3e, 0xd9, 0x51, 0x64, 0x37, 0x92, 0x22, 0xfe, 0xc6, 0xa7, 0x9a, 0x45, 0xee, 0x3e, 0x19, 0x0c, 0x99, 0x81, 0xa5, 0x37, 0x14, 0xaf, 0x24, 0x14, 0x9d, 0x49, 0x5c, 0x78, 0xaa, 0x8a, 0x75, 0x54, 0x1e, 0xda, 0x53, 0x0a, 0x57, 0x59, 0x48, 0x6b, 0x51, 0x5d, 0x9a, 0x67, 0xf0, 0xfc, 0x04, 0xa2, 0x97, 0x91, 0xd2, 0x74, 0x6a, 0xd1, 0xf1, 0x51, 0x2a, 0x5c, 0xb4, 0x44, 0xbd, 0x05, 0x30, 0xec, 0xe4, 0x14, 0x76, 0xb7, 0x9a, 0x2d, 0xa8, 0x4e, 0xb4, 0x9f, 0x1a, 0x95, 0x2e, 0x81, 0xab, 0xfe, 0x2d, 0x66, 0x8c, 0xe3, 0xe6, 0xa7, 0x09, 0x77, 0x12, 0x58, 0x67, 0x52, 0x0e, 0x0c, 0x2a, 0x25, 0xa5, 0xb2, 0x09, 0x10, 0x0c, 0xa3, 0x55, 0x43, 0x2b, 0xc7, 0x1b, 0xbf, 0x74, 0x45, 0xce, 0x42, 0x0b, 0x56, 0x39, 0x9e, 0x23, 0xbd, 0x07, 0x76, 0xca, 0x64, 0xc8, 0x6b, 0x7f, 0x0b, 0x2a, 0x92, 0x00, 0xd3, 0xe1, 0x29, 0x13, 0xd2, 0x57, 0x8a, 0xec, 0xcc, 0xa8, 0xb8, 0xe6, 0xea, 0x9d, 0xb4, 0x65, 0xac, 0x1e, 0x6c, 0x67, 0xa6, 0x08, 0xd1, 0x23, 0x25, 0x32, 0x5d, 0x14, 0x68, 0x2f, 0x13, 0x61, 0x10, 0x8f, 0xec, 0x51, 0xdb, 0xa3, 0x5e, 0x32, 0xa9, 0x4c, 0xc0, 0xf5, 0x5e, 0x0d, 0xc9, 0x4f, 0x97, 0x5f, 0xa1, 0x6f, 0xa3, 0x47, 0x9b, 0x4c, 0x08, 0x68, 0x34, 0x57, 0x08, 0xe8, 0x55, 0x5d, 0xf9, 0xeb, 0xfb, 0x12, 0x81, 0x25, 0x4a, 0x9e, 0xb0, 0x2b, 0xe2, 0x24, 0x57, 0x54, 0xff, 0xbe, 0x5b, 0x93, 0xc8, 0xa2, 0x4f, 0x1d, 0x0d, 0x19, 0x72, 0xee, 0x5a, 0x38, 0x8d, 0xea, 0x12, 0x1a, 0x25, 0xea, 0xb6, 0xc8, 0x35, 0x5e, 0x01, 0x9a, 0x53, 0xc5, 0x3a, 0xc8, 0xa0, 0x01, 0x01, 0x70, 0x27, 0x48, 0x5e, 0xe6, 0xff, 0xff, 0x04, 0x00, 0x00, 0x00, 0x40, 0x00, 0x00, 0x00, 0x04, 0x00, 0x00, 0x00, 0x05, 0x00, 0x00, 0x00, 0xfc, 0xff, 0xff, 0xff, 0x01, 0x00, 0x00, 0x00, 0x02, 0x00, 0x00, 0x00, 0x05, 0x00, 0x00, 0x00, 0x03, 0x00, 0x00, 0x00, 0x01, 0x00, 0x00, 0x00, 0x01, 0x00, 0x00, 0x00, 0xff, 0xff, 0xff, 0xff, 0xfc, 0xff, 0xff, 0xff, 0x03, 0x00, 0x00, 0x00, 0x02, 0x00, 0x00, 0x00, 0x04, 0x00, 0x00, 0x00, 0xff, 0xff, 0xff, 0xff, 0xff, 0xff, 0xff, 0xff, 0xaa, 0xe6, 0xff, 0xff, 0x04, 0x00, 0x00, 0x00, 0x00, 0x18, 0x00, 0x00, 0x08, 0x53, 0x52, 0x83, 0x11, 0x81, 0x7d, 0xc1, 0xf1, 0x0c, 0x96, 0xee, 0x07, 0x78, 0xca, 0x11, 0x25, 0xc6, 0x72, 0xde, 0x64, 0xc4, 0x5d, 0x02, 0x27, 0x58, 0x23, 0xf7, 0xe1, 0x8c, 0x49, 0xe9, 0x14, 0xd1, 0x71, 0x21, 0x12, 0x13, 0xa9, 0xa5, 0xf4, 0xb1, 0xd3, 0x9f, 0x3a, 0x91, 0x7f, 0xb4, 0x82, 0xcb, 0x90, 0x16, 0xd1, 0x93, 0xcd, 0x93, 0xa2, 0x88, 0x45, 0xbb, 0xc2, 0xdd, 0x9c, 0x13, 0x26, 0x5d, 0xed, 0xc1, 0x36, 0x37, 0x02, 0x19, 0x57, 0xa1, 0x36, 0x4e, 0xb5, 0x1f, 0x13, 0x26, 0x49, 0x3b, 0xfc, 0xc5, 0x74, 0x4a, 0xa0, 0x28, 0xce, 0x7e, 0x3c, 0x07, 0x85, 0xf2, 0x48, 0x42, 0x30, 0x93, 0x59, 0x72, 0x7b, 0x52, 0x2b, 0x1a, 0x5c, 0x6c, 0xfe, 0xdf, 0x75, 0x2f, 0xbf, 0x11, 0xf9, 0x0d, 0xc7, 0xe1, 0x53, 0xa4, 0x0e, 0xa2, 0xaf, 0xac, 0xe2, 0xbe, 0x54, 0x54, 0xa6, 0x9d, 0xec, 0x03, 0x2b, 0xee, 0x64, 0x3f, 0x65, 0xfe, 0x64, 0xaa, 0x5c, 0x0f, 0x5d, 0xf1, 0xcc, 0xf7, 0x3e, 0x39, 0xa5, 0x8b, 0xe2, 0x58, 0xc8, 0xb9, 0x1b, 0xf8, 0x0c, 0xf0, 0x8a, 0x91, 0xf5, 0x54, 0x71, 0x33, 0xda, 0x09, 0xb7, 0x35, 0x29, 0xa6, 0x43, 0x87, 0xa4, 0xc8, 0xd7, 0x95, 0xc5, 0xf1, 0xd3, 0x37, 0x8c, 0xd4, 0x4c, 0x2e, 0x49, 0xd2, 0x25, 0xa9, 0xbb, 0x59, 0x3c, 0xe2, 0xe6, 0x19, 0x76, 0x95, 0x2b, 0xab, 0xc9, 0x8f, 0x27, 0x52, 0xc2, 0x24, 0x33, 0x51, 0x3d, 0xb7, 0xe2, 0xe6, 0xfe, 0x86, 0xbd, 0x8c, 0xe6, 0xf0, 0x04, 0x31, 0x98, 0xc7, 0x44, 0x14, 0xf0, 0x88, 0x74, 0x7b, 0x75, 0xc3, 0x01, 0x91, 0x29, 0xe2, 0xfb, 0x04, 0x35, 0x0d, 0x23, 0x3b, 0x6d, 0x8d, 0x20, 0x0b, 0xbc, 0x4b, 0xc3, 0xd2, 0xa3, 0xc1, 0xe4, 0x1d, 0xda, 0xb7, 0x96, 0xc6, 0x30, 0xfe, 0x42, 0xcd, 0x1c, 0xd2, 0x8c, 0x76, 0x8b, 0xac, 0x84, 0x9b, 0xd1, 0xaf, 0xdd, 0xd3, 0x5e, 0x08, 0x21, 0x50, 0xee, 0x11, 0xc8, 0xa3, 0xef, 0x9b, 0x44, 0xfc, 0x31, 0xbe, 0x56, 0x71, 0x89, 0x9e, 0xda, 0xb4, 0x1a, 0x21, 0x04, 0x11, 0x1d, 0xa5, 0x8c, 0x4e, 0xb2, 0xc9, 0x1a, 0x3d, 0xe6, 0xaf, 0x74, 0x76, 0x89, 0xac, 0x32, 0xdc, 0x30, 0x88, 0x4a, 0xf1, 0x9b, 0xb9, 0x00, 0xbf, 0x94, 0x07, 0x6c, 0x61, 0x37, 0x13, 0x3a, 0x1f, 0x04, 0xac, 0xdb, 0xc8, 0xae, 0xd9, 0x34, 0xbe, 0x91, 0x6c, 0xd3, 0xa0, 0x29, 0x37, 0x0a, 0x77, 0x04, 0xc1, 0x77, 0x76, 0x8a, 0x73, 0x33, 0x38, 0x8d, 0x77, 0xb3, 0xd6, 0xb8, 0xfc, 0x8c, 0xfb, 0x28, 0xcf, 0xf8, 0x3d, 0x0d, 0x3b, 0x32, 0x6f, 0x4e, 0x07, 0xf1, 0x69, 0x29, 0x26, 0x26, 0xae, 0xa5, 0x3d, 0x12, 0xd4, 0xfb, 0xc5, 0xba, 0x8f, 0x7c, 0xcb, 0x73, 0x0a, 0x82, 0x30, 0xd0, 0x46, 0x8c, 0x86, 0x21, 0x0e, 0xb1, 0xb1, 0x67, 0x0d, 0x51, 0x3f, 0xf7, 0xc5, 0x43, 0x95, 0xa6, 0x17, 0x37, 0x86, 0x50, 0xe9, 0x76, 0xcf, 0xb1, 0x62, 0x72, 0x61, 0x1f, 0x2c, 0xaf, 0x55, 0x1e, 0xf3, 0xd6, 0xc5, 0x78, 0xc5, 0x1f, 0x04, 0x64, 0x96, 0xe6, 0xd6, 0xa4, 0x9f, 0xd7, 0x20, 0xa2, 0x1a, 0x33, 0x0c, 0xcf, 0x36, 0xa1, 0xa1, 0xb2, 0x45, 0xb0, 0xbb, 0x94, 0x22, 0x0c, 0xaa, 0xde, 0xfd, 0xf8, 0xb4, 0x02, 0xb4, 0x9a, 0x03, 0x6a, 0x37, 0x9e, 0x44, 0xf9, 0x93, 0x2b, 0x49, 0x54, 0x16, 0x86, 0x4b, 0xa7, 0x78, 0x5b, 0x0a, 0xa3, 0x96, 0x57, 0x90, 0xeb, 0xc7, 0xda, 0xf5, 0x7b, 0xd7, 0x81, 0x44, 0x82, 0xc1, 0x6c, 0x14, 0xb2, 0xd0, 0xd6, 0x59, 0xed, 0x43, 0x65, 0x3a, 0xc1, 0x26, 0xfe, 0x36, 0xf2, 0xf3, 0x47, 0xf5, 0x7a, 0x2f, 0x05, 0x00, 0xd0, 0x1a, 0x8a, 0x95, 0x67, 0xb2, 0x15, 0xa2, 0x5a, 0x24, 0x33, 0xc0, 0x44, 0x27, 0xda, 0x3d, 0x1f, 0xe3, 0x9e, 0xfd, 0xb1, 0x1a, 0x73, 0x97, 0xde, 0xfe, 0x97, 0x3e, 0xfe, 0x27, 0x66, 0x97, 0x1c, 0x4d, 0x81, 0x02, 0x84, 0xe5, 0x46, 0xe6, 0x3d, 0x72, 0xdf, 0x7c, 0xe4, 0x59, 0xb8, 0x28, 0xf1, 0xdb, 0x7a, 0x52, 0x94, 0x09, 0xc2, 0x20, 0xbe, 0x5b, 0x4a, 0x46, 0xff, 0x07, 0xf6, 0x9d, 0xb3, 0x1e, 0xcf, 0xa1, 0xea, 0x6f, 0x27, 0x8c, 0x8a, 0x1d, 0x4f, 0x0f, 0x96, 0x5d, 0x6c, 0x8e, 0x5a, 0x01, 0x06, 0xc7, 0x51, 0xbd, 0x83, 0x22, 0x29, 0xec, 0x05, 0x77, 0xeb, 0x40, 0x17, 0xaa, 0x99, 0xab, 0x3e, 0x0f, 0xce, 0x0e, 0x40, 0xcb, 0x65, 0x58, 0x96, 0x21, 0x22, 0x8f, 0xa8, 0xd3, 0xc9, 0xe0, 0xa3, 0xd1, 0xd5, 0xaf, 0x76, 0x2c, 0x66, 0x5a, 0xc4, 0x36, 0x42, 0x50, 0xda, 0x84, 0xec, 0x9c, 0xd8, 0x8c, 0x76, 0xb1, 0xa1, 0xe4, 0x35, 0x44, 0x5c, 0x57, 0x14, 0x07, 0x36, 0x71, 0x78, 0x67, 0xff, 0xb9, 0xff, 0xb7, 0x75, 0x43, 0x70, 0x4b, 0x68, 0xe1, 0xfd, 0x2f, 0x5d, 0xe5, 0x86, 0xec, 0x73, 0xbb, 0x41, 0x18, 0x16, 0xd6, 0x71, 0x82, 0x19, 0x26, 0x37, 0x28, 0x7c, 0xe1, 0x33, 0xd8, 0x61, 0x41, 0x83, 0xbd, 0x5a, 0x84, 0x93, 0xf5, 0xe3, 0x99, 0xc2, 0xcd, 0xf4, 0x26, 0x1b, 0x25, 0x09, 0x7d, 0xb1, 0x89, 0xaa, 0xf5, 0xa4, 0xc2, 0xd3, 0x4c, 0x33, 0xd2, 0x94, 0x7b, 0xae, 0x77, 0x98, 0x5e, 0xaf, 0xda, 0x33, 0xd4, 0x96, 0xcf, 0x23, 0x08, 0xdf, 0x55, 0xa8, 0x9b, 0x9c, 0x7f, 0x6f, 0x20, 0xa3, 0xd9, 0xd5, 0xf5, 0xe5, 0x15, 0x8f, 0x93, 0x67, 0x7d, 0xab, 0xfe, 0xf9, 0xd6, 0x09, 0x07, 0x9c, 0x4e, 0x8f, 0x4e, 0x54, 0xca, 0x7b, 0x01, 0x23, 0xad, 0x5e, 0x4a, 0xe9, 0xa3, 0x9c, 0xe4, 0x31, 0xf9, 0xd3, 0xb0, 0xd9, 0x07, 0x05, 0x29, 0xd3, 0xf8, 0xb2, 0x85, 0xe4, 0x65, 0xcd, 0x10, 0x62, 0xde, 0x61, 0xf3, 0xdc, 0x2d, 0x8b, 0xb3, 0x62, 0xc3, 0x4e, 0xcc, 0x64, 0xad, 0x5a, 0x39, 0x28, 0x98, 0xa5, 0x93, 0x44, 0xbe, 0x21, 0x59, 0x4e, 0xa8, 0xad, 0xfd, 0x68, 0x03, 0x47, 0x48, 0x6e, 0x03, 0x43, 0x3a, 0xe3, 0x41, 0x60, 0x33, 0x1d, 0xd1, 0x88, 0x2e, 0x52, 0x83, 0xa1, 0x32, 0xb2, 0xfc, 0x69, 0x2f, 0x2a, 0xdb, 0x39, 0xa6, 0x61, 0x35, 0xea, 0x73, 0x90, 0xa2, 0x92, 0x6c, 0x31, 0xff, 0x00, 0xef, 0x4b, 0x77, 0xa5, 0xda, 0x29, 0x8d, 0x05, 0x3f, 0xa3, 0xd8, 0x48, 0x36, 0x4f, 0x50, 0xe1, 0x65, 0xf2, 0x99, 0x5f, 0xc2, 0x4b, 0x6f, 0x67, 0xc3, 0x9b, 0x37, 0x4b, 0xc4, 0xc4, 0x03, 0xec, 0xa2, 0x29, 0xc1, 0x93, 0x74, 0x6b, 0xbe, 0xee, 0x3a, 0x06, 0x3d, 0xe0, 0x74, 0xcf, 0x93, 0xb1, 0x6b, 0x05, 0x17, 0xb5, 0xe5, 0x74, 0x19, 0x64, 0xc5, 0x64, 0xe7, 0x07, 0xa7, 0xcf, 0x28, 0x3d, 0xa6, 0x58, 0x6c, 0x0c, 0xa7, 0x9f, 0x6b, 0xd0, 0x14, 0x69, 0x90, 0x95, 0x13, 0x1b, 0x1c, 0xa5, 0x0b, 0xda, 0x08, 0x15, 0xfc, 0xdd, 0x81, 0x18, 0xb7, 0x96, 0x6d, 0x2e, 0x23, 0x30, 0x08, 0x4c, 0x6d, 0x95, 0x93, 0x90, 0x6b, 0x97, 0x3a, 0x0a, 0x00, 0xd6, 0x68, 0xa2, 0x84, 0xf7, 0x8c, 0x0b, 0xca, 0x1a, 0x74, 0x8a, 0x15, 0x3a, 0xb8, 0x59, 0x5b, 0x49, 0xb2, 0xa7, 0xe2, 0xf6, 0x04, 0x38, 0x22, 0x64, 0xbb, 0xec, 0xde, 0xcd, 0xf0, 0xea, 0x14, 0xbb, 0x3e, 0x21, 0x5d, 0xe5, 0x92, 0xeb, 0x31, 0xe8, 0x32, 0xab, 0x31, 0x6d, 0x12, 0x58, 0xa1, 0xd4, 0x46, 0x84, 0x9b, 0xc7, 0x07, 0xe4, 0x8d, 0x49, 0xbb, 0x35, 0x76, 0x8a, 0xb1, 0x64, 0x69, 0x26, 0xa0, 0xaa, 0xc8, 0x38, 0xbb, 0x3c, 0x57, 0x16, 0x8c, 0xf2, 0x98, 0x33, 0x9a, 0x3e, 0x4f, 0xf0, 0xe2, 0xfd, 0x58, 0x70, 0x4d, 0x6f, 0x48, 0x99, 0x12, 0x5e, 0x0b, 0xa8, 0x9a, 0xe3, 0x33, 0xb2, 0xd0, 0xd5, 0xa8, 0x5d, 0xcf, 0xc6, 0xa0, 0xe9, 0xd3, 0xc0, 0xae, 0xc1, 0xaa, 0xae, 0x25, 0x22, 0xeb, 0x73, 0xbc, 0xca, 0xdb, 0x1f, 0xd0, 0xd7, 0x4b, 0x5a, 0x6b, 0x01, 0x1f, 0xfe, 0xa2, 0x81, 0x3d, 0xc5, 0xed, 0xc5, 0x79, 0xd6, 0xca, 0xbb, 0x6b, 0xef, 0xbe, 0x6b, 0xbb, 0x37, 0x22, 0xbd, 0xac, 0xbf, 0x19, 0x09, 0x82, 0xa9, 0x03, 0x81, 0x76, 0xfb, 0x65, 0x32, 0xac, 0x22, 0x9a, 0x62, 0xb3, 0x34, 0xbf, 0xe9, 0x42, 0x2a, 0xa6, 0x8d, 0xa2, 0x87, 0x00, 0xfe, 0x1f, 0x20, 0x4e, 0x25, 0xd6, 0x88, 0xcb, 0xf7, 0xe1, 0x72, 0xdf, 0x90, 0xff, 0x5e, 0x38, 0x0d, 0x88, 0xc2, 0x18, 0xcb, 0x62, 0x08, 0x3f, 0xc5, 0x4c, 0x5b, 0x52, 0x19, 0xdf, 0x4c, 0x63, 0xcb, 0xc6, 0xdd, 0x65, 0x8d, 0x51, 0xd7, 0x0a, 0x88, 0x6f, 0xa8, 0x37, 0x13, 0x61, 0x4a, 0x3e, 0x8e, 0xc8, 0x0c, 0x9d, 0xb2, 0x19, 0xb7, 0x63, 0xc5, 0x23, 0xb6, 0x65, 0xbd, 0x6d, 0x2d, 0x71, 0x4d, 0xe5, 0x1e, 0x68, 0x2a, 0xa5, 0xa2, 0x8d, 0xd0, 0xb2, 0xc9, 0xab, 0x0b, 0x63, 0xe9, 0x74, 0x8a, 0x18, 0xf6, 0xc4, 0xba, 0x2a, 0x18, 0xef, 0x4c, 0xb0, 0xac, 0x0a, 0xd3, 0x4f, 0x16, 0xea, 0x3f, 0xb3, 0x6d, 0x22, 0x33, 0xc0, 0x60, 0x28, 0x17, 0x47, 0x11, 0x96, 0x5f, 0xdb, 0x5d, 0xc6, 0xc1, 0xcf, 0x32, 0x62, 0x8a, 0x01, 0x6a, 0xda, 0x16, 0x5a, 0xfe, 0x58, 0xa7, 0x65, 0x12, 0x7f, 0x15, 0x3b, 0x58, 0xc2, 0x46, 0x62, 0x33, 0x8d, 0xa7, 0x64, 0xa5, 0xb7, 0xb3, 0x31, 0x66, 0x9e, 0xd9, 0x89, 0x07, 0x72, 0xf1, 0x50, 0xfe, 0xb0, 0x03, 0x9d, 0xd0, 0xe1, 0x9e, 0xbe, 0x19, 0x26, 0x69, 0x97, 0xd4, 0xe6, 0x64, 0x64, 0x3f, 0x12, 0x2e, 0xf1, 0x31, 0x07, 0x9e, 0x19, 0x12, 0x11, 0x68, 0xcb, 0x2e, 0xdd, 0x62, 0x1b, 0x0a, 0x33, 0x41, 0x57, 0xb6, 0x27, 0xbb, 0x29, 0x6b, 0xe2, 0xa1, 0xd4, 0x6a, 0xf2, 0xef, 0x54, 0xd7, 0x50, 0xbd, 0xf1, 0xcd, 0xd5, 0x1f, 0xb0, 0xc4, 0x54, 0x0d, 0x64, 0xbd, 0xb2, 0x53, 0xba, 0xf3, 0xf4, 0xe7, 0x0c, 0xd3, 0x3a, 0xa9, 0xe6, 0x3c, 0xc0, 0xa6, 0xae, 0x17, 0xb9, 0xaa, 0xa1, 0x6f, 0x95, 0xc8, 0xe8, 0xb2, 0x69, 0x61, 0x14, 0xb3, 0xa2, 0xe5, 0x4f, 0x32, 0x2e, 0xd8, 0x58, 0x68, 0xb1, 0xab, 0x7e, 0xb9, 0x3b, 0x4f, 0x3a, 0x4d, 0xb5, 0xbd, 0xbe, 0x13, 0x45, 0xe1, 0xd8, 0x03, 0xcb, 0xfc, 0xff, 0x01, 0xfa, 0x04, 0x96, 0x04, 0x06, 0x00, 0x91, 0x1a, 0xbc, 0x8a, 0x29, 0xda, 0x01, 0xc8, 0xd9, 0xc8, 0x48, 0xd9, 0x52, 0x68, 0xde, 0x3d, 0x8d, 0x9a, 0x69, 0xfe, 0xb6, 0x20, 0x58, 0x16, 0xab, 0xe5, 0xbb, 0x3f, 0x99, 0xfd, 0x58, 0xfa, 0x5c, 0x17, 0x1d, 0x2c, 0x2b, 0x16, 0xd8, 0xc9, 0x6c, 0x85, 0xc6, 0xe2, 0x1b, 0x79, 0x7a, 0x19, 0xb1, 0x27, 0x5f, 0x53, 0x02, 0x41, 0xf9, 0x2b, 0xe6, 0x28, 0x14, 0x58, 0x73, 0x5f, 0x5c, 0x6d, 0x3e, 0xd8, 0xe1, 0xa0, 0x6a, 0x9e, 0x31, 0x5b, 0x30, 0x62, 0x6b, 0x67, 0xcc, 0x79, 0x00, 0x35, 0xb7, 0xd1, 0x2d, 0x39, 0x00, 0x2d, 0xae, 0x18, 0x25, 0x3c, 0x6c, 0x3e, 0x6c, 0x73, 0x99, 0xbe, 0x71, 0xe3, 0xa8, 0xe4, 0x59, 0xc2, 0xe2, 0x5a, 0x1f, 0xaa, 0xe9, 0x5d, 0x6a, 0x29, 0xd6, 0xed, 0x92, 0x76, 0xa1, 0x59, 0x64, 0xa9, 0x3b, 0x1e, 0x33, 0x9d, 0x1b, 0x39, 0xf4, 0x36, 0xf9, 0x50, 0xd8, 0xa8, 0x61, 0x38, 0x94, 0x83, 0x8c, 0x47, 0x27, 0xcf, 0xe1, 0x38, 0xc7, 0xc6, 0x15, 0xd3, 0x67, 0x91, 0xdd, 0x02, 0x9e, 0x43, 0xb8, 0x0f, 0xad, 0x39, 0x72, 0xf0, 0x74, 0xbf, 0xc8, 0x63, 0xe3, 0x67, 0xef, 0xad, 0x20, 0x35, 0xde, 0x4d, 0x9e, 0x0c, 0x24, 0xd6, 0xf0, 0x5f, 0x16, 0xd7, 0xf6, 0xe8, 0xb9, 0x89, 0x18, 0x35, 0x3c, 0xf9, 0x3d, 0x42, 0xeb, 0xff, 0xf5, 0x53, 0xfc, 0x36, 0x74, 0xc7, 0xcc, 0xf9, 0x88, 0x26, 0xe6, 0x8e, 0x5b, 0x7f, 0x09, 0xd0, 0x08, 0x87, 0x50, 0x32, 0xa2, 0x48, 0x6b, 0xbf, 0x88, 0x66, 0xf0, 0x83, 0x47, 0xb2, 0xfe, 0xe8, 0xeb, 0x90, 0xf8, 0xaf, 0x73, 0x31, 0xac, 0x10, 0xac, 0xe9, 0x1b, 0x63, 0xb1, 0x53, 0x88, 0x21, 0xfa, 0x67, 0x42, 0x15, 0x06, 0x4b, 0xff, 0x6e, 0x4e, 0xd6, 0xc9, 0x20, 0x6c, 0xf3, 0x97, 0x68, 0xc2, 0x3a, 0xf1, 0x7c, 0xb3, 0x66, 0xeb, 0xe6, 0x1a, 0xed, 0x5b, 0x89, 0x16, 0xd0, 0x1d, 0x85, 0x02, 0x8c, 0x3e, 0x14, 0x6c, 0xc8, 0x6a, 0x91, 0x0d, 0xcf, 0x88, 0xac, 0xcc, 0xb5, 0x6a, 0xd8, 0xdc, 0xe0, 0x59, 0xa5, 0x16, 0x6e, 0x9f, 0xa2, 0x8b, 0x78, 0xcc, 0x24, 0xaa, 0xa3, 0x6c, 0xe8, 0x13, 0xa8, 0x23, 0x38, 0x3c, 0x3a, 0xd4, 0xad, 0xec, 0x43, 0x62, 0x32, 0x35, 0x0a, 0xaf, 0x3a, 0x2f, 0xd9, 0xec, 0x8b, 0xc0, 0xb1, 0xe0, 0x5d, 0xb9, 0x74, 0x0a, 0xd2, 0x92, 0x9e, 0x15, 0x47, 0x76, 0xf5, 0x2d, 0x06, 0x55, 0x73, 0x39, 0xaf, 0x15, 0xb2, 0x36, 0x41, 0xe7, 0xbf, 0x57, 0xd1, 0x2d, 0x77, 0xd7, 0xa7, 0x75, 0x26, 0xe9, 0x9d, 0x16, 0xb9, 0x27, 0xb5, 0xba, 0x25, 0xb8, 0x0f, 0xd7, 0xfd, 0xa4, 0x22, 0xf1, 0xb6, 0x66, 0x32, 0x8d, 0x3e, 0xc3, 0xff, 0x62, 0xf8, 0xd0, 0xf5, 0xfe, 0x69, 0x74, 0x13, 0xcd, 0x0c, 0xc1, 0xbd, 0x48, 0x42, 0x81, 0x90, 0xb5, 0xa1, 0x3e, 0x2e, 0x5e, 0x23, 0x8b, 0xfa, 0x5b, 0xdb, 0x6b, 0x93, 0x12, 0x46, 0xdd, 0x49, 0x63, 0xb4, 0xc5, 0x4a, 0x13, 0x73, 0xda, 0x77, 0x69, 0xc1, 0xdd, 0x28, 0xb4, 0x06, 0xf7, 0x37, 0xc2, 0xb2, 0x27, 0x0d, 0x32, 0x1d, 0x1f, 0x12, 0xc0, 0x47, 0x91, 0xbc, 0x9d, 0xde, 0x5b, 0x77, 0x5b, 0x2a, 0x0d, 0x86, 0x2d, 0x34, 0x13, 0xaa, 0xab, 0x47, 0xf3, 0xef, 0xa4, 0x9c, 0x36, 0xf3, 0x63, 0x2e, 0x1a, 0x5f, 0xbb, 0xcc, 0xf7, 0x7e, 0x0b, 0x6c, 0x62, 0x2a, 0x0c, 0xfc, 0xbc, 0xf6, 0x7e, 0x9b, 0xa4, 0x23, 0xca, 0xc8, 0x8a, 0x30, 0xb6, 0xc0, 0xb8, 0x45, 0xdb, 0x90, 0x15, 0xce, 0x90, 0x2c, 0x00, 0xac, 0x28, 0x92, 0x6e, 0x50, 0x1d, 0x77, 0xd5, 0xf1, 0xff, 0x49, 0x9a, 0xd3, 0xa8, 0x77, 0x20, 0x69, 0xc9, 0x09, 0x98, 0x7e, 0x29, 0x03, 0x0c, 0x88, 0x05, 0x06, 0xcf, 0xb1, 0x9c, 0x03, 0x02, 0x01, 0x4a, 0x8c, 0x68, 0x66, 0x81, 0x12, 0x5b, 0x59, 0xf3, 0x09, 0x69, 0x40, 0xe9, 0x91, 0x2c, 0xcc, 0xf3, 0xaf, 0x89, 0xec, 0x31, 0xbf, 0xdf, 0x0c, 0x6a, 0xeb, 0x90, 0xe4, 0x22, 0x34, 0x0c, 0x83, 0xa0, 0xc4, 0x20, 0xfe, 0x17, 0x9f, 0x1e, 0xf3, 0x97, 0x56, 0xb0, 0x66, 0x00, 0x63, 0xb6, 0x31, 0x8b, 0x3a, 0x04, 0x6c, 0xe5, 0x97, 0x90, 0xb9, 0x97, 0x85, 0xb3, 0x3d, 0xdf, 0x3c, 0xfd, 0xbe, 0x3e, 0x12, 0x97, 0x19, 0x46, 0x00, 0x23, 0x27, 0xc4, 0x2f, 0x84, 0x6b, 0xb0, 0x0b, 0x25, 0x03, 0x57, 0x1f, 0x8b, 0x2c, 0xbc, 0x29, 0x9a, 0x27, 0x85, 0x31, 0x90, 0x59, 0x16, 0x3d, 0xbe, 0x50, 0xc2, 0x81, 0xfa, 0xc4, 0x65, 0xec, 0xef, 0xc3, 0x5c, 0x26, 0x0e, 0xe0, 0x91, 0x1f, 0xfd, 0xfb, 0x71, 0x98, 0x5d, 0x9b, 0xa0, 0x37, 0xce, 0xcc, 0x8b, 0xcd, 0x21, 0x4f, 0xd9, 0x34, 0xdf, 0x3d, 0xa3, 0x9a, 0xc8, 0x37, 0x05, 0x9b, 0xc2, 0xc9, 0xd0, 0x1f, 0xe1, 0x01, 0x26, 0x8e, 0xa8, 0x0f, 0x63, 0xe7, 0xf3, 0x22, 0xd2, 0xfb, 0xfe, 0xea, 0x35, 0x6b, 0xc2, 0x4d, 0xb9, 0xbe, 0x97, 0x62, 0x58, 0x99, 0x62, 0x90, 0xcc, 0x3b, 0xf2, 0x94, 0xaa, 0x24, 0xb2, 0xd8, 0x54, 0xf6, 0x8c, 0xbe, 0x29, 0x52, 0x0b, 0xcb, 0x34, 0x8f, 0x0a, 0xac, 0x19, 0xa5, 0x0e, 0x5a, 0x34, 0xfb, 0x53, 0xeb, 0xa4, 0x90, 0xa6, 0xe3, 0x8e, 0xc6, 0x32, 0x0f, 0x46, 0x51, 0x3e, 0xc7, 0x35, 0x3f, 0x68, 0x1f, 0xb5, 0x1c, 0xd6, 0x43, 0x04, 0x63, 0xe8, 0x3b, 0x05, 0x5f, 0x9d, 0x1c, 0xc1, 0x23, 0xb8, 0x9e, 0xe4, 0xe6, 0xb6, 0x0a, 0x2d, 0xab, 0x4c, 0x83, 0x58, 0x21, 0x2d, 0x29, 0x8d, 0x64, 0xc2, 0xc6, 0xe8, 0x66, 0xd5, 0x4a, 0xba, 0xfb, 0xf0, 0x0b, 0x2b, 0x08, 0x21, 0x54, 0xa1, 0xc3, 0xf1, 0x08, 0xdf, 0xc2, 0x00, 0x15, 0xb4, 0x09, 0xca, 0x42, 0xa7, 0x20, 0x0a, 0xb9, 0xe0, 0x99, 0xa5, 0xf1, 0x41, 0xab, 0x50, 0xf4, 0x67, 0xce, 0x51, 0x6a, 0xd9, 0x34, 0xb4, 0xa3, 0x73, 0x2b, 0xc8, 0x4b, 0xc0, 0xac, 0x12, 0xe5, 0x22, 0x09, 0xe7, 0xfc, 0x17, 0x04, 0x12, 0x16, 0xbb, 0x25, 0x6a, 0xed, 0x36, 0xdd, 0x23, 0x49, 0x65, 0x5f, 0x2d, 0x02, 0xc1, 0x5a, 0xba, 0xa8, 0x15, 0x95, 0xc2, 0x1f, 0x78, 0xc2, 0x24, 0x37, 0xb1, 0xe0, 0x63, 0x5d, 0xad, 0xd0, 0x52, 0x29, 0x44, 0x94, 0x1d, 0x41, 0x9a, 0xe7, 0x1b, 0x35, 0x2b, 0xb1, 0xa4, 0x15, 0x19, 0xbd, 0x94, 0x2a, 0xf9, 0x8a, 0xa6, 0xb9, 0x35, 0x3b, 0xbb, 0xc2, 0xbf, 0xc0, 0x22, 0x91, 0x9f, 0x16, 0x1c, 0x5a, 0xc9, 0xc4, 0xd0, 0xfd, 0x3f, 0xbd, 0xc0, 0x26, 0xbb, 0xec, 0x12, 0x63, 0x4a, 0x3e, 0x18, 0x1d, 0x36, 0x19, 0x17, 0xf9, 0xc7, 0xdf, 0xb5, 0xff, 0x28, 0x38, 0x2b, 0xbc, 0xfa, 0xf3, 0xcd, 0x1f, 0xfd, 0xf8, 0xfe, 0x0e, 0xd5, 0x29, 0xdf, 0xcf, 0x41, 0x16, 0x12, 0xfa, 0xf4, 0xe8, 0xdb, 0xed, 0x0e, 0xdb, 0x01, 0xfa, 0xdf, 0x01, 0x10, 0x08, 0x1a, 0xe7, 0xcc, 0xc8, 0x30, 0xe3, 0xda, 0x01, 0x5c, 0x1b, 0x04, 0xd9, 0x31, 0x05, 0x24, 0x3e, 0xc5, 0xee, 0x0b, 0x0a, 0x38, 0xd9, 0xba, 0x2d, 0xf0, 0xfc, 0xe3, 0xfd, 0x26, 0x47, 0xea, 0x04, 0x2f, 0xbd, 0xda, 0x1e, 0x24, 0xf6, 0xeb, 0x12, 0x01, 0xe2, 0x3f, 0xe8, 0x26, 0xf3, 0x3c, 0xdc, 0xde, 0xf9, 0xd9, 0x39, 0xe3, 0x53, 0x1d, 0x2a, 0x7f, 0xcd, 0x06, 0xe8, 0xf3, 0x34, 0xb6, 0xf2, 0xd4, 0x3f, 0xf8, 0xd1, 0x19, 0xd9, 0xc6, 0xf9, 0xce, 0x32, 0xe9, 0xdd, 0xe0, 0x2c, 0xdd, 0x00, 0xf8, 0x25, 0xea, 0x2a, 0xce, 0xf6, 0xc9, 0x2a, 0x09, 0xdb, 0xe6, 0x43, 0x3b, 0x60, 0xf0, 0x19, 0xcc, 0x0d, 0x0e, 0x35, 0xe1, 0x06, 0xcf, 0xe8, 0x19, 0x25, 0x25, 0x05, 0x2c, 0x15, 0xc0, 0xfc, 0xfe, 0x14, 0xea, 0xb8, 0xc9, 0xba, 0xed, 0xf4, 0xe1, 0xde, 0x0c, 0x24, 0xd3, 0x2e, 0xbd, 0xc6, 0xe8, 0x3a, 0x13, 0x0f, 0x05, 0xb0, 0xfe, 0xcd, 0xfa, 0xe6, 0x47, 0xdd, 0xf3, 0x35, 0x16, 0x0c, 0x15, 0x0e, 0xea, 0xfd, 0x4b, 0xca, 0x08, 0xf6, 0x14, 0xf3, 0xb6, 0xfb, 0x2c, 0x2b, 0x01, 0x22, 0x34, 0xf1, 0x32, 0x0c, 0x0b, 0xcd, 0x0b, 0x21, 0x12, 0x00, 0xdd, 0xd7, 0xc4, 0x1f, 0x0e, 0x37, 0xf0, 0x37, 0xd8, 0xed, 0xd8, 0xf3, 0x3a, 0xd7, 0xcb, 0xf5, 0x23, 0x54, 0x21, 0xec, 0x16, 0x2b, 0xc9, 0xed, 0xcf, 0x16, 0xd8, 0x0b, 0xdc, 0x18, 0xed, 0x1d, 0x0d, 0xfe, 0xd1, 0x22, 0xba, 0x31, 0x17, 0xb9, 0x0c, 0x06, 0xbb, 0xda, 0xd6, 0xc0, 0x02, 0x21, 0x51, 0x02, 0xb8, 0xdb, 0xcb, 0x0c, 0x21, 0xf6, 0x1b, 0x12, 0x15, 0xdb, 0xcf, 0xc2, 0x2e, 0xe2, 0x1c, 0xd4, 0xd3, 0x32, 0x04, 0xf3, 0xc1, 0x25, 0x03, 0x21, 0x13, 0xf5, 0x03, 0x13, 0xca, 0xcd, 0x2f, 0x07, 0xe4, 0xfc, 0xe3, 0x20, 0x2d, 0xbc, 0xea, 0xef, 0x17, 0xce, 0xdf, 0x00, 0xe6, 0xd3, 0xbc, 0x36, 0x1b, 0x01, 0xcb, 0x17, 0xc1, 0x27, 0xdc, 0xed, 0xbe, 0x36, 0xd2, 0x15, 0x0f, 0xf8, 0xce, 0xe0, 0xc8, 0x02, 0xe4, 0xe6, 0x1d, 0xcc, 0xe3, 0x11, 0x1e, 0xe8, 0xe9, 0x34, 0x22, 0xd1, 0x13, 0xe8, 0x0f, 0xeb, 0x32, 0xe8, 0xf3, 0xe7, 0x15, 0xc7, 0xf8, 0xc2, 0xc7, 0x03, 0x05, 0x23, 0xe4, 0x23, 0x04, 0xdd, 0xec, 0x09, 0x05, 0xef, 0x34, 0x10, 0xe1, 0xf8, 0xc1, 0xed, 0x28, 0xea, 0x1d, 0xd0, 0xca, 0x2b, 0x27, 0x14, 0xce, 0xb7, 0xb5, 0xe6, 0x0b, 0x90, 0x33, 0xae, 0xd2, 0xc1, 0x8d, 0x2a, 0xef, 0xc1, 0x0a, 0xf3, 0xe7, 0x8a, 0xff, 0x30, 0x00, 0xcc, 0x9a, 0xe4, 0x40, 0x1d, 0xe5, 0xd4, 0x4e, 0xed, 0x33, 0x64, 0xbc, 0x3a, 0xcc, 0xd4, 0xa9, 0x85, 0xdb, 0xf4, 0x61, 0xba, 0x14, 0x50, 0x86, 0x8c, 0xc1, 0x3b, 0xbc, 0xf1, 0x43, 0xde, 0x37, 0xb7, 0x10, 0x19, 0xda, 0x2b, 0xfc, 0x8c, 0x31, 0xda, 0x2c, 0xc4, 0x49, 0x5d, 0x2b, 0x33, 0xae, 0x51, 0xab, 0x81, 0x1f, 0xe0, 0xd4, 0x8f, 0xea, 0xc6, 0x5b, 0x15, 0x4d, 0x5c, 0xc6, 0xaa, 0x3a, 0x01, 0xbb, 0x6e, 0xf5, 0x67, 0x04, 0xc3, 0xa6, 0x8e, 0xec, 0x21, 0xf8, 0x96, 0x48, 0x9a, 0x3f, 0x85, 0x95, 0xe7, 0x08, 0x2d, 0xc5, 0x61, 0x6d, 0x22, 0x89, 0xe1, 0x8d, 0xf4, 0x16, 0xc0, 0x97, 0x9e, 0x6a, 0xe1, 0x1e, 0x2a, 0x0a, 0x30, 0x0c, 0x3d, 0x4e, 0xd9, 0x03, 0xd5, 0x0d, 0x6b, 0x34, 0x60, 0xbf, 0x1b, 0xc2, 0xad, 0x10, 0x4c, 0x33, 0xec, 0x64, 0x4f, 0x9f, 0x1a, 0xe3, 0xf9, 0x12, 0x9f, 0x10, 0x69, 0x65, 0xb4, 0x44, 0x09, 0x94, 0xe5, 0x45, 0x0a, 0xa2, 0x86, 0x88, 0xf5, 0xfc, 0xf7, 0xcb, 0xf7, 0x5a, 0x44, 0xbc, 0x28, 0xd9, 0x3f, 0x37, 0xb6, 0xee, 0xfd, 0x12, 0x5c, 0x81, 0x9f, 0x49, 0x5e, 0xb8, 0xf6, 0x10, 0xb6, 0xab, 0x5e, 0x68, 0x9a, 0xad, 0x1b, 0x3a, 0x4b, 0x1f, 0xf0, 0xc3, 0x5c, 0x85, 0xbd, 0x14, 0xce, 0x34, 0xf0, 0x59, 0x3b, 0x2c, 0x47, 0x34, 0xdc, 0x97, 0x6c, 0x43, 0xa5, 0x59, 0xc8, 0x4f, 0xbf, 0xa7, 0x3e, 0xbf, 0xae, 0x94, 0x0d, 0x21, 0xce, 0xcb, 0x32, 0xbf, 0xfc, 0x46, 0xcb, 0xd6, 0x52, 0xd3, 0xf7, 0x6c, 0x2b, 0xe2, 0x39, 0xcc, 0x69, 0x56, 0x8d, 0xab, 0x27, 0xe9, 0x57, 0x57, 0x25, 0x8f, 0x4f, 0x4b, 0xf4, 0xd2, 0x24, 0xd7, 0x3e, 0x33, 0xe0, 0x07, 0x52, 0x8a, 0xed, 0xf3, 0xe5, 0xde, 0x28, 0x3e, 0x31, 0xce, 0xb5, 0x85, 0x5b, 0x25, 0x39, 0x53, 0x50, 0xd6, 0xb6, 0xbe, 0x91, 0x56, 0x67, 0xdf, 0xb8, 0x54, 0x04, 0xaa, 0xeb, 0xff, 0x28, 0x3e, 0x4a, 0x8c, 0x13, 0xe0, 0x84, 0x19, 0x38, 0x5b, 0xc2, 0xf7, 0x37, 0x82, 0xfd, 0x25, 0x25, 0x3c, 0x00, 0x83, 0x99, 0x19, 0xa5, 0x00, 0x3b, 0xa7, 0x38, 0x23, 0x53, 0xb5, 0x0b, 0x8c, 0xe5, 0x20, 0x3c, 0x92, 0x5f, 0x65, 0xe0, 0x9c, 0xd0, 0x98, 0x03, 0xb3, 0xea, 0xe3, 0x5b, 0x1a, 0x98, 0xc6, 0x1e, 0x68, 0x34, 0x0e, 0x68, 0x46, 0xe3, 0x43, 0x64, 0xda, 0x9c, 0x46, 0x41, 0x1d, 0x87, 0xf4, 0xb1, 0xdb, 0x4b, 0x10, 0xb2, 0xae, 0x5d, 0xbb, 0x03, 0xef, 0x8e, 0xb0, 0xec, 0x92, 0xbd, 0x58, 0xb1, 0x92, 0x98, 0x92, 0x44, 0x20, 0x96, 0xb8, 0xd3, 0x1c, 0x54, 0x47, 0x88, 0x43, 0xb6, 0x9d, 0xa7, 0x1c, 0x25, 0x2b, 0x3d, 0x22, 0xd5, 0x2c, 0x28, 0xf3, 0xf6, 0xbb, 0x2f, 0xec, 0x65, 0xb8, 0xda, 0xb6, 0xf7, 0x21, 0xf1, 0x2b, 0xb0, 0x06, 0x1c, 0x03, 0x0b, 0x48, 0x3d, 0x3a, 0xea, 0xc0, 0x15, 0xba, 0x0f, 0xf1, 0x2b, 0xd3, 0xab, 0x38, 0x17, 0x2e, 0x7f, 0x0d, 0x41, 0x4f, 0x41, 0x1c, 0x45, 0x15, 0xf8, 0x3b, 0xa3, 0xfd, 0xfe, 0x35, 0xdc, 0x21, 0x51, 0xbb, 0x40, 0x4d, 0x22, 0xea, 0x44, 0x30, 0xb3, 0x2f, 0x14, 0xcc, 0x39, 0x35, 0xc5, 0x3c, 0x29, 0xa6, 0x4a, 0x32, 0x52, 0xd6, 0xad, 0x00, 0x1f, 0xdc, 0xac, 0x12, 0x3c, 0xb3, 0xf9, 0x41, 0x04, 0x5d, 0x1d, 0xd2, 0x1c, 0x24, 0xda, 0x31, 0xf9, 0xfc, 0xef, 0xaf, 0x0e, 0x16, 0xcf, 0xef, 0x6c, 0x14, 0x47, 0xf4, 0xe0, 0x53, 0xe1, 0x3e, 0xe0, 0x18, 0xe4, 0xdf, 0x02, 0x07, 0xfe, 0xcf, 0x65, 0xcd, 0xf2, 0x16, 0x34, 0x1d, 0x0f, 0x21, 0xab, 0xfe, 0xd9, 0xac, 0x11, 0xbf, 0x31, 0xeb, 0xae, 0x3a, 0xee, 0x45, 0x9f, 0x4f, 0x02, 0xd3, 0x33, 0xf7, 0xe2, 0xd9, 0xd1, 0xb8, 0xa9, 0xee, 0x9a, 0x04, 0x0b, 0xa9, 0xe8, 0x18, 0x78, 0xd3, 0x37, 0x43, 0xb0, 0xf8, 0x1e, 0x40, 0xf0, 0x5e, 0xf7, 0xbf, 0x08, 0x2e, 0x45, 0xa3, 0x5a, 0x14, 0x33, 0xa9, 0xc2, 0xdc, 0xd1, 0x1c, 0x2f, 0xab, 0xff, 0x3d, 0x23, 0xc9, 0xe2, 0x0d, 0xe0, 0x4d, 0xf2, 0x5c, 0x5f, 0x15, 0xaf, 0xbb, 0x2d, 0x30, 0xd5, 0x1c, 0xc4, 0x08, 0x1b, 0x2e, 0xa1, 0xbb, 0xd3, 0xd8, 0xb2, 0xff, 0x02, 0x34, 0xb2, 0x53, 0x29, 0xf9, 0x5a, 0xd9, 0xb9, 0x58, 0x08, 0xc1, 0x3d, 0xa8, 0xe2, 0xe8, 0xc0, 0x2a, 0x12, 0xaa, 0xe6, 0xc5, 0x3b, 0x09, 0xd1, 0xc6, 0x2f, 0xd5, 0x25, 0xe1, 0xeb, 0xe2, 0x1a, 0xe4, 0x09, 0x15, 0xe2, 0x45, 0x24, 0x10, 0xa3, 0x1d, 0x9f, 0x05, 0x48, 0xa8, 0xee, 0x29, 0xf5, 0xec, 0xe0, 0xca, 0xb6, 0x4c, 0x26, 0xf3, 0x5c, 0x29, 0x3e, 0xd5, 0x0b, 0xc6, 0xf4, 0x4b, 0x49, 0x0e, 0xb4, 0xad, 0x25, 0xb1, 0x36, 0xbe, 0xfa, 0x5f, 0x12, 0xe5, 0x3f, 0x23, 0x1c, 0x26, 0x1a, 0x0a, 0x22, 0xbc, 0x34, 0xa9, 0x29, 0xbf, 0xf5, 0xab, 0xb4, 0x11, 0x51, 0xe1, 0x29, 0x4c, 0xad, 0x44, 0x0c, 0x0b, 0x25, 0x0b, 0xd7, 0x0a, 0xf6, 0xb1, 0xb5, 0x30, 0xb5, 0xe6, 0xff, 0x11, 0xb5, 0x2a, 0xe9, 0xd4, 0x5a, 0xe0, 0x10, 0x60, 0xd6, 0xc5, 0xed, 0x3c, 0x09, 0xc4, 0xe0, 0x56, 0xba, 0xe7, 0xe0, 0x45, 0x34, 0xcc, 0x4a, 0xb4, 0x26, 0xf6, 0x62, 0x4d, 0xf3, 0x4c, 0xf9, 0xc9, 0x8d, 0x2f, 0xf7, 0x1c, 0xcc, 0xb5, 0x12, 0x49, 0xaf, 0x3a, 0xf7, 0x09, 0xd9, 0x02, 0xa7, 0xdf, 0x56, 0x31, 0xe8, 0xb9, 0x43, 0xf4, 0xbb, 0xdb, 0x0a, 0x0b, 0xe6, 0xbb, 0x9e, 0x3b, 0x5d, 0x2e, 0xe5, 0x2a, 0xd2, 0xad, 0xc0, 0x87, 0xa7, 0x2e, 0x29, 0x34, 0x48, 0x1c, 0xb7, 0xd8, 0xfe, 0xd1, 0x0f, 0xdc, 0xa9, 0x58, 0xef, 0x15, 0x3d, 0x2e, 0x81, 0x49, 0x2a, 0x66, 0xde, 0x59, 0x6b, 0xd3, 0x3f, 0x1e, 0x4f, 0xbb, 0xdb, 0x2e, 0xdd, 0x93, 0xb7, 0xef, 0x1b, 0xe4, 0xcd, 0xd0, 0xc7, 0xf5, 0x9a, 0x08, 0x9d, 0x67, 0x47, 0x33, 0x8c, 0xd5, 0x26, 0x40, 0xac, 0x22, 0x4b, 0x62, 0xbc, 0x62, 0x25, 0x0c, 0x59, 0x0f, 0x3c, 0x87, 0x4a, 0x31, 0x93, 0x9f, 0xd7, 0xf1, 0x08, 0x8d, 0x38, 0x4d, 0x9c, 0x10, 0x6b, 0xf6, 0x5d, 0xb0, 0x8d, 0xa7, 0xa9, 0xc0, 0x10, 0x57, 0xcc, 0x82, 0x1e, 0x55, 0xad, 0x99, 0xe8, 0xf2, 0x00, 0x81, 0xa7, 0xc0, 0x39, 0x64, 0x38, 0xeb, 0x33, 0xda, 0x08, 0x33, 0xac, 0x4d, 0x1a, 0x20, 0x9d, 0x32, 0x45, 0x6d, 0xb3, 0xb5, 0xc5, 0x3c, 0x98, 0xb9, 0xd0, 0xcd, 0xeb, 0x47, 0xad, 0x44, 0x93, 0x8f, 0xa0, 0xe4, 0xe1, 0x15, 0x16, 0xa2, 0x16, 0xa4, 0x62, 0x1f, 0x5a, 0xf7, 0x3d, 0x59, 0xd7, 0xfc, 0x1e, 0xf3, 0x85, 0x54, 0x5f, 0x23, 0xa5, 0x0c, 0xc1, 0xd6, 0xdd, 0x9d, 0xde, 0x64, 0xce, 0xfd, 0xdd, 0xa3, 0x23, 0xea, 0x63, 0xc4, 0x0e, 0xfc, 0x91, 0x25, 0x09, 0x57, 0xf2, 0xa9, 0xcc, 0x94, 0xd3, 0xe9, 0x37, 0x24, 0xd8, 0xce, 0x9c, 0xfd, 0x07, 0xfa, 0x30, 0x00, 0x48, 0xbe, 0x96, 0x06, 0xe1, 0x27, 0x22, 0xd4, 0x24, 0x20, 0x97, 0xb6, 0x88, 0x38, 0x02, 0xc3, 0xc5, 0x3d, 0x00, 0x9c, 0xd8, 0x34, 0xc9, 0x83, 0x9f, 0xa5, 0xc9, 0x2e, 0xd7, 0x1b, 0x55, 0xf5, 0xad, 0xf2, 0xe7, 0x67, 0x8a, 0x1a, 0x07, 0xe1, 0xb5, 0xeb, 0x9c, 0xb5, 0xa0, 0xde, 0xff, 0x4d, 0xa8, 0xd9, 0x58, 0xa7, 0xda, 0x49, 0xdb, 0x08, 0x66, 0x4a, 0x24, 0x51, 0x86, 0xde, 0x6a, 0xb9, 0x95, 0x5f, 0x2b, 0xe8, 0x91, 0x2c, 0xea, 0x6d, 0x62, 0x1a, 0xa9, 0xdc, 0xd5, 0x06, 0x3e, 0xe5, 0x07, 0x32, 0xcb, 0x96, 0x6b, 0x0b, 0x86, 0xe0, 0x83, 0x24, 0xea, 0x5d, 0xf9, 0x73, 0xd2, 0xe1, 0xbb, 0x5e, 0x85, 0xcc, 0x54, 0x3e, 0x5f, 0x9a, 0xae, 0x82, 0xf9, 0x1e, 0x37, 0xdc, 0x8c, 0xba, 0xf1, 0x54, 0xf6, 0xd7, 0x17, 0xd7, 0x88, 0xf3, 0xf3, 0xfd, 0x96, 0xf9, 0x97, 0xb3, 0x10, 0xc9, 0xce, 0xb4, 0x98, 0x06, 0xc4, 0xe9, 0x1d, 0x54, 0x29, 0x35, 0x0a, 0x9d, 0x47, 0x6f, 0xd4, 0x56, 0x36, 0x25, 0xd5, 0x41, 0x5b, 0xaa, 0x1b, 0x91, 0x9e, 0xa9, 0xbc, 0xee, 0xb4, 0x9e, 0xf1, 0xb2, 0x3a, 0xf2, 0x2f, 0xd7, 0x4a, 0x89, 0x89, 0x1f, 0xe7, 0x48, 0x01, 0x57, 0xdc, 0x9c, 0xb9, 0x0c, 0x27, 0x36, 0xf3, 0xe7, 0xbf, 0x0f, 0x65, 0x9b, 0x44, 0x92, 0xb8, 0xda, 0xd9, 0x9f, 0xa2, 0xa6, 0x8c, 0x29, 0xfc, 0x66, 0x75, 0x0a, 0x7f, 0x72, 0xc1, 0xbb, 0xf9, 0xc9, 0x90, 0xb1, 0xcd, 0xb3, 0x5b, 0x34, 0xfd, 0x7a, 0xc0, 0x6f, 0xfb, 0xe7, 0x2a, 0xda, 0xaf, 0xfe, 0x1f, 0xb7, 0x51, 0xe6, 0x85, 0xda, 0xbc, 0xc4, 0x90, 0x90, 0xf8, 0xc0, 0xef, 0x67, 0x94, 0x3e, 0x1d, 0x84, 0x06, 0x83, 0x59, 0x9f, 0x3a, 0xe2, 0xd8, 0xce, 0x50, 0x88, 0x7a, 0x9e, 0x6d, 0x5d, 0x8c, 0x58, 0x5d, 0x3b, 0x89, 0xa7, 0x8a, 0xaf, 0x89, 0xb5, 0xdb, 0x10, 0x74, 0x9d, 0x63, 0x8c, 0x4c, 0xa1, 0x91, 0x3b, 0x68, 0xf9, 0xdc, 0x4c, 0x15, 0xa2, 0x19, 0x55, 0x19, 0x69, 0x50, 0x42, 0x0d, 0xbb, 0x2a, 0x77, 0xd3, 0xb0, 0x4d, 0x79, 0x18, 0x8c, 0xb9, 0x97, 0xbb, 0x6d, 0x42, 0x14, 0x91, 0x23, 0xa5, 0x20, 0x85, 0x8b, 0x2b, 0xc0, 0x7d, 0xc4, 0x93, 0xd2, 0x31, 0xf1, 0x45, 0xb6, 0x34, 0x85, 0x7e, 0x04, 0x01, 0x31, 0x46, 0x5d, 0x3d, 0xdb, 0xb6, 0x8b, 0xf5, 0x2e, 0x08, 0x8c, 0x66, 0xc6, 0x7c, 0x00, 0x3d, 0xb7, 0x04, 0xac, 0xe1, 0xe7, 0xd4, 0x0e, 0xa9, 0x6a, 0x7f, 0xcb, 0x72, 0x3d, 0x69, 0x82, 0x7b, 0x42, 0x7e, 0xb0, 0x6b, 0xd3, 0x8d, 0x05, 0x7b, 0xe1, 0xbe, 0xb7, 0xd0, 0xac, 0x9c, 0x4e, 0x56, 0x50, 0xa0, 0x1d, 0x78, 0xcb, 0xa7, 0x1a, 0x86, 0xf0, 0x34, 0xf4, 0x2d, 0x76, 0x61, 0xa4, 0xd9, 0xe9, 0x57, 0xa6, 0xf2, 0x2f, 0xa4, 0x7a, 0x09, 0x04, 0x30, 0xb8, 0xfc, 0xfd, 0x70, 0xfc, 0xbf, 0xfd, 0x69, 0x97, 0x33, 0x4e, 0x1a, 0xd7, 0xf0, 0xdd, 0x65, 0x17, 0xd1, 0xee, 0x61, 0x7f, 0xa5, 0xa4, 0xa0, 0x4b, 0x0e, 0x32, 0xb7, 0x29, 0xfd, 0x12, 0x42, 0xc8, 0xe3, 0x57, 0x45, 0x0f, 0x18, 0xd4, 0xf8, 0x2e, 0x40, 0xce, 0x31, 0xe3, 0x61, 0xc1, 0x5b, 0x69, 0x8f, 0x4e, 0x3c, 0x97, 0xf3, 0xd7, 0x24, 0xcc, 0xa4, 0x88, 0xdc, 0x13, 0x1a, 0xf4, 0xef, 0x7e, 0x57, 0x1b, 0x21, 0xbe, 0x24, 0x3f, 0x35, 0x3a, 0xd1, 0xff, 0xd7, 0x2e, 0xcb, 0xb4, 0xb2, 0xf8, 0x92, 0xe5, 0xdb, 0x1c, 0x0c, 0x91, 0x0e, 0x72, 0x83, 0x44, 0x30, 0x26, 0xd0, 0x97, 0x3c, 0xeb, 0x44, 0x16, 0xff, 0x33, 0x38, 0xca, 0xfc, 0x02, 0x44, 0x7a, 0x3a, 0x35, 0x3b, 0x0b, 0xc3, 0x81, 0xc4, 0x58, 0x40, 0x57, 0x9c, 0x76, 0x5d, 0xf2, 0x9c, 0x9e, 0xb2, 0x65, 0xab, 0x18, 0x1b, 0x1c, 0x8f, 0x5a, 0xab, 0xec, 0x26, 0xbe, 0x09, 0x4c, 0x2c, 0xce, 0xd6, 0xfa, 0xe0, 0xf5, 0x66, 0xbf, 0xeb, 0xd6, 0x0d, 0x30, 0x22, 0x13, 0x10, 0x04, 0x34, 0xef, 0xd7, 0x41, 0x82, 0xef, 0xba, 0x74, 0x40, 0x79, 0x6b, 0x0f, 0x2c, 0x00, 0x33, 0xce, 0x0e, 0x5e, 0x4b, 0xce, 0xd3, 0x1f, 0x07, 0x5e, 0x59, 0x68, 0x6b, 0x57, 0xb9, 0x00, 0x8b, 0x87, 0xb8, 0x27, 0x64, 0x21, 0x39, 0xca, 0x94, 0x3d, 0xca, 0xa4, 0xf2, 0x6d, 0xad, 0x5c, 0xb9, 0xdb, 0xf6, 0x8a, 0x45, 0x33, 0x35, 0xe2, 0xbe, 0xd5, 0x2b, 0xf0, 0x23, 0xff, 0x01, 0x00, 0xd6, 0xf3, 0x5e, 0xb4, 0xeb, 0xbd, 0x38, 0x87, 0xfe, 0x0e, 0xca, 0xbd, 0x4b, 0x6b, 0xa1, 0xc6, 0x04, 0x43, 0xf8, 0x3c, 0x0f, 0x28, 0xc7, 0xc1, 0x59, 0xa9, 0x33, 0x5e, 0xc6, 0x38, 0x5b, 0x86, 0xfb, 0x91, 0x47, 0x88, 0x8d, 0xd2, 0xf2, 0x6b, 0xef, 0x1c, 0x8d, 0x63, 0x26, 0xf5, 0x1b, 0x54, 0x22, 0x84, 0x9c, 0x65, 0x62, 0x83, 0x5d, 0xc7, 0x97, 0x57, 0xd9, 0x9a, 0x53, 0x91, 0x54, 0xc9, 0x08, 0x0a, 0x31, 0x4e, 0xd4, 0x4d, 0x33, 0x42, 0xf9, 0x7f, 0xf6, 0x42, 0xe7, 0xf1, 0xbc, 0x6f, 0x97, 0xf3, 0x30, 0x33, 0xbc, 0x6d, 0xa9, 0xda, 0xe8, 0x90, 0xa9, 0x85, 0x8f, 0xc3, 0xb2, 0xc0, 0xc6, 0x19, 0x56, 0x6c, 0x6e, 0x28, 0x9b, 0xfd, 0x62, 0xf2, 0x35, 0xa8, 0x5f, 0x96, 0x99, 0x81, 0xc8, 0x1a, 0x28, 0xe3, 0x21, 0x7d, 0x25, 0x47, 0x5d, 0x7b, 0xf3, 0x9e, 0x57, 0xe3, 0xc2, 0x4c, 0x06, 0x1f, 0x93, 0x87, 0xc3, 0x42, 0xdd, 0xa1, 0xe8, 0xfc, 0x3e, 0x19, 0x93, 0xaa, 0x85, 0x23, 0xed, 0x6e, 0xbc, 0x94, 0x05, 0x46, 0xa5, 0x3d, 0xf1, 0x02, 0xb2, 0x32, 0x2d, 0x95, 0x39, 0x22, 0xb9, 0x2a, 0x57, 0x23, 0xa7, 0x43, 0x3f, 0x17, 0x54, 0xd2, 0xb0, 0x17, 0xd2, 0x9f, 0x2c, 0x22, 0xa3, 0xb8, 0xb8, 0x97, 0x38, 0xff, 0x7a, 0xad, 0x85, 0x62, 0xe4, 0xd4, 0x0f, 0x33, 0x24, 0x6d, 0x89, 0x63, 0x06, 0x44, 0x02, 0x95, 0x5b, 0x55, 0xef, 0x37, 0x84, 0x91, 0x68, 0x45, 0x4c, 0x08, 0x3d, 0xd1, 0xaa, 0xf9, 0xe4, 0x88, 0x8d, 0x90, 0x7f, 0x00, 0xd1, 0x84, 0x9d, 0x53, 0xb1, 0x09, 0xb4, 0xaa, 0x8b, 0x1d, 0x9a, 0x05, 0x40, 0xc9, 0x01, 0x70, 0x75, 0xb6, 0x7a, 0xf6, 0x8d, 0xfc, 0x14, 0xae, 0x1c, 0xcd, 0xbc, 0xa6, 0x9a, 0xa5, 0xf9, 0x24, 0x1f, 0x60, 0x42, 0xbf, 0x98, 0x8f, 0xd7, 0x39, 0x14, 0x10, 0xa5, 0x96, 0x0f, 0x87, 0xda, 0xb2, 0xcb, 0xb0, 0x6b, 0x32, 0x79, 0xc4, 0x77, 0xb6, 0x59, 0x34, 0xa7, 0x55, 0x54, 0x45, 0xc2, 0x49, 0x2a, 0x90, 0xc9, 0xfe, 0x73, 0x54, 0x84, 0xbe, 0x9b, 0xe4, 0xed, 0xcb, 0xe8, 0xcd, 0x4b, 0x49, 0xf0, 0x79, 0x47, 0xf8, 0xa7, 0xf9, 0xf9, 0xd2, 0x1f, 0x01, 0x7e, 0xab, 0xa8, 0x0b, 0xc3, 0x7e, 0x0d, 0x23, 0x52, 0x65, 0x34, 0x49, 0xef, 0x08, 0x93, 0x27, 0x78, 0x8b, 0x73, 0xf5, 0xa4, 0x88, 0x31, 0x4c, 0x82, 0x71, 0x95, 0x0c, 0x79, 0x62, 0x37, 0x27, 0xd1, 0xcd, 0xf6, 0xf5, 0x4a, 0x9b, 0xd2, 0x54, 0x61, 0xd3, 0x20, 0xb8, 0xa7, 0xb4, 0x49, 0xc3, 0x89, 0xe8, 0x37, 0xd0, 0x89, 0xed, 0x1d, 0x0c, 0x74, 0xbb, 0x34, 0x4d, 0xd1, 0x2e, 0x06, 0xc5, 0x27, 0x0a, 0x1e, 0x3a, 0x79, 0x9a, 0x05, 0x68, 0x65, 0x91, 0x6b, 0x29, 0x42, 0xc1, 0x7b, 0x95, 0x20, 0x46, 0x30, 0xe1, 0xe2, 0xd3, 0x61, 0xe4, 0x0c, 0x3c, 0xe7, 0x4c, 0x88, 0xb7, 0xb3, 0xd3, 0x50, 0x27, 0xbf, 0x6a, 0x3d, 0x5c, 0xb5, 0xf5, 0x5b, 0x05, 0x6f, 0x81, 0xa8, 0x99, 0x73, 0x2b, 0x46, 0x3b, 0xd3, 0xc2, 0xc9, 0x8e, 0x23, 0x37, 0xef, 0xde, 0xec, 0x32, 0x4a, 0xff, 0x81, 0xa0, 0x66, 0x02, 0xec, 0x67, 0x8a, 0xf6, 0xd3, 0x95, 0x1f, 0x68, 0xd9, 0xd3, 0xec, 0x1c, 0x63, 0x59, 0x3c, 0xd9, 0xee, 0x75, 0xa4, 0x2d, 0x2c, 0x85, 0xdc, 0x6e, 0x9f, 0x43, 0x17, 0x85, 0xef, 0x51, 0xca, 0x1c, 0x01, 0xf4, 0x22, 0xd9, 0x33, 0xfc, 0x3c, 0x18, 0x5f, 0x6d, 0x48, 0xcd, 0x58, 0x22, 0xd6, 0x94, 0x89, 0x1b, 0xbd, 0x06, 0x68, 0xd1, 0xbb, 0x1d, 0x44, 0x77, 0xf3, 0x85, 0x25, 0x3e, 0x6b, 0xb2, 0xf2, 0xdc, 0x14, 0x18, 0x01, 0x4e, 0xe7, 0xe6, 0xad, 0xaa, 0xb9, 0x9c, 0xf4, 0x58, 0x64, 0xa7, 0x64, 0xa7, 0x51, 0x25, 0x75, 0x7a, 0x78, 0x02, 0x87, 0xf6, 0xbd, 0xa9, 0x11, 0xae, 0xe5, 0xfc, 0x08, 0xca, 0x48, 0x5b, 0xae, 0x43, 0x26, 0x2a, 0x6a, 0x65, 0xee, 0x06, 0xd6, 0x07, 0x33, 0xbe, 0x91, 0x5b, 0x51, 0xc2, 0xda, 0x49, 0x42, 0x58, 0xa3, 0xa6, 0xe9, 0xf3, 0x16, 0x1a, 0x00, 0xa9, 0xa2, 0x3d, 0x64, 0xb7, 0xf6, 0x49, 0xfb, 0x7b, 0x69, 0x96, 0xf6, 0x19, 0xb8, 0xd3, 0x2f, 0x5e, 0xa7, 0xe1, 0x11, 0x82, 0x41, 0x46, 0x0f, 0x03, 0x4e, 0x83, 0x8c, 0xa6, 0x38, 0xe9, 0x0a, 0xed, 0xb0, 0x3a, 0xcc, 0xbb, 0x99, 0xc4, 0x7e, 0x87, 0xe1, 0x95, 0x2d, 0x2a, 0x92, 0x72, 0x6a, 0x6a, 0x90, 0xc9, 0x68, 0x79, 0xda, 0x8e, 0x5a, 0x87, 0x28, 0x29, 0x15, 0x45, 0x84, 0x9e, 0xa9, 0xe9, 0x73, 0x40, 0x82, 0x93, 0x0f, 0x21, 0xa9, 0x1c, 0xe3, 0x42, 0x47, 0xcd, 0xad, 0xee, 0x1c, 0xc6, 0xbf, 0x0b, 0x28, 0x27, 0x82, 0x1b, 0x4f, 0x78, 0x78, 0x18, 0x66, 0xc2, 0x4e, 0x9d, 0x27, 0x37, 0x99, 0x82, 0xa2, 0xfa, 0x4d, 0xb1, 0xe4, 0x53, 0xcf, 0x1a, 0x8e, 0x47, 0x74, 0xa3, 0x85, 0xd4, 0xfb, 0xf7, 0xe7, 0xf7, 0x3f, 0x52, 0x47, 0xae, 0xcb, 0x14, 0x16, 0xba, 0xa5, 0xd4, 0x04, 0x87, 0x64, 0xe9, 0x3d, 0x18, 0x6e, 0xe5, 0xc6, 0x14, 0xe8, 0x78, 0xba, 0xb3, 0xa2, 0x52, 0x82, 0x93, 0xb3, 0x67, 0x98, 0x1d, 0x9d, 0x03, 0x5a, 0xa6, 0xce, 0xff, 0x89, 0xe0, 0xb4, 0x72, 0x55, 0xc6, 0x61, 0x66, 0xfc, 0xf8, 0xec, 0x46, 0x38, 0xda, 0x5b, 0x1f, 0xa6, 0xa3, 0xd6, 0x1e, 0x51, 0x39, 0xa5, 0xdd, 0x26, 0xbc, 0xf2, 0x1f, 0xb0, 0x9f, 0x0c, 0x07, 0x35, 0x9f, 0x11, 0x6e, 0x67, 0xd1, 0xc5, 0x2f, 0x16, 0x30, 0xe2, 0x0c, 0xad, 0x23, 0x62, 0xa0, 0x12, 0x6d, 0x9f, 0xbd, 0xce, 0xed, 0x17, 0x5a, 0xed, 0x95, 0x43, 0x4d, 0xed, 0xb0, 0x2d, 0x2c, 0xdc, 0xd5, 0xba, 0x2c, 0x66, 0x59, 0x63, 0x89, 0x67, 0xb3, 0xc2, 0xca, 0xc7, 0x3e, 0xd5, 0x49, 0xb6, 0xda, 0x44, 0x5f, 0x5a, 0xb5, 0xe9, 0x19, 0x20, 0x40, 0x38, 0x5e, 0x36, 0x34, 0x1e, 0xc9, 0xa1, 0xf8, 0xa2, 0x28, 0x32, 0xc6, 0xb3, 0xe0, 0xde, 0x06, 0x14, 0xe5, 0x22, 0xf1, 0xfe, 0xd9, 0x9e, 0x32, 0x5f, 0x16, 0xf3, 0x28, 0x23, 0x0f, 0xf8, 0x22, 0xb9, 0x5c, 0xd4, 0xc6, 0x90, 0xe3, 0x39, 0xaa, 0x95, 0xab, 0x3f, 0xca, 0xab, 0xeb, 0x24, 0xcf, 0xda, 0x23, 0xc8, 0xed, 0x18, 0x89, 0x08, 0x18, 0xb8, 0x6b, 0x57, 0x03, 0xff, 0x0a, 0x00, 0x16, 0xd6, 0x9d, 0x4e, 0x48, 0x5e, 0x07, 0x1a, 0x39, 0xb8, 0xc1, 0x69, 0xc9, 0x27, 0x68, 0x1f, 0xc8, 0x52, 0x35, 0xf6, 0x32, 0x05, 0x1f, 0xeb, 0xfc, 0x88, 0xed, 0xa0, 0x64, 0xf1, 0x9d, 0x6a, 0xd2, 0xbe, 0x5d, 0x32, 0xed, 0x52, 0x5d, 0xbc, 0x56, 0x08, 0x1b, 0xe1, 0x6d, 0x8c, 0x9e, 0x35, 0xe5, 0x6b, 0x27, 0x57, 0x6b, 0x19, 0x95, 0xa3, 0xaf, 0x8b, 0xef, 0x4e, 0xb3, 0xfc, 0x52, 0xa8, 0x14, 0xa7, 0xad, 0x81, 0x8e, 0x56, 0x95, 0xb6, 0xb8, 0x8c, 0x0e, 0xe8, 0xf1, 0xfb, 0x20, 0xfc, 0xf7, 0x40, 0x2b, 0x5c, 0x1b, 0x04, 0x5b, 0x3b, 0x8a, 0xa9, 0xa4, 0x1b, 0x97, 0x24, 0xef, 0x12, 0xc0, 0x56, 0xa4, 0x0f, 0xea, 0x55, 0x44, 0x63, 0xfa, 0x5e, 0x5d, 0x29, 0x06, 0x2e, 0x09, 0x73, 0x68, 0x88, 0x4d, 0x32, 0xe0, 0xdb, 0xe9, 0xb5, 0x55, 0xf9, 0x5c, 0x30, 0x37, 0x4c, 0xc4, 0xaa, 0x13, 0x5a, 0x15, 0xde, 0xe9, 0xad, 0xba, 0xea, 0xae, 0x67, 0x1f, 0x0d, 0xed, 0x1d, 0xe0, 0xb9, 0x0b, 0xeb, 0xbb, 0xf4, 0xa1, 0x0b, 0x2f, 0x10, 0xcc, 0xf1, 0xff, 0x34, 0x11, 0x93, 0xed, 0x50, 0x1a, 0x1e, 0x47, 0x52, 0xf9, 0x54, 0xc1, 0xdb, 0xae, 0x9c, 0x56, 0xda, 0xcb, 0x42, 0x54, 0xba, 0x0c, 0x9b, 0x58, 0x1a, 0xfd, 0x0a, 0xc5, 0xd8, 0x0c, 0x4b, 0xb9, 0x42, 0xfd, 0xeb, 0xa5, 0x63, 0xc0, 0xc2, 0x20, 0x24, 0xd6, 0x95, 0x34, 0x41, 0x01, 0xe8, 0xf4, 0x3b, 0xb5, 0xec, 0x6e, 0x3b, 0xc2, 0xb5, 0xc8, 0x30, 0x6c, 0x1c, 0xce, 0x0a, 0x6d, 0x21, 0x40, 0xc8, 0xf4, 0x5d, 0xd1, 0x24, 0x25, 0xb5, 0x87, 0xfa, 0xdf, 0xe2, 0xec, 0x41, 0xec, 0x90, 0xce, 0xa5, 0xba, 0xcf, 0x57, 0xbc, 0xc5, 0x2d, 0x4f, 0xf0, 0xeb, 0xea, 0x11, 0xc5, 0x6c, 0xdf, 0x37, 0xca, 0xc9, 0x0e, 0x41, 0x9e, 0x08, 0xfe, 0xdc, 0xb7, 0x59, 0x01, 0xac, 0x14, 0x3c, 0x3c, 0x38, 0x17, 0x9b, 0xd4, 0x13, 0x9c, 0x10, 0xf5, 0xcf, 0x52, 0x1b, 0x0a, 0xc6, 0x36, 0x45, 0xd1, 0x3d, 0x98, 0x3f, 0x3b, 0xbd, 0x60, 0xb9, 0x3a, 0x02, 0x6a, 0x99, 0x2d, 0x07, 0xa9, 0x6f, 0xeb, 0xed, 0xfd, 0xfb, 0xe7, 0x30, 0x12, 0xcd, 0x4d, 0x60, 0x81, 0xdb, 0xc2, 0x51, 0xfe, 0x57, 0x9a, 0xbc, 0x58, 0x38, 0xad, 0x0b, 0x5a, 0xac, 0xb1, 0x90, 0xe0, 0x3b, 0x95, 0xe3, 0xc1, 0x8c, 0xdc, 0x1a, 0xf5, 0xf4, 0x0f, 0xba, 0x2e, 0xab, 0xcd, 0xe2, 0xc9, 0x42, 0x03, 0x08, 0x0a, 0xb0, 0x18, 0x10, 0x3b, 0xd7, 0xa6, 0xbd, 0x13, 0x97, 0x95, 0x4d, 0xdb, 0xdb, 0x1b, 0x46, 0x57, 0x0a, 0x09, 0xd8, 0xa9, 0x02, 0x06, 0xbd, 0xb0, 0xc0, 0x0a, 0x39, 0xdc, 0xee, 0x8f, 0x94, 0x2c, 0x30, 0x93, 0xf3, 0x5b, 0xc6, 0xf8, 0xbc, 0xec, 0x2d, 0xf8, 0x09, 0x44, 0x69, 0x63, 0x2e, 0xc6, 0xfb, 0xfc, 0xb9, 0x00, 0x4e, 0x04, 0x23, 0x3a, 0x1c, 0x4a, 0xad, 0xe7, 0xc5, 0x29, 0x0e, 0x5a, 0xd4, 0xca, 0x92, 0x6e, 0xcc, 0xb7, 0x00, 0x00, 0xa9, 0x32, 0xe9, 0xc9, 0x04, 0x76, 0xdd, 0x23, 0xa6, 0xd3, 0xff, 0xb5, 0x42, 0x9f, 0xec, 0x0d, 0x4c, 0x27, 0x56, 0xb9, 0xaf, 0xf9, 0xfb, 0x09, 0x9f, 0x32, 0xc5, 0xb4, 0xe9, 0x39, 0xc3, 0xe6, 0xf9, 0xbe, 0xd9, 0x13, 0x1b, 0x08, 0x19, 0x23, 0x00, 0x2f, 0xce, 0xf0, 0x20, 0xb3, 0x60, 0xd9, 0xb6, 0x5e, 0x02, 0xec, 0xed, 0x24, 0x0b, 0x54, 0xa6, 0x23, 0xd1, 0xc3, 0x9e, 0x2c, 0x2d, 0x0a, 0x41, 0x30, 0xc5, 0xe2, 0xde, 0x1d, 0x3d, 0xb6, 0xfe, 0x66, 0x42, 0xcd, 0xc2, 0xe8, 0x69, 0x31, 0xf9, 0xdf, 0x5e, 0xef, 0x6e, 0xd2, 0x23, 0xa3, 0x4c, 0x67, 0xcd, 0xa4, 0x2f, 0x5b, 0x55, 0xfb, 0x00, 0x09, 0x27, 0x57, 0x23, 0x20, 0x30, 0x2c, 0xe6, 0x59, 0x4d, 0x2d, 0x54, 0xac, 0x78, 0x31, 0x39, 0x65, 0x5f, 0xa4, 0x2c, 0xfc, 0xb6, 0x43, 0xeb, 0xe2, 0xa4, 0x17, 0x5c, 0x76, 0x28, 0x07, 0xb1, 0x58, 0x59, 0x76, 0xd8, 0x1f, 0x2a, 0x2f, 0x58, 0x30, 0x0f, 0x9a, 0x2e, 0xc2, 0x3d, 0xc1, 0xe1, 0x20, 0x47, 0x10, 0xe7, 0x4f, 0xb0, 0x37, 0x22, 0xad, 0x1e, 0xc9, 0x48, 0xdd, 0x3a, 0x19, 0xab, 0xc5, 0x4c, 0xc7, 0x6d, 0x9d, 0xcf, 0xba, 0x5b, 0xb3, 0x23, 0xd0, 0x60, 0x3f, 0x57, 0xa8, 0x3c, 0x67, 0x4f, 0x3c, 0x45, 0x0a, 0x0b, 0xbb, 0xc5, 0xec, 0x43, 0xd4, 0xac, 0x6b, 0x48, 0xc3, 0x0e, 0x4c, 0xdb, 0xc1, 0x3f, 0x69, 0x00, 0x76, 0xf6, 0xab, 0x56, 0x0d, 0x87, 0x6d, 0x23, 0x2f, 0x19, 0x07, 0x42, 0x42, 0x5d, 0xbb, 0xf8, 0x7e, 0x18, 0xfd, 0xc8, 0x0a, 0xb4, 0xfd, 0x96, 0x1d, 0x6a, 0x85, 0xd6, 0x8f, 0xcf, 0x10, 0x65, 0x76, 0xdb, 0x4a, 0x1e, 0x7f, 0x8b, 0x81, 0x7f, 0xfd, 0x37, 0x30, 0xda, 0xa4, 0x8d, 0xc0, 0xea, 0x14, 0xdd, 0x37, 0xcd, 0x11, 0xe1, 0xeb, 0x54, 0x81, 0x29, 0xa5, 0x6d, 0xfe, 0x01, 0x4a, 0xc8, 0x90, 0x5c, 0xc6, 0x43, 0x3c, 0xcb, 0x19, 0x96, 0xa5, 0x3b, 0x1e, 0x8c, 0xad, 0x70, 0x62, 0x4d, 0x7a, 0xdb, 0x98, 0x71, 0x4d, 0x15, 0xb3, 0x9e, 0x0a, 0xb6, 0xcd, 0xa5, 0x5a, 0x25, 0xe0, 0xfb, 0x7e, 0x85, 0x98, 0x8a, 0xc7, 0x4e, 0x0b, 0x8a, 0xba, 0x7e, 0xa3, 0x9f, 0xcf, 0xf4, 0x2e, 0x1f, 0x99, 0x50, 0x00, 0x36, 0x9a, 0xec, 0x13, 0x69, 0x45, 0xe4, 0x57, 0x26, 0x77, 0xd1, 0xcc, 0x2a, 0x79, 0xd1, 0x28, 0x07, 0x33, 0xfd, 0x3a, 0xc1, 0x12, 0x88, 0x8d, 0xbd, 0x85, 0x93, 0x5d, 0x9b, 0x46, 0x9b, 0x64, 0xa2, 0x6a, 0x0f, 0x42, 0xe6, 0x2f, 0x92, 0xc5, 0xda, 0xaf, 0x02, 0xed, 0x9e, 0xfb, 0x56, 0x86, 0x13, 0x75, 0xb0, 0x4d, 0x8d, 0x75, 0x9e, 0x4d, 0xe5, 0x7b, 0xc7, 0x64, 0x97, 0x9b, 0xc4, 0x9a, 0x8d, 0x17, 0x1f, 0x17, 0xd9, 0xdf, 0x86, 0xe2, 0xca, 0x55, 0x3e, 0xf1, 0x3d, 0xbd, 0x02, 0x97, 0xc6, 0xb4, 0x66, 0x9e, 0x79, 0xaa, 0x1d, 0x31, 0x94, 0xc9, 0x9b, 0xc6, 0xbf, 0x0d, 0x9b, 0xe6, 0xb1, 0x29, 0x99, 0x87, 0x00, 0xd0, 0x72, 0x9f, 0xe0, 0x90, 0x07, 0x86, 0x6c, 0xcf, 0x75, 0x4d, 0x91, 0xf9, 0xf3, 0x7f, 0x84, 0xe1, 0xa5, 0x18, 0xab, 0xd0, 0xe1, 0xbe, 0x0e, 0x34, 0xd1, 0x6b, 0xfd, 0xed, 0x4e, 0x65, 0x17, 0x1a, 0xdd, 0xd6, 0xb2, 0x99, 0x13, 0x01, 0x30, 0x40, 0x9a, 0x48, 0x34, 0xb8, 0xf8, 0x9e, 0x9b, 0x10, 0x24, 0xa7, 0x2a, 0x3f, 0xb5, 0x92, 0x45, 0x88, 0xd9, 0xfa, 0x05, 0xed, 0x6d, 0xd5, 0xff, 0x99, 0x7c, 0x2f, 0xa5, 0x7e, 0x09, 0x5a, 0xbc, 0xe6, 0xb4, 0x32, 0x21, 0xfe, 0x13, 0x0b, 0x2b, 0xe4, 0x87, 0xed, 0x46, 0xef, 0x17, 0x05, 0xf3, 0x91, 0xdd, 0x99, 0xfe, 0xdd, 0x2a, 0xbc, 0x6a, 0x3e, 0x6a, 0x66, 0x6f, 0x30, 0x0d, 0x8d, 0xa8, 0x27, 0xac, 0x7b, 0x74, 0x35, 0x0e, 0x8d, 0xf6, 0x7b, 0x2e, 0x0f, 0xb9, 0xcb, 0x6c, 0x2d, 0xb7, 0xf1, 0x93, 0x66, 0xb0, 0x4f, 0x16, 0xc7, 0xb8, 0x41, 0x49, 0xa2, 0x1a, 0xc9, 0x72, 0x8a, 0x86, 0x2b, 0xa6, 0xbf, 0x79, 0x94, 0xc0, 0x07, 0xe6, 0xa6, 0xc7, 0xbf, 0xb2, 0xf7, 0xf3, 0x59, 0xd2, 0xe9, 0x2e, 0xc8, 0x92, 0x42, 0xc4, 0x5e, 0xc1, 0xb3, 0x4e, 0x60, 0x09, 0x49, 0xd9, 0xc4, 0x38, 0x4f, 0x29, 0x84, 0x2b, 0xb6, 0xfe, 0xff, 0xff, 0x04, 0x00, 0x00, 0x00, 0x40, 0x00, 0x00, 0x00, 0x00, 0x00, 0x00, 0x00, 0x00, 0x00, 0x00, 0x00, 0xfa, 0xff, 0xff, 0xff, 0xfe, 0xff, 0xff, 0xff, 0x00, 0x00, 0x00, 0x00, 0xf7, 0xff, 0xff, 0xff, 0xf8, 0xff, 0xff, 0xff, 0xf8, 0xff, 0xff, 0xff, 0x01, 0x00, 0x00, 0x00, 0xf8, 0xff, 0xff, 0xff, 0x00, 0x00, 0x00, 0x00, 0x00, 0x00, 0x00, 0x00, 0x00, 0x00, 0x00, 0x00, 0xfd, 0xff, 0xff, 0xff, 0x04, 0x00, 0x00, 0x00, 0x00, 0x00, 0x00, 0x00, 0x02, 0xff, 0xff, 0xff, 0x04, 0x00, 0x00, 0x00, 0x30, 0x00, 0x00, 0x00, 0xd6, 0x9c, 0x64, 0x1a, 0x1e, 0xd3, 0x9e, 0x2c, 0x35, 0xe1, 0xd0, 0x89, 0xcf, 0xbe, 0x7f, 0xa0, 0xbf, 0x97, 0xa9, 0x9c, 0xcd, 0x46, 0xf4, 0x4d, 0xda, 0x10, 0x20, 0xb6, 0x3f, 0x81, 0xdc, 0xff, 0x16, 0x11, 0x72, 0x07, 0xb8, 0x61, 0xdf, 0x85, 0x7f, 0xd1, 0xf7, 0xf2, 0x6c, 0xc8, 0xbf, 0xe5, 0x3e, 0xff, 0xff, 0xff, 0x04, 0x00, 0x00, 0x00, 0x0c, 0x00, 0x00, 0x00, 0x01, 0x00, 0x00, 0x00, 0x3b, 0x00, 0x00, 0x00, 0xbf, 0xff, 0xff, 0xff, 0x56, 0xff, 0xff, 0xff, 0x04, 0x00, 0x00, 0x00, 0x08, 0x00, 0x00, 0x00, 0xff, 0xff, 0xff, 0xff, 0x80, 0x01, 0x00, 0x00, 0xf8, 0xf0, 0xff, 0xff, 0xfc, 0xf0, 0xff, 0xff, 0x0f, 0x00, 0x00, 0x00, 0x4d, 0x4c, 0x49, 0x52, 0x20, 0x43, 0x6f, 0x6e, 0x76, 0x65, 0x72, 0x74, 0x65, 0x64, 0x2e, 0x00, 0x01, 0x00, 0x00, 0x00, 0x14, 0x00, 0x00, 0x00, 0x00, 0x00, 0x0e, 0x00, 0x18, 0x00, 0x14, 0x00, 0x10, 0x00, 0x0c, 0x00, 0x08, 0x00, 0x04, 0x00, 0x0e, 0x00, 0x00, 0x00, 0x14, 0x00, 0x00, 0x00, 0x1c, 0x00, 0x00, 0x00, 0x4c, 0x02, 0x00, 0x00, 0x50, 0x02, 0x00, 0x00, 0x54, 0x02, 0x00, 0x00, 0x04, 0x00, 0x00, 0x00, 0x6d, 0x61, 0x69, 0x6e, 0x00, 0x00, 0x00, 0x00, 0x08, 0x00, 0x00, 0x00, 0xe8, 0x01, 0x00, 0x00, 0x84, 0x01, 0x00, 0x00, 0x34, 0x01, 0x00, 0x00, 0xf0, 0x00, 0x00, 0x00, 0xc8, 0x00, 0x00, 0x00, 0x78, 0x00, 0x00, 0x00, 0x40, 0x00, 0x00, 0x00, 0x04, 0x00, 0x00, 0x00, 0xa6, 0xfe, 0xff, 0xff, 0x1c, 0x00, 0x00, 0x00, 0x00, 0x00, 0x00, 0x09, 0x1c, 0x00, 0x00, 0x00, 0x20, 0x00, 0x00, 0x00, 0x04, 0x00, 0x00, 0x00, 0x00, 0x00, 0x06, 0x00, 0x08, 0x00, 0x04, 0x00, 0x06, 0x00, 0x00, 0x00, 0x00, 0x00, 0x80, 0x3f, 0x01, 0x00, 0x00, 0x00, 0x11, 0x00, 0x00, 0x00, 0x01, 0x00, 0x00, 0x00, 0x10, 0x00, 0x00, 0x00, 0xde, 0xfe, 0xff, 0xff, 0x14, 0x00, 0x00, 0x00, 0x00, 0x00, 0x00, 0x08, 0x10, 0x00, 0x00, 0x00, 0x14, 0x00, 0x00, 0x00, 0x03, 0x00, 0x00, 0x00, 0xc4, 0xf1, 0xff, 0xff, 0x01, 0x00, 0x00, 0x00, 0x10, 0x00, 0x00, 0x00, 0x03, 0x00, 0x00, 0x00, 0x0f, 0x00, 0x00, 0x00, 0x03, 0x00, 0x00, 0x00, 0x02, 0x00, 0x00, 0x00, 0x12, 0xff, 0xff, 0xff, 0x1c, 0x00, 0x00, 0x00, 0x00, 0x00, 0x00, 0x08, 0x1c, 0x00, 0x00, 0x00, 0x20, 0x00, 0x00, 0x00, 0x03, 0x00, 0x00, 0x00, 0x00, 0x00, 0x06, 0x00, 0x08, 0x00, 0x07, 0x00, 0x06, 0x00, 0x00, 0x00, 0x00, 0x00, 0x00, 0x01, 0x01, 0x00, 0x00, 0x00, 0x0f, 0x00, 0x00, 0x00, 0x03, 0x00, 0x00, 0x00, 0x0e, 0x00, 0x00, 0x00, 0x05, 0x00, 0x00, 0x00, 0x04, 0x00, 0x00, 0x00, 0x00, 0x00, 0x0a, 0x00, 0x10, 0x00, 0x0c, 0x00, 0x08, 0x00, 0x04, 0x00, 0x0a, 0x00, 0x00, 0x00, 0x0c, 0x00, 0x00, 0x00, 0x10, 0x00, 0x00, 0x00, 0x02, 0x00, 0x00, 0x00, 0x01, 0x00, 0x00, 0x00, 0x0e, 0x00, 0x00, 0x00, 0x02, 0x00, 0x00, 0x00, 0x0d, 0x00, 0x00, 0x00, 0x01, 0x00, 0x00, 0x00, 0x82, 0xff, 0xff, 0xff, 0x14, 0x00, 0x00, 0x00, 0x00, 0x00, 0x00, 0x05, 0x24, 0x00, 0x00, 0x00, 0x28, 0x00, 0x00, 0x00, 0x01, 0x00, 0x00, 0x00, 0x72, 0xff, 0xff, 0xff, 0x02, 0x00, 0x00, 0x00, 0x02, 0x00, 0x00, 0x00, 0x02, 0x00, 0x00, 0x00, 0x02, 0x00, 0x00, 0x00, 0x00, 0x00, 0x00, 0x01, 0x01, 0x00, 0x00, 0x00, 0x0d, 0x00, 0x00, 0x00, 0x01, 0x00, 0x00, 0x00, 0x0c, 0x00, 0x00, 0x00, 0x62, 0xff, 0xff, 0xff, 0x10, 0x00, 0x00, 0x00, 0x00, 0x00, 0x00, 0x01, 0x18, 0x00, 0x00, 0x00, 0x1c, 0x00, 0x00, 0x00, 0x54, 0xff, 0xff, 0xff, 0x00, 0x00, 0x00, 0x01, 0x01, 0x00, 0x00, 0x00, 0x01, 0x00, 0x00, 0x00, 0x01, 0x00, 0x00, 0x00, 0x0c, 0x00, 0x00, 0x00, 0x03, 0x00, 0x00, 0x00, 0x0b, 0x00, 0x00, 0x00, 0x07, 0x00, 0x00, 0x00, 0x06, 0x00, 0x00, 0x00, 0x00, 0x00, 0x0e, 0x00, 0x1a, 0x00, 0x14, 0x00, 0x10, 0x00, 0x0c, 0x00, 0x0b, 0x00, 0x04, 0x00, 0x0e, 0x00, 0x00, 0x00, 0x24, 0x00, 0x00, 0x00, 0x00, 0x00, 0x00, 0x05, 0x34, 0x00, 0x00, 0x00, 0x38, 0x00, 0x00, 0x00, 0x01, 0x00, 0x00, 0x00, 0x00, 0x00, 0x0e, 0x00, 0x18, 0x00, 0x17, 0x00, 0x10, 0x00, 0x0c, 0x00, 0x08, 0x00, 0x04, 0x00, 0x0e, 0x00, 0x00, 0x00, 0x02, 0x00, 0x00, 0x00, 0x02, 0x00, 0x00, 0x00, 0x02, 0x00, 0x00, 0x00, 0x02, 0x00, 0x00, 0x00, 0x00, 0x00, 0x00, 0x01, 0x01, 0x00, 0x00, 0x00, 0x0b, 0x00, 0x00, 0x00, 0x01, 0x00, 0x00, 0x00, 0x0a, 0x00, 0x00, 0x00, 0x00, 0x00, 0x0e, 0x00, 0x14, 0x00, 0x00, 0x00, 0x10, 0x00, 0x0c, 0x00, 0x0b, 0x00, 0x04, 0x00, 0x0e, 0x00, 0x00, 0x00, 0x1c, 0x00, 0x00, 0x00, 0x00, 0x00, 0x00, 0x01, 0x24, 0x00, 0x00, 0x00, 0x28, 0x00, 0x00, 0x00, 0x0c, 0x00, 0x10, 0x00, 0x00, 0x00, 0x0c, 0x00, 0x08, 0x00, 0x07, 0x00, 0x0c, 0x00, 0x00, 0x00, 0x00, 0x00, 0x00, 0x01, 0x01, 0x00, 0x00, 0x00, 0x01, 0x00, 0x00, 0x00, 0x01, 0x00, 0x00, 0x00, 0x0a, 0x00, 0x00, 0x00, 0x03, 0x00, 0x00, 0x00, 0x00, 0x00, 0x00, 0x00, 0x09, 0x00, 0x00, 0x00, 0x08, 0x00, 0x00, 0x00, 0x01, 0x00, 0x00, 0x00, 0x11, 0x00, 0x00, 0x00, 0x01, 0x00, 0x00, 0x00, 0x00, 0x00, 0x00, 0x00, 0x12, 0x00, 0x00, 0x00, 0xa4, 0x0c, 0x00, 0x00, 0x48, 0x0c, 0x00, 0x00, 0xb8, 0x0b, 0x00, 0x00, 0x3c, 0x0b, 0x00, 0x00, 0x28, 0x0a, 0x00, 0x00, 0x0c, 0x09, 0x00, 0x00, 0xf8, 0x07, 0x00, 0x00, 0xd4, 0x06, 0x00, 0x00, 0x20, 0x06, 0x00, 0x00, 0x5c, 0x05, 0x00, 0x00, 0x88, 0x04, 0x00, 0x00, 0xec, 0x03, 0x00, 0x00, 0xf8, 0x02, 0x00, 0x00, 0x5c, 0x02, 0x00, 0x00, 0xd8, 0x01, 0x00, 0x00, 0x24, 0x01, 0x00, 0x00, 0x80, 0x00, 0x00, 0x00, 0x04, 0x00, 0x00, 0x00, 0xba, 0xf3, 0xff, 0xff, 0x00, 0x00, 0x00, 0x01, 0x18, 0x00, 0x00, 0x00, 0x20, 0x00, 0x00, 0x00, 0x3c, 0x00, 0x00, 0x00, 0x12, 0x00, 0x00, 0x00, 0x00, 0x00, 0x00, 0x09, 0x50, 0x00, 0x00, 0x00, 0x02, 0x00, 0x00, 0x00, 0xff, 0xff, 0xff, 0xff, 0x03, 0x00, 0x00, 0x00, 0x9c, 0xf3, 0xff, 0xff, 0x08, 0x00, 0x00, 0x00, 0x10, 0x00, 0x00, 0x00, 0x01, 0x00, 0x00, 0x00, 0x80, 0xff, 0xff, 0xff, 0xff, 0xff, 0xff, 0xff, 0x01, 0x00, 0x00, 0x00, 0x00, 0x00, 0x80, 0x3b, 0x1b, 0x00, 0x00, 0x00, 0x53, 0x74, 0x61, 0x74, 0x65, 0x66, 0x75, 0x6c, 0x50, 0x61, 0x72, 0x74, 0x69, 0x74, 0x69, 0x6f, 0x6e, 0x65, 0x64, 0x43, 0x61, 0x6c, 0x6c, 0x5f, 0x31, 0x3a, 0x30, 0x00, 0x02, 0x00, 0x00, 0x00, 0x01, 0x00, 0x00, 0x00, 0x03, 0x00, 0x00, 0x00, 0x32, 0xf4, 0xff, 0xff, 0x00, 0x00, 0x00, 0x01, 0x18, 0x00, 0x00, 0x00, 0x20, 0x00, 0x00, 0x00, 0x40, 0x00, 0x00, 0x00, 0x11, 0x00, 0x00, 0x00, 0x00, 0x00, 0x00, 0x09, 0x78, 0x00, 0x00, 0x00, 0x02, 0x00, 0x00, 0x00, 0xff, 0xff, 0xff, 0xff, 0x03, 0x00, 0x00, 0x00, 0x14, 0xf4, 0xff, 0xff, 0x08, 0x00, 0x00, 0x00, 0x14, 0x00, 0x00, 0x00, 0x01, 0x00, 0x00, 0x00, 0xda, 0xff, 0xff, 0xff, 0xff, 0xff, 0xff, 0xff, 0x00, 0x00, 0x00, 0x00, 0x01, 0x00, 0x00, 0x00, 0xe3, 0x88, 0x46, 0x3e, 0x3c, 0x00, 0x00, 0x00, 0x73, 0x65, 0x71, 0x75, 0x65, 0x6e, 0x74, 0x69, 0x61, 0x6c, 0x5f, 0x31, 0x2f, 0x64, 0x65, 0x6e, 0x73, 0x65, 0x5f, 0x31, 0x5f, 0x32, 0x2f, 0x4d, 0x61, 0x74, 0x4d, 0x75, 0x6c, 0x3b, 0x73, 0x65, 0x71, 0x75, 0x65, 0x6e, 0x74, 0x69, 0x61, 0x6c, 0x5f, 0x31, 0x2f, 0x64, 0x65, 0x6e, 0x73, 0x65, 0x5f, 0x31, 0x5f, 0x32, 0x2f, 0x42, 0x69, 0x61, 0x73, 0x41, 0x64, 0x64, 0x00, 0x00, 0x00, 0x00, 0x02, 0x00, 0x00, 0x00, 0x01, 0x00, 0x00, 0x00, 0x03, 0x00, 0x00, 0x00, 0xd2, 0xf4, 0xff, 0xff, 0x00, 0x00, 0x00, 0x01, 0x18, 0x00, 0x00, 0x00, 0x20, 0x00, 0x00, 0x00, 0x3c, 0x00, 0x00, 0x00, 0x10, 0x00, 0x00, 0x00, 0x00, 0x00, 0x00, 0x09, 0x88, 0x00, 0x00, 0x00, 0x02, 0x00, 0x00, 0x00, 0xff, 0xff, 0xff, 0xff, 0x10, 0x00, 0x00, 0x00, 0xb4, 0xf4, 0xff, 0xff, 0x08, 0x00, 0x00, 0x00, 0x10, 0x00, 0x00, 0x00, 0x01, 0x00, 0x00, 0x00, 0x80, 0xff, 0xff, 0xff, 0xff, 0xff, 0xff, 0xff, 0x01, 0x00, 0x00, 0x00, 0x3b, 0x22, 0x6f, 0x3e, 0x52, 0x00, 0x00, 0x00, 0x73, 0x65, 0x71, 0x75, 0x65, 0x6e, 0x74, 0x69, 0x61, 0x6c, 0x5f, 0x31, 0x2f, 0x64, 0x65, 0x6e, 0x73, 0x65, 0x5f, 0x31, 0x2f, 0x4d, 0x61, 0x74, 0x4d, 0x75, 0x6c, 0x3b, 0x73, 0x65, 0x71, 0x75, 0x65, 0x6e, 0x74, 0x69, 0x61, 0x6c, 0x5f, 0x31, 0x2f, 0x64, 0x65, 0x6e, 0x73, 0x65, 0x5f, 0x31, 0x2f, 0x52, 0x65, 0x6c, 0x75, 0x3b, 0x73, 0x65, 0x71, 0x75, 0x65, 0x6e, 0x74, 0x69, 0x61, 0x6c, 0x5f, 0x31, 0x2f, 0x64, 0x65, 0x6e, 0x73, 0x65, 0x5f, 0x31, 0x2f, 0x42, 0x69, 0x61, 0x73, 0x41, 0x64, 0x64, 0x00, 0x00, 0x02, 0x00, 0x00, 0x00, 0x01, 0x00, 0x00, 0x00, 0x10, 0x00, 0x00, 0x00, 0x82, 0xf5, 0xff, 0xff, 0x00, 0x00, 0x00, 0x01, 0x18, 0x00, 0x00, 0x00, 0x20, 0x00, 0x00, 0x00, 0x40, 0x00, 0x00, 0x00, 0x0f, 0x00, 0x00, 0x00, 0x00, 0x00, 0x00, 0x09, 0x58, 0x00, 0x00, 0x00, 0x02, 0x00, 0x00, 0x00, 0xff, 0xff, 0xff, 0xff, 0x80, 0x01, 0x00, 0x00, 0x64, 0xf5, 0xff, 0xff, 0x08, 0x00, 0x00, 0x00, 0x14, 0x00, 0x00, 0x00, 0x01, 0x00, 0x00, 0x00, 0x80, 0xff, 0xff, 0xff, 0xff, 0xff, 0xff, 0xff, 0x00, 0x00, 0x00, 0x00, 0x01, 0x00, 0x00, 0x00, 0xd5, 0x25, 0x8d, 0x3f, 0x1e, 0x00, 0x00, 0x00, 0x73, 0x65, 0x71, 0x75, 0x65, 0x6e, 0x74, 0x69, 0x61, 0x6c, 0x5f, 0x31, 0x2f, 0x66, 0x6c, 0x61, 0x74, 0x74, 0x65, 0x6e, 0x5f, 0x31, 0x2f, 0x52, 0x65, 0x73, 0x68, 0x61, 0x70, 0x65, 0x00, 0x00, 0x02, 0x00, 0x00, 0x00, 0x01, 0x00, 0x00, 0x00, 0x80, 0x01, 0x00, 0x00, 0x02, 0xf6, 0xff, 0xff, 0x00, 0x00, 0x00, 0x01, 0x18, 0x00, 0x00, 0x00, 0x28, 0x00, 0x00, 0x00, 0x44, 0x00, 0x00, 0x00, 0x0e, 0x00, 0x00, 0x00, 0x00, 0x00, 0x00, 0x09, 0x68, 0x00, 0x00, 0x00, 0x04, 0x00, 0x00, 0x00, 0xff, 0xff, 0xff, 0xff, 0x08, 0x00, 0x00, 0x00, 0x03, 0x00, 0x00, 0x00, 0x10, 0x00, 0x00, 0x00, 0xec, 0xf5, 0xff, 0xff, 0x08, 0x00, 0x00, 0x00, 0x10, 0x00, 0x00, 0x00, 0x01, 0x00, 0x00, 0x00, 0x80, 0xff, 0xff, 0xff, 0xff, 0xff, 0xff, 0xff, 0x01, 0x00, 0x00, 0x00, 0xd5, 0x25, 0x8d, 0x3f, 0x28, 0x00, 0x00, 0x00, 0x73, 0x65, 0x71, 0x75, 0x65, 0x6e, 0x74, 0x69, 0x61, 0x6c, 0x5f, 0x31, 0x2f, 0x6d, 0x61, 0x78, 0x5f, 0x70, 0x6f, 0x6f, 0x6c, 0x69, 0x6e, 0x67, 0x32, 0x64, 0x5f, 0x31, 0x5f, 0x32, 0x2f, 0x4d, 0x61, 0x78, 0x50, 0x6f, 0x6f, 0x6c, 0x32, 0x64, 0x00, 0x00, 0x00, 0x00, 0x04, 0x00, 0x00, 0x00, 0x01, 0x00, 0x00, 0x00, 0x08, 0x00, 0x00, 0x00, 0x03, 0x00, 0x00, 0x00, 0x10, 0x00, 0x00, 0x00, 0x9a, 0xf6, 0xff, 0xff, 0x00, 0x00, 0x00, 0x01, 0x18, 0x00, 0x00, 0x00, 0x28, 0x00, 0x00, 0x00, 0x44, 0x00, 0x00, 0x00, 0x0d, 0x00, 0x00, 0x00, 0x00, 0x00, 0x00, 0x09, 0xc0, 0x00, 0x00, 0x00, 0x04, 0x00, 0x00, 0x00, 0xff, 0xff, 0xff, 0xff, 0x10, 0x00, 0x00, 0x00, 0x06, 0x00, 0x00, 0x00, 0x10, 0x00, 0x00, 0x00, 0x84, 0xf6, 0xff, 0xff, 0x08, 0x00, 0x00, 0x00, 0x10, 0x00, 0x00, 0x00, 0x01, 0x00, 0x00, 0x00, 0x80, 0xff, 0xff, 0xff, 0xff, 0xff, 0xff, 0xff, 0x01, 0x00, 0x00, 0x00, 0xd5, 0x25, 0x8d, 0x3f, 0x80, 0x00, 0x00, 0x00, 0x73, 0x65, 0x71, 0x75, 0x65, 0x6e, 0x74, 0x69, 0x61, 0x6c, 0x5f, 0x31, 0x2f, 0x63, 0x6f, 0x6e, 0x76, 0x32, 0x64, 0x5f, 0x31, 0x5f, 0x32, 0x2f, 0x52, 0x65, 0x6c, 0x75, 0x3b, 0x73, 0x65, 0x71, 0x75, 0x65, 0x6e, 0x74, 0x69, 0x61, 0x6c, 0x5f, 0x31, 0x2f, 0x63, 0x6f, 0x6e, 0x76, 0x32, 0x64, 0x5f, 0x31, 0x5f, 0x32, 0x2f, 0x42, 0x69, 0x61, 0x73, 0x41, 0x64, 0x64, 0x3b, 0x73, 0x65, 0x71, 0x75, 0x65, 0x6e, 0x74, 0x69, 0x61, 0x6c, 0x5f, 0x31, 0x2f, 0x63, 0x6f, 0x6e, 0x76, 0x32, 0x64, 0x5f, 0x31, 0x5f, 0x32, 0x2f, 0x63, 0x6f, 0x6e, 0x76, 0x6f, 0x6c, 0x75, 0x74, 0x69, 0x6f, 0x6e, 0x3b, 0x73, 0x65, 0x71, 0x75, 0x65, 0x6e, 0x74, 0x69, 0x61, 0x6c, 0x5f, 0x31, 0x2f, 0x63, 0x6f, 0x6e, 0x76, 0x32, 0x64, 0x5f, 0x31, 0x5f, 0x32, 0x2f, 0x53, 0x71, 0x75, 0x65, 0x65, 0x7a, 0x65, 0x00, 0x00, 0x00, 0x00, 0x04, 0x00, 0x00, 0x00, 0x01, 0x00, 0x00, 0x00, 0x10, 0x00, 0x00, 0x00, 0x06, 0x00, 0x00, 0x00, 0x10, 0x00, 0x00, 0x00, 0x8a, 0xf7, 0xff, 0xff, 0x00, 0x00, 0x00, 0x01, 0x18, 0x00, 0x00, 0x00, 0x28, 0x00, 0x00, 0x00, 0x48, 0x00, 0x00, 0x00, 0x0c, 0x00, 0x00, 0x00, 0x00, 0x00, 0x00, 0x09, 0x68, 0x00, 0x00, 0x00, 0x04, 0x00, 0x00, 0x00, 0xff, 0xff, 0xff, 0xff, 0x10, 0x00, 0x00, 0x00, 0x06, 0x00, 0x00, 0x00, 0x08, 0x00, 0x00, 0x00, 0x74, 0xf7, 0xff, 0xff, 0x08, 0x00, 0x00, 0x00, 0x14, 0x00, 0x00, 0x00, 0x01, 0x00, 0x00, 0x00, 0x80, 0xff, 0xff, 0xff, 0xff, 0xff, 0xff, 0xff, 0x00, 0x00, 0x00, 0x00, 0x01, 0x00, 0x00, 0x00, 0x06, 0xc8, 0x05, 0x40, 0x26, 0x00, 0x00, 0x00, 0x73, 0x65, 0x71, 0x75, 0x65, 0x6e, 0x74, 0x69, 0x61, 0x6c, 0x5f, 0x31, 0x2f, 0x6d, 0x61, 0x78, 0x5f, 0x70, 0x6f, 0x6f, 0x6c, 0x69, 0x6e, 0x67, 0x32, 0x64, 0x5f, 0x31, 0x2f, 0x4d, 0x61, 0x78, 0x50, 0x6f, 0x6f, 0x6c, 0x32, 0x64, 0x00, 0x00, 0x04, 0x00, 0x00, 0x00, 0x01, 0x00, 0x00, 0x00, 0x10, 0x00, 0x00, 0x00, 0x06, 0x00, 0x00, 0x00, 0x08, 0x00, 0x00, 0x00, 0x22, 0xf8, 0xff, 0xff, 0x00, 0x00, 0x00, 0x01, 0x18, 0x00, 0x00, 0x00, 0x28, 0x00, 0x00, 0x00, 0x48, 0x00, 0x00, 0x00, 0x0b, 0x00, 0x00, 0x00, 0x00, 0x00, 0x00, 0x09, 0xa0, 0x00, 0x00, 0x00, 0x04, 0x00, 0x00, 0x00, 0xff, 0xff, 0xff, 0xff, 0x20, 0x00, 0x00, 0x00, 0x0d, 0x00, 0x00, 0x00, 0x08, 0x00, 0x00, 0x00, 0x0c, 0xf8, 0xff, 0xff, 0x08, 0x00, 0x00, 0x00, 0x14, 0x00, 0x00, 0x00, 0x01, 0x00, 0x00, 0x00, 0x80, 0xff, 0xff, 0xff, 0xff, 0xff, 0xff, 0xff, 0x00, 0x00, 0x00, 0x00, 0x01, 0x00, 0x00, 0x00, 0x06, 0xc8, 0x05, 0x40, 0x5c, 0x00, 0x00, 0x00, 0x73, 0x65, 0x71, 0x75, 0x65, 0x6e, 0x74, 0x69, 0x61, 0x6c, 0x5f, 0x31, 0x2f, 0x63, 0x6f, 0x6e, 0x76, 0x32, 0x64, 0x5f, 0x31, 0x2f, 0x52, 0x65, 0x6c, 0x75, 0x3b, 0x73, 0x65, 0x71, 0x75, 0x65, 0x6e, 0x74, 0x69, 0x61, 0x6c, 0x5f, 0x31, 0x2f, 0x63, 0x6f, 0x6e, 0x76, 0x32, 0x64, 0x5f, 0x31, 0x2f, 0x42, 0x69, 0x61, 0x73, 0x41, 0x64, 0x64, 0x3b, 0x73, 0x65, 0x71, 0x75, 0x65, 0x6e, 0x74, 0x69, 0x61, 0x6c, 0x5f, 0x31, 0x2f, 0x63, 0x6f, 0x6e, 0x76, 0x32, 0x64, 0x5f, 0x31, 0x2f, 0x63, 0x6f, 0x6e, 0x76, 0x6f, 0x6c, 0x75, 0x74, 0x69, 0x6f, 0x6e, 0x3b, 0x31, 0x00, 0x00, 0x00, 0x00, 0x04, 0x00, 0x00, 0x00, 0x01, 0x00, 0x00, 0x00, 0x20, 0x00, 0x00, 0x00, 0x0d, 0x00, 0x00, 0x00, 0x08, 0x00, 0x00, 0x00, 0x4a, 0xf9, 0xff, 0xff, 0x00, 0x00, 0x00, 0x01, 0x14, 0x00, 0x00, 0x00, 0x88, 0x00, 0x00, 0x00, 0x0a, 0x00, 0x00, 0x00, 0x00, 0x00, 0x00, 0x09, 0x94, 0x00, 0x00, 0x00, 0xc4, 0xf8, 0xff, 0xff, 0x08, 0x00, 0x00, 0x00, 0x4c, 0x00, 0x00, 0x00, 0x08, 0x00, 0x00, 0x00, 0x00, 0x00, 0x00, 0x00, 0x00, 0x00, 0x00, 0x00, 0x00, 0x00, 0x00, 0x00, 0x00, 0x00, 0x00, 0x00, 0x00, 0x00, 0x00, 0x00, 0x00, 0x00, 0x00, 0x00, 0x00, 0x00, 0x00, 0x00, 0x00, 0x00, 0x00, 0x00, 0x00, 0x00, 0x00, 0x00, 0x00, 0x00, 0x00, 0x00, 0x00, 0x00, 0x00, 0x00, 0x00, 0x00, 0x00, 0x00, 0x00, 0x00, 0x00, 0x00, 0x00, 0x00, 0x00, 0x00, 0x00, 0x00, 0x00, 0x00, 0x00, 0x00, 0x00, 0x00, 0x00, 0x00, 0x00, 0x00, 0x08, 0x00, 0x00, 0x00, 0xa7, 0xc2, 0x0c, 0x3b, 0x26, 0x65, 0x07, 0x3b, 0x09, 0xf7, 0x0f, 0x3b, 0x60, 0xa9, 0x0d, 0x3b, 0x07, 0xd6, 0x08, 0x3b, 0xe8, 0xa9, 0x13, 0x3b, 0xf2, 0xc5, 0xf9, 0x3a, 0x2e, 0x4c, 0xdf, 0x3a, 0x12, 0x00, 0x00, 0x00, 0x74, 0x66, 0x6c, 0x2e, 0x70, 0x73, 0x65, 0x75, 0x64, 0x6f, 0x5f, 0x71, 0x63, 0x6f, 0x6e, 0x73, 0x74, 0x37, 0x00, 0x00, 0x04, 0x00, 0x00, 0x00, 0x08, 0x00, 0x00, 0x00, 0x03, 0x00, 0x00, 0x00, 0x03, 0x00, 0x00, 0x00, 0x01, 0x00, 0x00, 0x00, 0x0a, 0xfa, 0xff, 0xff, 0x00, 0x00, 0x00, 0x01, 0x14, 0x00, 0x00, 0x00, 0x84, 0x00, 0x00, 0x00, 0x09, 0x00, 0x00, 0x00, 0x00, 0x00, 0x00, 0x02, 0x90, 0x00, 0x00, 0x00, 0x84, 0xf9, 0xff, 0xff, 0x08, 0x00, 0x00, 0x00, 0x48, 0x00, 0x00, 0x00, 0x08, 0x00, 0x00, 0x00, 0x00, 0x00, 0x00, 0x00, 0x00, 0x00, 0x00, 0x00, 0x00, 0x00, 0x00, 0x00, 0x00, 0x00, 0x00, 0x00, 0x00, 0x00, 0x00, 0x00, 0x00, 0x00, 0x00, 0x00, 0x00, 0x00, 0x00, 0x00, 0x00, 0x00, 0x00, 0x00, 0x00, 0x00, 0x00, 0x00, 0x00, 0x00, 0x00, 0x00, 0x00, 0x00, 0x00, 0x00, 0x00, 0x00, 0x00, 0x00, 0x00, 0x00, 0x00, 0x00, 0x00, 0x00, 0x00, 0x00, 0x00, 0x00, 0x00, 0x00, 0x00, 0x00, 0x00, 0x00, 0x08, 0x00, 0x00, 0x00, 0xbb, 0xa1, 0x0a, 0x3c, 0x00, 0x59, 0x05, 0x3c, 0xb6, 0xc9, 0x0d, 0x3c, 0xf7, 0x84, 0x0b, 0x3c, 0x4d, 0xc4, 0x06, 0x3c, 0x43, 0x6e, 0x11, 0x3c, 0x02, 0xff, 0xf5, 0x3b, 0xbd, 0xeb, 0xdb, 0x3b, 0x12, 0x00, 0x00, 0x00, 0x74, 0x66, 0x6c, 0x2e, 0x70, 0x73, 0x65, 0x75, 0x64, 0x6f, 0x5f, 0x71, 0x63, 0x6f, 0x6e, 0x73, 0x74, 0x36, 0x00, 0x00, 0x01, 0x00, 0x00, 0x00, 0x08, 0x00, 0x00, 0x00, 0xba, 0xfa, 0xff, 0xff, 0x00, 0x00, 0x00, 0x01, 0x14, 0x00, 0x00, 0x00, 0xe8, 0x00, 0x00, 0x00, 0x08, 0x00, 0x00, 0x00, 0x00, 0x00, 0x00, 0x09, 0xf4, 0x00, 0x00, 0x00, 0x34, 0xfa, 0xff, 0xff, 0x08, 0x00, 0x00, 0x00, 0x8c, 0x00, 0x00, 0x00, 0x10, 0x00, 0x00, 0x00, 0x00, 0x00, 0x00, 0x00, 0x00, 0x00, 0x00, 0x00, 0x00, 0x00, 0x00, 0x00, 0x00, 0x00, 0x00, 0x00, 0x00, 0x00, 0x00, 0x00, 0x00, 0x00, 0x00, 0x00, 0x00, 0x00, 0x00, 0x00, 0x00, 0x00, 0x00, 0x00, 0x00, 0x00, 0x00, 0x00, 0x00, 0x00, 0x00, 0x00, 0x00, 0x00, 0x00, 0x00, 0x00, 0x00, 0x00, 0x00, 0x00, 0x00, 0x00, 0x00, 0x00, 0x00, 0x00, 0x00, 0x00, 0x00, 0x00, 0x00, 0x00, 0x00, 0x00, 0x00, 0x00, 0x00, 0x00, 0x00, 0x00, 0x00, 0x00, 0x00, 0x00, 0x00, 0x00, 0x00, 0x00, 0x00, 0x00, 0x00, 0x00, 0x00, 0x00, 0x00, 0x00, 0x00, 0x00, 0x00, 0x00, 0x00, 0x00, 0x00, 0x00, 0x00, 0x00, 0x00, 0x00, 0x00, 0x00, 0x00, 0x00, 0x00, 0x00, 0x00, 0x00, 0x00, 0x00, 0x00, 0x00, 0x00, 0x00, 0x00, 0x00, 0x00, 0x00, 0x00, 0x00, 0x00, 0x00, 0x00, 0x00, 0x00, 0x00, 0x00, 0x00, 0x00, 0x00, 0x00, 0x00, 0x00, 0x00, 0x00, 0x10, 0x00, 0x00, 0x00, 0xce, 0x18, 0xb8, 0x3a, 0xc7, 0x6b, 0xb9, 0x3a, 0xf4, 0x00, 0xc5, 0x3a, 0xc8, 0xc2, 0xba, 0x3a, 0x97, 0x57, 0xb5, 0x3a, 0xe5, 0x34, 0xa9, 0x3a, 0xb4, 0x22, 0xc0, 0x3a, 0xee, 0x9b, 0xb4, 0x3a, 0x08, 0x23, 0xda, 0x3a, 0xda, 0x63, 0xb8, 0x3a, 0x8d, 0x5c, 0xbe, 0x3a, 0x9d, 0x88, 0xc5, 0x3a, 0xc6, 0xb6, 0xbd, 0x3a, 0x9a, 0x10, 0xb5, 0x3a, 0x10, 0x55, 0xb3, 0x3a, 0xf4, 0x58, 0xbb, 0x3a, 0x12, 0x00, 0x00, 0x00, 0x74, 0x66, 0x6c, 0x2e, 0x70, 0x73, 0x65, 0x75, 0x64, 0x6f, 0x5f, 0x71, 0x63, 0x6f, 0x6e, 0x73, 0x74, 0x35, 0x00, 0x00, 0x04, 0x00, 0x00, 0x00, 0x10, 0x00, 0x00, 0x00, 0x03, 0x00, 0x00, 0x00, 0x03, 0x00, 0x00, 0x00, 0x08, 0x00, 0x00, 0x00, 0xda, 0xfb, 0xff, 0xff, 0x00, 0x00, 0x00, 0x01, 0x14, 0x00, 0x00, 0x00, 0xe4, 0x00, 0x00, 0x00, 0x07, 0x00, 0x00, 0x00, 0x00, 0x00, 0x00, 0x02, 0xf0, 0x00, 0x00, 0x00, 0x54, 0xfb, 0xff, 0xff, 0x08, 0x00, 0x00, 0x00, 0x88, 0x00, 0x00, 0x00, 0x10, 0x00, 0x00, 0x00, 0x00, 0x00, 0x00, 0x00, 0x00, 0x00, 0x00, 0x00, 0x00, 0x00, 0x00, 0x00, 0x00, 0x00, 0x00, 0x00, 0x00, 0x00, 0x00, 0x00, 0x00, 0x00, 0x00, 0x00, 0x00, 0x00, 0x00, 0x00, 0x00, 0x00, 0x00, 0x00, 0x00, 0x00, 0x00, 0x00, 0x00, 0x00, 0x00, 0x00, 0x00, 0x00, 0x00, 0x00, 0x00, 0x00, 0x00, 0x00, 0x00, 0x00, 0x00, 0x00, 0x00, 0x00, 0x00, 0x00, 0x00, 0x00, 0x00, 0x00, 0x00, 0x00, 0x00, 0x00, 0x00, 0x00, 0x00, 0x00, 0x00, 0x00, 0x00, 0x00, 0x00, 0x00, 0x00, 0x00, 0x00, 0x00, 0x00, 0x00, 0x00, 0x00, 0x00, 0x00, 0x00, 0x00, 0x00, 0x00, 0x00, 0x00, 0x00, 0x00, 0x00, 0x00, 0x00, 0x00, 0x00, 0x00, 0x00, 0x00, 0x00, 0x00, 0x00, 0x00, 0x00, 0x00, 0x00, 0x00, 0x00, 0x00, 0x00, 0x00, 0x00, 0x00, 0x00, 0x00, 0x00, 0x00, 0x00, 0x00, 0x00, 0x00, 0x00, 0x00, 0x00, 0x00, 0x00, 0x00, 0x10, 0x00, 0x00, 0x00, 0x75, 0x69, 0x40, 0x3b, 0xbe, 0xcb, 0x41, 0x3b, 0xd8, 0xe6, 0x4d, 0x3b, 0x3d, 0x32, 0x43, 0x3b, 0x64, 0x88, 0x3d, 0x3b, 0x61, 0xd9, 0x30, 0x3b, 0x4e, 0xd0, 0x48, 0x3b, 0x41, 0xc4, 0x3c, 0x3b, 0x47, 0xfd, 0x63, 0x3b, 0xe5, 0xb7, 0x40, 0x3b, 0xa4, 0xf5, 0x46, 0x3b, 0xa2, 0x74, 0x4e, 0x3b, 0x60, 0x48, 0x46, 0x3b, 0x32, 0x3e, 0x3d, 0x3b, 0xa0, 0x6e, 0x3b, 0x3b, 0x31, 0xcf, 0x43, 0x3b, 0x12, 0x00, 0x00, 0x00, 0x74, 0x66, 0x6c, 0x2e, 0x70, 0x73, 0x65, 0x75, 0x64, 0x6f, 0x5f, 0x71, 0x63, 0x6f, 0x6e, 0x73, 0x74, 0x34, 0x00, 0x00, 0x01, 0x00, 0x00, 0x00, 0x10, 0x00, 0x00, 0x00, 0xea, 0xfc, 0xff, 0xff, 0x00, 0x00, 0x00, 0x01, 0x14, 0x00, 0x00, 0x00, 0xe8, 0x00, 0x00, 0x00, 0x06, 0x00, 0x00, 0x00, 0x00, 0x00, 0x00, 0x09, 0xf4, 0x00, 0x00, 0x00, 0x64, 0xfc, 0xff, 0xff, 0x08, 0x00, 0x00, 0x00, 0x8c, 0x00, 0x00, 0x00, 0x10, 0x00, 0x00, 0x00, 0x00, 0x00, 0x00, 0x00, 0x00, 0x00, 0x00, 0x00, 0x00, 0x00, 0x00, 0x00, 0x00, 0x00, 0x00, 0x00, 0x00, 0x00, 0x00, 0x00, 0x00, 0x00, 0x00, 0x00, 0x00, 0x00, 0x00, 0x00, 0x00, 0x00, 0x00, 0x00, 0x00, 0x00, 0x00, 0x00, 0x00, 0x00, 0x00, 0x00, 0x00, 0x00, 0x00, 0x00, 0x00, 0x00, 0x00, 0x00, 0x00, 0x00, 0x00, 0x00, 0x00, 0x00, 0x00, 0x00, 0x00, 0x00, 0x00, 0x00, 0x00, 0x00, 0x00, 0x00, 0x00, 0x00, 0x00, 0x00, 0x00, 0x00, 0x00, 0x00, 0x00, 0x00, 0x00, 0x00, 0x00, 0x00, 0x00, 0x00, 0x00, 0x00, 0x00, 0x00, 0x00, 0x00, 0x00, 0x00, 0x00, 0x00, 0x00, 0x00, 0x00, 0x00, 0x00, 0x00, 0x00, 0x00, 0x00, 0x00, 0x00, 0x00, 0x00, 0x00, 0x00, 0x00, 0x00, 0x00, 0x00, 0x00, 0x00, 0x00, 0x00, 0x00, 0x00, 0x00, 0x00, 0x00, 0x00, 0x00, 0x00, 0x00, 0x00, 0x00, 0x00, 0x00, 0x00, 0x00, 0x00, 0x00, 0x00, 0x00, 0x10, 0x00, 0x00, 0x00, 0xbe, 0x30, 0x7c, 0x3a, 0xc6, 0x8f, 0x7c, 0x3a, 0xed, 0x95, 0x84, 0x3a, 0xdd, 0x7d, 0x86, 0x3a, 0x98, 0x04, 0x7c, 0x3a, 0x86, 0x18, 0x88, 0x3a, 0xed, 0x10, 0xfb, 0x3a, 0x58, 0xb3, 0x86, 0x3a, 0x69, 0x78, 0xab, 0x3a, 0xd2, 0xb5, 0x87, 0x3a, 0xbe, 0x86, 0x7c, 0x3a, 0x2b, 0xdc, 0x7b, 0x3a, 0x87, 0xbf, 0x7c, 0x3a, 0xad, 0xd2, 0x8a, 0x3a, 0xd4, 0xe8, 0x99, 0x3a, 0xaa, 0x84, 0x7b, 0x3a, 0x12, 0x00, 0x00, 0x00, 0x74, 0x66, 0x6c, 0x2e, 0x70, 0x73, 0x65, 0x75, 0x64, 0x6f, 0x5f, 0x71, 0x63, 0x6f, 0x6e, 0x73, 0x74, 0x33, 0x00, 0x00, 0x02, 0x00, 0x00, 0x00, 0x10, 0x00, 0x00, 0x00, 0x80, 0x01, 0x00, 0x00, 0x02, 0xfe, 0xff, 0xff, 0x00, 0x00, 0x00, 0x01, 0x14, 0x00, 0x00, 0x00, 0xe4, 0x00, 0x00, 0x00, 0x05, 0x00, 0x00, 0x00, 0x00, 0x00, 0x00, 0x02, 0xf0, 0x00, 0x00, 0x00, 0x7c, 0xfd, 0xff, 0xff, 0x08, 0x00, 0x00, 0x00, 0x88, 0x00, 0x00, 0x00, 0x10, 0x00, 0x00, 0x00, 0x00, 0x00, 0x00, 0x00, 0x00, 0x00, 0x00, 0x00, 0x00, 0x00, 0x00, 0x00, 0x00, 0x00, 0x00, 0x00, 0x00, 0x00, 0x00, 0x00, 0x00, 0x00, 0x00, 0x00, 0x00, 0x00, 0x00, 0x00, 0x00, 0x00, 0x00, 0x00, 0x00, 0x00, 0x00, 0x00, 0x00, 0x00, 0x00, 0x00, 0x00, 0x00, 0x00, 0x00, 0x00, 0x00, 0x00, 0x00, 0x00, 0x00, 0x00, 0x00, 0x00, 0x00, 0x00, 0x00, 0x00, 0x00, 0x00, 0x00, 0x00, 0x00, 0x00, 0x00, 0x00, 0x00, 0x00, 0x00, 0x00, 0x00, 0x00, 0x00, 0x00, 0x00, 0x00, 0x00, 0x00, 0x00, 0x00, 0x00, 0x00, 0x00, 0x00, 0x00, 0x00, 0x00, 0x00, 0x00, 0x00, 0x00, 0x00, 0x00, 0x00, 0x00, 0x00, 0x00, 0x00, 0x00, 0x00, 0x00, 0x00, 0x00, 0x00, 0x00, 0x00, 0x00, 0x00, 0x00, 0x00, 0x00, 0x00, 0x00, 0x00, 0x00, 0x00, 0x00, 0x00, 0x00, 0x00, 0x00, 0x00, 0x00, 0x00, 0x00, 0x00, 0x00, 0x00, 0x00, 0x10, 0x00, 0x00, 0x00, 0x1e, 0x0c, 0x8b, 0x3a, 0x83, 0x40, 0x8b, 0x3a, 0x57, 0x34, 0x92, 0x3a, 0x66, 0x4e, 0x94, 0x3a, 0xc6, 0xf3, 0x8a, 0x3a, 0x3d, 0x13, 0x96, 0x3a, 0x6d, 0x6d, 0x0a, 0x3b, 0x5f, 0x89, 0x94, 0x3a, 0x52, 0x15, 0xbd, 0x3a, 0x66, 0xa6, 0x95, 0x3a, 0x88, 0x3b, 0x8b, 0x3a, 0x7c, 0xdd, 0x8a, 0x3a, 0xd7, 0x5a, 0x8b, 0x3a, 0x1a, 0x15, 0x99, 0x3a, 0xf7, 0xb7, 0xa9, 0x3a, 0x3d, 0xad, 0x8a, 0x3a, 0x12, 0x00, 0x00, 0x00, 0x74, 0x66, 0x6c, 0x2e, 0x70, 0x73, 0x65, 0x75, 0x64, 0x6f, 0x5f, 0x71, 0x63, 0x6f, 0x6e, 0x73, 0x74, 0x32, 0x00, 0x00, 0x01, 0x00, 0x00, 0x00, 0x10, 0x00, 0x00, 0x00, 0x12, 0xff, 0xff, 0xff, 0x00, 0x00, 0x00, 0x01, 0x14, 0x00, 0x00, 0x00, 0x48, 0x00, 0x00, 0x00, 0x04, 0x00, 0x00, 0x00, 0x00, 0x00, 0x00, 0x09, 0x54, 0x00, 0x00, 0x00, 0x8c, 0xfe, 0xff, 0xff, 0x08, 0x00, 0x00, 0x00, 0x20, 0x00, 0x00, 0x00, 0x03, 0x00, 0x00, 0x00, 0x00, 0x00, 0x00, 0x00, 0x00, 0x00, 0x00, 0x00, 0x00, 0x00, 0x00, 0x00, 0x00, 0x00, 0x00, 0x00, 0x00, 0x00, 0x00, 0x00, 0x00, 0x00, 0x00, 0x00, 0x03, 0x00, 0x00, 0x00, 0xe4, 0xc9, 0x8a, 0x3b, 0x2e, 0x2b, 0x8f, 0x3b, 0x93, 0xc1, 0x92, 0x3b, 0x12, 0x00, 0x00, 0x00, 0x74, 0x66, 0x6c, 0x2e, 0x70, 0x73, 0x65, 0x75, 0x64, 0x6f, 0x5f, 0x71, 0x63, 0x6f, 0x6e, 0x73, 0x74, 0x31, 0x00, 0x00, 0x02, 0x00, 0x00, 0x00, 0x03, 0x00, 0x00, 0x00, 0x10, 0x00, 0x00, 0x00, 0x8a, 0xff, 0xff, 0xff, 0x00, 0x00, 0x00, 0x01, 0x14, 0x00, 0x00, 0x00, 0x48, 0x00, 0x00, 0x00, 0x03, 0x00, 0x00, 0x00, 0x00, 0x00, 0x00, 0x02, 0x54, 0x00, 0x00, 0x00, 0x04, 0xff, 0xff, 0xff, 0x08, 0x00, 0x00, 0x00, 0x20, 0x00, 0x00, 0x00, 0x03, 0x00, 0x00, 0x00, 0x00, 0x00, 0x00, 0x00, 0x00, 0x00, 0x00, 0x00, 0x00, 0x00, 0x00, 0x00, 0x00, 0x00, 0x00, 0x00, 0x00, 0x00, 0x00, 0x00, 0x00, 0x00, 0x00, 0x00, 0x03, 0x00, 0x00, 0x00, 0x0b, 0xa5, 0x81, 0x3a, 0x75, 0xbc, 0x85, 0x3a, 0x58, 0x16, 0x89, 0x3a, 0x11, 0x00, 0x00, 0x00, 0x74, 0x66, 0x6c, 0x2e, 0x70, 0x73, 0x65, 0x75, 0x64, 0x6f, 0x5f, 0x71, 0x63, 0x6f, 0x6e, 0x73, 0x74, 0x00, 0x00, 0x00, 0x01, 0x00, 0x00, 0x00, 0x03, 0x00, 0x00, 0x00, 0x00, 0x00, 0x16, 0x00, 0x1c, 0x00, 0x18, 0x00, 0x17, 0x00, 0x10, 0x00, 0x0c, 0x00, 0x08, 0x00, 0x00, 0x00, 0x00, 0x00, 0x00, 0x00, 0x07, 0x00, 0x16, 0x00, 0x00, 0x00, 0x00, 0x00, 0x00, 0x01, 0x18, 0x00, 0x00, 0x00, 0x18, 0x00, 0x00, 0x00, 0x02, 0x00, 0x00, 0x00, 0x00, 0x00, 0x00, 0x02, 0x20, 0x00, 0x00, 0x00, 0x04, 0x00, 0x04, 0x00, 0x04, 0x00, 0x00, 0x00, 0x0e, 0x00, 0x00, 0x00, 0x61, 0x72, 0x69, 0x74, 0x68, 0x2e, 0x63, 0x6f, 0x6e, 0x73, 0x74, 0x61, 0x6e, 0x74, 0x00, 0x00, 0x01, 0x00, 0x00, 0x00, 0x02, 0x00, 0x00, 0x00, 0x00, 0x00, 0x16, 0x00, 0x20, 0x00, 0x1c, 0x00, 0x1b, 0x00, 0x14, 0x00, 0x10, 0x00, 0x0c, 0x00, 0x00, 0x00, 0x00, 0x00, 0x08, 0x00, 0x07, 0x00, 0x16, 0x00, 0x00, 0x00, 0x00, 0x00, 0x00, 0x01, 0x18, 0x00, 0x00, 0x00, 0x34, 0x00, 0x00, 0x00, 0x54, 0x00, 0x00, 0x00, 0x01, 0x00, 0x00, 0x00, 0x00, 0x00, 0x00, 0x09, 0x6c, 0x00, 0x00, 0x00, 0x04, 0x00, 0x00, 0x00, 0xff, 0xff, 0xff, 0xff, 0x20, 0x00, 0x00, 0x00, 0x0d, 0x00, 0x00, 0x00, 0x01, 0x00, 0x00, 0x00, 0x0c, 0x00, 0x0c, 0x00, 0x00, 0x00, 0x00, 0x00, 0x08, 0x00, 0x04, 0x00, 0x0c, 0x00, 0x00, 0x00, 0x08, 0x00, 0x00, 0x00, 0x14, 0x00, 0x00, 0x00, 0x01, 0x00, 0x00, 0x00, 0x53, 0x00, 0x00, 0x00, 0x00, 0x00, 0x00, 0x00, 0x00, 0x00, 0x00, 0x00, 0x01, 0x00, 0x00, 0x00, 0xf5, 0x20, 0x7c, 0x40, 0x1e, 0x00, 0x00, 0x00, 0x73, 0x65, 0x72, 0x76, 0x69, 0x6e, 0x67, 0x5f, 0x64, 0x65, 0x66, 0x61, 0x75, 0x6c, 0x74, 0x5f, 0x6b, 0x65, 0x72, 0x61, 0x73, 0x5f, 0x74, 0x65, 0x6e, 0x73, 0x6f, 0x72, 0x3a, 0x30, 0x00, 0x00, 0x04, 0x00, 0x00, 0x00, 0x01, 0x00, 0x00, 0x00, 0x20, 0x00, 0x00, 0x00, 0x0d, 0x00, 0x00, 0x00, 0x01, 0x00, 0x00, 0x00, 0x05, 0x00, 0x00, 0x00, 0x68, 0x00, 0x00, 0x00, 0x48, 0x00, 0x00, 0x00, 0x38, 0x00, 0x00, 0x00, 0x18, 0x00, 0x00, 0x00, 0x04, 0x00, 0x00, 0x00, 0xb8, 0xff, 0xff, 0xff, 0x19, 0x00, 0x00, 0x00, 0x02, 0x00, 0x00, 0x00, 0x00, 0x00, 0x00, 0x19, 0xc8, 0xff, 0xff, 0xff, 0x09, 0x00, 0x00, 0x00, 0x04, 0x00, 0x00, 0x00, 0x00, 0x00, 0x00, 0x09, 0x0c, 0x00, 0x0c, 0x00, 0x0b, 0x00, 0x00, 0x00, 0x00, 0x00, 0x04, 0x00, 0x0c, 0x00, 0x00, 0x00, 0x16, 0x00, 0x00, 0x00, 0x00, 0x00, 0x00, 0x16, 0xf0, 0xff, 0xff, 0xff, 0x11, 0x00, 0x00, 0x00, 0x02, 0x00, 0x00, 0x00, 0x00, 0x00, 0x00, 0x11, 0x0c, 0x00, 0x10, 0x00, 0x0f, 0x00, 0x00, 0x00, 0x08, 0x00, 0x04, 0x00, 0x0c, 0x00, 0x00, 0x00, 0x03, 0x00, 0x00, 0x00, 0x03, 0x00, 0x00, 0x00, 0x00, 0x00, 0x00, 0x03
};
const unsigned int audio_model_len = 12488;
