// Auto-generated by pipeline
#include <stdint.h>

const unsigned char audio_model[] = {
0x1c, 0x00, 0x00, 0x00, 0x54, 0x46, 0x4c, 0x33, 0x14, 0x00, 0x20, 0x00, 0x1c, 0x00, 0x18, 0x00, 0x14, 0x00, 0x10, 0x00, 0x0c, 0x00, 0x00, 0x00, 0x08, 0x00, 0x04, 0x00, 0x14, 0x00, 0x00, 0x00, 0x1c, 0x00, 0x00, 0x00, 0x8c, 0x00, 0x00, 0x00, 0x0c, 0x01, 0x00, 0x00, 0x48, 0x20, 0x00, 0x00, 0x58, 0x20, 0x00, 0x00, 0x18, 0x30, 0x00, 0x00, 0x03, 0x00, 0x00, 0x00, 0x01, 0x00, 0x00, 0x00, 0x04, 0x00, 0x00, 0x00, 0xae, 0xde, 0xff, 0xff, 0x0c, 0x00, 0x00, 0x00, 0x1c, 0x00, 0x00, 0x00, 0x3c, 0x00, 0x00, 0x00, 0x0f, 0x00, 0x00, 0x00, 0x73, 0x65, 0x72, 0x76, 0x69, 0x6e, 0x67, 0x5f, 0x64, 0x65, 0x66, 0x61, 0x75, 0x6c, 0x74, 0x00, 0x01, 0x00, 0x00, 0x00, 0x04, 0x00, 0x00, 0x00, 0x68, 0xff, 0xff, 0xff, 0x11, 0x00, 0x00, 0x00, 0x04, 0x00, 0x00, 0x00, 0x08, 0x00, 0x00, 0x00, 0x6f, 0x75, 0x74, 0x70, 0x75, 0x74, 0x5f, 0x30, 0x00, 0x00, 0x00, 0x00, 0x01, 0x00, 0x00, 0x00, 0x04, 0x00, 0x00, 0x00, 0x92, 0xdf, 0xff, 0xff, 0x04, 0x00, 0x00, 0x00, 0x0c, 0x00, 0x00, 0x00, 0x6b, 0x65, 0x72, 0x61, 0x73, 0x5f, 0x74, 0x65, 0x6e, 0x73, 0x6f, 0x72, 0x00, 0x00, 0x00, 0x00, 0x03, 0x00, 0x00, 0x00, 0x5c, 0x00, 0x00, 0x00, 0x2c, 0x00, 0x00, 0x00, 0x04, 0x00, 0x00, 0x00, 0xb8, 0xff, 0xff, 0xff, 0x15, 0x00, 0x00, 0x00, 0x04, 0x00, 0x00, 0x00, 0x13, 0x00, 0x00, 0x00, 0x43, 0x4f, 0x4e, 0x56, 0x45, 0x52, 0x53, 0x49, 0x4f, 0x4e, 0x5f, 0x4d, 0x45, 0x54, 0x41, 0x44, 0x41, 0x54, 0x41, 0x00, 0xdc, 0xff, 0xff, 0xff, 0x14, 0x00, 0x00, 0x00, 0x04, 0x00, 0x00, 0x00, 0x13, 0x00, 0x00, 0x00, 0x6d, 0x69, 0x6e, 0x5f, 0x72, 0x75, 0x6e, 0x74, 0x69, 0x6d, 0x65, 0x5f, 0x76, 0x65, 0x72, 0x73, 0x69, 0x6f, 0x6e, 0x00, 0x08, 0x00, 0x0c, 0x00, 0x08, 0x00, 0x04, 0x00, 0x08, 0x00, 0x00, 0x00, 0x13, 0x00, 0x00, 0x00, 0x04, 0x00, 0x00, 0x00, 0x13, 0x00, 0x00, 0x00, 0x6d, 0x69, 0x6e, 0x5f, 0x72, 0x75, 0x6e, 0x74, 0x69, 0x6d, 0x65, 0x5f, 0x76, 0x65, 0x72, 0x73, 0x69, 0x6f, 0x6e, 0x00, 0x16, 0x00, 0x00, 0x00, 0x38, 0x1f, 0x00, 0x00, 0x30, 0x1f, 0x00, 0x00, 0x18, 0x1f, 0x00, 0x00, 0xfc, 0x1e, 0x00, 0x00, 0xbc, 0x1e, 0x00, 0x00, 0x6c, 0x1e, 0x00, 0x00, 0x5c, 0x06, 0x00, 0x00, 0x0c, 0x06, 0x00, 0x00, 0x7c, 0x01, 0x00, 0x00, 0x4c, 0x01, 0x00, 0x00, 0xf4, 0x00, 0x00, 0x00, 0xec, 0x00, 0x00, 0x00, 0xe4, 0x00, 0x00, 0x00, 0xdc, 0x00, 0x00, 0x00, 0xd4, 0x00, 0x00, 0x00, 0xcc, 0x00, 0x00, 0x00, 0xc4, 0x00, 0x00, 0x00, 0xbc, 0x00, 0x00, 0x00, 0xb4, 0x00, 0x00, 0x00, 0x94, 0x00, 0x00, 0x00, 0x74, 0x00, 0x00, 0x00, 0x04, 0x00, 0x00, 0x00, 0x8e, 0xe0, 0xff, 0xff, 0x04, 0x00, 0x00, 0x00, 0x60, 0x00, 0x00, 0x00, 0x0c, 0x00, 0x00, 0x00, 0x08, 0x00, 0x0e, 0x00, 0x08, 0x00, 0x04, 0x00, 0x08, 0x00, 0x00, 0x00, 0x10, 0x00, 0x00, 0x00, 0x28, 0x00, 0x00, 0x00, 0x00, 0x00, 0x06, 0x00, 0x08, 0x00, 0x04, 0x00, 0x06, 0x00, 0x00, 0x00, 0x04, 0x00, 0x00, 0x00, 0x01, 0x00, 0x00, 0x00, 0xeb, 0x03, 0x00, 0x00, 0x0c, 0x00, 0x18, 0x00, 0x14, 0x00, 0x10, 0x00, 0x0c, 0x00, 0x04, 0x00, 0x0c, 0x00, 0x00, 0x00, 0xbb, 0x46, 0x89, 0xff, 0xc6, 0x44, 0x1d, 0x13, 0x02, 0x00, 0x00, 0x00, 0x02, 0x00, 0x00, 0x00, 0x04, 0x00, 0x00, 0x00, 0x06, 0x00, 0x00, 0x00, 0x32, 0x2e, 0x31, 0x39, 0x2e, 0x30, 0x00, 0x00, 0xfa, 0xe0, 0xff, 0xff, 0x04, 0x00, 0x00, 0x00, 0x10, 0x00, 0x00, 0x00, 0x00, 0x00, 0x00, 0x00, 0x00, 0x00, 0x00, 0x00, 0x00, 0x00, 0x00, 0x00, 0x00, 0x00, 0x00, 0x00, 0x16, 0xe1, 0xff, 0xff, 0x04, 0x00, 0x00, 0x00, 0x10, 0x00, 0x00, 0x00, 0x31, 0x2e, 0x31, 0x34, 0x2e, 0x30, 0x00, 0x00, 0x00, 0x00, 0x00, 0x00, 0x00, 0x00, 0x00, 0x00, 0xc0, 0xd2, 0xff, 0xff, 0xc4, 0xd2, 0xff, 0xff, 0xc8, 0xd2, 0xff, 0xff, 0xcc, 0xd2, 0xff, 0xff, 0xd0, 0xd2, 0xff, 0xff, 0xd4, 0xd2, 0xff, 0xff, 0xd8, 0xd2, 0xff, 0xff, 0xdc, 0xd2, 0xff, 0xff, 0x52, 0xe1, 0xff, 0xff, 0x04, 0x00, 0x00, 0x00, 0x48, 0x00, 0x00, 0x00, 0x1b, 0x9a, 0x0a, 0x93, 0x07, 0x81, 0xf5, 0x9d, 0x93, 0x7f, 0x9a, 0x7e, 0xe0, 0x2e, 0xe4, 0x5e, 0x89, 0xbe, 0x7c, 0x0c, 0x1c, 0x81, 0xf0, 0xb5, 0xff, 0x11, 0x04, 0x0c, 0xf2, 0x16, 0xea, 0x65, 0x7f, 0xf5, 0x57, 0x96, 0x7f, 0x22, 0xdb, 0xba, 0x12, 0x46, 0x52, 0xaf, 0x4f, 0x77, 0xf5, 0x75, 0xa3, 0xb1, 0x81, 0x36, 0x2b, 0x4b, 0x81, 0xbb, 0x01, 0xb2, 0x57, 0x71, 0xeb, 0xe7, 0xe3, 0xc1, 0x7f, 0x48, 0x75, 0x6f, 0xa0, 0xcc, 0x7b, 0xcf, 0xa6, 0xe1, 0xff, 0xff, 0x04, 0x00, 0x00, 0x00, 0x20, 0x00, 0x00, 0x00, 0x00, 0x00, 0x00, 0x00, 0x01, 0x00, 0x00, 0x00, 0xff, 0xff, 0xff, 0xff, 0xfe, 0xff, 0xff, 0xff, 0x00, 0x00, 0x00, 0x00, 0x00, 0x00, 0x00, 0x00, 0x00, 0x00, 0x00, 0x00, 0x00, 0x00, 0x00, 0x00, 0xd2, 0xe1, 0xff, 0xff, 0x04, 0x00, 0x00, 0x00, 0x80, 0x04, 0x00, 0x00, 0xa4, 0x2b, 0x96, 0xeb, 0x39, 0x61, 0xcf, 0x67, 0xa7, 0xab, 0xb2, 0xf5, 0xc0, 0x44, 0xe4, 0x68, 0xca, 0x16, 0xae, 0x9b, 0xcc, 0x51, 0xde, 0xf1, 0xa2, 0x9d, 0xf9, 0xb9, 0x4c, 0x13, 0xf8, 0x2f, 0x05, 0x58, 0x6d, 0xc8, 0x18, 0xe6, 0xde, 0x6f, 0xe2, 0xa0, 0xc1, 0xdc, 0x04, 0xc3, 0xff, 0xff, 0x81, 0x19, 0x15, 0x47, 0x88, 0x88, 0xcd, 0x0e, 0x3f, 0x30, 0xed, 0x19, 0xb5, 0x16, 0x0a, 0xd7, 0xf0, 0xe9, 0xbc, 0xe1, 0x9f, 0x68, 0x01, 0xb0, 0x30, 0x76, 0x13, 0x9a, 0x46, 0x99, 0x88, 0x74, 0x43, 0xe7, 0x14, 0x18, 0x5d, 0x0b, 0x6a, 0x9c, 0xf0, 0x8c, 0x1c, 0x10, 0x30, 0x25, 0x75, 0xf9, 0x35, 0xd6, 0xda, 0x89, 0x16, 0xdb, 0xd6, 0xf5, 0xf3, 0xb5, 0xf4, 0x21, 0x9d, 0x0a, 0x36, 0x33, 0x31, 0x4b, 0xd3, 0x6e, 0x49, 0x4e, 0xd3, 0x9d, 0x81, 0xc7, 0x5d, 0x5e, 0x58, 0x9a, 0x08, 0x4c, 0xe3, 0x4b, 0xd9, 0x56, 0xee, 0xb8, 0xcb, 0x55, 0x5c, 0x2e, 0xd4, 0xa7, 0xcf, 0x16, 0xe7, 0xfb, 0x23, 0x7f, 0xe5, 0x20, 0xf0, 0xe7, 0xde, 0xcc, 0xf3, 0x41, 0x33, 0xaa, 0x03, 0x9c, 0xff, 0xf0, 0xdd, 0xb7, 0x33, 0xa6, 0x92, 0x17, 0x6b, 0x69, 0x65, 0xe0, 0x9d, 0x3b, 0x01, 0x1b, 0x4a, 0x8e, 0x09, 0xf7, 0x4e, 0x53, 0x6f, 0x1c, 0xa4, 0x50, 0xa8, 0x8d, 0x2a, 0xcc, 0xeb, 0xae, 0x33, 0x72, 0xdb, 0xd7, 0x18, 0x76, 0xe6, 0x6a, 0x12, 0x28, 0x66, 0x32, 0x06, 0x00, 0x41, 0x27, 0x05, 0xf2, 0xf8, 0x1c, 0x42, 0xf9, 0xbd, 0x69, 0xce, 0x99, 0x3b, 0xeb, 0xd0, 0x68, 0x64, 0xd9, 0x57, 0xb2, 0x20, 0xe0, 0x6e, 0x23, 0x6a, 0xa7, 0xbc, 0xa7, 0x21, 0x3d, 0x8b, 0xfe, 0x71, 0x32, 0x8f, 0xbb, 0xaf, 0x33, 0x40, 0xc5, 0xa4, 0xad, 0x55, 0x13, 0x6f, 0x6d, 0x62, 0xcf, 0x81, 0x4a, 0x00, 0xab, 0x28, 0x98, 0xa3, 0x43, 0x2d, 0xdc, 0xeb, 0xeb, 0xd2, 0xee, 0x98, 0x48, 0xe6, 0x14, 0x13, 0x44, 0x4a, 0x94, 0xdd, 0x11, 0x65, 0xf6, 0xfa, 0x22, 0xb4, 0x25, 0xb9, 0x24, 0xf9, 0x4c, 0xf1, 0x38, 0x24, 0xc1, 0xd1, 0x17, 0xec, 0xd4, 0xe0, 0xcc, 0xa2, 0xa4, 0x74, 0xb3, 0x67, 0x31, 0xa6, 0xb9, 0xed, 0x8b, 0xdc, 0x14, 0xea, 0xc4, 0xa5, 0xf2, 0xf7, 0x91, 0xde, 0x13, 0x26, 0x14, 0xa4, 0x59, 0x9d, 0xe6, 0x5d, 0x6b, 0x24, 0xeb, 0x05, 0x0d, 0xda, 0xb2, 0x6f, 0x9b, 0x7f, 0x09, 0x9d, 0xe1, 0xec, 0xe6, 0x64, 0xf1, 0x19, 0x4f, 0xba, 0x63, 0xc6, 0x4e, 0x73, 0xa1, 0x67, 0xf5, 0x42, 0x97, 0xe8, 0x1c, 0xbf, 0xaa, 0x2f, 0xb2, 0xd4, 0xe1, 0x69, 0x11, 0x56, 0x4f, 0x0e, 0x42, 0x39, 0x52, 0xf0, 0x00, 0x16, 0xc2, 0x59, 0x8f, 0xb8, 0x10, 0xed, 0x1d, 0xc5, 0xd8, 0xf6, 0x63, 0xec, 0x8b, 0xfb, 0x46, 0x18, 0xe6, 0xc4, 0xf5, 0xe4, 0xb3, 0x5c, 0xac, 0xf4, 0x65, 0x3c, 0x34, 0x32, 0xc9, 0x0d, 0x57, 0xee, 0xb2, 0x2e, 0xdd, 0xaf, 0x0c, 0x1d, 0x8a, 0xe2, 0xa7, 0x1e, 0x46, 0x44, 0x75, 0x75, 0xc6, 0xc8, 0x5f, 0x1d, 0x37, 0xf4, 0xc4, 0xf9, 0xc4, 0x7f, 0x06, 0xd3, 0x5f, 0x68, 0x6b, 0x4a, 0xd7, 0xa9, 0xb0, 0xfc, 0x1e, 0xa3, 0x97, 0x01, 0xa4, 0x79, 0x6e, 0x0d, 0xf8, 0x13, 0xa0, 0x8f, 0xd5, 0x77, 0x96, 0xcf, 0xad, 0xb7, 0x74, 0x55, 0x66, 0x89, 0x37, 0x49, 0xdb, 0x38, 0x47, 0xc6, 0x07, 0x4d, 0xa2, 0x8a, 0x8a, 0x89, 0x3d, 0xac, 0xad, 0xd3, 0xaa, 0x5d, 0xa3, 0x33, 0x99, 0x5c, 0x2f, 0x14, 0xb2, 0xf1, 0xbb, 0x23, 0x38, 0xfa, 0xe9, 0x0e, 0xb5, 0x2e, 0xbd, 0xeb, 0x96, 0x1a, 0x83, 0xe8, 0x69, 0x43, 0x81, 0x7c, 0xef, 0xd4, 0xb1, 0xaf, 0x48, 0x00, 0x52, 0x73, 0x05, 0xe2, 0xc8, 0x29, 0x69, 0x8a, 0xd9, 0xbd, 0xa5, 0xb5, 0x2c, 0x01, 0x67, 0x30, 0x0e, 0xd4, 0xbf, 0x5f, 0x67, 0xec, 0xe6, 0x62, 0x81, 0x28, 0xe8, 0x43, 0x0e, 0xe6, 0xd8, 0x94, 0x02, 0x24, 0xc1, 0x42, 0x5d, 0x1e, 0x9c, 0x84, 0x03, 0xc5, 0x09, 0xbc, 0xe5, 0x7a, 0x10, 0xe2, 0x9e, 0x1a, 0x74, 0x73, 0x32, 0x76, 0x96, 0x84, 0x98, 0x56, 0xe2, 0x4c, 0xba, 0xe7, 0x96, 0xac, 0x81, 0x2b, 0xa9, 0x60, 0x5f, 0x49, 0x6c, 0xa0, 0xec, 0xe1, 0x09, 0x0d, 0x2c, 0x56, 0x7a, 0xf9, 0x19, 0x53, 0xe2, 0xfa, 0xd1, 0x65, 0x8e, 0x58, 0x00, 0x97, 0x8e, 0x7f, 0x93, 0x7a, 0xba, 0xb8, 0xa3, 0x22, 0x11, 0x64, 0x90, 0x88, 0x19, 0x8c, 0xc4, 0x45, 0x8b, 0xdd, 0x04, 0x4c, 0xde, 0x0e, 0xcf, 0xb6, 0x28, 0x90, 0x19, 0x6c, 0xe5, 0x8f, 0x0d, 0xf3, 0x62, 0x01, 0xca, 0xbf, 0x5b, 0xfc, 0xdc, 0x24, 0x78, 0x27, 0xd9, 0x42, 0xdc, 0x21, 0x29, 0xb4, 0x5e, 0x0b, 0x11, 0x35, 0x1e, 0x28, 0x30, 0x51, 0xe5, 0xec, 0x81, 0x48, 0xa8, 0xfd, 0xc0, 0x69, 0xf4, 0x94, 0x4c, 0xb1, 0xfe, 0xf7, 0xb8, 0xde, 0x9e, 0xe7, 0x50, 0x38, 0x2e, 0x55, 0xdc, 0xb9, 0x94, 0xce, 0x9f, 0xfb, 0x23, 0x9a, 0xa6, 0xad, 0xad, 0xe5, 0xa4, 0xdb, 0xfb, 0x49, 0xcb, 0x04, 0xeb, 0x14, 0x4c, 0xfc, 0xa1, 0x43, 0x1e, 0x46, 0xc9, 0xf8, 0xd6, 0xc9, 0x44, 0x29, 0x3b, 0x53, 0x8d, 0xf0, 0x89, 0xd8, 0x8d, 0xdd, 0x25, 0xd1, 0x57, 0xd1, 0x8d, 0xdb, 0x66, 0x93, 0x48, 0xe7, 0x5d, 0x38, 0xd4, 0xad, 0x2f, 0x58, 0xe1, 0x46, 0xd3, 0xfd, 0x3e, 0x65, 0x5a, 0xbf, 0x41, 0xbb, 0xe4, 0xb3, 0xd4, 0xc5, 0xdc, 0x81, 0x5c, 0x22, 0x4f, 0x4b, 0xc8, 0x1d, 0x95, 0xcf, 0xb2, 0x11, 0x1e, 0xb7, 0x25, 0x05, 0x9a, 0x12, 0xef, 0x63, 0xd2, 0x92, 0x9d, 0x98, 0x8f, 0xf5, 0xc1, 0x41, 0x2e, 0x60, 0xf2, 0xb3, 0xf7, 0x99, 0xe4, 0xd1, 0x24, 0xb0, 0xe5, 0x1c, 0x63, 0xdd, 0xc4, 0x29, 0x34, 0x73, 0x58, 0x93, 0xe4, 0x99, 0x1d, 0x9c, 0x37, 0xb6, 0xc3, 0x7f, 0x14, 0xb5, 0x58, 0xfb, 0x15, 0xcd, 0xfd, 0x28, 0xee, 0x17, 0x68, 0xc2, 0x38, 0x32, 0x93, 0x9a, 0x57, 0x32, 0x27, 0xa7, 0x56, 0xa7, 0xc0, 0xf1, 0xb1, 0xa4, 0x12, 0xdd, 0xad, 0x9d, 0xd5, 0x9d, 0xb1, 0x44, 0x61, 0x9b, 0x87, 0xe9, 0x01, 0x3d, 0xc8, 0x21, 0x52, 0x90, 0x45, 0x1a, 0x8c, 0xb8, 0x31, 0x37, 0x18, 0x1e, 0x61, 0xf1, 0xb4, 0xfa, 0x49, 0x0c, 0x81, 0xbb, 0x60, 0x85, 0x69, 0x96, 0x19, 0x06, 0xb1, 0x31, 0xeb, 0x3c, 0x3d, 0x04, 0xa3, 0x65, 0x18, 0x52, 0x66, 0x65, 0x81, 0x10, 0xe9, 0x5a, 0x3a, 0xb3, 0x88, 0x8b, 0x35, 0x3e, 0x14, 0xcc, 0x69, 0x61, 0x0f, 0xb2, 0x55, 0xfe, 0x67, 0x1b, 0x17, 0xb3, 0x90, 0xb0, 0x96, 0x00, 0xbb, 0x40, 0xab, 0x4a, 0x1f, 0xe5, 0xf8, 0xb8, 0xd6, 0xc0, 0xdc, 0x00, 0x59, 0xae, 0x39, 0x3d, 0x97, 0xcd, 0x25, 0x1c, 0x55, 0xb9, 0x0f, 0x30, 0xa4, 0xb0, 0x61, 0xae, 0x53, 0xa3, 0x29, 0xa6, 0xb0, 0x6d, 0x0c, 0xde, 0xc7, 0x72, 0x01, 0x27, 0x5a, 0x30, 0x38, 0xf7, 0xa5, 0x1c, 0x49, 0x2d, 0x43, 0x09, 0x0b, 0xa4, 0x17, 0xde, 0x3e, 0x09, 0x8c, 0xb9, 0x8c, 0xea, 0xce, 0xc4, 0x62, 0xe0, 0x11, 0xbe, 0xb3, 0xa6, 0xc7, 0xeb, 0xeb, 0x7f, 0x52, 0x55, 0x9e, 0xae, 0xbb, 0xd1, 0x8d, 0xa8, 0x91, 0xe7, 0x2c, 0x48, 0x18, 0x10, 0xec, 0x28, 0x55, 0x99, 0x03, 0xd6, 0xac, 0xb0, 0x45, 0x7b, 0x37, 0x59, 0xed, 0xc4, 0x4d, 0xda, 0xb3, 0x46, 0x1b, 0x82, 0x50, 0x5f, 0x68, 0x53, 0x8d, 0xce, 0x30, 0xe2, 0x20, 0xa6, 0x54, 0x89, 0x30, 0xb4, 0x98, 0xaa, 0xc5, 0x21, 0x02, 0x65, 0x98, 0x1f, 0x5b, 0xcc, 0x67, 0xad, 0x69, 0xff, 0x33, 0x1e, 0x7b, 0x2f, 0x16, 0x7f, 0xf6, 0x31, 0x5a, 0x18, 0x2f, 0xe1, 0xb2, 0x71, 0xee, 0x8a, 0xf5, 0xe6, 0x0b, 0xdf, 0x4e, 0xef, 0xb1, 0x74, 0xe2, 0x28, 0xa2, 0x0f, 0xbf, 0xa8, 0xfa, 0x8c, 0x9a, 0x49, 0xcd, 0x5d, 0xc6, 0x1b, 0xbc, 0xf2, 0x1c, 0xfa, 0x02, 0x24, 0xc5, 0xf0, 0xa6, 0xb2, 0xce, 0x77, 0xb9, 0x91, 0x41, 0x56, 0xd9, 0x5f, 0x40, 0x0f, 0x0e, 0xeb, 0x11, 0x49, 0xff, 0x48, 0x29, 0xdc, 0x0c, 0x88, 0x1b, 0xda, 0xc9, 0x3b, 0xc3, 0xb1, 0x10, 0xbe, 0xf1, 0x2d, 0x1d, 0x10, 0x69, 0x9e, 0xe5, 0x61, 0xa3, 0xd3, 0x93, 0x69, 0x59, 0x5a, 0x1a, 0x85, 0x57, 0xba, 0x47, 0xca, 0xf7, 0x1d, 0x68, 0x3b, 0xf0, 0x94, 0xde, 0x39, 0x9d, 0x8f, 0x81, 0x57, 0x1c, 0x08, 0xfa, 0x5e, 0xe6, 0xff, 0xff, 0x04, 0x00, 0x00, 0x00, 0x40, 0x00, 0x00, 0x00, 0xfd, 0xff, 0xff, 0xff, 0x01, 0x00, 0x00, 0x00, 0x03, 0x00, 0x00, 0x00, 0xfe, 0xff, 0xff, 0xff, 0x06, 0x00, 0x00, 0x00, 0x03, 0x00, 0x00, 0x00, 0xfc, 0xff, 0xff, 0xff, 0x03, 0x00, 0x00, 0x00, 0xff, 0xff, 0xff, 0xff, 0xf4, 0xff, 0xff, 0xff, 0xf2, 0xff, 0xff, 0xff, 0xfa, 0xff, 0xff, 0xff, 0xfc, 0xff, 0xff, 0xff, 0xff, 0xff, 0xff, 0xff, 0xf8, 0xff, 0xff, 0xff, 0xfa, 0xff, 0xff, 0xff, 0xaa, 0xe6, 0xff, 0xff, 0x04, 0x00, 0x00, 0x00, 0x00, 0x18, 0x00, 0x00, 0xd8, 0x9b, 0xda, 0xcc, 0x65, 0xa0, 0x3c, 0x2d, 0x86, 0x2b, 0x42, 0x9e, 0xb3, 0x90, 0x22, 0x13, 0x68, 0x38, 0x08, 0x26, 0x64, 0x12, 0x5a, 0x11, 0xc6, 0x94, 0x38, 0x6d, 0xdc, 0xfb, 0xa9, 0xe2, 0xcd, 0x13, 0x32, 0x40, 0x90, 0x00, 0x00, 0x31, 0x69, 0x65, 0xc9, 0xa5, 0xc1, 0xf5, 0xfd, 0x0d, 0x35, 0x2e, 0x24, 0x9b, 0xcb, 0x5a, 0xb7, 0xb5, 0x33, 0xca, 0x93, 0x59, 0xcf, 0x5d, 0xc6, 0x10, 0x47, 0xff, 0xd1, 0x95, 0xa2, 0xee, 0x54, 0xe8, 0x10, 0xbf, 0x2b, 0xd1, 0x11, 0x54, 0x1a, 0x5e, 0xdc, 0xf0, 0xad, 0xfc, 0xac, 0xbb, 0xfe, 0x17, 0xee, 0xc6, 0x50, 0x2b, 0xe2, 0xef, 0xc1, 0xe3, 0xd3, 0x44, 0x56, 0xc7, 0xf2, 0xfa, 0x4d, 0xed, 0xc8, 0xda, 0xef, 0x3a, 0x68, 0xf3, 0xce, 0x3d, 0xdb, 0x1f, 0xa2, 0x66, 0x33, 0x2a, 0x56, 0x05, 0x3e, 0x4f, 0x0e, 0x8a, 0x91, 0xcc, 0x9d, 0x0d, 0x33, 0x50, 0x02, 0x65, 0xf5, 0x52, 0x54, 0xac, 0xbb, 0x31, 0xb4, 0xe6, 0xce, 0xbf, 0x17, 0x1f, 0x08, 0x6e, 0xba, 0x16, 0x59, 0xed, 0xea, 0xa3, 0x3f, 0x4f, 0x2b, 0x24, 0xd5, 0xb9, 0x42, 0x25, 0x6b, 0x2f, 0x41, 0x36, 0x4e, 0x69, 0xb8, 0x49, 0xfb, 0x2d, 0xb8, 0xe3, 0x6a, 0x9f, 0xb5, 0x42, 0x4a, 0x08, 0xda, 0xbd, 0xbe, 0x03, 0x81, 0x67, 0x44, 0xa6, 0x54, 0x5c, 0x8c, 0xd3, 0x2d, 0x5f, 0x79, 0xa7, 0x03, 0x52, 0x4c, 0xb7, 0x0b, 0x2b, 0xc2, 0x2b, 0x5f, 0xe1, 0x1d, 0x67, 0xc8, 0x02, 0x11, 0x93, 0xc3, 0xcf, 0x29, 0xa4, 0x5d, 0xc9, 0x3a, 0xde, 0x47, 0xee, 0xb7, 0x2f, 0xf9, 0x5b, 0xa4, 0xc6, 0xcc, 0xe7, 0x24, 0x4c, 0xbc, 0xa4, 0xaa, 0x98, 0x5f, 0x1d, 0x10, 0xfa, 0x2c, 0x4c, 0x5c, 0xa8, 0xc0, 0x56, 0x90, 0xab, 0xff, 0x6c, 0xf1, 0x3a, 0x06, 0xc8, 0x5f, 0x93, 0xaf, 0x20, 0x07, 0x0d, 0xaa, 0xd0, 0xbf, 0x35, 0x46, 0xfe, 0x05, 0xef, 0x44, 0xd5, 0x3e, 0xa6, 0x55, 0x91, 0xae, 0x00, 0xde, 0xa3, 0x16, 0x1e, 0x3c, 0x2f, 0x73, 0x4a, 0x21, 0x53, 0x0c, 0xea, 0xcc, 0xbc, 0x63, 0xc3, 0xbd, 0x68, 0x34, 0x1d, 0xbd, 0x50, 0xab, 0xdb, 0x61, 0x45, 0x9d, 0xc8, 0x04, 0x22, 0xa3, 0x43, 0x0b, 0xf8, 0x8f, 0x9c, 0xcc, 0xf0, 0x57, 0x42, 0xe9, 0x48, 0x3d, 0x9a, 0x06, 0xba, 0x05, 0xf3, 0x1b, 0x42, 0xdc, 0x56, 0x3c, 0x81, 0xa6, 0xca, 0xa1, 0xce, 0xde, 0xae, 0x98, 0x25, 0xc0, 0xf9, 0x1d, 0xf2, 0xa4, 0x37, 0xb3, 0xab, 0xb1, 0xc7, 0x52, 0x4a, 0x03, 0x2c, 0x3c, 0x4f, 0x2f, 0x2e, 0x0d, 0xa8, 0xe0, 0x0a, 0x0a, 0x5e, 0xf5, 0x28, 0xb2, 0xa6, 0xb1, 0xba, 0x8b, 0x2b, 0xe7, 0x8e, 0xcf, 0xb8, 0x54, 0x4b, 0xea, 0xc0, 0x25, 0x33, 0x0e, 0x6b, 0x49, 0xd1, 0x3a, 0xab, 0x9d, 0x66, 0x7a, 0x2c, 0x57, 0xe4, 0x85, 0xde, 0xd8, 0x2f, 0x3d, 0x35, 0xa7, 0xa8, 0x69, 0x76, 0x83, 0x78, 0x3c, 0xc9, 0xf2, 0xd0, 0xa4, 0xd7, 0xe9, 0x25, 0x61, 0xce, 0xbd, 0x83, 0x38, 0x46, 0x1b, 0xca, 0x29, 0x47, 0xab, 0xa4, 0x7a, 0x5a, 0xd8, 0xa8, 0x26, 0x3e, 0x57, 0x76, 0x30, 0x26, 0x6c, 0x00, 0x9b, 0xf8, 0x9b, 0x47, 0xef, 0xd0, 0x3c, 0xbe, 0x21, 0x93, 0x70, 0xd3, 0xd1, 0xf7, 0xbe, 0x53, 0x64, 0x7e, 0xf5, 0x30, 0x05, 0x04, 0x97, 0x23, 0x6a, 0xcf, 0x72, 0x45, 0x15, 0xf8, 0x6d, 0xac, 0xac, 0x6c, 0xa6, 0x41, 0x04, 0x53, 0x54, 0xb3, 0x7b, 0xcd, 0xc2, 0xed, 0x65, 0x03, 0x6a, 0x0e, 0x8f, 0xe8, 0xdd, 0x0a, 0x9e, 0xdd, 0xa2, 0x6f, 0x7e, 0x13, 0x9f, 0x72, 0x24, 0x45, 0xfc, 0x5a, 0x4d, 0x16, 0x79, 0x63, 0x1b, 0xd3, 0x7a, 0x35, 0x67, 0x43, 0x4f, 0x12, 0x07, 0x3e, 0x4b, 0x3e, 0xdb, 0x56, 0x25, 0x45, 0x7b, 0xa9, 0x06, 0xbf, 0xf9, 0x04, 0x2f, 0x8e, 0x32, 0xc2, 0x01, 0xa6, 0xdc, 0x8c, 0xa6, 0xc8, 0xb4, 0x63, 0x8a, 0xd6, 0xb8, 0xc9, 0x31, 0x1a, 0x83, 0xb0, 0x49, 0xbe, 0x3a, 0xe4, 0x8a, 0xa8, 0x06, 0xed, 0x97, 0xae, 0x58, 0x1d, 0x2e, 0x53, 0x16, 0xab, 0x23, 0xd3, 0x23, 0x36, 0xeb, 0xaf, 0x46, 0x4a, 0x85, 0xf3, 0x16, 0xae, 0xf4, 0x7e, 0xfb, 0x6d, 0x6b, 0x4d, 0x9e, 0xa7, 0x78, 0xb2, 0xc1, 0xdc, 0x0d, 0x4f, 0xc7, 0xb9, 0xc8, 0xa2, 0x5f, 0x0b, 0xfb, 0x8e, 0x43, 0x96, 0xe3, 0x05, 0xe1, 0x86, 0xf9, 0x72, 0x44, 0x85, 0x19, 0x89, 0x89, 0x56, 0xc1, 0x86, 0x00, 0x02, 0xe3, 0xf6, 0x68, 0x5d, 0x0a, 0xf1, 0x43, 0x53, 0x0e, 0x41, 0x14, 0x0a, 0x6f, 0xdd, 0x4b, 0xa4, 0xf5, 0x05, 0x9c, 0xa0, 0x43, 0xa1, 0xf3, 0x15, 0x25, 0x86, 0x73, 0x02, 0x94, 0x81, 0x44, 0x5b, 0x83, 0x57, 0xe6, 0x4f, 0xb2, 0x96, 0x2a, 0xab, 0x81, 0x6f, 0x76, 0xcd, 0xde, 0x87, 0xbb, 0xc0, 0xb2, 0x17, 0x47, 0x29, 0x3c, 0x37, 0xf6, 0x4b, 0x7c, 0x1e, 0x47, 0x9d, 0x0d, 0x1f, 0x1a, 0x15, 0x93, 0xab, 0xfd, 0xf1, 0x95, 0xbf, 0x77, 0x85, 0xb5, 0xc9, 0x77, 0x32, 0x3d, 0x35, 0x1a, 0x2e, 0x4d, 0xc7, 0xc6, 0x56, 0x16, 0xd5, 0x9b, 0xfb, 0x17, 0x78, 0x11, 0x32, 0x69, 0x95, 0xc8, 0x17, 0xe8, 0x7a, 0xa9, 0x4c, 0x18, 0x89, 0x6c, 0xb3, 0x31, 0x1f, 0xa8, 0x28, 0x24, 0xa5, 0xad, 0x1b, 0x5f, 0xd0, 0xd4, 0x13, 0x57, 0xca, 0xc6, 0xa1, 0x4c, 0x88, 0x3c, 0xc7, 0x65, 0xd9, 0x67, 0x38, 0xef, 0x18, 0x59, 0xd5, 0xfc, 0x36, 0xa0, 0x22, 0x2b, 0xf5, 0xf9, 0xe9, 0xd3, 0xa3, 0x4b, 0x22, 0x94, 0xd0, 0xc5, 0xee, 0x4d, 0xbe, 0x82, 0x15, 0x9b, 0x85, 0x26, 0x29, 0xae, 0x00, 0x2d, 0xab, 0x45, 0xa8, 0xc6, 0xb0, 0x50, 0x4c, 0xe8, 0xff, 0xea, 0xd4, 0xd3, 0xcb, 0x08, 0x53, 0x23, 0xd3, 0xc9, 0xee, 0x5c, 0xf6, 0xc6, 0xaa, 0xe3, 0x54, 0xfc, 0xdb, 0xe8, 0xd2, 0x10, 0xd2, 0xb2, 0xb3, 0xc5, 0xfc, 0xaa, 0xe1, 0x35, 0x13, 0x22, 0x0c, 0x08, 0x24, 0x35, 0x1a, 0xc6, 0x1a, 0x3e, 0xeb, 0xe8, 0x2c, 0x4c, 0xfc, 0x2f, 0xdf, 0xad, 0xc0, 0xf3, 0xd2, 0xe6, 0x48, 0x19, 0x47, 0x1e, 0x9c, 0xfe, 0x1c, 0xda, 0x4c, 0x13, 0x22, 0x09, 0x12, 0x0c, 0xbe, 0xda, 0x21, 0x1a, 0xd3, 0xa4, 0xcc, 0x50, 0xff, 0x1f, 0x3a, 0xa2, 0xe9, 0x0f, 0xa6, 0xa4, 0xef, 0xb1, 0x3a, 0x45, 0xf9, 0xab, 0x44, 0x5b, 0x49, 0xe1, 0xf1, 0x23, 0xdb, 0xf0, 0x45, 0x01, 0x30, 0xbf, 0x44, 0xef, 0xd9, 0x9a, 0x2a, 0xe6, 0xbf, 0x0a, 0x50, 0xa9, 0x43, 0x9f, 0xb9, 0x15, 0x1b, 0x0c, 0x07, 0xfc, 0x97, 0xad, 0x0d, 0x07, 0xed, 0x00, 0xe4, 0xbd, 0x24, 0x35, 0x3a, 0x32, 0x15, 0xd9, 0xca, 0xa4, 0xb6, 0xa3, 0xe4, 0xc3, 0x1c, 0xf3, 0xab, 0xba, 0x1d, 0x3e, 0x38, 0x35, 0xd7, 0xe8, 0xfc, 0x53, 0x48, 0xbf, 0xd2, 0xef, 0x04, 0x17, 0x0c, 0x1c, 0xdc, 0x19, 0x15, 0xe8, 0xea, 0x06, 0x06, 0xb3, 0x07, 0x53, 0x10, 0xef, 0xe5, 0xce, 0xec, 0xb8, 0x28, 0xb2, 0xf7, 0xf9, 0x11, 0xe6, 0x40, 0xcc, 0x34, 0x22, 0xeb, 0x3d, 0x4a, 0x02, 0x05, 0x2e, 0xa8, 0x10, 0xf1, 0xf9, 0xc3, 0xf2, 0x17, 0xb1, 0xf6, 0xff, 0xc6, 0xdc, 0xc7, 0x5a, 0xa2, 0x0e, 0xfa, 0x20, 0x23, 0x2b, 0x06, 0xf2, 0x16, 0x13, 0xf4, 0x00, 0xbb, 0x9e, 0x26, 0x7c, 0x48, 0xfe, 0x34, 0x63, 0xe1, 0x07, 0x06, 0x47, 0xd9, 0xd4, 0x2d, 0x44, 0x3e, 0xca, 0x3e, 0x93, 0x14, 0x47, 0x2e, 0xb8, 0x4f, 0xb8, 0x9a, 0x51, 0x20, 0xb5, 0xe8, 0xcb, 0xc1, 0x43, 0x07, 0x21, 0x0b, 0xd6, 0xd8, 0xf9, 0xf3, 0xe5, 0x12, 0x04, 0x4b, 0x37, 0xf4, 0xc3, 0xd4, 0xe0, 0x07, 0x41, 0x0b, 0xf3, 0x09, 0x12, 0xe3, 0x05, 0xc9, 0x0b, 0x12, 0xc3, 0x43, 0xc0, 0x14, 0x22, 0xa9, 0x2f, 0x4a, 0xec, 0x35, 0x07, 0x0e, 0xd3, 0xbc, 0xe4, 0xbc, 0xfb, 0xbd, 0x26, 0x03, 0x95, 0xbe, 0xdb, 0xe5, 0xc0, 0x1d, 0xc7, 0x42, 0x9e, 0xea, 0xcd, 0xdb, 0xba, 0x2b, 0x10, 0x3f, 0xf7, 0xee, 0x18, 0x41, 0x3f, 0xd6, 0x54, 0xfb, 0xa0, 0x13, 0xc0, 0x4f, 0x15, 0xfc, 0xfa, 0xf3, 0xd2, 0xfe, 0x29, 0xcd, 0x37, 0x0c, 0xcf, 0x2c, 0x40, 0x0f, 0x24, 0xf8, 0xfd, 0x5c, 0xf6, 0xb0, 0x81, 0x01, 0xfe, 0xcb, 0x16, 0x60, 0x0a, 0x2b, 0x26, 0xe9, 0x38, 0xf1, 0x23, 0xa9, 0x3d, 0x01, 0x87, 0x37, 0x12, 0x09, 0x79, 0xcc, 0xfc, 0xe9, 0xfd, 0x51, 0x33, 0x73, 0xa3, 0xd9, 0xb1, 0x2f, 0x1f, 0x47, 0x38, 0xb5, 0xee, 0xb8, 0x47, 0x5c, 0xe9, 0x10, 0xbd, 0x85, 0x55, 0xe2, 0xb9, 0x8e, 0x51, 0x94, 0x0d, 0x76, 0xfe, 0xdc, 0x37, 0x31, 0x91, 0xc3, 0x22, 0x38, 0x5f, 0x60, 0x86, 0x5d, 0x88, 0x66, 0xa9, 0x71, 0xcd, 0xe8, 0x1e, 0xf9, 0x46, 0x70, 0xd4, 0x6d, 0x10, 0x5c, 0xbf, 0x9a, 0xb8, 0x93, 0x48, 0x6b, 0x9d, 0x12, 0x5c, 0xbe, 0x6b, 0x98, 0x60, 0x3c, 0xb3, 0xbc, 0xb3, 0x23, 0x97, 0xa0, 0x4c, 0x52, 0xb4, 0x56, 0xb7, 0xb4, 0xce, 0x1c, 0x32, 0x42, 0x95, 0x3c, 0xa6, 0x25, 0x2b, 0x82, 0xcf, 0xdb, 0xcd, 0x03, 0x02, 0xe3, 0x17, 0x9a, 0xc5, 0xf6, 0xf5, 0x15, 0xff, 0xbd, 0x0a, 0xb4, 0xae, 0xe8, 0xad, 0x9c, 0x05, 0xc3, 0x90, 0xb1, 0x48, 0xe0, 0xa2, 0x5e, 0x22, 0x46, 0xa5, 0xb1, 0x23, 0xe8, 0xb1, 0xa4, 0x17, 0x1a, 0x5d, 0xe5, 0x08, 0x56, 0x10, 0x17, 0x5c, 0x29, 0x32, 0x4f, 0xd8, 0x9d, 0x8c, 0x72, 0x27, 0x61, 0x39, 0x4a, 0x52, 0x39, 0xf0, 0x49, 0xc7, 0x5e, 0xef, 0x15, 0x48, 0x63, 0x18, 0xbc, 0xb0, 0xaf, 0xf1, 0xcd, 0xd8, 0x2a, 0xe7, 0x16, 0x64, 0x5c, 0xe9, 0xf1, 0x15, 0xc2, 0xcc, 0x98, 0xfd, 0xdb, 0x90, 0xf2, 0x4a, 0xa3, 0xca, 0xb0, 0x8b, 0xf3, 0x29, 0x2a, 0x05, 0x9b, 0xb6, 0x67, 0x44, 0xd3, 0xd0, 0x70, 0x94, 0xfa, 0xb2, 0x26, 0xca, 0x0c, 0x2f, 0x87, 0xb8, 0xa6, 0x12, 0x44, 0xbc, 0x68, 0xb1, 0xcf, 0xb0, 0xb8, 0xb9, 0xbc, 0x0a, 0x31, 0xc0, 0xbe, 0xa8, 0x3d, 0xe8, 0x15, 0x2b, 0x0c, 0x05, 0xc0, 0xcc, 0xf3, 0xe6, 0xa5, 0xe3, 0x04, 0xd6, 0x92, 0x97, 0x04, 0x4a, 0xfa, 0x4e, 0xc4, 0xa1, 0x3c, 0xa0, 0x57, 0x06, 0xcd, 0x38, 0x84, 0x9c, 0x2e, 0x84, 0x92, 0xb2, 0x81, 0xaa, 0x6a, 0xd6, 0x55, 0x8b, 0xfa, 0xf9, 0xc9, 0x2f, 0xa6, 0x54, 0xd9, 0xda, 0x5b, 0x14, 0x13, 0x64, 0x89, 0x5c, 0x4c, 0x97, 0x67, 0x11, 0xe0, 0xc6, 0xd4, 0x04, 0x8b, 0xf4, 0x41, 0x02, 0x7b, 0xa1, 0xb5, 0xc5, 0x26, 0x99, 0xb8, 0x0a, 0xef, 0x44, 0x94, 0xa0, 0x1b, 0x1b, 0x1e, 0x31, 0x62, 0x64, 0xe3, 0x67, 0x43, 0xf4, 0x21, 0xc5, 0xc3, 0xd7, 0xb6, 0x30, 0xc2, 0x6f, 0xa9, 0x60, 0xcf, 0x2e, 0x5c, 0xcb, 0xb1, 0x68, 0x64, 0xdd, 0x93, 0x93, 0xeb, 0xcb, 0xe9, 0xe1, 0x74, 0x3e, 0xef, 0x9e, 0xa3, 0x41, 0x5a, 0x9d, 0x9e, 0xb9, 0x38, 0x5c, 0xce, 0xd0, 0x27, 0x3e, 0x9c, 0x2f, 0xd1, 0x06, 0x61, 0x04, 0xb3, 0x5f, 0x8c, 0x60, 0x84, 0x33, 0xcf, 0x1c, 0x93, 0x4e, 0xa8, 0x44, 0x3a, 0xe8, 0xd0, 0x62, 0xdb, 0xc8, 0xf2, 0x10, 0xe1, 0x44, 0x07, 0x88, 0x34, 0xf0, 0x0a, 0x5c, 0x02, 0x43, 0xfd, 0x97, 0xbd, 0x63, 0xd7, 0xef, 0xce, 0x91, 0x26, 0x21, 0xa1, 0x12, 0xe9, 0x6a, 0xe8, 0x52, 0xfd, 0xfa, 0xe0, 0x42, 0xad, 0x4e, 0x58, 0x46, 0x24, 0xb5, 0x23, 0x5b, 0x98, 0xba, 0xb3, 0x72, 0x90, 0xb5, 0x73, 0xe4, 0x05, 0xb1, 0xfb, 0x02, 0x96, 0xd9, 0x9b, 0x08, 0x8f, 0xf0, 0x26, 0xe3, 0x65, 0xea, 0x61, 0x1b, 0x33, 0x02, 0x31, 0x5f, 0xcd, 0x00, 0x44, 0x8a, 0xf0, 0xc1, 0xa9, 0xbb, 0xbe, 0x0b, 0xf5, 0x9b, 0xeb, 0xcd, 0x4f, 0xf3, 0x2d, 0x4c, 0xb1, 0xac, 0x68, 0xdc, 0x4c, 0xb2, 0xd2, 0x87, 0x08, 0x51, 0x2e, 0x56, 0x49, 0xf9, 0xf5, 0x2b, 0x18, 0xdf, 0x60, 0x1d, 0x10, 0x27, 0xe8, 0x63, 0xa4, 0xeb, 0x9d, 0xd2, 0xb3, 0x03, 0x9c, 0x06, 0xf0, 0x3b, 0x10, 0x07, 0xc6, 0x32, 0x16, 0x82, 0xd9, 0xea, 0x16, 0x1e, 0xe5, 0x56, 0xf7, 0xc1, 0x84, 0xfa, 0xff, 0x3b, 0x99, 0xc5, 0x36, 0x3c, 0x2a, 0xdf, 0x0e, 0xc0, 0x40, 0xab, 0x2e, 0x0a, 0xa0, 0x12, 0x89, 0x36, 0xf5, 0x35, 0x20, 0xeb, 0x61, 0x4a, 0x4d, 0x66, 0xb6, 0x10, 0xe1, 0x0c, 0xb7, 0xb4, 0x45, 0xef, 0xea, 0xc8, 0x2c, 0x99, 0x6f, 0x13, 0xf8, 0x31, 0x45, 0xbc, 0x65, 0xf3, 0xcb, 0x60, 0xd3, 0x8c, 0x11, 0x8c, 0x85, 0x92, 0xc6, 0xa9, 0x0f, 0x19, 0xab, 0x14, 0x58, 0x64, 0x40, 0xca, 0xed, 0x92, 0x5e, 0x1b, 0xae, 0x83, 0xb2, 0xb5, 0xec, 0xde, 0x9e, 0xca, 0xb9, 0x3e, 0x42, 0x57, 0xd8, 0xd3, 0x61, 0xc6, 0x3e, 0xc6, 0x75, 0x53, 0x9f, 0xab, 0x31, 0x23, 0x30, 0xfd, 0xe0, 0x4d, 0xea, 0xe0, 0xc2, 0x5c, 0xef, 0x46, 0xf8, 0xab, 0xf2, 0xd5, 0xa2, 0xb8, 0x25, 0x32, 0x1d, 0x0f, 0xbb, 0x1b, 0xae, 0xdd, 0xf6, 0x68, 0x62, 0xf7, 0x4b, 0x16, 0x3b, 0xc9, 0x9e, 0x3d, 0xa3, 0x5a, 0xd2, 0xb6, 0xe4, 0x8a, 0xc1, 0xc7, 0x6d, 0x3c, 0x56, 0x00, 0x8d, 0xd9, 0x87, 0xe3, 0x48, 0x8f, 0x45, 0x16, 0x07, 0xac, 0x66, 0x28, 0xa9, 0xe3, 0x9c, 0x0a, 0xa2, 0xe4, 0x8a, 0xdc, 0xe8, 0x4f, 0x51, 0x37, 0x00, 0x63, 0x81, 0xdf, 0x1a, 0x48, 0x63, 0xb5, 0x3a, 0x52, 0x0f, 0x44, 0x02, 0x62, 0x5a, 0x3a, 0x8d, 0x06, 0x0f, 0xab, 0xd7, 0x46, 0xfb, 0x4e, 0xa9, 0x54, 0xc3, 0x62, 0x52, 0xb1, 0x63, 0xff, 0x8f, 0x42, 0x23, 0xeb, 0x4e, 0xad, 0xb4, 0xa7, 0xd7, 0x97, 0x60, 0xe2, 0x95, 0xb6, 0xf1, 0xd7, 0x55, 0x43, 0xba, 0x04, 0x9f, 0xa7, 0x52, 0x13, 0xce, 0x66, 0xf6, 0xc4, 0x8f, 0xc2, 0x5e, 0x53, 0x1e, 0x29, 0xa7, 0x8e, 0x1d, 0x34, 0x29, 0x91, 0xa1, 0x37, 0x5d, 0x06, 0x1e, 0x3e, 0x07, 0xe0, 0xdb, 0xe2, 0x53, 0x38, 0x00, 0x1c, 0x0b, 0xa9, 0xa4, 0xdd, 0x45, 0x0d, 0xd4, 0x09, 0xfe, 0xbd, 0x3c, 0x09, 0x05, 0x2b, 0x63, 0xbd, 0xcb, 0x8e, 0xad, 0x0d, 0x1b, 0x22, 0xee, 0x30, 0xf9, 0xff, 0xae, 0x24, 0xfd, 0x20, 0x0a, 0x5f, 0x93, 0xc9, 0xca, 0xcf, 0x89, 0xed, 0xec, 0xfd, 0x5d, 0x87, 0xdd, 0x5f, 0xdf, 0xf6, 0x59, 0x1b, 0x81, 0x4a, 0x35, 0x24, 0x71, 0xcb, 0x0b, 0xa1, 0x0a, 0xec, 0xa8, 0x98, 0x2f, 0x4a, 0x04, 0x43, 0xa5, 0xf2, 0x31, 0xbf, 0x63, 0x43, 0xdb, 0xcf, 0x0d, 0x9a, 0xcd, 0x4e, 0xa0, 0xe7, 0x90, 0x39, 0x8c, 0x95, 0x6e, 0x3e, 0x4f, 0x0c, 0x84, 0x3e, 0x5b, 0xc5, 0x00, 0xf2, 0x2b, 0xf8, 0x1e, 0xca, 0x62, 0x93, 0x47, 0xda, 0xd0, 0x4e, 0xa9, 0xbe, 0x29, 0x62, 0x16, 0x52, 0x91, 0xd5, 0x97, 0x3a, 0x68, 0xf0, 0xc1, 0x10, 0x45, 0x3b, 0xa7, 0x45, 0x03, 0x50, 0x5d, 0x51, 0xec, 0xb4, 0xd8, 0x44, 0x10, 0xb5, 0xe3, 0xfb, 0xad, 0x42, 0x23, 0x11, 0x69, 0xed, 0x28, 0xd1, 0x26, 0x3a, 0x3a, 0xb3, 0x5f, 0xb7, 0x60, 0xc4, 0x48, 0xb0, 0x8b, 0x06, 0xce, 0x85, 0xeb, 0x5a, 0x58, 0x3b, 0xdb, 0xbf, 0xc9, 0xd9, 0xe7, 0xa7, 0xdc, 0x95, 0x0c, 0xa8, 0xae, 0x35, 0xf2, 0x5a, 0x25, 0xfc, 0x36, 0x34, 0x19, 0xfd, 0x32, 0x6c, 0xa5, 0x0e, 0x3f, 0xce, 0xa7, 0x59, 0xa6, 0x13, 0x33, 0x92, 0x32, 0x6e, 0x22, 0xf1, 0x60, 0x8f, 0x23, 0xfe, 0x38, 0xe8, 0xf9, 0xb4, 0x9b, 0x0b, 0x99, 0x64, 0x56, 0xc2, 0xa1, 0x20, 0xc3, 0x1e, 0xaf, 0x35, 0x24, 0xc5, 0x96, 0x1b, 0x1b, 0xbe, 0x44, 0x3e, 0x81, 0x6e, 0x70, 0x27, 0x04, 0x17, 0xc6, 0x21, 0x83, 0x5a, 0x1f, 0x52, 0x43, 0x1b, 0x07, 0x2e, 0x68, 0xb4, 0xfd, 0x6d, 0x87, 0xe5, 0x57, 0x06, 0x13, 0x74, 0xdb, 0x05, 0xae, 0x34, 0x54, 0x2a, 0xb6, 0x83, 0x34, 0x1a, 0x49, 0xe0, 0x12, 0xb9, 0xaf, 0x26, 0x07, 0xaa, 0x44, 0xc5, 0xb1, 0xb1, 0x44, 0x2c, 0xf9, 0x5c, 0xe1, 0xb7, 0x40, 0x06, 0xd7, 0x8d, 0xdc, 0x42, 0xdf, 0x35, 0x20, 0xfd, 0x2c, 0x11, 0xc7, 0x87, 0xcf, 0x18, 0x39, 0x28, 0x1a, 0x05, 0x9a, 0x61, 0x39, 0x29, 0xe2, 0xa1, 0x3b, 0x67, 0xce, 0xe1, 0xf5, 0x0a, 0x61, 0xfb, 0x21, 0x88, 0xc9, 0x2b, 0x54, 0xc9, 0x39, 0x34, 0xc5, 0x89, 0x14, 0x61, 0x5f, 0x3d, 0xfd, 0x19, 0xc6, 0x61, 0xca, 0x72, 0x33, 0x16, 0x5d, 0xf5, 0xf2, 0xf5, 0x5e, 0x2f, 0x9c, 0x5c, 0x42, 0x15, 0xa9, 0x58, 0x49, 0x17, 0x4b, 0xe4, 0x5a, 0xa0, 0x34, 0xc3, 0x16, 0x78, 0xef, 0xc7, 0xb8, 0x8b, 0x30, 0x5e, 0xd0, 0x1e, 0x02, 0x50, 0x16, 0x01, 0x56, 0x5b, 0xc8, 0x0a, 0xa4, 0x8d, 0xe0, 0xfa, 0x8b, 0x23, 0x65, 0xb3, 0x6a, 0xd1, 0x2c, 0xc3, 0x3c, 0xe3, 0xf1, 0x2d, 0xc0, 0xc3, 0x0b, 0x3d, 0xd5, 0x2e, 0xce, 0x0c, 0x24, 0x76, 0xc7, 0xff, 0x36, 0xda, 0x6f, 0x09, 0x2e, 0xf5, 0x55, 0x85, 0x20, 0x62, 0x13, 0xb7, 0x24, 0xea, 0x6d, 0x3f, 0xa9, 0x8c, 0x62, 0xad, 0xc8, 0x04, 0x43, 0x1d, 0x2f, 0xa5, 0x5b, 0x6d, 0x2f, 0x5f, 0xa7, 0xa1, 0x61, 0xb1, 0xc2, 0xf3, 0x54, 0x9b, 0x33, 0x01, 0xca, 0xef, 0x5f, 0xa1, 0x55, 0x8e, 0x9c, 0x28, 0xdb, 0x1d, 0x56, 0x64, 0xdd, 0x62, 0x97, 0x23, 0xbe, 0x08, 0x0f, 0xc9, 0x69, 0x28, 0x63, 0x11, 0xaa, 0x62, 0x5a, 0x99, 0xf1, 0xda, 0x0b, 0x98, 0x34, 0x97, 0x1e, 0x05, 0xb7, 0xa3, 0x33, 0x67, 0xb6, 0x3e, 0x63, 0xc9, 0x15, 0x88, 0x2c, 0x0b, 0xcd, 0xb8, 0x24, 0x28, 0x4f, 0x19, 0x35, 0xda, 0xd2, 0x8b, 0x52, 0x76, 0xf1, 0x09, 0xc2, 0x05, 0xfb, 0x27, 0x28, 0x91, 0x89, 0x59, 0x96, 0x34, 0x35, 0x97, 0x98, 0x13, 0xa4, 0xd8, 0xe2, 0xf0, 0x39, 0xd8, 0x6b, 0xf7, 0xd6, 0x89, 0x54, 0x69, 0xd4, 0x2c, 0xc3, 0xb9, 0x97, 0x68, 0x6f, 0x88, 0xd5, 0x1e, 0x08, 0xa1, 0xfb, 0xc2, 0xc7, 0xc7, 0xfc, 0xd0, 0xd8, 0x79, 0xfa, 0xa6, 0x36, 0xda, 0x87, 0x4e, 0xdd, 0xac, 0x5c, 0xcd, 0x4f, 0xa0, 0x5a, 0x9e, 0x3e, 0x4e, 0xdf, 0x10, 0xf4, 0xf2, 0xd5, 0x53, 0xc0, 0x53, 0x00, 0x52, 0x47, 0xab, 0x47, 0xea, 0xbf, 0xb6, 0xcd, 0x13, 0x5a, 0x5e, 0xed, 0x42, 0xb6, 0x56, 0x9d, 0xc7, 0x44, 0x94, 0x76, 0xc4, 0x9f, 0x05, 0x57, 0xf7, 0x3a, 0x96, 0xe5, 0x0c, 0x3e, 0xd5, 0x5a, 0x4e, 0xee, 0x38, 0x4d, 0x45, 0xdf, 0x92, 0xb9, 0x42, 0x59, 0xe4, 0x4a, 0x38, 0x22, 0x55, 0x16, 0x4e, 0x9a, 0xd3, 0x05, 0x36, 0xe6, 0x3f, 0x02, 0x50, 0x93, 0x95, 0x2a, 0x54, 0xcf, 0xf0, 0xd6, 0xa8, 0x13, 0x6c, 0x13, 0xf3, 0x4c, 0x38, 0xc5, 0xa4, 0xcb, 0x9b, 0xd0, 0x99, 0xa9, 0x9f, 0x6e, 0x13, 0x47, 0x53, 0x41, 0x42, 0x1c, 0xad, 0xeb, 0xcc, 0x5e, 0x5d, 0xee, 0xe2, 0x1b, 0x02, 0xf8, 0x38, 0x1a, 0xd3, 0x3b, 0xda, 0x2d, 0xa0, 0x8d, 0x4a, 0xb4, 0x5f, 0x36, 0x53, 0xcf, 0x91, 0x9f, 0xee, 0x5f, 0x05, 0x57, 0xc7, 0xc7, 0xfe, 0x8a, 0xc5, 0x08, 0x60, 0xaf, 0x12, 0x28, 0x05, 0x4a, 0x20, 0x62, 0xea, 0x0a, 0x26, 0x44, 0xda, 0xbe, 0xf9, 0x58, 0xa1, 0xe4, 0x4e, 0x39, 0x8b, 0xb1, 0x4a, 0xe9, 0x51, 0xda, 0xb2, 0xe1, 0xce, 0x91, 0x64, 0x8f, 0x69, 0x4b, 0xcf, 0x19, 0x89, 0xb4, 0xff, 0x5b, 0xcb, 0xfe, 0x2b, 0x40, 0xd7, 0xf7, 0x40, 0x19, 0x6d, 0x09, 0xfd, 0xdb, 0x50, 0xcd, 0x08, 0x6e, 0x49, 0x5d, 0x81, 0x5c, 0x50, 0xf5, 0x4c, 0x01, 0x25, 0xfb, 0x9a, 0x28, 0xfa, 0x15, 0x93, 0x47, 0xec, 0x4c, 0x3e, 0x8c, 0x29, 0xd3, 0xfb, 0x55, 0xda, 0xce, 0x2a, 0x88, 0x4e, 0x0b, 0xca, 0x38, 0x34, 0xc6, 0x29, 0xdb, 0x3d, 0xc7, 0xf1, 0xbb, 0xc2, 0xfb, 0xa9, 0x0e, 0xa3, 0x5f, 0xf1, 0x4a, 0x2d, 0xca, 0x08, 0x23, 0x61, 0xaa, 0xc8, 0x3f, 0xaa, 0x2c, 0x57, 0xf1, 0xbc, 0x0d, 0xa9, 0x59, 0xba, 0x4a, 0xfc, 0x20, 0x23, 0x33, 0x2c, 0x19, 0x6e, 0xd9, 0xb2, 0x44, 0x0b, 0xdf, 0x37, 0x10, 0x30, 0x55, 0xa3, 0xe2, 0x00, 0x0f, 0xaa, 0xf0, 0xc3, 0x01, 0xfd, 0x1c, 0xac, 0xfb, 0xd0, 0xa6, 0xae, 0x2c, 0x01, 0xd1, 0xe7, 0xf2, 0xae, 0xe1, 0xb5, 0xd5, 0x32, 0x34, 0x9c, 0x53, 0xcd, 0xf9, 0xd5, 0xac, 0xf9, 0x36, 0x42, 0xf9, 0xfd, 0xcc, 0xcc, 0xac, 0x14, 0xd1, 0x0c, 0xdf, 0xf9, 0x60, 0x30, 0xff, 0x04, 0x90, 0x0a, 0xce, 0xdc, 0xd3, 0xf7, 0xaa, 0xad, 0x67, 0x33, 0x61, 0x26, 0x07, 0x00, 0x4a, 0x2a, 0x98, 0xd3, 0x95, 0xb8, 0x62, 0x30, 0x50, 0x99, 0x49, 0xdf, 0xd6, 0x39, 0x04, 0xe4, 0xb6, 0x9a, 0xe7, 0x16, 0xe1, 0xf2, 0xfb, 0x37, 0xb9, 0x36, 0x27, 0xe6, 0xab, 0xb6, 0x00, 0x96, 0x1c, 0xf9, 0x66, 0x61, 0xdc, 0x28, 0xb0, 0x22, 0xa2, 0x5f, 0xb5, 0xf4, 0x46, 0x2e, 0xb4, 0xad, 0xa6, 0xb8, 0xaf, 0xfa, 0xad, 0x34, 0x6b, 0xe5, 0xd2, 0x30, 0x31, 0xd9, 0x51, 0xa6, 0x91, 0xca, 0x9e, 0x0c, 0xf1, 0x47, 0xb2, 0x3d, 0x60, 0x2a, 0xbc, 0x16, 0xcc, 0xd7, 0x51, 0x20, 0x2b, 0x03, 0x0d, 0x1b, 0x28, 0xb0, 0xec, 0x2c, 0x2d, 0x59, 0x19, 0xe4, 0x9a, 0x1a, 0xea, 0x5f, 0xe3, 0x58, 0x53, 0x3a, 0x18, 0xbf, 0xae, 0x66, 0xe8, 0xcf, 0x9a, 0xb7, 0xd2, 0x48, 0x56, 0xb1, 0x07, 0xef, 0xd5, 0xae, 0xef, 0x34, 0x04, 0xf1, 0xf2, 0xaf, 0x05, 0x34, 0x6d, 0x1c, 0xc7, 0x3a, 0x23, 0xab, 0xe9, 0x26, 0xa9, 0x0c, 0x0f, 0xaa, 0x61, 0x94, 0x16, 0x5e, 0x9e, 0x30, 0x12, 0x96, 0x1d, 0x35, 0x9c, 0xe8, 0x14, 0xb7, 0xe9, 0xd5, 0xa8, 0x41, 0x13, 0x49, 0xf5, 0x4f, 0x0a, 0xbd, 0x3c, 0x49, 0x07, 0xfb, 0x58, 0xfb, 0x24, 0x60, 0xb0, 0x16, 0xcc, 0xb0, 0xe6, 0x9f, 0x64, 0x45, 0xed, 0x54, 0xb7, 0xf1, 0xb7, 0x06, 0x21, 0xfa, 0x1b, 0xb9, 0xea, 0xc5, 0x9c, 0x08, 0x65, 0x64, 0x44, 0x93, 0xc6, 0x14, 0xfb, 0xfd, 0x27, 0x3f, 0xdf, 0x01, 0x1c, 0x0a, 0xb4, 0xc0, 0xa2, 0x01, 0xc7, 0xf7, 0x4c, 0xf1, 0xe4, 0xec, 0x07, 0xd9, 0x35, 0x1c, 0xd8, 0xd0, 0xda, 0x1f, 0x62, 0xdc, 0xa7, 0x03, 0xf3, 0xe8, 0xcb, 0xe8, 0x5d, 0x41, 0x1b, 0x54, 0x31, 0x5a, 0x3f, 0x1c, 0xa9, 0xba, 0x66, 0xe2, 0x3b, 0x2c, 0x35, 0x0b, 0x4a, 0xc8, 0xd7, 0x66, 0x33, 0x97, 0xd4, 0x3b, 0x17, 0x2a, 0xc4, 0x2e, 0xbc, 0x5e, 0xf4, 0x47, 0xc6, 0x1b, 0x28, 0x36, 0x43, 0xf1, 0x81, 0x29, 0xf1, 0xf0, 0x6f, 0xc7, 0x49, 0x5a, 0xc8, 0x13, 0xdd, 0x4e, 0x33, 0x8f, 0xab, 0x1a, 0x33, 0xdc, 0xd3, 0xd4, 0xd7, 0x59, 0x3a, 0xe8, 0xe1, 0x92, 0x54, 0x84, 0x26, 0xc9, 0x34, 0xfa, 0x12, 0x54, 0xc1, 0xe2, 0x3a, 0xd7, 0x3a, 0x54, 0xc1, 0x39, 0xe1, 0xd7, 0x49, 0x31, 0x4a, 0x95, 0xe9, 0xe1, 0xcf, 0xe5, 0xd6, 0x64, 0x42, 0x37, 0x5f, 0x33, 0xd6, 0xf7, 0x3f, 0x48, 0x3d, 0x1e, 0x4c, 0x96, 0x98, 0xb2, 0xdd, 0x52, 0x2c, 0x16, 0xaa, 0xc9, 0xb5, 0xfd, 0x86, 0xe2, 0xee, 0x18, 0x96, 0xb6, 0xb6, 0x14, 0xbf, 0xd8, 0x97, 0xb3, 0x22, 0x89, 0x55, 0x9f, 0x23, 0x11, 0x1a, 0xb0, 0x90, 0x12, 0xb8, 0x1d, 0x14, 0x01, 0xfc, 0x13, 0xe3, 0x03, 0xea, 0x52, 0x9d, 0x24, 0xa2, 0x64, 0xb3, 0x6d, 0x23, 0xc5, 0xd2, 0x6c, 0x8e, 0x16, 0xd4, 0x01, 0x0d, 0x2a, 0x4c, 0xc4, 0xe3, 0x44, 0x62, 0xf9, 0xcb, 0xee, 0xc2, 0x6b, 0x36, 0xd1, 0x6f, 0xc2, 0x2b, 0xf4, 0xb3, 0x67, 0x51, 0x2f, 0x0e, 0x0e, 0xc7, 0x6c, 0xff, 0x8e, 0x34, 0x45, 0x26, 0xca, 0x3c, 0xb0, 0x38, 0xb1, 0x5d, 0x4b, 0x13, 0x44, 0x3e, 0x9c, 0x36, 0x22, 0xa3, 0xd0, 0xad, 0x57, 0xb3, 0x0e, 0xe6, 0x8a, 0x8f, 0xda, 0xf9, 0xc1, 0xda, 0x34, 0x52, 0x17, 0xc2, 0x2e, 0x20, 0xaa, 0x3a, 0x50, 0xf4, 0x28, 0x55, 0xa5, 0x89, 0x6a, 0x51, 0x9b, 0x2e, 0x16, 0x47, 0x94, 0x99, 0xa1, 0x2c, 0x83, 0x4e, 0x57, 0xc1, 0xc7, 0xee, 0xec, 0xf5, 0xda, 0xd7, 0xab, 0x52, 0x5d, 0xae, 0xd0, 0x53, 0x95, 0xad, 0x62, 0x64, 0x87, 0xb4, 0x0a, 0x0a, 0xee, 0xcd, 0x9b, 0xf8, 0xc9, 0x0b, 0xd7, 0x4d, 0x6b, 0x93, 0xf3, 0x35, 0x50, 0xb5, 0x05, 0x63, 0x8f, 0xa0, 0xeb, 0xc7, 0x6d, 0x98, 0x8c, 0xb5, 0xf9, 0xf9, 0x1d, 0x4c, 0xf4, 0x60, 0xd3, 0xe7, 0xa0, 0xa8, 0xa4, 0xf2, 0x9b, 0xd5, 0xab, 0xc7, 0x9b, 0x8f, 0x39, 0x45, 0xf4, 0x9d, 0xc2, 0x82, 0x8d, 0x18, 0xc8, 0x1a, 0xd6, 0xdb, 0x8f, 0x54, 0xde, 0x8c, 0xf6, 0x16, 0x06, 0xfd, 0x71, 0x2c, 0xcc, 0x5e, 0xbe, 0x41, 0x1c, 0x17, 0x69, 0x1a, 0x17, 0xc4, 0x41, 0xce, 0xc1, 0x6b, 0xba, 0xb2, 0x2a, 0x5f, 0xa2, 0xb8, 0x65, 0x5c, 0x53, 0xd0, 0x0c, 0x47, 0x81, 0x84, 0xd4, 0x2c, 0x8d, 0xb3, 0x0d, 0x4d, 0x56, 0xd5, 0xac, 0xb6, 0xb5, 0xdd, 0x12, 0x30, 0x35, 0x19, 0xe1, 0x00, 0xad, 0xd7, 0x53, 0xa2, 0x1e, 0x75, 0xa7, 0x68, 0xf8, 0x84, 0xf2, 0xa8, 0xa4, 0x44, 0xfb, 0x39, 0x0f, 0x45, 0xf9, 0xd0, 0x81, 0xb9, 0x22, 0x14, 0xcb, 0x40, 0xbd, 0xd0, 0xc0, 0x54, 0xcb, 0x91, 0x26, 0xd4, 0x5b, 0xf5, 0xac, 0xb5, 0x97, 0xcd, 0x37, 0x01, 0x4a, 0x38, 0x19, 0x87, 0x96, 0xae, 0x60, 0xca, 0x0b, 0x3d, 0x02, 0x1f, 0xa5, 0x4c, 0xf2, 0x60, 0xca, 0x5f, 0x5a, 0xfd, 0x01, 0x2b, 0xd1, 0xe2, 0x28, 0xff, 0x0d, 0x31, 0xe7, 0x4a, 0x67, 0x9f, 0x04, 0x23, 0x65, 0xeb, 0x0d, 0xe9, 0xe1, 0x33, 0x94, 0x31, 0x14, 0xed, 0x55, 0x9a, 0x15, 0x91, 0xe6, 0xf0, 0x2b, 0x48, 0xc7, 0x6f, 0xb3, 0x68, 0x98, 0xb6, 0x2a, 0x29, 0x0e, 0x05, 0x36, 0x5c, 0xba, 0x45, 0x1e, 0x41, 0xfe, 0xf4, 0x55, 0x27, 0x14, 0x81, 0xa2, 0xc4, 0xfe, 0x02, 0xfa, 0x10, 0x0c, 0xb2, 0x25, 0x28, 0x33, 0x0b, 0x37, 0x6a, 0xe2, 0xab, 0x9b, 0xea, 0x71, 0xd3, 0xbd, 0xc9, 0x86, 0x67, 0xe3, 0x4f, 0xe4, 0xd4, 0x1b, 0x66, 0x0b, 0xfa, 0xcf, 0xc0, 0x60, 0x50, 0x15, 0xb3, 0xd8, 0x04, 0xe3, 0x9b, 0xd4, 0x12, 0xe3, 0x43, 0x67, 0xda, 0x0c, 0x09, 0x9f, 0x5d, 0xd3, 0x04, 0xa2, 0x54, 0x7e, 0xdc, 0xe8, 0xa1, 0x58, 0x23, 0xf5, 0x1d, 0x1d, 0x4e, 0xdc, 0x75, 0x48, 0x9b, 0x71, 0xd4, 0x56, 0x09, 0xd0, 0xc9, 0xf8, 0xa8, 0xba, 0x30, 0xfc, 0x60, 0x3f, 0xd9, 0x35, 0x90, 0x26, 0xf3, 0x03, 0x0c, 0xd7, 0x73, 0xe8, 0x41, 0x88, 0x65, 0x04, 0x50, 0xd9, 0x5b, 0x5e, 0x54, 0x34, 0x48, 0x52, 0xc5, 0x5b, 0x0c, 0x02, 0xe7, 0xd2, 0x2e, 0x9f, 0x26, 0xbb, 0x6e, 0xf3, 0x4a, 0x51, 0xdb, 0xe3, 0x16, 0xd0, 0x05, 0xc2, 0x1e, 0x73, 0xe0, 0x48, 0x6e, 0x0e, 0x51, 0xb4, 0xa6, 0x18, 0xfd, 0x75, 0x34, 0x52, 0x3b, 0x93, 0x0a, 0x1e, 0xbf, 0x9a, 0xc1, 0x4f, 0xde, 0xc9, 0xaa, 0xdf, 0x20, 0xf9, 0xf5, 0xdb, 0xaf, 0x58, 0x5c, 0x53, 0x09, 0x6b, 0xe9, 0x05, 0x93, 0xb3, 0x1c, 0x38, 0xda, 0xb4, 0xbc, 0xb8, 0xac, 0xd0, 0xab, 0xfa, 0x18, 0x37, 0xee, 0x32, 0x07, 0x3f, 0x99, 0xb9, 0xdc, 0x5c, 0x68, 0x11, 0x1f, 0xa1, 0xb8, 0xf7, 0x4c, 0x6d, 0x40, 0x35, 0x36, 0xb5, 0xc2, 0xab, 0xfa, 0x24, 0x4f, 0x24, 0xa6, 0x21, 0x98, 0xde, 0x4d, 0x17, 0xf3, 0xf8, 0xb5, 0x6f, 0x71, 0xce, 0x52, 0x5a, 0x25, 0x2c, 0x01, 0x86, 0x98, 0x50, 0x91, 0xd5, 0x18, 0x5a, 0xa6, 0x58, 0xf1, 0x5f, 0x73, 0x36, 0xbf, 0x66, 0xbd, 0xd0, 0x22, 0x0a, 0x91, 0x29, 0x90, 0xa3, 0x9c, 0x05, 0xdc, 0xcf, 0xb6, 0x07, 0x62, 0x52, 0x5d, 0x97, 0x39, 0x26, 0x9e, 0xc9, 0x51, 0xab, 0x35, 0x3d, 0x1a, 0x09, 0x45, 0x5c, 0xdb, 0x13, 0xed, 0x2a, 0x57, 0x26, 0x05, 0x34, 0x66, 0xa5, 0x48, 0x70, 0x8b, 0xc3, 0x10, 0x3a, 0xd2, 0x98, 0x2c, 0x18, 0xa6, 0x26, 0x61, 0xe1, 0xd1, 0xc3, 0xc4, 0x91, 0x4c, 0x28, 0x97, 0x8d, 0xc4, 0x24, 0x26, 0xf8, 0x00, 0x44, 0x58, 0x8c, 0x97, 0x4d, 0x2f, 0x41, 0xff, 0xf4, 0xaa, 0x01, 0xcf, 0x26, 0x15, 0x20, 0xde, 0xb4, 0xd2, 0x4e, 0x5d, 0xf4, 0x92, 0xed, 0x24, 0xa7, 0x83, 0xdc, 0x21, 0xfd, 0x8f, 0xbf, 0x8c, 0xad, 0xde, 0xb0, 0x7c, 0x84, 0x53, 0x64, 0xab, 0x19, 0x78, 0x8b, 0x57, 0x6d, 0x9f, 0x98, 0x59, 0x6e, 0x34, 0x2e, 0x16, 0x7e, 0x88, 0x35, 0x3b, 0x7e, 0xbf, 0x29, 0xd1, 0x00, 0x34, 0xb5, 0xea, 0x04, 0xe0, 0xd9, 0xb2, 0x6e, 0x1d, 0xd7, 0x79, 0xd4, 0xc8, 0x25, 0xed, 0xa9, 0x6a, 0x96, 0x4b, 0x4b, 0x56, 0x8f, 0x59, 0x82, 0x6f, 0x70, 0xab, 0xf4, 0x9e, 0x32, 0xea, 0x5a, 0x39, 0x2e, 0xdd, 0xda, 0x42, 0x51, 0x22, 0x2f, 0x98, 0xbf, 0x45, 0x56, 0xfb, 0x86, 0xbf, 0x6e, 0x79, 0xaf, 0xc8, 0xe9, 0x81, 0x4a, 0x60, 0xb7, 0x69, 0xac, 0x8d, 0xf4, 0xb6, 0xc1, 0x05, 0x6a, 0x90, 0xaa, 0x94, 0xae, 0x00, 0x07, 0x1b, 0x6b, 0xc6, 0xcc, 0xe8, 0xda, 0x8e, 0x94, 0x89, 0x34, 0x8a, 0xc6, 0x28, 0xd9, 0x22, 0x05, 0x7e, 0x6f, 0xf4, 0xc9, 0x16, 0xe2, 0x1e, 0x79, 0x2e, 0xc0, 0x0c, 0x6f, 0x82, 0xad, 0xb4, 0x41, 0xe0, 0x17, 0xf4, 0xa1, 0x0b, 0xac, 0x9b, 0xec, 0x4f, 0x6e, 0xe9, 0xee, 0x8f, 0x86, 0xc2, 0x11, 0x3e, 0xf6, 0x89, 0x10, 0xf6, 0xbe, 0x7c, 0x71, 0x7c, 0x73, 0x8f, 0xd9, 0x4a, 0x6a, 0x1b, 0x74, 0xe2, 0xcf, 0x8b, 0x21, 0xc8, 0x98, 0x64, 0x58, 0x05, 0x78, 0xa5, 0x55, 0x58, 0x0b, 0xcd, 0x60, 0xdd, 0xf6, 0x43, 0xb2, 0xa2, 0xe0, 0x98, 0x46, 0xd6, 0x4c, 0xa8, 0x67, 0x9d, 0xd0, 0x08, 0x91, 0xca, 0xbd, 0xbf, 0x26, 0xe0, 0xa4, 0x59, 0x58, 0xb3, 0x7e, 0x16, 0xe8, 0xc1, 0x2d, 0x67, 0x81, 0x58, 0x44, 0x64, 0x13, 0x05, 0x20, 0xcb, 0xe9, 0xdb, 0x77, 0x33, 0x25, 0x85, 0xdc, 0xfd, 0xd4, 0x11, 0x15, 0x85, 0x19, 0x8d, 0x33, 0x28, 0x28, 0xae, 0xdc, 0x03, 0x0a, 0x8f, 0xe1, 0x30, 0x77, 0xbf, 0x40, 0x77, 0x3b, 0x50, 0x39, 0xb8, 0x84, 0x20, 0x43, 0x11, 0xe3, 0x67, 0x9b, 0x03, 0x56, 0x11, 0x4c, 0xb6, 0xe0, 0x42, 0xdf, 0xf0, 0xb4, 0x91, 0xc9, 0x4b, 0xa7, 0x96, 0x65, 0xcc, 0x0a, 0x37, 0xde, 0x40, 0x9c, 0xf2, 0x20, 0xb3, 0x38, 0xa6, 0x57, 0x47, 0x81, 0x61, 0x4f, 0x6e, 0x87, 0xa0, 0x2e, 0x0b, 0x87, 0xda, 0xcc, 0x97, 0x9f, 0x19, 0xe3, 0x1d, 0x2a, 0x71, 0xc0, 0xd2, 0x79, 0x30, 0x79, 0xd1, 0x38, 0x2e, 0xba, 0x49, 0xfc, 0xa6, 0x6d, 0x27, 0x4e, 0xd0, 0xce, 0xf8, 0xd5, 0xfa, 0x19, 0xac, 0xb5, 0xdc, 0xfd, 0xbf, 0x8a, 0xb9, 0x9b, 0xfc, 0xe8, 0xe9, 0xee, 0x34, 0x9d, 0xfb, 0xa9, 0x09, 0x71, 0x74, 0xee, 0xd0, 0xa9, 0xd2, 0xcd, 0xb9, 0xdb, 0x14, 0xdd, 0x02, 0xe5, 0xe1, 0x78, 0x82, 0xd9, 0x2b, 0xcf, 0xc6, 0x17, 0x96, 0x40, 0x66, 0x7f, 0x5f, 0x11, 0xd1, 0x50, 0xa6, 0x65, 0xa9, 0xb5, 0xbb, 0x22, 0x19, 0x7d, 0x12, 0x49, 0xac, 0x52, 0x88, 0xa7, 0xbb, 0x3a, 0x2b, 0x1e, 0x66, 0xfe, 0x35, 0xcd, 0x8e, 0x83, 0x13, 0x02, 0xf1, 0xea, 0x64, 0x95, 0xac, 0xae, 0x28, 0x9a, 0xaa, 0xb6, 0x3f, 0x8e, 0x0a, 0x49, 0xb2, 0xcd, 0xd4, 0xe5, 0xde, 0xce, 0x46, 0x6d, 0x4f, 0xd0, 0xf0, 0x7e, 0x1f, 0x94, 0x3e, 0x4f, 0x36, 0xab, 0xdb, 0x20, 0xcb, 0xb6, 0x35, 0xf0, 0x90, 0xc6, 0xae, 0x5e, 0x0f, 0x6a, 0x60, 0x0d, 0x2a, 0xe1, 0x7b, 0x50, 0x98, 0x3c, 0x68, 0xe6, 0x63, 0xc5, 0xa2, 0x39, 0x2c, 0xf8, 0x2e, 0xb5, 0xc9, 0x31, 0xcc, 0xeb, 0x5e, 0xd2, 0xec, 0x6e, 0xba, 0x65, 0x17, 0x03, 0x9e, 0x13, 0x7e, 0x10, 0xbc, 0x42, 0xb1, 0xdf, 0xae, 0x5e, 0xdb, 0xeb, 0xb7, 0x9d, 0x3c, 0x95, 0x01, 0x71, 0x10, 0x8d, 0x13, 0x2a, 0xb5, 0x31, 0x40, 0xf8, 0x37, 0x41, 0x6a, 0x3b, 0xe4, 0x2a, 0x37, 0x97, 0x7b, 0x62, 0xf6, 0x5d, 0xfd, 0x3b, 0x19, 0xe2, 0x8d, 0xc1, 0x98, 0x0e, 0x78, 0xb7, 0x10, 0x0b, 0x01, 0x33, 0x4e, 0x68, 0xef, 0x8a, 0x94, 0x87, 0xd7, 0x2e, 0x56, 0x8f, 0x8f, 0x61, 0xf7, 0x84, 0x52, 0x4e, 0x50, 0x4f, 0xfb, 0x01, 0xf8, 0x70, 0xb5, 0xfa, 0x5a, 0x67, 0x57, 0x1c, 0x1f, 0x83, 0xf7, 0x27, 0x77, 0xb9, 0xdc, 0x36, 0xae, 0x81, 0xd4, 0xc6, 0x24, 0x10, 0x42, 0x90, 0x7b, 0xab, 0x9a, 0xcf, 0x9b, 0x29, 0x01, 0x09, 0x07, 0x11, 0xe6, 0xb5, 0x52, 0xb2, 0xa3, 0x6b, 0xc1, 0x46, 0xb3, 0x0a, 0x5f, 0x82, 0xe5, 0xa5, 0x06, 0xbf, 0xee, 0xe8, 0xb1, 0x01, 0x9c, 0x61, 0x5f, 0xc0, 0xc4, 0x06, 0xd1, 0xbe, 0xb3, 0x5d, 0xa1, 0xe4, 0x78, 0xda, 0x70, 0x79, 0xbb, 0x52, 0xe1, 0x27, 0x40, 0xd8, 0xfa, 0x25, 0x13, 0x90, 0x2b, 0x93, 0x44, 0xed, 0x31, 0x0d, 0xcf, 0xc9, 0x5b, 0xd1, 0x1d, 0x7b, 0x90, 0xe1, 0x39, 0x5f, 0xca, 0xe4, 0x41, 0xa5, 0xab, 0xd5, 0x34, 0x49, 0x9b, 0xc4, 0xfe, 0x48, 0x5f, 0xe0, 0x2a, 0xc0, 0xca, 0x47, 0x0a, 0x60, 0x67, 0xf3, 0xab, 0xd9, 0x46, 0x28, 0x16, 0x62, 0xf1, 0x3e, 0x0f, 0x06, 0xc2, 0xa8, 0x72, 0xfb, 0x1a, 0xe9, 0xde, 0xf8, 0xf5, 0x73, 0x46, 0xd3, 0x8f, 0x01, 0x39, 0xfa, 0xe5, 0x6f, 0x98, 0x5b, 0xac, 0xc6, 0x02, 0x3c, 0xcf, 0xc1, 0x83, 0x05, 0xe3, 0xc0, 0x02, 0x8e, 0xa9, 0x23, 0x2b, 0x63, 0x14, 0xda, 0x14, 0x9e, 0xc3, 0x46, 0xaa, 0xcb, 0xab, 0x86, 0xff, 0xd7, 0xa5, 0x5a, 0xa1, 0x88, 0x37, 0x7b, 0x2e, 0x40, 0x84, 0xed, 0xc8, 0x94, 0xc0, 0xf1, 0x63, 0x4c, 0xa9, 0xc6, 0x17, 0xb9, 0x6d, 0x2f, 0x7c, 0x49, 0x72, 0xd6, 0xca, 0x5e, 0x34, 0xe6, 0x42, 0x23, 0x55, 0x6e, 0x9f, 0x54, 0x2b, 0x15, 0x8e, 0xac, 0x46, 0x37, 0x89, 0x1b, 0xe9, 0x29, 0x60, 0xcf, 0x84, 0x43, 0x31, 0x87, 0x3d, 0xd0, 0xd8, 0xb6, 0x16, 0xca, 0x3f, 0xb4, 0x7a, 0x8f, 0xa9, 0x45, 0x4f, 0x7e, 0x32, 0x67, 0xf7, 0xbe, 0x05, 0x88, 0x65, 0xd2, 0x6c, 0x74, 0x41, 0x70, 0x6b, 0x5a, 0x7d, 0xfc, 0xa1, 0x98, 0x9e, 0xde, 0xbf, 0x2c, 0xeb, 0xeb, 0xfe, 0x3a, 0x7e, 0x2c, 0xfd, 0x75, 0xc6, 0xd4, 0x22, 0x0b, 0xdf, 0xcc, 0xf8, 0xa8, 0x98, 0x95, 0x65, 0xf8, 0x6c, 0x45, 0x68, 0x6d, 0x0b, 0x56, 0x24, 0x38, 0xcb, 0x70, 0xd5, 0xa6, 0x95, 0xe4, 0xca, 0xd6, 0x11, 0xda, 0xc9, 0xd3, 0x5b, 0xd7, 0xd3, 0x16, 0xbb, 0xae, 0x4e, 0xa2, 0x3d, 0x91, 0x03, 0x82, 0xac, 0xe5, 0xdd, 0x90, 0x14, 0xd1, 0xf0, 0x51, 0x37, 0xc1, 0xd7, 0xf3, 0x2f, 0x9f, 0xe2, 0x99, 0xa5, 0x17, 0xea, 0x04, 0x85, 0x49, 0xa1, 0x8e, 0x40, 0x0e, 0x57, 0xce, 0xea, 0x39, 0x68, 0x6c, 0xc5, 0x79, 0x03, 0xef, 0x00, 0x2b, 0x77, 0x89, 0x70, 0xf9, 0x61, 0xf8, 0xfc, 0x7b, 0x1e, 0xcd, 0x98, 0x86, 0xcf, 0xd0, 0x83, 0x73, 0xb7, 0x44, 0xd8, 0xe6, 0xab, 0xaf, 0xb3, 0x4b, 0x82, 0x65, 0x2f, 0x10, 0xff, 0x58, 0x3a, 0x2a, 0xd7, 0xbb, 0xa7, 0xf0, 0x58, 0x3d, 0x10, 0xb5, 0xc2, 0xff, 0x6e, 0x3d, 0x4d, 0x78, 0x42, 0xfb, 0xde, 0xa6, 0x1c, 0x6a, 0x7d, 0x20, 0x46, 0x5d, 0xdb, 0xc0, 0x1e, 0xfe, 0x8a, 0x27, 0x32, 0xcb, 0x9e, 0x02, 0xc9, 0xd0, 0x56, 0xcc, 0xc5, 0xad, 0x8f, 0x3c, 0xcf, 0x9b, 0xe1, 0x92, 0xcf, 0x97, 0x3a, 0x62, 0xca, 0x7d, 0x7d, 0x53, 0x97, 0xd3, 0x58, 0x7b, 0x2f, 0x19, 0xe2, 0xc0, 0x9d, 0xf4, 0x4c, 0x88, 0x56, 0xb3, 0x95, 0xf9, 0x92, 0xac, 0xea, 0xc4, 0xb8, 0x8d, 0xab, 0xc7, 0x50, 0xe0, 0xbd, 0xa4, 0xb6, 0xd2, 0x27, 0xa4, 0x1e, 0xb6, 0xa3, 0x76, 0x91, 0x4e, 0xe5, 0x93, 0x29, 0xd4, 0x19, 0x0e, 0xd5, 0x63, 0x25, 0xda, 0x6d, 0xe2, 0x84, 0xe2, 0xd9, 0x8f, 0xec, 0xd3, 0xa4, 0x3a, 0x4c, 0x81, 0x60, 0x2b, 0x70, 0x82, 0x13, 0xd0, 0xf8, 0xe8, 0xc1, 0x2a, 0x45, 0x4e, 0x5f, 0x4c, 0xbf, 0xde, 0x07, 0x92, 0xd9, 0x3c, 0x2b, 0xe5, 0x40, 0xaa, 0xf0, 0x7d, 0xe8, 0xd3, 0x7e, 0xa3, 0x65, 0xfd, 0x46, 0x14, 0x0c, 0x75, 0xfd, 0xc8, 0xf4, 0x65, 0x98, 0x6f, 0x23, 0x47, 0xea, 0x8b, 0x55, 0xf5, 0x48, 0x7d, 0x7f, 0xf0, 0x7c, 0x03, 0x13, 0x40, 0x93, 0x3d, 0x4e, 0x2e, 0x8f, 0x2c, 0x17, 0x83, 0x65, 0x74, 0x4b, 0x5b, 0x7a, 0x78, 0x74, 0x56, 0x42, 0x1d, 0xd2, 0x5f, 0xa0, 0x15, 0xbf, 0x3c, 0x76, 0x28, 0x4d, 0x87, 0x04, 0xf5, 0x93, 0x62, 0x78, 0xd0, 0xb1, 0x6f, 0xc4, 0x01, 0x87, 0xaa, 0x60, 0x26, 0x79, 0x3f, 0xd3, 0x0d, 0x12, 0x90, 0xf1, 0xb9, 0xec, 0xdd, 0x65, 0x6c, 0x68, 0xdd, 0xc6, 0x96, 0x1b, 0x67, 0xa2, 0xae, 0x53, 0x71, 0x2f, 0xe5, 0x23, 0x68, 0x17, 0x98, 0xde, 0xf2, 0x70, 0x7e, 0x0c, 0x3e, 0xce, 0xd2, 0x10, 0xa2, 0x13, 0xc4, 0xdb, 0x57, 0x57, 0xa2, 0x41, 0x52, 0xe3, 0x46, 0x3b, 0x6b, 0x64, 0xb2, 0x84, 0xc1, 0xe3, 0xab, 0xf3, 0xd3, 0xe9, 0xd4, 0xc4, 0x04, 0x78, 0x44, 0x10, 0xbd, 0x5c, 0x60, 0x4d, 0xb5, 0xd9, 0x8d, 0x76, 0xcd, 0x74, 0xbd, 0x0e, 0x4c, 0x6f, 0x3b, 0x50, 0x71, 0xb4, 0x94, 0x0f, 0x88, 0xc8, 0x0c, 0xa0, 0x75, 0xf4, 0x8b, 0xad, 0xc7, 0xcc, 0x8b, 0x17, 0xf3, 0xbb, 0xb6, 0xca, 0x5d, 0xcc, 0x94, 0xc7, 0x22, 0x20, 0x3a, 0xa5, 0x34, 0xfa, 0xc8, 0xb4, 0x94, 0x13, 0xb0, 0xa9, 0x75, 0xcb, 0x85, 0x04, 0xf7, 0xc7, 0x38, 0xb2, 0xb0, 0xf4, 0xa7, 0xef, 0xb7, 0xd8, 0xd5, 0x26, 0x20, 0x63, 0x3d, 0x26, 0x44, 0x5e, 0x04, 0xf9, 0x28, 0xc1, 0xe6, 0x07, 0xea, 0xa6, 0x57, 0xc6, 0x6d, 0x66, 0xab, 0x12, 0xa4, 0x2d, 0xc5, 0xf0, 0xac, 0xe5, 0xfb, 0x65, 0x38, 0xb7, 0x01, 0x5c, 0x79, 0x4b, 0x59, 0x16, 0x52, 0xe1, 0x0d, 0xc0, 0x6b, 0xed, 0xcb, 0x2d, 0xfe, 0x96, 0x13, 0x34, 0xa3, 0xf4, 0x2f, 0x2d, 0x61, 0x6b, 0x78, 0xfb, 0x3d, 0xf0, 0x2c, 0x62, 0x54, 0x9e, 0x78, 0x8e, 0x5e, 0x7e, 0x63, 0x01, 0x47, 0xf6, 0xaf, 0xd9, 0x23, 0xa9, 0xa3, 0xa0, 0x2a, 0x05, 0x1d, 0xe0, 0x02, 0x3c, 0xa1, 0x7a, 0xee, 0xee, 0x96, 0xc1, 0xe1, 0xdf, 0x15, 0x9c, 0x6a, 0x7d, 0xc4, 0x01, 0xc0, 0x90, 0xa2, 0x67, 0xe4, 0x8d, 0x79, 0x1b, 0x77, 0x02, 0xed, 0xfa, 0x40, 0x03, 0x7b, 0xe6, 0x38, 0xba, 0xec, 0xae, 0x88, 0xc3, 0xb3, 0x5f, 0x8e, 0x54, 0xe0, 0xb9, 0xc0, 0x98, 0x87, 0xed, 0x12, 0xc8, 0xf0, 0xea, 0x05, 0x0d, 0xf3, 0x71, 0x7b, 0xa2, 0xef, 0x75, 0x7b, 0xa8, 0x0e, 0x49, 0x6e, 0xab, 0xc0, 0x41, 0x99, 0xb2, 0xf5, 0x91, 0x10, 0xc5, 0x86, 0x8c, 0xfd, 0x7f, 0x11, 0x91, 0x1e, 0x88, 0xda, 0xcd, 0xcd, 0x0b, 0x08, 0x89, 0x49, 0x9a, 0xba, 0x7b, 0x32, 0x82, 0x45, 0xf4, 0x8a, 0xf3, 0x8e, 0x1f, 0xcd, 0x7a, 0x1e, 0x97, 0x37, 0x05, 0x89, 0xd6, 0x21, 0x2a, 0x46, 0x3d, 0x05, 0x8b, 0x1e, 0xf6, 0x83, 0x9e, 0x39, 0x3d, 0x99, 0xd2, 0x98, 0xf9, 0x97, 0xff, 0xf6, 0xfc, 0x88, 0xe8, 0x83, 0x0b, 0x3f, 0x91, 0xee, 0xb5, 0x46, 0x82, 0xb0, 0xbf, 0x24, 0xd1, 0x37, 0x8e, 0x96, 0xcf, 0xdf, 0x35, 0x34, 0x6f, 0x2e, 0x2b, 0x64, 0x95, 0x30, 0xed, 0xc8, 0x9a, 0x7b, 0x8e, 0xb2, 0x1c, 0xc9, 0x66, 0xab, 0x4e, 0x01, 0xdc, 0xe4, 0xdb, 0x82, 0x19, 0x82, 0xa4, 0x09, 0x1b, 0xd0, 0xe2, 0xcc, 0xfe, 0x5a, 0xe5, 0x4a, 0xeb, 0x0c, 0xf4, 0xad, 0x88, 0x4b, 0x2f, 0xf0, 0xdb, 0xd5, 0x64, 0x9f, 0x65, 0x8d, 0x88, 0x4f, 0x52, 0xff, 0xba, 0xe8, 0x95, 0x09, 0x10, 0xe8, 0x92, 0x55, 0xe2, 0x12, 0x90, 0x02, 0x27, 0xba, 0xc8, 0x27, 0x0f, 0xd7, 0x57, 0x49, 0x06, 0x4c, 0x38, 0x14, 0x21, 0x1e, 0x19, 0x69, 0xe0, 0x96, 0xeb, 0x99, 0x32, 0x4d, 0x8b, 0x13, 0xde, 0x41, 0x00, 0x5d, 0xd6, 0x01, 0xca, 0x48, 0xd9, 0x4e, 0xe3, 0x65, 0x53, 0x3b, 0xe1, 0xad, 0x92, 0x5b, 0xf1, 0xc2, 0xb8, 0x6e, 0x1d, 0x14, 0x6d, 0x3b, 0x5b, 0x3b, 0xb4, 0xad, 0xb6, 0x68, 0x4d, 0xdb, 0x6b, 0x71, 0xee, 0xdb, 0x21, 0xff, 0x69, 0x24, 0x2a, 0xa9, 0x31, 0x1c, 0xed, 0x2b, 0x04, 0x2f, 0xc3, 0x56, 0x3c, 0xd1, 0x92, 0x0b, 0xf7, 0x89, 0xf5, 0xfe, 0x0e, 0xb0, 0xf2, 0x33, 0x5c, 0x04, 0xed, 0xda, 0x28, 0x18, 0x54, 0xcc, 0x11, 0x62, 0x48, 0x61, 0x94, 0x45, 0x32, 0x76, 0x11, 0x93, 0xaa, 0x2e, 0x4b, 0xc0, 0x19, 0x1e, 0x1e, 0x97, 0x9c, 0xfa, 0xcc, 0xa4, 0x4c, 0x3a, 0xba, 0x15, 0x91, 0x14, 0xe2, 0xf2, 0x68, 0x9d, 0xac, 0xc1, 0x1d, 0x17, 0x67, 0xf6, 0x4d, 0x64, 0xbb, 0x20, 0xef, 0x07, 0x58, 0xf1, 0xd1, 0x54, 0x88, 0xf8, 0xd3, 0xe1, 0x2f, 0xc7, 0x16, 0x26, 0xd9, 0xe9, 0x3c, 0x62, 0x50, 0x00, 0xbc, 0xff, 0x54, 0x8c, 0x17, 0xce, 0xba, 0x39, 0x70, 0x93, 0x9f, 0xe0, 0xd2, 0xed, 0x88, 0x42, 0xb4, 0x38, 0x2b, 0x8c, 0xed, 0xa5, 0xf2, 0xe5, 0xa1, 0x58, 0x89, 0x9c, 0x9e, 0xd3, 0x48, 0x0d, 0x9c, 0xf4, 0x01, 0xb1, 0x61, 0x4a, 0x0e, 0x2c, 0xb3, 0x79, 0x9e, 0xa3, 0x64, 0xef, 0xed, 0x97, 0xb1, 0x41, 0x31, 0xdb, 0xbe, 0x94, 0x8e, 0x2c, 0xe9, 0x21, 0x8f, 0x9e, 0x11, 0x7f, 0x1d, 0x30, 0xea, 0xeb, 0xac, 0x2b, 0xe9, 0xf5, 0x4c, 0xe2, 0xfb, 0xad, 0xdc, 0xd3, 0x6b, 0x78, 0xe8, 0x18, 0x99, 0xb1, 0x64, 0x4d, 0x4e, 0x0d, 0x68, 0xa3, 0xb7, 0x9a, 0x9b, 0x24, 0xf0, 0x5e, 0x43, 0x04, 0xbf, 0x2f, 0x4e, 0x46, 0x1a, 0xcc, 0xe8, 0xdd, 0x32, 0x2a, 0x24, 0xb0, 0xb7, 0xc9, 0x6e, 0x08, 0x89, 0x98, 0x43, 0x31, 0x08, 0x37, 0x48, 0x01, 0x3f, 0xc1, 0xb9, 0x58, 0xc5, 0xa2, 0x92, 0xb9, 0xae, 0x12, 0x26, 0x15, 0x51, 0x13, 0x11, 0x59, 0xf6, 0x5c, 0xc3, 0xfb, 0x50, 0xb8, 0x3e, 0xd1, 0xa6, 0xc5, 0x3b, 0x66, 0x2e, 0x45, 0xbe, 0x53, 0x9a, 0x21, 0x21, 0xfe, 0xc4, 0xd6, 0xf5, 0x22, 0x48, 0x1c, 0xad, 0x2d, 0xd2, 0x97, 0x02, 0xcf, 0x28, 0x5b, 0x09, 0x15, 0xa5, 0x1c, 0xa0, 0x62, 0xcf, 0xeb, 0x36, 0xe6, 0xfd, 0x5d, 0x21, 0x91, 0xf5, 0x08, 0xa2, 0x47, 0x19, 0x58, 0x58, 0x0e, 0x39, 0x3e, 0xdc, 0x67, 0x18, 0xf8, 0x0a, 0xdd, 0xab, 0x5b, 0x53, 0xc8, 0xad, 0xa4, 0x59, 0xda, 0x92, 0xa9, 0xed, 0x5f, 0x87, 0xfe, 0x44, 0x53, 0x2d, 0x17, 0xf9, 0xed, 0x3c, 0x5f, 0x9d, 0x55, 0xc9, 0xf4, 0x0c, 0x93, 0xf8, 0x30, 0x16, 0x5d, 0x57, 0x64, 0x26, 0x9b, 0x54, 0xda, 0xa0, 0x5a, 0xa7, 0x12, 0x5e, 0x39, 0x37, 0x49, 0x79, 0xa8, 0x61, 0xbc, 0xde, 0xd2, 0x9c, 0x26, 0x83, 0xd1, 0xe7, 0x48, 0xa5, 0x68, 0x4f, 0xa0, 0x70, 0x98, 0xfb, 0x48, 0x25, 0x89, 0xea, 0xce, 0x1d, 0xb1, 0x3d, 0x3a, 0x4d, 0xdf, 0x32, 0xe9, 0x47, 0x99, 0xa5, 0xf0, 0x4f, 0x56, 0xb1, 0xca, 0xe1, 0xf4, 0xae, 0x25, 0x23, 0xd0, 0xee, 0x41, 0x64, 0x12, 0xf3, 0x49, 0x2b, 0x21, 0x0b, 0x5c, 0x88, 0xc5, 0xbb, 0x94, 0xf8, 0x3f, 0x41, 0xad, 0x5d, 0x9e, 0x11, 0x45, 0x60, 0x4c, 0x0b, 0xaa, 0x94, 0xf4, 0x59, 0x3c, 0x9b, 0xbf, 0xec, 0x52, 0x40, 0xc1, 0x57, 0x0f, 0x2b, 0x6b, 0x1a, 0x40, 0xbc, 0xfd, 0x3f, 0x22, 0xcb, 0x14, 0x51, 0xd5, 0xed, 0x3b, 0xc9, 0x6c, 0x2c, 0xed, 0xf3, 0xec, 0x24, 0xde, 0x75, 0x40, 0xb5, 0xe3, 0x9d, 0xb9, 0x9b, 0x8e, 0xc2, 0x6c, 0x0d, 0x96, 0xb6, 0xe4, 0x4a, 0xb4, 0x62, 0x7a, 0x99, 0x04, 0x8c, 0xee, 0x73, 0x44, 0x99, 0xf4, 0x9e, 0xe9, 0xb8, 0x99, 0x72, 0x95, 0x06, 0x9d, 0xe4, 0x09, 0xbc, 0x33, 0xac, 0xb0, 0xb1, 0xec, 0xa2, 0x5d, 0x38, 0x62, 0xba, 0xf5, 0xba, 0xcc, 0x94, 0x6e, 0xe2, 0xe5, 0xd8, 0x6f, 0xb3, 0xe3, 0xa6, 0x91, 0x6d, 0xd3, 0xde, 0xf3, 0x3e, 0xfe, 0xec, 0xb4, 0x45, 0xbc, 0xb8, 0x45, 0xc9, 0xb6, 0x69, 0x9f, 0x3d, 0x35, 0xf2, 0x8f, 0x2a, 0xf2, 0x4e, 0x24, 0x7f, 0xc1, 0x2c, 0x1e, 0x57, 0xfe, 0x3e, 0x1e, 0x32, 0x62, 0xca, 0x6a, 0x20, 0xf0, 0x53, 0x21, 0x02, 0x0d, 0x59, 0x61, 0x1c, 0xf7, 0x2e, 0x94, 0xfc, 0x03, 0xac, 0xc6, 0xb7, 0x38, 0xe9, 0xb5, 0xbf, 0x55, 0x00, 0x3b, 0x54, 0xdb, 0x02, 0xfb, 0xee, 0x3d, 0xe4, 0xe1, 0x6f, 0x82, 0x06, 0xfe, 0xef, 0x42, 0x83, 0x1c, 0x23, 0xdf, 0x54, 0xe8, 0x13, 0x88, 0x22, 0x05, 0x2f, 0x97, 0x30, 0x49, 0x27, 0x1c, 0xd2, 0xeb, 0xe1, 0xf9, 0x08, 0x10, 0x8c, 0x6b, 0x14, 0xe3, 0x3e, 0x32, 0x69, 0xe9, 0x1b, 0x3d, 0x3a, 0x08, 0x93, 0xf9, 0xb7, 0x88, 0x0a, 0xaa, 0xb2, 0xbc, 0x19, 0xd7, 0xd4, 0x6c, 0xb1, 0xac, 0xa6, 0xa1, 0xe0, 0xe9, 0xb7, 0x1d, 0x9f, 0x74, 0xe8, 0xb9, 0xc0, 0x44, 0x19, 0xb0, 0xb2, 0x1e, 0x70, 0x34, 0x63, 0x9d, 0xf7, 0xaf, 0x2c, 0xbd, 0x1e, 0xe8, 0xfb, 0xbe, 0xc0, 0x8c, 0x14, 0xd7, 0x91, 0x72, 0x40, 0xb6, 0xfe, 0xff, 0xff, 0x04, 0x00, 0x00, 0x00, 0x40, 0x00, 0x00, 0x00, 0xf3, 0xff, 0xff, 0xff, 0x00, 0x00, 0x00, 0x00, 0xe0, 0xff, 0xff, 0xff, 0xe3, 0xff, 0xff, 0xff, 0xe3, 0xff, 0xff, 0xff, 0xf0, 0xff, 0xff, 0xff, 0xec, 0xff, 0xff, 0xff, 0xf0, 0xff, 0xff, 0xff, 0xe7, 0xff, 0xff, 0xff, 0xf4, 0xff, 0xff, 0xff, 0x00, 0x00, 0x00, 0x00, 0x00, 0x00, 0x00, 0x00, 0x00, 0x00, 0x00, 0x00, 0x00, 0x00, 0x00, 0x00, 0xf1, 0xff, 0xff, 0xff, 0xed, 0xff, 0xff, 0xff, 0x02, 0xff, 0xff, 0xff, 0x04, 0x00, 0x00, 0x00, 0x30, 0x00, 0x00, 0x00, 0xe6, 0xc1, 0xf7, 0xd6, 0x4a, 0xf3, 0x89, 0x00, 0x17, 0x84, 0xce, 0xe8, 0x96, 0xd7, 0x14, 0x7f, 0xa0, 0xd0, 0x3b, 0x4f, 0x5b, 0x66, 0x9a, 0x88, 0x50, 0x7f, 0x18, 0xe5, 0x1a, 0x8e, 0xe8, 0x2f, 0x96, 0xd1, 0x9a, 0xb4, 0x12, 0x77, 0x29, 0x9b, 0x74, 0x53, 0xa9, 0x10, 0x7f, 0xdf, 0x74, 0x84, 0x3e, 0xff, 0xff, 0xff, 0x04, 0x00, 0x00, 0x00, 0x0c, 0x00, 0x00, 0x00, 0x7d, 0x00, 0x00, 0x00, 0xd1, 0xfe, 0xff, 0xff, 0x9b, 0x00, 0x00, 0x00, 0x56, 0xff, 0xff, 0xff, 0x04, 0x00, 0x00, 0x00, 0x08, 0x00, 0x00, 0x00, 0xff, 0xff, 0xff, 0xff, 0x80, 0x01, 0x00, 0x00, 0xf8, 0xf0, 0xff, 0xff, 0xfc, 0xf0, 0xff, 0xff, 0x0f, 0x00, 0x00, 0x00, 0x4d, 0x4c, 0x49, 0x52, 0x20, 0x43, 0x6f, 0x6e, 0x76, 0x65, 0x72, 0x74, 0x65, 0x64, 0x2e, 0x00, 0x01, 0x00, 0x00, 0x00, 0x14, 0x00, 0x00, 0x00, 0x00, 0x00, 0x0e, 0x00, 0x18, 0x00, 0x14, 0x00, 0x10, 0x00, 0x0c, 0x00, 0x08, 0x00, 0x04, 0x00, 0x0e, 0x00, 0x00, 0x00, 0x14, 0x00, 0x00, 0x00, 0x1c, 0x00, 0x00, 0x00, 0x4c, 0x02, 0x00, 0x00, 0x50, 0x02, 0x00, 0x00, 0x54, 0x02, 0x00, 0x00, 0x04, 0x00, 0x00, 0x00, 0x6d, 0x61, 0x69, 0x6e, 0x00, 0x00, 0x00, 0x00, 0x08, 0x00, 0x00, 0x00, 0xe8, 0x01, 0x00, 0x00, 0x84, 0x01, 0x00, 0x00, 0x34, 0x01, 0x00, 0x00, 0xf0, 0x00, 0x00, 0x00, 0xc8, 0x00, 0x00, 0x00, 0x78, 0x00, 0x00, 0x00, 0x40, 0x00, 0x00, 0x00, 0x04, 0x00, 0x00, 0x00, 0xa6, 0xfe, 0xff, 0xff, 0x1c, 0x00, 0x00, 0x00, 0x00, 0x00, 0x00, 0x09, 0x1c, 0x00, 0x00, 0x00, 0x20, 0x00, 0x00, 0x00, 0x04, 0x00, 0x00, 0x00, 0x00, 0x00, 0x06, 0x00, 0x08, 0x00, 0x04, 0x00, 0x06, 0x00, 0x00, 0x00, 0x00, 0x00, 0x80, 0x3f, 0x01, 0x00, 0x00, 0x00, 0x11, 0x00, 0x00, 0x00, 0x01, 0x00, 0x00, 0x00, 0x10, 0x00, 0x00, 0x00, 0xde, 0xfe, 0xff, 0xff, 0x14, 0x00, 0x00, 0x00, 0x00, 0x00, 0x00, 0x08, 0x10, 0x00, 0x00, 0x00, 0x14, 0x00, 0x00, 0x00, 0x03, 0x00, 0x00, 0x00, 0xc4, 0xf1, 0xff, 0xff, 0x01, 0x00, 0x00, 0x00, 0x10, 0x00, 0x00, 0x00, 0x03, 0x00, 0x00, 0x00, 0x0f, 0x00, 0x00, 0x00, 0x03, 0x00, 0x00, 0x00, 0x02, 0x00, 0x00, 0x00, 0x12, 0xff, 0xff, 0xff, 0x1c, 0x00, 0x00, 0x00, 0x00, 0x00, 0x00, 0x08, 0x1c, 0x00, 0x00, 0x00, 0x20, 0x00, 0x00, 0x00, 0x03, 0x00, 0x00, 0x00, 0x00, 0x00, 0x06, 0x00, 0x08, 0x00, 0x07, 0x00, 0x06, 0x00, 0x00, 0x00, 0x00, 0x00, 0x00, 0x01, 0x01, 0x00, 0x00, 0x00, 0x0f, 0x00, 0x00, 0x00, 0x03, 0x00, 0x00, 0x00, 0x0e, 0x00, 0x00, 0x00, 0x05, 0x00, 0x00, 0x00, 0x04, 0x00, 0x00, 0x00, 0x00, 0x00, 0x0a, 0x00, 0x10, 0x00, 0x0c, 0x00, 0x08, 0x00, 0x04, 0x00, 0x0a, 0x00, 0x00, 0x00, 0x0c, 0x00, 0x00, 0x00, 0x10, 0x00, 0x00, 0x00, 0x02, 0x00, 0x00, 0x00, 0x01, 0x00, 0x00, 0x00, 0x0e, 0x00, 0x00, 0x00, 0x02, 0x00, 0x00, 0x00, 0x0d, 0x00, 0x00, 0x00, 0x01, 0x00, 0x00, 0x00, 0x82, 0xff, 0xff, 0xff, 0x14, 0x00, 0x00, 0x00, 0x00, 0x00, 0x00, 0x05, 0x24, 0x00, 0x00, 0x00, 0x28, 0x00, 0x00, 0x00, 0x01, 0x00, 0x00, 0x00, 0x72, 0xff, 0xff, 0xff, 0x02, 0x00, 0x00, 0x00, 0x02, 0x00, 0x00, 0x00, 0x02, 0x00, 0x00, 0x00, 0x02, 0x00, 0x00, 0x00, 0x00, 0x00, 0x00, 0x01, 0x01, 0x00, 0x00, 0x00, 0x0d, 0x00, 0x00, 0x00, 0x01, 0x00, 0x00, 0x00, 0x0c, 0x00, 0x00, 0x00, 0x62, 0xff, 0xff, 0xff, 0x10, 0x00, 0x00, 0x00, 0x00, 0x00, 0x00, 0x01, 0x18, 0x00, 0x00, 0x00, 0x1c, 0x00, 0x00, 0x00, 0x54, 0xff, 0xff, 0xff, 0x00, 0x00, 0x00, 0x01, 0x01, 0x00, 0x00, 0x00, 0x01, 0x00, 0x00, 0x00, 0x01, 0x00, 0x00, 0x00, 0x0c, 0x00, 0x00, 0x00, 0x03, 0x00, 0x00, 0x00, 0x0b, 0x00, 0x00, 0x00, 0x07, 0x00, 0x00, 0x00, 0x06, 0x00, 0x00, 0x00, 0x00, 0x00, 0x0e, 0x00, 0x1a, 0x00, 0x14, 0x00, 0x10, 0x00, 0x0c, 0x00, 0x0b, 0x00, 0x04, 0x00, 0x0e, 0x00, 0x00, 0x00, 0x24, 0x00, 0x00, 0x00, 0x00, 0x00, 0x00, 0x05, 0x34, 0x00, 0x00, 0x00, 0x38, 0x00, 0x00, 0x00, 0x01, 0x00, 0x00, 0x00, 0x00, 0x00, 0x0e, 0x00, 0x18, 0x00, 0x17, 0x00, 0x10, 0x00, 0x0c, 0x00, 0x08, 0x00, 0x04, 0x00, 0x0e, 0x00, 0x00, 0x00, 0x02, 0x00, 0x00, 0x00, 0x02, 0x00, 0x00, 0x00, 0x02, 0x00, 0x00, 0x00, 0x02, 0x00, 0x00, 0x00, 0x00, 0x00, 0x00, 0x01, 0x01, 0x00, 0x00, 0x00, 0x0b, 0x00, 0x00, 0x00, 0x01, 0x00, 0x00, 0x00, 0x0a, 0x00, 0x00, 0x00, 0x00, 0x00, 0x0e, 0x00, 0x14, 0x00, 0x00, 0x00, 0x10, 0x00, 0x0c, 0x00, 0x0b, 0x00, 0x04, 0x00, 0x0e, 0x00, 0x00, 0x00, 0x1c, 0x00, 0x00, 0x00, 0x00, 0x00, 0x00, 0x01, 0x24, 0x00, 0x00, 0x00, 0x28, 0x00, 0x00, 0x00, 0x0c, 0x00, 0x10, 0x00, 0x00, 0x00, 0x0c, 0x00, 0x08, 0x00, 0x07, 0x00, 0x0c, 0x00, 0x00, 0x00, 0x00, 0x00, 0x00, 0x01, 0x01, 0x00, 0x00, 0x00, 0x01, 0x00, 0x00, 0x00, 0x01, 0x00, 0x00, 0x00, 0x0a, 0x00, 0x00, 0x00, 0x03, 0x00, 0x00, 0x00, 0x00, 0x00, 0x00, 0x00, 0x09, 0x00, 0x00, 0x00, 0x08, 0x00, 0x00, 0x00, 0x01, 0x00, 0x00, 0x00, 0x11, 0x00, 0x00, 0x00, 0x01, 0x00, 0x00, 0x00, 0x00, 0x00, 0x00, 0x00, 0x12, 0x00, 0x00, 0x00, 0xa4, 0x0c, 0x00, 0x00, 0x48, 0x0c, 0x00, 0x00, 0xb8, 0x0b, 0x00, 0x00, 0x3c, 0x0b, 0x00, 0x00, 0x28, 0x0a, 0x00, 0x00, 0x0c, 0x09, 0x00, 0x00, 0xf8, 0x07, 0x00, 0x00, 0xd4, 0x06, 0x00, 0x00, 0x20, 0x06, 0x00, 0x00, 0x5c, 0x05, 0x00, 0x00, 0x88, 0x04, 0x00, 0x00, 0xec, 0x03, 0x00, 0x00, 0xf8, 0x02, 0x00, 0x00, 0x5c, 0x02, 0x00, 0x00, 0xd8, 0x01, 0x00, 0x00, 0x24, 0x01, 0x00, 0x00, 0x80, 0x00, 0x00, 0x00, 0x04, 0x00, 0x00, 0x00, 0xba, 0xf3, 0xff, 0xff, 0x00, 0x00, 0x00, 0x01, 0x18, 0x00, 0x00, 0x00, 0x20, 0x00, 0x00, 0x00, 0x3c, 0x00, 0x00, 0x00, 0x12, 0x00, 0x00, 0x00, 0x00, 0x00, 0x00, 0x09, 0x50, 0x00, 0x00, 0x00, 0x02, 0x00, 0x00, 0x00, 0xff, 0xff, 0xff, 0xff, 0x03, 0x00, 0x00, 0x00, 0x9c, 0xf3, 0xff, 0xff, 0x08, 0x00, 0x00, 0x00, 0x10, 0x00, 0x00, 0x00, 0x01, 0x00, 0x00, 0x00, 0x80, 0xff, 0xff, 0xff, 0xff, 0xff, 0xff, 0xff, 0x01, 0x00, 0x00, 0x00, 0x00, 0x00, 0x80, 0x3b, 0x1b, 0x00, 0x00, 0x00, 0x53, 0x74, 0x61, 0x74, 0x65, 0x66, 0x75, 0x6c, 0x50, 0x61, 0x72, 0x74, 0x69, 0x74, 0x69, 0x6f, 0x6e, 0x65, 0x64, 0x43, 0x61, 0x6c, 0x6c, 0x5f, 0x31, 0x3a, 0x30, 0x00, 0x02, 0x00, 0x00, 0x00, 0x01, 0x00, 0x00, 0x00, 0x03, 0x00, 0x00, 0x00, 0x32, 0xf4, 0xff, 0xff, 0x00, 0x00, 0x00, 0x01, 0x18, 0x00, 0x00, 0x00, 0x20, 0x00, 0x00, 0x00, 0x40, 0x00, 0x00, 0x00, 0x11, 0x00, 0x00, 0x00, 0x00, 0x00, 0x00, 0x09, 0x78, 0x00, 0x00, 0x00, 0x02, 0x00, 0x00, 0x00, 0xff, 0xff, 0xff, 0xff, 0x03, 0x00, 0x00, 0x00, 0x14, 0xf4, 0xff, 0xff, 0x08, 0x00, 0x00, 0x00, 0x14, 0x00, 0x00, 0x00, 0x01, 0x00, 0x00, 0x00, 0x1c, 0x00, 0x00, 0x00, 0x00, 0x00, 0x00, 0x00, 0x00, 0x00, 0x00, 0x00, 0x01, 0x00, 0x00, 0x00, 0xb6, 0x8b, 0x66, 0x3d, 0x3c, 0x00, 0x00, 0x00, 0x73, 0x65, 0x71, 0x75, 0x65, 0x6e, 0x74, 0x69, 0x61, 0x6c, 0x5f, 0x31, 0x2f, 0x64, 0x65, 0x6e, 0x73, 0x65, 0x5f, 0x31, 0x5f, 0x32, 0x2f, 0x4d, 0x61, 0x74, 0x4d, 0x75, 0x6c, 0x3b, 0x73, 0x65, 0x71, 0x75, 0x65, 0x6e, 0x74, 0x69, 0x61, 0x6c, 0x5f, 0x31, 0x2f, 0x64, 0x65, 0x6e, 0x73, 0x65, 0x5f, 0x31, 0x5f, 0x32, 0x2f, 0x42, 0x69, 0x61, 0x73, 0x41, 0x64, 0x64, 0x00, 0x00, 0x00, 0x00, 0x02, 0x00, 0x00, 0x00, 0x01, 0x00, 0x00, 0x00, 0x03, 0x00, 0x00, 0x00, 0xd2, 0xf4, 0xff, 0xff, 0x00, 0x00, 0x00, 0x01, 0x18, 0x00, 0x00, 0x00, 0x20, 0x00, 0x00, 0x00, 0x3c, 0x00, 0x00, 0x00, 0x10, 0x00, 0x00, 0x00, 0x00, 0x00, 0x00, 0x09, 0x88, 0x00, 0x00, 0x00, 0x02, 0x00, 0x00, 0x00, 0xff, 0xff, 0xff, 0xff, 0x10, 0x00, 0x00, 0x00, 0xb4, 0xf4, 0xff, 0xff, 0x08, 0x00, 0x00, 0x00, 0x10, 0x00, 0x00, 0x00, 0x01, 0x00, 0x00, 0x00, 0x80, 0xff, 0xff, 0xff, 0xff, 0xff, 0xff, 0xff, 0x01, 0x00, 0x00, 0x00, 0x4f, 0x58, 0xb2, 0x3d, 0x52, 0x00, 0x00, 0x00, 0x73, 0x65, 0x71, 0x75, 0x65, 0x6e, 0x74, 0x69, 0x61, 0x6c, 0x5f, 0x31, 0x2f, 0x64, 0x65, 0x6e, 0x73, 0x65, 0x5f, 0x31, 0x2f, 0x4d, 0x61, 0x74, 0x4d, 0x75, 0x6c, 0x3b, 0x73, 0x65, 0x71, 0x75, 0x65, 0x6e, 0x74, 0x69, 0x61, 0x6c, 0x5f, 0x31, 0x2f, 0x64, 0x65, 0x6e, 0x73, 0x65, 0x5f, 0x31, 0x2f, 0x52, 0x65, 0x6c, 0x75, 0x3b, 0x73, 0x65, 0x71, 0x75, 0x65, 0x6e, 0x74, 0x69, 0x61, 0x6c, 0x5f, 0x31, 0x2f, 0x64, 0x65, 0x6e, 0x73, 0x65, 0x5f, 0x31, 0x2f, 0x42, 0x69, 0x61, 0x73, 0x41, 0x64, 0x64, 0x00, 0x00, 0x02, 0x00, 0x00, 0x00, 0x01, 0x00, 0x00, 0x00, 0x10, 0x00, 0x00, 0x00, 0x82, 0xf5, 0xff, 0xff, 0x00, 0x00, 0x00, 0x01, 0x18, 0x00, 0x00, 0x00, 0x20, 0x00, 0x00, 0x00, 0x40, 0x00, 0x00, 0x00, 0x0f, 0x00, 0x00, 0x00, 0x00, 0x00, 0x00, 0x09, 0x58, 0x00, 0x00, 0x00, 0x02, 0x00, 0x00, 0x00, 0xff, 0xff, 0xff, 0xff, 0x80, 0x01, 0x00, 0x00, 0x64, 0xf5, 0xff, 0xff, 0x08, 0x00, 0x00, 0x00, 0x14, 0x00, 0x00, 0x00, 0x01, 0x00, 0x00, 0x00, 0x80, 0xff, 0xff, 0xff, 0xff, 0xff, 0xff, 0xff, 0x00, 0x00, 0x00, 0x00, 0x01, 0x00, 0x00, 0x00, 0x0f, 0x58, 0xb6, 0x3e, 0x1e, 0x00, 0x00, 0x00, 0x73, 0x65, 0x71, 0x75, 0x65, 0x6e, 0x74, 0x69, 0x61, 0x6c, 0x5f, 0x31, 0x2f, 0x66, 0x6c, 0x61, 0x74, 0x74, 0x65, 0x6e, 0x5f, 0x31, 0x2f, 0x52, 0x65, 0x73, 0x68, 0x61, 0x70, 0x65, 0x00, 0x00, 0x02, 0x00, 0x00, 0x00, 0x01, 0x00, 0x00, 0x00, 0x80, 0x01, 0x00, 0x00, 0x02, 0xf6, 0xff, 0xff, 0x00, 0x00, 0x00, 0x01, 0x18, 0x00, 0x00, 0x00, 0x28, 0x00, 0x00, 0x00, 0x44, 0x00, 0x00, 0x00, 0x0e, 0x00, 0x00, 0x00, 0x00, 0x00, 0x00, 0x09, 0x68, 0x00, 0x00, 0x00, 0x04, 0x00, 0x00, 0x00, 0xff, 0xff, 0xff, 0xff, 0x08, 0x00, 0x00, 0x00, 0x03, 0x00, 0x00, 0x00, 0x10, 0x00, 0x00, 0x00, 0xec, 0xf5, 0xff, 0xff, 0x08, 0x00, 0x00, 0x00, 0x10, 0x00, 0x00, 0x00, 0x01, 0x00, 0x00, 0x00, 0x80, 0xff, 0xff, 0xff, 0xff, 0xff, 0xff, 0xff, 0x01, 0x00, 0x00, 0x00, 0x0f, 0x58, 0xb6, 0x3e, 0x28, 0x00, 0x00, 0x00, 0x73, 0x65, 0x71, 0x75, 0x65, 0x6e, 0x74, 0x69, 0x61, 0x6c, 0x5f, 0x31, 0x2f, 0x6d, 0x61, 0x78, 0x5f, 0x70, 0x6f, 0x6f, 0x6c, 0x69, 0x6e, 0x67, 0x32, 0x64, 0x5f, 0x31, 0x5f, 0x32, 0x2f, 0x4d, 0x61, 0x78, 0x50, 0x6f, 0x6f, 0x6c, 0x32, 0x64, 0x00, 0x00, 0x00, 0x00, 0x04, 0x00, 0x00, 0x00, 0x01, 0x00, 0x00, 0x00, 0x08, 0x00, 0x00, 0x00, 0x03, 0x00, 0x00, 0x00, 0x10, 0x00, 0x00, 0x00, 0x9a, 0xf6, 0xff, 0xff, 0x00, 0x00, 0x00, 0x01, 0x18, 0x00, 0x00, 0x00, 0x28, 0x00, 0x00, 0x00, 0x44, 0x00, 0x00, 0x00, 0x0d, 0x00, 0x00, 0x00, 0x00, 0x00, 0x00, 0x09, 0xc0, 0x00, 0x00, 0x00, 0x04, 0x00, 0x00, 0x00, 0xff, 0xff, 0xff, 0xff, 0x10, 0x00, 0x00, 0x00, 0x06, 0x00, 0x00, 0x00, 0x10, 0x00, 0x00, 0x00, 0x84, 0xf6, 0xff, 0xff, 0x08, 0x00, 0x00, 0x00, 0x10, 0x00, 0x00, 0x00, 0x01, 0x00, 0x00, 0x00, 0x80, 0xff, 0xff, 0xff, 0xff, 0xff, 0xff, 0xff, 0x01, 0x00, 0x00, 0x00, 0x0f, 0x58, 0xb6, 0x3e, 0x80, 0x00, 0x00, 0x00, 0x73, 0x65, 0x71, 0x75, 0x65, 0x6e, 0x74, 0x69, 0x61, 0x6c, 0x5f, 0x31, 0x2f, 0x63, 0x6f, 0x6e, 0x76, 0x32, 0x64, 0x5f, 0x31, 0x5f, 0x32, 0x2f, 0x52, 0x65, 0x6c, 0x75, 0x3b, 0x73, 0x65, 0x71, 0x75, 0x65, 0x6e, 0x74, 0x69, 0x61, 0x6c, 0x5f, 0x31, 0x2f, 0x63, 0x6f, 0x6e, 0x76, 0x32, 0x64, 0x5f, 0x31, 0x5f, 0x32, 0x2f, 0x42, 0x69, 0x61, 0x73, 0x41, 0x64, 0x64, 0x3b, 0x73, 0x65, 0x71, 0x75, 0x65, 0x6e, 0x74, 0x69, 0x61, 0x6c, 0x5f, 0x31, 0x2f, 0x63, 0x6f, 0x6e, 0x76, 0x32, 0x64, 0x5f, 0x31, 0x5f, 0x32, 0x2f, 0x63, 0x6f, 0x6e, 0x76, 0x6f, 0x6c, 0x75, 0x74, 0x69, 0x6f, 0x6e, 0x3b, 0x73, 0x65, 0x71, 0x75, 0x65, 0x6e, 0x74, 0x69, 0x61, 0x6c, 0x5f, 0x31, 0x2f, 0x63, 0x6f, 0x6e, 0x76, 0x32, 0x64, 0x5f, 0x31, 0x5f, 0x32, 0x2f, 0x53, 0x71, 0x75, 0x65, 0x65, 0x7a, 0x65, 0x00, 0x00, 0x00, 0x00, 0x04, 0x00, 0x00, 0x00, 0x01, 0x00, 0x00, 0x00, 0x10, 0x00, 0x00, 0x00, 0x06, 0x00, 0x00, 0x00, 0x10, 0x00, 0x00, 0x00, 0x8a, 0xf7, 0xff, 0xff, 0x00, 0x00, 0x00, 0x01, 0x18, 0x00, 0x00, 0x00, 0x28, 0x00, 0x00, 0x00, 0x48, 0x00, 0x00, 0x00, 0x0c, 0x00, 0x00, 0x00, 0x00, 0x00, 0x00, 0x09, 0x68, 0x00, 0x00, 0x00, 0x04, 0x00, 0x00, 0x00, 0xff, 0xff, 0xff, 0xff, 0x10, 0x00, 0x00, 0x00, 0x06, 0x00, 0x00, 0x00, 0x08, 0x00, 0x00, 0x00, 0x74, 0xf7, 0xff, 0xff, 0x08, 0x00, 0x00, 0x00, 0x14, 0x00, 0x00, 0x00, 0x01, 0x00, 0x00, 0x00, 0x80, 0xff, 0xff, 0xff, 0xff, 0xff, 0xff, 0xff, 0x00, 0x00, 0x00, 0x00, 0x01, 0x00, 0x00, 0x00, 0x92, 0x74, 0x92, 0x3f, 0x26, 0x00, 0x00, 0x00, 0x73, 0x65, 0x71, 0x75, 0x65, 0x6e, 0x74, 0x69, 0x61, 0x6c, 0x5f, 0x31, 0x2f, 0x6d, 0x61, 0x78, 0x5f, 0x70, 0x6f, 0x6f, 0x6c, 0x69, 0x6e, 0x67, 0x32, 0x64, 0x5f, 0x31, 0x2f, 0x4d, 0x61, 0x78, 0x50, 0x6f, 0x6f, 0x6c, 0x32, 0x64, 0x00, 0x00, 0x04, 0x00, 0x00, 0x00, 0x01, 0x00, 0x00, 0x00, 0x10, 0x00, 0x00, 0x00, 0x06, 0x00, 0x00, 0x00, 0x08, 0x00, 0x00, 0x00, 0x22, 0xf8, 0xff, 0xff, 0x00, 0x00, 0x00, 0x01, 0x18, 0x00, 0x00, 0x00, 0x28, 0x00, 0x00, 0x00, 0x48, 0x00, 0x00, 0x00, 0x0b, 0x00, 0x00, 0x00, 0x00, 0x00, 0x00, 0x09, 0xa0, 0x00, 0x00, 0x00, 0x04, 0x00, 0x00, 0x00, 0xff, 0xff, 0xff, 0xff, 0x20, 0x00, 0x00, 0x00, 0x0d, 0x00, 0x00, 0x00, 0x08, 0x00, 0x00, 0x00, 0x0c, 0xf8, 0xff, 0xff, 0x08, 0x00, 0x00, 0x00, 0x14, 0x00, 0x00, 0x00, 0x01, 0x00, 0x00, 0x00, 0x80, 0xff, 0xff, 0xff, 0xff, 0xff, 0xff, 0xff, 0x00, 0x00, 0x00, 0x00, 0x01, 0x00, 0x00, 0x00, 0x92, 0x74, 0x92, 0x3f, 0x5c, 0x00, 0x00, 0x00, 0x73, 0x65, 0x71, 0x75, 0x65, 0x6e, 0x74, 0x69, 0x61, 0x6c, 0x5f, 0x31, 0x2f, 0x63, 0x6f, 0x6e, 0x76, 0x32, 0x64, 0x5f, 0x31, 0x2f, 0x52, 0x65, 0x6c, 0x75, 0x3b, 0x73, 0x65, 0x71, 0x75, 0x65, 0x6e, 0x74, 0x69, 0x61, 0x6c, 0x5f, 0x31, 0x2f, 0x63, 0x6f, 0x6e, 0x76, 0x32, 0x64, 0x5f, 0x31, 0x2f, 0x42, 0x69, 0x61, 0x73, 0x41, 0x64, 0x64, 0x3b, 0x73, 0x65, 0x71, 0x75, 0x65, 0x6e, 0x74, 0x69, 0x61, 0x6c, 0x5f, 0x31, 0x2f, 0x63, 0x6f, 0x6e, 0x76, 0x32, 0x64, 0x5f, 0x31, 0x2f, 0x63, 0x6f, 0x6e, 0x76, 0x6f, 0x6c, 0x75, 0x74, 0x69, 0x6f, 0x6e, 0x3b, 0x31, 0x00, 0x00, 0x00, 0x00, 0x04, 0x00, 0x00, 0x00, 0x01, 0x00, 0x00, 0x00, 0x20, 0x00, 0x00, 0x00, 0x0d, 0x00, 0x00, 0x00, 0x08, 0x00, 0x00, 0x00, 0x4a, 0xf9, 0xff, 0xff, 0x00, 0x00, 0x00, 0x01, 0x14, 0x00, 0x00, 0x00, 0x88, 0x00, 0x00, 0x00, 0x0a, 0x00, 0x00, 0x00, 0x00, 0x00, 0x00, 0x09, 0x94, 0x00, 0x00, 0x00, 0xc4, 0xf8, 0xff, 0xff, 0x08, 0x00, 0x00, 0x00, 0x4c, 0x00, 0x00, 0x00, 0x08, 0x00, 0x00, 0x00, 0x00, 0x00, 0x00, 0x00, 0x00, 0x00, 0x00, 0x00, 0x00, 0x00, 0x00, 0x00, 0x00, 0x00, 0x00, 0x00, 0x00, 0x00, 0x00, 0x00, 0x00, 0x00, 0x00, 0x00, 0x00, 0x00, 0x00, 0x00, 0x00, 0x00, 0x00, 0x00, 0x00, 0x00, 0x00, 0x00, 0x00, 0x00, 0x00, 0x00, 0x00, 0x00, 0x00, 0x00, 0x00, 0x00, 0x00, 0x00, 0x00, 0x00, 0x00, 0x00, 0x00, 0x00, 0x00, 0x00, 0x00, 0x00, 0x00, 0x00, 0x00, 0x00, 0x00, 0x00, 0x00, 0x00, 0x00, 0x00, 0x08, 0x00, 0x00, 0x00, 0xe4, 0xc6, 0xe8, 0x3a, 0x8d, 0x19, 0xfe, 0x3a, 0x7f, 0x08, 0x00, 0x3b, 0xec, 0x6b, 0x0a, 0x3b, 0xbf, 0x05, 0xff, 0x3a, 0x6d, 0x24, 0x07, 0x3b, 0x5c, 0xb7, 0xf3, 0x3a, 0x1e, 0x11, 0x08, 0x3b, 0x12, 0x00, 0x00, 0x00, 0x74, 0x66, 0x6c, 0x2e, 0x70, 0x73, 0x65, 0x75, 0x64, 0x6f, 0x5f, 0x71, 0x63, 0x6f, 0x6e, 0x73, 0x74, 0x37, 0x00, 0x00, 0x04, 0x00, 0x00, 0x00, 0x08, 0x00, 0x00, 0x00, 0x03, 0x00, 0x00, 0x00, 0x03, 0x00, 0x00, 0x00, 0x01, 0x00, 0x00, 0x00, 0x0a, 0xfa, 0xff, 0xff, 0x00, 0x00, 0x00, 0x01, 0x14, 0x00, 0x00, 0x00, 0x84, 0x00, 0x00, 0x00, 0x09, 0x00, 0x00, 0x00, 0x00, 0x00, 0x00, 0x02, 0x90, 0x00, 0x00, 0x00, 0x84, 0xf9, 0xff, 0xff, 0x08, 0x00, 0x00, 0x00, 0x48, 0x00, 0x00, 0x00, 0x08, 0x00, 0x00, 0x00, 0x00, 0x00, 0x00, 0x00, 0x00, 0x00, 0x00, 0x00, 0x00, 0x00, 0x00, 0x00, 0x00, 0x00, 0x00, 0x00, 0x00, 0x00, 0x00, 0x00, 0x00, 0x00, 0x00, 0x00, 0x00, 0x00, 0x00, 0x00, 0x00, 0x00, 0x00, 0x00, 0x00, 0x00, 0x00, 0x00, 0x00, 0x00, 0x00, 0x00, 0x00, 0x00, 0x00, 0x00, 0x00, 0x00, 0x00, 0x00, 0x00, 0x00, 0x00, 0x00, 0x00, 0x00, 0x00, 0x00, 0x00, 0x00, 0x00, 0x00, 0x00, 0x00, 0x00, 0x00, 0x08, 0x00, 0x00, 0x00, 0xfb, 0x51, 0xcb, 0x3b, 0xe1, 0xf1, 0xdd, 0x3b, 0x9d, 0xa9, 0xdf, 0x3b, 0x64, 0xcf, 0xf1, 0x3b, 0x2f, 0xc0, 0xde, 0x3b, 0xde, 0x14, 0xec, 0x3b, 0x11, 0xe0, 0xd4, 0x3b, 0x58, 0xb2, 0xed, 0x3b, 0x12, 0x00, 0x00, 0x00, 0x74, 0x66, 0x6c, 0x2e, 0x70, 0x73, 0x65, 0x75, 0x64, 0x6f, 0x5f, 0x71, 0x63, 0x6f, 0x6e, 0x73, 0x74, 0x36, 0x00, 0x00, 0x01, 0x00, 0x00, 0x00, 0x08, 0x00, 0x00, 0x00, 0xba, 0xfa, 0xff, 0xff, 0x00, 0x00, 0x00, 0x01, 0x14, 0x00, 0x00, 0x00, 0xe8, 0x00, 0x00, 0x00, 0x08, 0x00, 0x00, 0x00, 0x00, 0x00, 0x00, 0x09, 0xf4, 0x00, 0x00, 0x00, 0x34, 0xfa, 0xff, 0xff, 0x08, 0x00, 0x00, 0x00, 0x8c, 0x00, 0x00, 0x00, 0x10, 0x00, 0x00, 0x00, 0x00, 0x00, 0x00, 0x00, 0x00, 0x00, 0x00, 0x00, 0x00, 0x00, 0x00, 0x00, 0x00, 0x00, 0x00, 0x00, 0x00, 0x00, 0x00, 0x00, 0x00, 0x00, 0x00, 0x00, 0x00, 0x00, 0x00, 0x00, 0x00, 0x00, 0x00, 0x00, 0x00, 0x00, 0x00, 0x00, 0x00, 0x00, 0x00, 0x00, 0x00, 0x00, 0x00, 0x00, 0x00, 0x00, 0x00, 0x00, 0x00, 0x00, 0x00, 0x00, 0x00, 0x00, 0x00, 0x00, 0x00, 0x00, 0x00, 0x00, 0x00, 0x00, 0x00, 0x00, 0x00, 0x00, 0x00, 0x00, 0x00, 0x00, 0x00, 0x00, 0x00, 0x00, 0x00, 0x00, 0x00, 0x00, 0x00, 0x00, 0x00, 0x00, 0x00, 0x00, 0x00, 0x00, 0x00, 0x00, 0x00, 0x00, 0x00, 0x00, 0x00, 0x00, 0x00, 0x00, 0x00, 0x00, 0x00, 0x00, 0x00, 0x00, 0x00, 0x00, 0x00, 0x00, 0x00, 0x00, 0x00, 0x00, 0x00, 0x00, 0x00, 0x00, 0x00, 0x00, 0x00, 0x00, 0x00, 0x00, 0x00, 0x00, 0x00, 0x00, 0x00, 0x00, 0x00, 0x00, 0x00, 0x00, 0x00, 0x00, 0x10, 0x00, 0x00, 0x00, 0x73, 0x24, 0xbc, 0x3a, 0xeb, 0x2d, 0xb3, 0x3a, 0x61, 0xb1, 0xbc, 0x3a, 0x2c, 0x99, 0xaf, 0x3a, 0x41, 0xf8, 0xbf, 0x3a, 0x0a, 0x65, 0xb3, 0x3a, 0x20, 0x9e, 0xaa, 0x3a, 0x3e, 0x2c, 0xac, 0x3a, 0x76, 0xf4, 0xb3, 0x3a, 0x7b, 0xcc, 0xc6, 0x3a, 0x62, 0x39, 0xba, 0x3a, 0x36, 0x3f, 0xb3, 0x3a, 0xe3, 0x5e, 0xb5, 0x3a, 0x5e, 0xf8, 0xb5, 0x3a, 0xca, 0xed, 0xab, 0x3a, 0xf8, 0xa6, 0xb9, 0x3a, 0x12, 0x00, 0x00, 0x00, 0x74, 0x66, 0x6c, 0x2e, 0x70, 0x73, 0x65, 0x75, 0x64, 0x6f, 0x5f, 0x71, 0x63, 0x6f, 0x6e, 0x73, 0x74, 0x35, 0x00, 0x00, 0x04, 0x00, 0x00, 0x00, 0x10, 0x00, 0x00, 0x00, 0x03, 0x00, 0x00, 0x00, 0x03, 0x00, 0x00, 0x00, 0x08, 0x00, 0x00, 0x00, 0xda, 0xfb, 0xff, 0xff, 0x00, 0x00, 0x00, 0x01, 0x14, 0x00, 0x00, 0x00, 0xe4, 0x00, 0x00, 0x00, 0x07, 0x00, 0x00, 0x00, 0x00, 0x00, 0x00, 0x02, 0xf0, 0x00, 0x00, 0x00, 0x54, 0xfb, 0xff, 0xff, 0x08, 0x00, 0x00, 0x00, 0x88, 0x00, 0x00, 0x00, 0x10, 0x00, 0x00, 0x00, 0x00, 0x00, 0x00, 0x00, 0x00, 0x00, 0x00, 0x00, 0x00, 0x00, 0x00, 0x00, 0x00, 0x00, 0x00, 0x00, 0x00, 0x00, 0x00, 0x00, 0x00, 0x00, 0x00, 0x00, 0x00, 0x00, 0x00, 0x00, 0x00, 0x00, 0x00, 0x00, 0x00, 0x00, 0x00, 0x00, 0x00, 0x00, 0x00, 0x00, 0x00, 0x00, 0x00, 0x00, 0x00, 0x00, 0x00, 0x00, 0x00, 0x00, 0x00, 0x00, 0x00, 0x00, 0x00, 0x00, 0x00, 0x00, 0x00, 0x00, 0x00, 0x00, 0x00, 0x00, 0x00, 0x00, 0x00, 0x00, 0x00, 0x00, 0x00, 0x00, 0x00, 0x00, 0x00, 0x00, 0x00, 0x00, 0x00, 0x00, 0x00, 0x00, 0x00, 0x00, 0x00, 0x00, 0x00, 0x00, 0x00, 0x00, 0x00, 0x00, 0x00, 0x00, 0x00, 0x00, 0x00, 0x00, 0x00, 0x00, 0x00, 0x00, 0x00, 0x00, 0x00, 0x00, 0x00, 0x00, 0x00, 0x00, 0x00, 0x00, 0x00, 0x00, 0x00, 0x00, 0x00, 0x00, 0x00, 0x00, 0x00, 0x00, 0x00, 0x00, 0x00, 0x00, 0x00, 0x00, 0x10, 0x00, 0x00, 0x00, 0xeb, 0x44, 0xd7, 0x3a, 0x8e, 0x03, 0xcd, 0x3a, 0x2b, 0xe6, 0xd7, 0x3a, 0xa1, 0xea, 0xc8, 0x3a, 0xfe, 0xa5, 0xdb, 0x3a, 0xa0, 0x42, 0xcd, 0x3a, 0xbe, 0x37, 0xc3, 0x3a, 0x43, 0xff, 0xc4, 0x3a, 0xb9, 0xe6, 0xcd, 0x3a, 0x48, 0x76, 0xe3, 0x3a, 0x0c, 0x13, 0xd5, 0x3a, 0x57, 0x17, 0xcd, 0x3a, 0x68, 0x85, 0xcf, 0x3a, 0x04, 0x35, 0xd0, 0x3a, 0xce, 0xb7, 0xc4, 0x3a, 0x86, 0x6b, 0xd4, 0x3a, 0x12, 0x00, 0x00, 0x00, 0x74, 0x66, 0x6c, 0x2e, 0x70, 0x73, 0x65, 0x75, 0x64, 0x6f, 0x5f, 0x71, 0x63, 0x6f, 0x6e, 0x73, 0x74, 0x34, 0x00, 0x00, 0x01, 0x00, 0x00, 0x00, 0x10, 0x00, 0x00, 0x00, 0xea, 0xfc, 0xff, 0xff, 0x00, 0x00, 0x00, 0x01, 0x14, 0x00, 0x00, 0x00, 0xe8, 0x00, 0x00, 0x00, 0x06, 0x00, 0x00, 0x00, 0x00, 0x00, 0x00, 0x09, 0xf4, 0x00, 0x00, 0x00, 0x64, 0xfc, 0xff, 0xff, 0x08, 0x00, 0x00, 0x00, 0x8c, 0x00, 0x00, 0x00, 0x10, 0x00, 0x00, 0x00, 0x00, 0x00, 0x00, 0x00, 0x00, 0x00, 0x00, 0x00, 0x00, 0x00, 0x00, 0x00, 0x00, 0x00, 0x00, 0x00, 0x00, 0x00, 0x00, 0x00, 0x00, 0x00, 0x00, 0x00, 0x00, 0x00, 0x00, 0x00, 0x00, 0x00, 0x00, 0x00, 0x00, 0x00, 0x00, 0x00, 0x00, 0x00, 0x00, 0x00, 0x00, 0x00, 0x00, 0x00, 0x00, 0x00, 0x00, 0x00, 0x00, 0x00, 0x00, 0x00, 0x00, 0x00, 0x00, 0x00, 0x00, 0x00, 0x00, 0x00, 0x00, 0x00, 0x00, 0x00, 0x00, 0x00, 0x00, 0x00, 0x00, 0x00, 0x00, 0x00, 0x00, 0x00, 0x00, 0x00, 0x00, 0x00, 0x00, 0x00, 0x00, 0x00, 0x00, 0x00, 0x00, 0x00, 0x00, 0x00, 0x00, 0x00, 0x00, 0x00, 0x00, 0x00, 0x00, 0x00, 0x00, 0x00, 0x00, 0x00, 0x00, 0x00, 0x00, 0x00, 0x00, 0x00, 0x00, 0x00, 0x00, 0x00, 0x00, 0x00, 0x00, 0x00, 0x00, 0x00, 0x00, 0x00, 0x00, 0x00, 0x00, 0x00, 0x00, 0x00, 0x00, 0x00, 0x00, 0x00, 0x00, 0x00, 0x00, 0x00, 0x10, 0x00, 0x00, 0x00, 0xa8, 0x61, 0x8a, 0x3a, 0x2c, 0xdd, 0x7b, 0x3a, 0xe7, 0x7c, 0xae, 0x3a, 0x63, 0x44, 0x88, 0x3a, 0xca, 0x7b, 0x89, 0x3a, 0x64, 0x64, 0x86, 0x3a, 0xad, 0xce, 0x87, 0x3a, 0x79, 0x10, 0x94, 0x3a, 0x80, 0x57, 0x88, 0x3a, 0x2a, 0xa4, 0x86, 0x3a, 0xf4, 0x49, 0x7c, 0x3a, 0xa8, 0xb7, 0x7c, 0x3a, 0xd9, 0x7a, 0x7c, 0x3a, 0xa0, 0x5e, 0x7c, 0x3a, 0xc4, 0x98, 0x89, 0x3a, 0x15, 0xfc, 0x85, 0x3a, 0x12, 0x00, 0x00, 0x00, 0x74, 0x66, 0x6c, 0x2e, 0x70, 0x73, 0x65, 0x75, 0x64, 0x6f, 0x5f, 0x71, 0x63, 0x6f, 0x6e, 0x73, 0x74, 0x33, 0x00, 0x00, 0x02, 0x00, 0x00, 0x00, 0x10, 0x00, 0x00, 0x00, 0x80, 0x01, 0x00, 0x00, 0x02, 0xfe, 0xff, 0xff, 0x00, 0x00, 0x00, 0x01, 0x14, 0x00, 0x00, 0x00, 0xe4, 0x00, 0x00, 0x00, 0x05, 0x00, 0x00, 0x00, 0x00, 0x00, 0x00, 0x02, 0xf0, 0x00, 0x00, 0x00, 0x7c, 0xfd, 0xff, 0xff, 0x08, 0x00, 0x00, 0x00, 0x88, 0x00, 0x00, 0x00, 0x10, 0x00, 0x00, 0x00, 0x00, 0x00, 0x00, 0x00, 0x00, 0x00, 0x00, 0x00, 0x00, 0x00, 0x00, 0x00, 0x00, 0x00, 0x00, 0x00, 0x00, 0x00, 0x00, 0x00, 0x00, 0x00, 0x00, 0x00, 0x00, 0x00, 0x00, 0x00, 0x00, 0x00, 0x00, 0x00, 0x00, 0x00, 0x00, 0x00, 0x00, 0x00, 0x00, 0x00, 0x00, 0x00, 0x00, 0x00, 0x00, 0x00, 0x00, 0x00, 0x00, 0x00, 0x00, 0x00, 0x00, 0x00, 0x00, 0x00, 0x00, 0x00, 0x00, 0x00, 0x00, 0x00, 0x00, 0x00, 0x00, 0x00, 0x00, 0x00, 0x00, 0x00, 0x00, 0x00, 0x00, 0x00, 0x00, 0x00, 0x00, 0x00, 0x00, 0x00, 0x00, 0x00, 0x00, 0x00, 0x00, 0x00, 0x00, 0x00, 0x00, 0x00, 0x00, 0x00, 0x00, 0x00, 0x00, 0x00, 0x00, 0x00, 0x00, 0x00, 0x00, 0x00, 0x00, 0x00, 0x00, 0x00, 0x00, 0x00, 0x00, 0x00, 0x00, 0x00, 0x00, 0x00, 0x00, 0x00, 0x00, 0x00, 0x00, 0x00, 0x00, 0x00, 0x00, 0x00, 0x00, 0x00, 0x00, 0x00, 0x10, 0x00, 0x00, 0x00, 0x0e, 0x22, 0xc5, 0x39, 0xe0, 0x65, 0xb3, 0x39, 0xa3, 0x91, 0xf8, 0x39, 0xfc, 0x1e, 0xc2, 0x39, 0x98, 0xda, 0xc3, 0x39, 0x33, 0x73, 0xbf, 0x39, 0x4c, 0x77, 0xc1, 0x39, 0x49, 0xed, 0xd2, 0x39, 0x36, 0x3a, 0xc2, 0x39, 0x0c, 0xce, 0xbf, 0x39, 0x5c, 0xb3, 0xb3, 0x39, 0x7f, 0x01, 0xb4, 0x39, 0x2f, 0xd6, 0xb3, 0x39, 0x15, 0xc2, 0xb3, 0x39, 0xe0, 0x03, 0xc4, 0x39, 0x9b, 0xde, 0xbe, 0x39, 0x12, 0x00, 0x00, 0x00, 0x74, 0x66, 0x6c, 0x2e, 0x70, 0x73, 0x65, 0x75, 0x64, 0x6f, 0x5f, 0x71, 0x63, 0x6f, 0x6e, 0x73, 0x74, 0x32, 0x00, 0x00, 0x01, 0x00, 0x00, 0x00, 0x10, 0x00, 0x00, 0x00, 0x12, 0xff, 0xff, 0xff, 0x00, 0x00, 0x00, 0x01, 0x14, 0x00, 0x00, 0x00, 0x48, 0x00, 0x00, 0x00, 0x04, 0x00, 0x00, 0x00, 0x00, 0x00, 0x00, 0x09, 0x54, 0x00, 0x00, 0x00, 0x8c, 0xfe, 0xff, 0xff, 0x08, 0x00, 0x00, 0x00, 0x20, 0x00, 0x00, 0x00, 0x03, 0x00, 0x00, 0x00, 0x00, 0x00, 0x00, 0x00, 0x00, 0x00, 0x00, 0x00, 0x00, 0x00, 0x00, 0x00, 0x00, 0x00, 0x00, 0x00, 0x00, 0x00, 0x00, 0x00, 0x00, 0x00, 0x00, 0x00, 0x03, 0x00, 0x00, 0x00, 0xda, 0x82, 0x65, 0x3b, 0xa5, 0x39, 0x8e, 0x3b, 0xc9, 0xa1, 0x80, 0x3b, 0x12, 0x00, 0x00, 0x00, 0x74, 0x66, 0x6c, 0x2e, 0x70, 0x73, 0x65, 0x75, 0x64, 0x6f, 0x5f, 0x71, 0x63, 0x6f, 0x6e, 0x73, 0x74, 0x31, 0x00, 0x00, 0x02, 0x00, 0x00, 0x00, 0x03, 0x00, 0x00, 0x00, 0x10, 0x00, 0x00, 0x00, 0x8a, 0xff, 0xff, 0xff, 0x00, 0x00, 0x00, 0x01, 0x14, 0x00, 0x00, 0x00, 0x48, 0x00, 0x00, 0x00, 0x03, 0x00, 0x00, 0x00, 0x00, 0x00, 0x00, 0x02, 0x54, 0x00, 0x00, 0x00, 0x04, 0xff, 0xff, 0xff, 0x08, 0x00, 0x00, 0x00, 0x20, 0x00, 0x00, 0x00, 0x03, 0x00, 0x00, 0x00, 0x00, 0x00, 0x00, 0x00, 0x00, 0x00, 0x00, 0x00, 0x00, 0x00, 0x00, 0x00, 0x00, 0x00, 0x00, 0x00, 0x00, 0x00, 0x00, 0x00, 0x00, 0x00, 0x00, 0x00, 0x03, 0x00, 0x00, 0x00, 0x27, 0xe4, 0x9f, 0x39, 0x49, 0x2a, 0xc6, 0x39, 0xba, 0x39, 0xb3, 0x39, 0x11, 0x00, 0x00, 0x00, 0x74, 0x66, 0x6c, 0x2e, 0x70, 0x73, 0x65, 0x75, 0x64, 0x6f, 0x5f, 0x71, 0x63, 0x6f, 0x6e, 0x73, 0x74, 0x00, 0x00, 0x00, 0x01, 0x00, 0x00, 0x00, 0x03, 0x00, 0x00, 0x00, 0x00, 0x00, 0x16, 0x00, 0x1c, 0x00, 0x18, 0x00, 0x17, 0x00, 0x10, 0x00, 0x0c, 0x00, 0x08, 0x00, 0x00, 0x00, 0x00, 0x00, 0x00, 0x00, 0x07, 0x00, 0x16, 0x00, 0x00, 0x00, 0x00, 0x00, 0x00, 0x01, 0x18, 0x00, 0x00, 0x00, 0x18, 0x00, 0x00, 0x00, 0x02, 0x00, 0x00, 0x00, 0x00, 0x00, 0x00, 0x02, 0x20, 0x00, 0x00, 0x00, 0x04, 0x00, 0x04, 0x00, 0x04, 0x00, 0x00, 0x00, 0x0e, 0x00, 0x00, 0x00, 0x61, 0x72, 0x69, 0x74, 0x68, 0x2e, 0x63, 0x6f, 0x6e, 0x73, 0x74, 0x61, 0x6e, 0x74, 0x00, 0x00, 0x01, 0x00, 0x00, 0x00, 0x02, 0x00, 0x00, 0x00, 0x00, 0x00, 0x16, 0x00, 0x20, 0x00, 0x1c, 0x00, 0x1b, 0x00, 0x14, 0x00, 0x10, 0x00, 0x0c, 0x00, 0x00, 0x00, 0x00, 0x00, 0x08, 0x00, 0x07, 0x00, 0x16, 0x00, 0x00, 0x00, 0x00, 0x00, 0x00, 0x01, 0x18, 0x00, 0x00, 0x00, 0x34, 0x00, 0x00, 0x00, 0x54, 0x00, 0x00, 0x00, 0x01, 0x00, 0x00, 0x00, 0x00, 0x00, 0x00, 0x09, 0x6c, 0x00, 0x00, 0x00, 0x04, 0x00, 0x00, 0x00, 0xff, 0xff, 0xff, 0xff, 0x20, 0x00, 0x00, 0x00, 0x0d, 0x00, 0x00, 0x00, 0x01, 0x00, 0x00, 0x00, 0x0c, 0x00, 0x0c, 0x00, 0x00, 0x00, 0x00, 0x00, 0x08, 0x00, 0x04, 0x00, 0x0c, 0x00, 0x00, 0x00, 0x08, 0x00, 0x00, 0x00, 0x14, 0x00, 0x00, 0x00, 0x01, 0x00, 0x00, 0x00, 0x4f, 0x00, 0x00, 0x00, 0x00, 0x00, 0x00, 0x00, 0x00, 0x00, 0x00, 0x00, 0x01, 0x00, 0x00, 0x00, 0xc5, 0x9a, 0x5f, 0x40, 0x1e, 0x00, 0x00, 0x00, 0x73, 0x65, 0x72, 0x76, 0x69, 0x6e, 0x67, 0x5f, 0x64, 0x65, 0x66, 0x61, 0x75, 0x6c, 0x74, 0x5f, 0x6b, 0x65, 0x72, 0x61, 0x73, 0x5f, 0x74, 0x65, 0x6e, 0x73, 0x6f, 0x72, 0x3a, 0x30, 0x00, 0x00, 0x04, 0x00, 0x00, 0x00, 0x01, 0x00, 0x00, 0x00, 0x20, 0x00, 0x00, 0x00, 0x0d, 0x00, 0x00, 0x00, 0x01, 0x00, 0x00, 0x00, 0x05, 0x00, 0x00, 0x00, 0x68, 0x00, 0x00, 0x00, 0x48, 0x00, 0x00, 0x00, 0x38, 0x00, 0x00, 0x00, 0x18, 0x00, 0x00, 0x00, 0x04, 0x00, 0x00, 0x00, 0xb8, 0xff, 0xff, 0xff, 0x19, 0x00, 0x00, 0x00, 0x02, 0x00, 0x00, 0x00, 0x00, 0x00, 0x00, 0x19, 0xc8, 0xff, 0xff, 0xff, 0x09, 0x00, 0x00, 0x00, 0x04, 0x00, 0x00, 0x00, 0x00, 0x00, 0x00, 0x09, 0x0c, 0x00, 0x0c, 0x00, 0x0b, 0x00, 0x00, 0x00, 0x00, 0x00, 0x04, 0x00, 0x0c, 0x00, 0x00, 0x00, 0x16, 0x00, 0x00, 0x00, 0x00, 0x00, 0x00, 0x16, 0xf0, 0xff, 0xff, 0xff, 0x11, 0x00, 0x00, 0x00, 0x02, 0x00, 0x00, 0x00, 0x00, 0x00, 0x00, 0x11, 0x0c, 0x00, 0x10, 0x00, 0x0f, 0x00, 0x00, 0x00, 0x08, 0x00, 0x04, 0x00, 0x0c, 0x00, 0x00, 0x00, 0x03, 0x00, 0x00, 0x00, 0x03, 0x00, 0x00, 0x00, 0x00, 0x00, 0x00, 0x03
};
const unsigned int audio_model_len = 12488;
