// Auto-generated by pipeline
#include <stdint.h>

const unsigned char audio_model[] = {
0x1c, 0x00, 0x00, 0x00, 0x54, 0x46, 0x4c, 0x33, 0x14, 0x00, 0x20, 0x00, 0x1c, 0x00, 0x18, 0x00, 0x14, 0x00, 0x10, 0x00, 0x0c, 0x00, 0x00, 0x00, 0x08, 0x00, 0x04, 0x00, 0x14, 0x00, 0x00, 0x00, 0x1c, 0x00, 0x00, 0x00, 0x8c, 0x00, 0x00, 0x00, 0x0c, 0x01, 0x00, 0x00, 0x48, 0x20, 0x00, 0x00, 0x58, 0x20, 0x00, 0x00, 0x18, 0x30, 0x00, 0x00, 0x03, 0x00, 0x00, 0x00, 0x01, 0x00, 0x00, 0x00, 0x04, 0x00, 0x00, 0x00, 0xae, 0xde, 0xff, 0xff, 0x0c, 0x00, 0x00, 0x00, 0x1c, 0x00, 0x00, 0x00, 0x3c, 0x00, 0x00, 0x00, 0x0f, 0x00, 0x00, 0x00, 0x73, 0x65, 0x72, 0x76, 0x69, 0x6e, 0x67, 0x5f, 0x64, 0x65, 0x66, 0x61, 0x75, 0x6c, 0x74, 0x00, 0x01, 0x00, 0x00, 0x00, 0x04, 0x00, 0x00, 0x00, 0x68, 0xff, 0xff, 0xff, 0x11, 0x00, 0x00, 0x00, 0x04, 0x00, 0x00, 0x00, 0x08, 0x00, 0x00, 0x00, 0x6f, 0x75, 0x74, 0x70, 0x75, 0x74, 0x5f, 0x30, 0x00, 0x00, 0x00, 0x00, 0x01, 0x00, 0x00, 0x00, 0x04, 0x00, 0x00, 0x00, 0x92, 0xdf, 0xff, 0xff, 0x04, 0x00, 0x00, 0x00, 0x0c, 0x00, 0x00, 0x00, 0x6b, 0x65, 0x72, 0x61, 0x73, 0x5f, 0x74, 0x65, 0x6e, 0x73, 0x6f, 0x72, 0x00, 0x00, 0x00, 0x00, 0x03, 0x00, 0x00, 0x00, 0x5c, 0x00, 0x00, 0x00, 0x2c, 0x00, 0x00, 0x00, 0x04, 0x00, 0x00, 0x00, 0xb8, 0xff, 0xff, 0xff, 0x15, 0x00, 0x00, 0x00, 0x04, 0x00, 0x00, 0x00, 0x13, 0x00, 0x00, 0x00, 0x43, 0x4f, 0x4e, 0x56, 0x45, 0x52, 0x53, 0x49, 0x4f, 0x4e, 0x5f, 0x4d, 0x45, 0x54, 0x41, 0x44, 0x41, 0x54, 0x41, 0x00, 0xdc, 0xff, 0xff, 0xff, 0x14, 0x00, 0x00, 0x00, 0x04, 0x00, 0x00, 0x00, 0x13, 0x00, 0x00, 0x00, 0x6d, 0x69, 0x6e, 0x5f, 0x72, 0x75, 0x6e, 0x74, 0x69, 0x6d, 0x65, 0x5f, 0x76, 0x65, 0x72, 0x73, 0x69, 0x6f, 0x6e, 0x00, 0x08, 0x00, 0x0c, 0x00, 0x08, 0x00, 0x04, 0x00, 0x08, 0x00, 0x00, 0x00, 0x13, 0x00, 0x00, 0x00, 0x04, 0x00, 0x00, 0x00, 0x13, 0x00, 0x00, 0x00, 0x6d, 0x69, 0x6e, 0x5f, 0x72, 0x75, 0x6e, 0x74, 0x69, 0x6d, 0x65, 0x5f, 0x76, 0x65, 0x72, 0x73, 0x69, 0x6f, 0x6e, 0x00, 0x16, 0x00, 0x00, 0x00, 0x38, 0x1f, 0x00, 0x00, 0x30, 0x1f, 0x00, 0x00, 0x18, 0x1f, 0x00, 0x00, 0xfc, 0x1e, 0x00, 0x00, 0xbc, 0x1e, 0x00, 0x00, 0x6c, 0x1e, 0x00, 0x00, 0x5c, 0x06, 0x00, 0x00, 0x0c, 0x06, 0x00, 0x00, 0x7c, 0x01, 0x00, 0x00, 0x4c, 0x01, 0x00, 0x00, 0xf4, 0x00, 0x00, 0x00, 0xec, 0x00, 0x00, 0x00, 0xe4, 0x00, 0x00, 0x00, 0xdc, 0x00, 0x00, 0x00, 0xd4, 0x00, 0x00, 0x00, 0xcc, 0x00, 0x00, 0x00, 0xc4, 0x00, 0x00, 0x00, 0xbc, 0x00, 0x00, 0x00, 0xb4, 0x00, 0x00, 0x00, 0x94, 0x00, 0x00, 0x00, 0x74, 0x00, 0x00, 0x00, 0x04, 0x00, 0x00, 0x00, 0x8e, 0xe0, 0xff, 0xff, 0x04, 0x00, 0x00, 0x00, 0x60, 0x00, 0x00, 0x00, 0x0c, 0x00, 0x00, 0x00, 0x08, 0x00, 0x0e, 0x00, 0x08, 0x00, 0x04, 0x00, 0x08, 0x00, 0x00, 0x00, 0x10, 0x00, 0x00, 0x00, 0x28, 0x00, 0x00, 0x00, 0x00, 0x00, 0x06, 0x00, 0x08, 0x00, 0x04, 0x00, 0x06, 0x00, 0x00, 0x00, 0x04, 0x00, 0x00, 0x00, 0x01, 0x00, 0x00, 0x00, 0xeb, 0x03, 0x00, 0x00, 0x0c, 0x00, 0x18, 0x00, 0x14, 0x00, 0x10, 0x00, 0x0c, 0x00, 0x04, 0x00, 0x0c, 0x00, 0x00, 0x00, 0xbb, 0x46, 0x89, 0xff, 0xc6, 0x44, 0x1d, 0x13, 0x02, 0x00, 0x00, 0x00, 0x02, 0x00, 0x00, 0x00, 0x04, 0x00, 0x00, 0x00, 0x06, 0x00, 0x00, 0x00, 0x32, 0x2e, 0x31, 0x39, 0x2e, 0x30, 0x00, 0x00, 0xfa, 0xe0, 0xff, 0xff, 0x04, 0x00, 0x00, 0x00, 0x10, 0x00, 0x00, 0x00, 0x00, 0x00, 0x00, 0x00, 0x00, 0x00, 0x00, 0x00, 0x00, 0x00, 0x00, 0x00, 0x00, 0x00, 0x00, 0x00, 0x16, 0xe1, 0xff, 0xff, 0x04, 0x00, 0x00, 0x00, 0x10, 0x00, 0x00, 0x00, 0x31, 0x2e, 0x31, 0x34, 0x2e, 0x30, 0x00, 0x00, 0x00, 0x00, 0x00, 0x00, 0x00, 0x00, 0x00, 0x00, 0xc0, 0xd2, 0xff, 0xff, 0xc4, 0xd2, 0xff, 0xff, 0xc8, 0xd2, 0xff, 0xff, 0xcc, 0xd2, 0xff, 0xff, 0xd0, 0xd2, 0xff, 0xff, 0xd4, 0xd2, 0xff, 0xff, 0xd8, 0xd2, 0xff, 0xff, 0xdc, 0xd2, 0xff, 0xff, 0x52, 0xe1, 0xff, 0xff, 0x04, 0x00, 0x00, 0x00, 0x48, 0x00, 0x00, 0x00, 0x1a, 0x1e, 0x81, 0x47, 0x24, 0xda, 0xce, 0x12, 0xd7, 0x43, 0xbb, 0x85, 0x27, 0x6d, 0xcb, 0x7f, 0x64, 0x4a, 0x10, 0x14, 0x07, 0xa4, 0xd5, 0x54, 0x7f, 0x05, 0x12, 0xc1, 0xab, 0x1b, 0xbf, 0xbf, 0x81, 0xeb, 0x4c, 0x6d, 0x9d, 0xeb, 0xa4, 0x8b, 0x04, 0x81, 0xb8, 0x64, 0x51, 0x05, 0x41, 0xda, 0xb3, 0x3a, 0x34, 0xdb, 0x7f, 0x6b, 0xb0, 0x7f, 0x10, 0xdb, 0x38, 0x0c, 0x89, 0x83, 0xc9, 0xe0, 0x7f, 0x24, 0xee, 0x47, 0xef, 0xf9, 0x12, 0xa6, 0xa6, 0xe1, 0xff, 0xff, 0x04, 0x00, 0x00, 0x00, 0x20, 0x00, 0x00, 0x00, 0x01, 0x00, 0x00, 0x00, 0x00, 0x00, 0x00, 0x00, 0x03, 0x00, 0x00, 0x00, 0x01, 0x00, 0x00, 0x00, 0x01, 0x00, 0x00, 0x00, 0x02, 0x00, 0x00, 0x00, 0x00, 0x00, 0x00, 0x00, 0xfe, 0xff, 0xff, 0xff, 0xd2, 0xe1, 0xff, 0xff, 0x04, 0x00, 0x00, 0x00, 0x80, 0x04, 0x00, 0x00, 0x68, 0x4a, 0x1e, 0xa7, 0x22, 0x45, 0xa6, 0x0c, 0x43, 0xf4, 0x53, 0xcf, 0x02, 0xa5, 0x69, 0x95, 0x81, 0x5d, 0x8a, 0x0c, 0xf4, 0xb3, 0xec, 0x97, 0x56, 0xe4, 0xed, 0x7a, 0x14, 0xbd, 0xc0, 0x0d, 0xee, 0x5e, 0x0e, 0xbe, 0x61, 0x01, 0xcd, 0x9d, 0x3c, 0xfb, 0x9f, 0xc0, 0x13, 0xb9, 0xaf, 0xe6, 0xf1, 0xc7, 0x3b, 0x63, 0xbe, 0x35, 0xad, 0x6a, 0x5a, 0x38, 0xf6, 0x5b, 0xf5, 0xcc, 0xc0, 0xb7, 0xf1, 0xb4, 0xe1, 0x28, 0xa1, 0x55, 0x56, 0x90, 0x06, 0x37, 0x0c, 0x21, 0x6c, 0x83, 0x78, 0x87, 0xb4, 0xe0, 0x66, 0x76, 0x1c, 0x99, 0xb1, 0x68, 0x1a, 0x36, 0x9f, 0x04, 0x71, 0x62, 0x12, 0x1d, 0x25, 0x21, 0x79, 0xba, 0xdf, 0x35, 0x1d, 0x93, 0x53, 0xe8, 0x49, 0x0d, 0x21, 0x52, 0x99, 0xc3, 0x33, 0x6f, 0xaf, 0xb1, 0x59, 0xbc, 0x81, 0x81, 0x93, 0x52, 0x7b, 0x0f, 0xf6, 0x43, 0x99, 0x1c, 0xcc, 0x4b, 0xc1, 0x0e, 0xdf, 0x16, 0xc6, 0x1e, 0x60, 0x92, 0xf6, 0xba, 0x38, 0xcc, 0xde, 0x63, 0xfd, 0x43, 0xb3, 0xcf, 0x34, 0x3e, 0x63, 0xe8, 0x00, 0x61, 0xc3, 0x1b, 0xeb, 0x4d, 0x94, 0x1a, 0xd5, 0x3f, 0x2d, 0xc2, 0x47, 0x13, 0x2f, 0x83, 0xed, 0xff, 0xdc, 0xf3, 0xf9, 0x10, 0x12, 0xed, 0x97, 0x0d, 0x5b, 0xfd, 0xee, 0x25, 0x51, 0xf3, 0x1b, 0xe6, 0x2f, 0x59, 0x5b, 0x8f, 0x5e, 0xad, 0x4d, 0x65, 0x5f, 0x36, 0x7f, 0xc6, 0x02, 0x9e, 0xda, 0xb9, 0x4f, 0xd0, 0x67, 0x3b, 0x39, 0xf4, 0xcd, 0xa6, 0x4e, 0x42, 0xa0, 0xab, 0x46, 0x4d, 0xca, 0xc4, 0xfa, 0xb2, 0xd3, 0xf2, 0x4d, 0x57, 0x1d, 0xb1, 0x05, 0xd3, 0xd7, 0xd5, 0x46, 0xd8, 0xd6, 0xb7, 0xf1, 0xcc, 0xcb, 0x34, 0x41, 0x4a, 0x34, 0xeb, 0xff, 0x3c, 0xbb, 0xe1, 0x36, 0xfd, 0x3b, 0x34, 0x97, 0x03, 0x54, 0x32, 0x44, 0x66, 0xeb, 0xeb, 0xef, 0xb8, 0xca, 0x04, 0x4c, 0xf2, 0xee, 0x60, 0x51, 0xff, 0xff, 0x0c, 0x45, 0x1d, 0x18, 0x10, 0xc5, 0x3c, 0xac, 0xa0, 0x62, 0x27, 0x00, 0x03, 0xef, 0x7f, 0x16, 0xf4, 0x25, 0xf1, 0x85, 0x22, 0x5e, 0x81, 0x63, 0xa0, 0x03, 0xd3, 0x40, 0x0e, 0xe5, 0x35, 0x31, 0xe9, 0x13, 0xcc, 0x66, 0x43, 0x40, 0x63, 0x65, 0x08, 0x50, 0xb2, 0xc3, 0xd2, 0xa5, 0xc2, 0x02, 0x29, 0xca, 0xcd, 0xb7, 0x63, 0x28, 0x65, 0xdc, 0x59, 0x1e, 0xde, 0x33, 0xeb, 0x96, 0xcc, 0x4e, 0xa0, 0xfe, 0x73, 0x14, 0xe7, 0x09, 0x2a, 0xe0, 0x29, 0x1b, 0x11, 0xcb, 0x0c, 0xba, 0x39, 0xd5, 0x86, 0x23, 0xd7, 0x98, 0x64, 0xe8, 0xd9, 0xc4, 0x57, 0x63, 0xa2, 0x5c, 0xf4, 0xa5, 0xc2, 0x07, 0x2a, 0xad, 0x9b, 0x07, 0xaa, 0x9c, 0x65, 0x05, 0xe6, 0x1a, 0x1f, 0x32, 0xee, 0x1e, 0x17, 0xa2, 0x7f, 0x9e, 0x33, 0x47, 0xcf, 0xcc, 0x4b, 0xe3, 0x67, 0xb3, 0x06, 0x41, 0x1e, 0x2e, 0x78, 0xd7, 0xec, 0xc6, 0xaa, 0xd9, 0xe7, 0x24, 0xcf, 0xc8, 0x49, 0x76, 0x19, 0x29, 0x9c, 0xb5, 0xfa, 0x1c, 0xc1, 0x9a, 0x6a, 0xe0, 0x99, 0xdc, 0x24, 0xe4, 0x5f, 0xda, 0x24, 0x40, 0x5e, 0xc9, 0x48, 0x5b, 0x6b, 0x5e, 0x31, 0x09, 0xcf, 0x98, 0xf1, 0x97, 0xbc, 0x99, 0x42, 0xfa, 0xdf, 0x87, 0x1b, 0x3a, 0x75, 0xe2, 0x2f, 0xe0, 0xe8, 0x0d, 0x03, 0x2d, 0x6e, 0x57, 0x21, 0x9c, 0x06, 0x25, 0x2e, 0xeb, 0x15, 0x05, 0x3b, 0x4c, 0xbb, 0x76, 0x2d, 0x12, 0xa4, 0xbc, 0xd9, 0xbe, 0x4f, 0xd8, 0x1c, 0xfe, 0x70, 0x00, 0xf6, 0x37, 0xc8, 0x27, 0x67, 0xbb, 0xf2, 0xb2, 0x51, 0x23, 0xce, 0x2a, 0x97, 0x39, 0xe2, 0xe9, 0x64, 0x8f, 0x9c, 0x56, 0x9d, 0x05, 0x50, 0x81, 0x15, 0x4b, 0x55, 0xc4, 0xce, 0xb0, 0x60, 0xf9, 0x04, 0xf7, 0xf8, 0x69, 0xe0, 0x3f, 0xfa, 0xbc, 0xe5, 0xe2, 0x48, 0x06, 0x39, 0xca, 0x1a, 0x45, 0xf2, 0x5e, 0xd7, 0xc0, 0xe5, 0xf3, 0xb3, 0x4e, 0x06, 0xf4, 0x31, 0x5a, 0x01, 0xe3, 0xaf, 0xfa, 0xf5, 0x61, 0xfe, 0xf6, 0x7a, 0x5f, 0xa5, 0xc9, 0x32, 0xb6, 0x3d, 0xb3, 0xff, 0xc4, 0xe4, 0x05, 0xfe, 0xf2, 0x27, 0xe7, 0xad, 0x3c, 0x3f, 0x27, 0x0a, 0x0c, 0xfd, 0x0b, 0x3d, 0x7f, 0x19, 0x45, 0x13, 0x5c, 0xba, 0xfd, 0xd5, 0x89, 0xa1, 0xca, 0xbd, 0x1e, 0x54, 0xe8, 0xde, 0xfc, 0xef, 0xf7, 0x6b, 0x08, 0xca, 0x2d, 0x0f, 0x2c, 0x0e, 0xeb, 0x49, 0x38, 0xda, 0x02, 0x2b, 0x29, 0x9e, 0x1e, 0xe5, 0x58, 0x9c, 0xea, 0xbe, 0xf6, 0x2b, 0xc9, 0x4c, 0xab, 0xf2, 0xfb, 0xad, 0x04, 0x19, 0x12, 0x7c, 0x43, 0x66, 0xcd, 0xcf, 0x70, 0xf2, 0xeb, 0xa9, 0x6a, 0xa5, 0xbd, 0x7f, 0xb5, 0x4c, 0xaa, 0x1a, 0xda, 0x29, 0x0e, 0x29, 0x79, 0xd7, 0x34, 0x6b, 0x5f, 0x9b, 0x13, 0x49, 0x48, 0xef, 0xb7, 0xac, 0x18, 0xcf, 0x2d, 0x19, 0xe0, 0xf4, 0x6e, 0x34, 0x24, 0x93, 0x38, 0xf4, 0xb7, 0xa2, 0x7f, 0x60, 0x74, 0xae, 0x53, 0x9f, 0x06, 0x10, 0xef, 0xf8, 0x4c, 0x12, 0xc4, 0x90, 0x18, 0xa1, 0x26, 0x86, 0xca, 0x87, 0x7c, 0x0c, 0xbd, 0x47, 0x61, 0x04, 0x57, 0x38, 0x71, 0xbe, 0x31, 0x20, 0xeb, 0x1b, 0xc0, 0x08, 0x67, 0x04, 0xc7, 0xc8, 0xae, 0x54, 0xf4, 0x0e, 0x0b, 0x20, 0x10, 0xfe, 0xb8, 0x82, 0xb8, 0xa9, 0xb5, 0xc2, 0x65, 0xbc, 0x61, 0x50, 0x19, 0xb4, 0x52, 0xf5, 0xed, 0xdf, 0x50, 0xad, 0xe7, 0xc9, 0xb5, 0x3f, 0xbb, 0x5b, 0xd2, 0x74, 0x41, 0x6e, 0x9a, 0xea, 0x1c, 0x58, 0xd1, 0xa3, 0xcb, 0x48, 0x1c, 0x7f, 0x79, 0x5a, 0xd9, 0xd1, 0x27, 0x2d, 0x02, 0x23, 0x26, 0xda, 0x57, 0x20, 0x5a, 0x76, 0x96, 0x0a, 0x65, 0xdd, 0x58, 0xc5, 0x15, 0xf5, 0x58, 0x20, 0x02, 0x91, 0xd1, 0xc4, 0x45, 0xf6, 0x8e, 0x0d, 0xc5, 0x11, 0x08, 0xc5, 0xc8, 0x74, 0xd2, 0xc0, 0x8b, 0x93, 0x2a, 0x6c, 0xf6, 0x3c, 0xb9, 0x1b, 0xb4, 0xc7, 0x21, 0x21, 0xd2, 0x13, 0xea, 0xeb, 0x11, 0x39, 0xfc, 0xf3, 0xdd, 0x46, 0xfd, 0x2c, 0x82, 0xe9, 0x61, 0x7c, 0x81, 0xfc, 0x18, 0x0d, 0xd7, 0xfb, 0x6b, 0x47, 0x32, 0xb6, 0x2f, 0x24, 0x5b, 0x87, 0x08, 0x5b, 0x66, 0x37, 0xa4, 0x26, 0x1f, 0xce, 0x1a, 0xd1, 0x12, 0x0e, 0x65, 0x01, 0x04, 0x8e, 0x62, 0xc1, 0xe9, 0xf9, 0xa8, 0x19, 0xda, 0x17, 0x9e, 0x4e, 0x1f, 0x6b, 0x51, 0xf9, 0x91, 0xd9, 0xb7, 0xe4, 0xb8, 0x3a, 0x06, 0x0d, 0x53, 0x9b, 0xa3, 0x31, 0x36, 0x05, 0x99, 0x47, 0x35, 0x1b, 0x3b, 0xcb, 0x07, 0x22, 0x2c, 0x5d, 0x21, 0xf1, 0x47, 0x5d, 0xa7, 0xd6, 0xc1, 0xdc, 0x4e, 0x08, 0x63, 0x0b, 0x43, 0x3b, 0xaa, 0x77, 0x45, 0x40, 0x4b, 0x2c, 0x6f, 0x5d, 0xb8, 0xd5, 0xd4, 0xe3, 0x35, 0x6f, 0xd5, 0x9b, 0xb3, 0xc4, 0x0b, 0xd7, 0xd7, 0x51, 0x25, 0xc9, 0xd6, 0x24, 0x3b, 0xfa, 0x7f, 0x5b, 0x6d, 0xcf, 0x9d, 0xef, 0x3f, 0xf9, 0xa0, 0x72, 0x08, 0x15, 0xe3, 0xd3, 0x7f, 0x0e, 0x57, 0xe3, 0xc9, 0x2e, 0x7a, 0x5c, 0xbc, 0x90, 0xea, 0xec, 0xfa, 0x4f, 0xf1, 0x9a, 0x56, 0x32, 0x58, 0xaf, 0x47, 0xb6, 0x3e, 0x05, 0x41, 0xb5, 0x2d, 0x72, 0x25, 0xa9, 0xde, 0x77, 0x5d, 0x48, 0x31, 0x42, 0xa0, 0x63, 0x03, 0xbb, 0x2b, 0x5d, 0x4a, 0xcf, 0xec, 0xf6, 0xb1, 0xae, 0x6f, 0x02, 0x3f, 0xa4, 0xa4, 0x2c, 0x6e, 0xed, 0xf9, 0xc0, 0xb1, 0xca, 0xf8, 0xb2, 0x36, 0xa1, 0xaa, 0x20, 0xbd, 0x4a, 0x7f, 0x9f, 0xf5, 0xee, 0x54, 0x29, 0x0b, 0x31, 0x72, 0xb9, 0x36, 0x4b, 0x71, 0xc1, 0x0d, 0x75, 0x58, 0x56, 0xc8, 0xad, 0x0b, 0xb6, 0xe1, 0xf8, 0xcc, 0x07, 0xb2, 0x4f, 0x63, 0x31, 0x2f, 0x88, 0xb8, 0x8a, 0x18, 0xee, 0xa0, 0xa1, 0xd8, 0xa0, 0x1f, 0x0f, 0xec, 0xd6, 0xe4, 0x59, 0x39, 0x39, 0x31, 0x94, 0x42, 0x64, 0x39, 0xee, 0xab, 0xa9, 0x4d, 0x0b, 0xd0, 0x00, 0x21, 0xa6, 0xf9, 0xb8, 0xd2, 0x02, 0x33, 0xcc, 0x25, 0xd5, 0x09, 0xc3, 0x56, 0x33, 0x11, 0x26, 0x37, 0x47, 0x08, 0xaf, 0x16, 0x5a, 0xb2, 0xd9, 0x31, 0xaf, 0x04, 0x42, 0xe1, 0xd1, 0xb5, 0x2e, 0x1b, 0x1a, 0xd0, 0x94, 0x2c, 0x22, 0xec, 0x0d, 0x28, 0xfd, 0x3f, 0xd4, 0x07, 0xbc, 0x69, 0xda, 0x7f, 0xcc, 0x7c, 0xd2, 0xf2, 0x05, 0x49, 0x0a, 0x29, 0xe2, 0xa6, 0xc9, 0xf8, 0x76, 0xbd, 0xd5, 0xb1, 0xa6, 0xf2, 0x2e, 0xdd, 0x2e, 0x22, 0xe9, 0x18, 0xed, 0xe8, 0xaa, 0x5e, 0xe6, 0xff, 0xff, 0x04, 0x00, 0x00, 0x00, 0x40, 0x00, 0x00, 0x00, 0x15, 0x00, 0x00, 0x00, 0x00, 0x00, 0x00, 0x00, 0xff, 0xff, 0xff, 0xff, 0xfd, 0xff, 0xff, 0xff, 0xf6, 0xff, 0xff, 0xff, 0x0a, 0x00, 0x00, 0x00, 0xfd, 0xff, 0xff, 0xff, 0x0b, 0x00, 0x00, 0x00, 0x07, 0x00, 0x00, 0x00, 0xf9, 0xff, 0xff, 0xff, 0x00, 0x00, 0x00, 0x00, 0xfc, 0xff, 0xff, 0xff, 0xf6, 0xff, 0xff, 0xff, 0xfb, 0xff, 0xff, 0xff, 0xfe, 0xff, 0xff, 0xff, 0x0d, 0x00, 0x00, 0x00, 0xaa, 0xe6, 0xff, 0xff, 0x04, 0x00, 0x00, 0x00, 0x00, 0x18, 0x00, 0x00, 0xcf, 0x24, 0x0a, 0x0f, 0xc7, 0xeb, 0x41, 0xf5, 0x48, 0xcb, 0x1c, 0xed, 0xba, 0x17, 0x38, 0x04, 0xe4, 0x35, 0x02, 0xeb, 0x23, 0xe9, 0x1e, 0x03, 0xff, 0x1d, 0x1c, 0xbd, 0xbd, 0x20, 0x22, 0x61, 0x15, 0xcc, 0xd8, 0x2c, 0x3c, 0x51, 0x19, 0x40, 0x4a, 0xb4, 0xef, 0xed, 0xff, 0xe9, 0x01, 0xda, 0xe9, 0x12, 0x38, 0xf8, 0x0d, 0xc5, 0xde, 0xc2, 0xe1, 0x24, 0xdd, 0x1f, 0xfc, 0xe8, 0xfd, 0x1b, 0xd3, 0x08, 0xdb, 0xde, 0xfe, 0x41, 0xe7, 0xf4, 0xfb, 0xd7, 0xe8, 0xd3, 0x3f, 0x0e, 0xd5, 0x50, 0xa2, 0xdc, 0xf1, 0x33, 0xfd, 0x1a, 0x0c, 0xe0, 0xfb, 0xef, 0xff, 0xd0, 0xe5, 0xdf, 0xd8, 0xeb, 0xd3, 0xcc, 0x33, 0xda, 0x19, 0x0f, 0xdd, 0xe4, 0xfd, 0x36, 0x26, 0x31, 0x20, 0xf4, 0x32, 0xfd, 0xe1, 0x12, 0x1a, 0x0c, 0x13, 0xe9, 0xe3, 0xf8, 0x13, 0x15, 0x25, 0x11, 0x3f, 0xf5, 0x2c, 0x7f, 0xe7, 0x07, 0xf7, 0xcc, 0xe6, 0x33, 0xd8, 0xcf, 0x2a, 0xea, 0x40, 0x22, 0xe4, 0xce, 0x16, 0xf3, 0x03, 0x3e, 0xd0, 0xc2, 0xfd, 0xdf, 0xbb, 0xfe, 0xc1, 0x34, 0x3d, 0xb8, 0xe6, 0xf2, 0xcf, 0xc9, 0xd8, 0x20, 0xcf, 0x41, 0xf7, 0xaa, 0xea, 0x43, 0xfc, 0xde, 0x26, 0x07, 0x0f, 0x18, 0xf0, 0x2d, 0xac, 0xf6, 0x1d, 0xf2, 0x17, 0x04, 0x44, 0xf6, 0xbb, 0x06, 0x21, 0xee, 0x46, 0x0c, 0xed, 0x04, 0x24, 0xc3, 0x3a, 0xf5, 0x20, 0x0e, 0x07, 0x1c, 0x26, 0x3e, 0xe7, 0xfb, 0x04, 0xed, 0xed, 0xc1, 0xcb, 0x00, 0x2a, 0x44, 0x11, 0xea, 0x03, 0xd4, 0x35, 0xf5, 0xe5, 0xdc, 0x21, 0xf1, 0x04, 0xde, 0xcb, 0xd8, 0xfe, 0x1c, 0x33, 0xf5, 0xd0, 0xec, 0xf0, 0x47, 0x1a, 0xd6, 0x07, 0xde, 0x2c, 0x20, 0x00, 0x33, 0x27, 0x10, 0xfe, 0xdb, 0x1f, 0xd5, 0x16, 0xb8, 0xd8, 0x38, 0x30, 0xe8, 0x31, 0xfa, 0xfe, 0xcb, 0xdb, 0x2e, 0x08, 0xe0, 0x06, 0x04, 0xf0, 0xdb, 0x05, 0xfb, 0x46, 0x48, 0xd9, 0x46, 0xfa, 0x27, 0x1f, 0x44, 0x35, 0xf0, 0xcb, 0x4d, 0x32, 0x46, 0x17, 0xfd, 0x4f, 0x29, 0x0b, 0xf1, 0x43, 0x19, 0xd1, 0x37, 0x2d, 0xe9, 0xec, 0xe7, 0x0a, 0x12, 0xe9, 0x3a, 0x08, 0xf2, 0x17, 0xf1, 0xe7, 0xe5, 0xf3, 0xc4, 0xd7, 0xd6, 0x0d, 0xdb, 0x3a, 0x1e, 0xcc, 0xc2, 0xe8, 0x48, 0x45, 0x5a, 0xbf, 0x25, 0x48, 0x1f, 0xd1, 0xf6, 0x45, 0x33, 0xf6, 0x03, 0xcf, 0xec, 0xe6, 0xd7, 0xec, 0x22, 0xe1, 0xf0, 0xde, 0x03, 0xed, 0x36, 0xc7, 0xa1, 0x34, 0xf9, 0xfe, 0xe1, 0xe8, 0xe6, 0xff, 0x3b, 0x2b, 0x40, 0xde, 0xf9, 0x03, 0x30, 0xf2, 0xd8, 0xfb, 0x0d, 0xdf, 0x28, 0x37, 0x31, 0x28, 0xc8, 0xfa, 0xdb, 0xcd, 0x2f, 0x24, 0x46, 0x32, 0xd0, 0x23, 0xef, 0xdf, 0x27, 0xef, 0x29, 0xb9, 0x16, 0x89, 0x47, 0x09, 0x07, 0x57, 0xa7, 0x9e, 0x20, 0x56, 0x24, 0x21, 0x21, 0x4d, 0xed, 0xe6, 0x30, 0xdc, 0x2a, 0x8b, 0xf2, 0xd3, 0x99, 0xb0, 0xb1, 0xc2, 0x16, 0xb6, 0x0a, 0xdf, 0xa3, 0xa9, 0x03, 0x1f, 0xb6, 0x55, 0x19, 0x57, 0x23, 0x8c, 0x46, 0xac, 0xd5, 0xf8, 0xcf, 0x9d, 0x5b, 0x31, 0xa6, 0xc9, 0x2e, 0x19, 0x19, 0x3d, 0x84, 0x86, 0x09, 0xf5, 0x0d, 0x65, 0x92, 0xeb, 0x8c, 0x9e, 0x83, 0x31, 0xc4, 0x13, 0xdb, 0x2f, 0x36, 0x6c, 0xc3, 0xda, 0xf9, 0x4f, 0x8f, 0x5f, 0x63, 0x42, 0x89, 0x95, 0x90, 0x59, 0x72, 0x69, 0xe5, 0x85, 0x5d, 0x77, 0x28, 0x44, 0x38, 0xe2, 0x19, 0x51, 0x40, 0x66, 0x71, 0x4b, 0xb9, 0x65, 0xa8, 0x10, 0xa6, 0x5d, 0xbe, 0xf2, 0x06, 0x02, 0x89, 0x03, 0x1d, 0x2e, 0x87, 0xea, 0x02, 0x54, 0xba, 0xe4, 0x19, 0xa8, 0xec, 0x9e, 0xee, 0xce, 0xbe, 0x20, 0xac, 0x23, 0xa6, 0x54, 0xf3, 0x15, 0x2c, 0x0c, 0xa9, 0xec, 0x9f, 0x2f, 0x5d, 0x83, 0xcf, 0x1a, 0xee, 0xb0, 0xf6, 0xdb, 0x1d, 0x40, 0x15, 0x73, 0x20, 0x17, 0x52, 0x8e, 0x43, 0x10, 0x09, 0xa5, 0xa0, 0xce, 0x44, 0x6e, 0xeb, 0xa6, 0xcd, 0x02, 0x67, 0x18, 0xe1, 0x62, 0x0a, 0x3c, 0x17, 0x51, 0x42, 0x70, 0xb0, 0x3e, 0xed, 0x20, 0xd5, 0x8d, 0xf6, 0x8c, 0x46, 0x58, 0x9b, 0x93, 0xe9, 0xdb, 0x27, 0xde, 0xe8, 0x81, 0xb4, 0x61, 0x5a, 0xe3, 0xb7, 0xf8, 0xb0, 0x9f, 0x21, 0x3e, 0x86, 0x59, 0xc2, 0xae, 0xaf, 0x65, 0xa2, 0x0b, 0xf3, 0x5a, 0xb8, 0x79, 0x71, 0x72, 0xb2, 0xbc, 0x28, 0x6e, 0xf6, 0xdc, 0xe6, 0x4d, 0x5a, 0x82, 0x4f, 0x27, 0x47, 0x51, 0xbf, 0x29, 0x4d, 0xed, 0xc4, 0x33, 0xad, 0x8a, 0x84, 0x92, 0x5d, 0xc5, 0xb9, 0x6e, 0xd0, 0x6c, 0xff, 0x55, 0x24, 0x9c, 0x96, 0xe9, 0x16, 0xc8, 0xc2, 0xa0, 0x81, 0x04, 0x24, 0x0b, 0x1e, 0x8f, 0x38, 0x81, 0x61, 0x58, 0xf4, 0x9c, 0xe1, 0x61, 0xe1, 0x23, 0xe4, 0xf7, 0xdf, 0x9a, 0x03, 0x0f, 0x90, 0x66, 0x6f, 0xea, 0x91, 0x85, 0xd7, 0x2e, 0x8c, 0x49, 0x56, 0xc9, 0xbf, 0x17, 0x9e, 0x8f, 0xdc, 0x64, 0x9d, 0x1d, 0xe2, 0xac, 0xee, 0xfb, 0xc6, 0x86, 0x46, 0xbc, 0x17, 0xfb, 0x74, 0xc0, 0x65, 0x1f, 0x27, 0x1f, 0xd9, 0x2d, 0x8e, 0xf9, 0x9e, 0x49, 0xcc, 0x0d, 0x6c, 0x02, 0x31, 0xd4, 0xd2, 0xa2, 0xcd, 0x11, 0x9b, 0x63, 0xd1, 0xef, 0x40, 0x36, 0x33, 0x33, 0x45, 0x51, 0x6f, 0xed, 0xa9, 0x41, 0x37, 0xd9, 0xef, 0xf6, 0x99, 0xca, 0xa9, 0x4e, 0xac, 0x4b, 0x15, 0x14, 0x41, 0xb4, 0xb3, 0x19, 0x0e, 0x91, 0xa3, 0xc2, 0x23, 0x54, 0x9f, 0x23, 0xb6, 0x8c, 0x2c, 0x1f, 0xbb, 0x8b, 0x4e, 0x4b, 0xc6, 0xe7, 0x06, 0x5c, 0x3a, 0x21, 0xff, 0xa5, 0x63, 0x3d, 0xee, 0xcd, 0x17, 0xad, 0x15, 0x43, 0x2f, 0xfe, 0xb8, 0xdc, 0xdc, 0xf5, 0xed, 0x26, 0xd9, 0xee, 0xe5, 0xa0, 0x7c, 0x6f, 0x43, 0x32, 0x52, 0x3d, 0xd2, 0xee, 0x88, 0xa1, 0x99, 0xb0, 0x52, 0xbc, 0x50, 0xbf, 0x49, 0x3d, 0x53, 0xc9, 0xad, 0xdd, 0xb8, 0xda, 0x01, 0xcc, 0xdb, 0x48, 0xda, 0xa4, 0xc3, 0xe0, 0xdd, 0x56, 0xb5, 0xae, 0x9a, 0x3d, 0x5e, 0x54, 0xe8, 0x57, 0x0a, 0xc5, 0x37, 0xa7, 0xfe, 0x61, 0x3c, 0x59, 0xef, 0x6a, 0x12, 0x35, 0xaf, 0x4b, 0xc1, 0x38, 0xd9, 0xd3, 0xdc, 0x5b, 0x33, 0xdc, 0xb6, 0x97, 0xb9, 0x27, 0xfa, 0xa5, 0xe6, 0x29, 0x2d, 0x23, 0xd6, 0xc3, 0xdd, 0xfd, 0x0b, 0x42, 0x1e, 0x2b, 0xda, 0x9b, 0xb6, 0x24, 0xe3, 0xd8, 0xe5, 0x16, 0xd7, 0xe1, 0x1f, 0xfc, 0x31, 0x36, 0x07, 0xf9, 0x62, 0x46, 0xf1, 0xe7, 0xbc, 0x1d, 0xe8, 0x0f, 0xab, 0xad, 0xba, 0xe2, 0xb5, 0x2c, 0xf0, 0x0a, 0xe0, 0xc2, 0xdf, 0x98, 0x54, 0xbd, 0x7f, 0x0a, 0x2d, 0xdf, 0x34, 0x08, 0x17, 0x41, 0xbf, 0xd3, 0x04, 0x57, 0xac, 0x1d, 0xb0, 0xd2, 0x4b, 0x3d, 0x4c, 0x32, 0x4a, 0x1b, 0x24, 0x59, 0x00, 0xfa, 0xca, 0x25, 0xde, 0xe6, 0x2b, 0x6c, 0xb7, 0xd0, 0xa7, 0xc0, 0xf4, 0x46, 0x14, 0x35, 0x90, 0x71, 0x0e, 0x24, 0xa5, 0xdf, 0xa7, 0x4b, 0x02, 0xbc, 0x47, 0xca, 0xb0, 0xf0, 0x57, 0xf4, 0x48, 0x67, 0x35, 0xc7, 0x3c, 0xaa, 0x05, 0x56, 0xff, 0xf4, 0x2d, 0x50, 0x0f, 0xed, 0x21, 0xa7, 0xe7, 0x8d, 0x57, 0xdc, 0xa3, 0x24, 0xb0, 0xff, 0xfd, 0x3b, 0xd1, 0x09, 0x41, 0x64, 0x4e, 0xfa, 0x12, 0x44, 0x0e, 0x03, 0xad, 0x02, 0xb5, 0x50, 0xe5, 0x06, 0xd1, 0xda, 0x55, 0xa5, 0xb4, 0x5f, 0xaf, 0x1d, 0x48, 0x19, 0x2c, 0xf9, 0xbe, 0x44, 0xc5, 0xd4, 0x38, 0xbf, 0xd9, 0x22, 0xa2, 0xcc, 0xcc, 0x16, 0x33, 0x02, 0x3b, 0x3d, 0xf1, 0xff, 0x0b, 0x25, 0x32, 0xfa, 0xce, 0x58, 0xa2, 0x2d, 0x91, 0x44, 0xfd, 0x13, 0x16, 0xbe, 0xab, 0x30, 0x44, 0x13, 0x48, 0x27, 0x4b, 0x2c, 0x48, 0x50, 0xf5, 0xfc, 0xeb, 0x39, 0x1c, 0xff, 0x34, 0xec, 0x94, 0xe4, 0xf8, 0x19, 0x08, 0xd0, 0xc8, 0xa6, 0xca, 0x3c, 0x95, 0x94, 0xba, 0x08, 0x33, 0x48, 0x2c, 0x32, 0x2d, 0xbd, 0xb0, 0xca, 0xdc, 0xff, 0x39, 0xe1, 0xfd, 0x35, 0x42, 0xce, 0x18, 0xec, 0xb4, 0xb2, 0xd5, 0x15, 0xd6, 0x4f, 0xfb, 0x3e, 0x91, 0x2e, 0xfc, 0x19, 0xcc, 0x32, 0xa8, 0x3a, 0xd4, 0x19, 0x49, 0x07, 0xf3, 0xd5, 0xf6, 0x31, 0xee, 0x39, 0xc5, 0xcb, 0x33, 0xed, 0x0c, 0xc1, 0xa7, 0xed, 0x98, 0xf7, 0xb2, 0xa0, 0xbf, 0x96, 0x3f, 0xd0, 0x24, 0x43, 0xdf, 0x3c, 0xe4, 0x93, 0x1e, 0x32, 0x18, 0xfe, 0xcc, 0x33, 0xd7, 0xec, 0x36, 0x18, 0x3d, 0x3e, 0x24, 0x1e, 0xe2, 0x14, 0x40, 0xcd, 0x0b, 0xe8, 0x19, 0xea, 0xe8, 0x21, 0x11, 0xf4, 0x30, 0x2d, 0xb0, 0xf2, 0x3b, 0xfc, 0xfd, 0x0e, 0x23, 0xb0, 0x34, 0xbf, 0xb7, 0x17, 0xf4, 0x0c, 0x11, 0x45, 0xe8, 0x11, 0xe7, 0xca, 0x7f, 0x33, 0x1e, 0x22, 0xfc, 0x1c, 0x26, 0x0a, 0x2d, 0xf5, 0xfd, 0x1a, 0x09, 0x08, 0xbb, 0x21, 0x3f, 0xb7, 0xdb, 0xd5, 0xf7, 0x32, 0xf7, 0xe8, 0x09, 0x2a, 0xfa, 0xb6, 0x18, 0x11, 0x24, 0xe1, 0xaa, 0xef, 0x3f, 0x3d, 0x01, 0x27, 0xad, 0x36, 0xc8, 0xc7, 0xad, 0xf4, 0xd1, 0xc7, 0xe8, 0x39, 0xdc, 0x57, 0x1a, 0xbe, 0xf7, 0x29, 0xcc, 0x3d, 0x18, 0x31, 0xe3, 0x25, 0x42, 0x04, 0x0e, 0xc3, 0x0d, 0xcc, 0xc9, 0x3b, 0x35, 0x44, 0xfe, 0x17, 0x14, 0x18, 0x0f, 0xd1, 0xb5, 0x11, 0x0a, 0xc5, 0xc2, 0xe7, 0x3e, 0xcf, 0xff, 0x37, 0xe6, 0xda, 0xef, 0xbb, 0xb7, 0xd6, 0x34, 0xb2, 0xe0, 0x1c, 0x07, 0x02, 0x3d, 0xe6, 0xc5, 0x08, 0x05, 0x08, 0x3c, 0x1a, 0x2e, 0x20, 0xc3, 0xf1, 0xf4, 0x41, 0x5b, 0x33, 0x3c, 0xca, 0xbc, 0xae, 0xf4, 0x01, 0xf4, 0xb4, 0xe0, 0x11, 0x0d, 0xd2, 0xbf, 0xab, 0xa0, 0x43, 0x04, 0xb2, 0xc6, 0x13, 0x22, 0xfe, 0xf5, 0xd2, 0x21, 0xc0, 0xe6, 0xaf, 0xcf, 0x01, 0xff, 0x0a, 0x25, 0xca, 0x24, 0xcc, 0xfe, 0x22, 0x40, 0xc0, 0x33, 0x4c, 0xef, 0x2f, 0x42, 0x31, 0x1c, 0x1a, 0x2d, 0x1c, 0xbd, 0xb1, 0x24, 0x27, 0xeb, 0x3c, 0x06, 0xc9, 0x0a, 0xfc, 0x14, 0xcf, 0x25, 0x45, 0xfb, 0xaa, 0xb6, 0x07, 0x29, 0x31, 0xb9, 0xd0, 0x0e, 0x33, 0x33, 0x1b, 0xa9, 0x00, 0x23, 0x46, 0xd4, 0xf4, 0x40, 0x29, 0xfb, 0x3c, 0x02, 0xd3, 0xd3, 0xc4, 0x3a, 0x2f, 0xc2, 0x0a, 0x30, 0x1b, 0x10, 0x45, 0xd3, 0x31, 0x45, 0x18, 0xf8, 0xcd, 0xd0, 0x13, 0xde, 0x22, 0x11, 0x10, 0x07, 0xf1, 0x0a, 0xd6, 0xe8, 0xd8, 0xe9, 0x08, 0xd1, 0x35, 0x04, 0x31, 0x36, 0xe8, 0xb4, 0xca, 0xb4, 0x59, 0xfe, 0xe6, 0x2a, 0x05, 0x26, 0x1c, 0x5f, 0x07, 0xfb, 0x0a, 0x2c, 0x07, 0x01, 0x34, 0x3c, 0x0f, 0xce, 0xba, 0xc7, 0xf6, 0xf9, 0xd2, 0x11, 0xf4, 0xf8, 0xe5, 0xc9, 0x05, 0xbb, 0x10, 0x09, 0x27, 0x0e, 0x1c, 0x35, 0x26, 0xc5, 0x1a, 0x29, 0x09, 0x0b, 0xb7, 0xb9, 0x24, 0xd5, 0x0a, 0xe0, 0xf3, 0x30, 0x06, 0xba, 0xc8, 0xa4, 0xe8, 0x79, 0x2a, 0xca, 0xf0, 0x2a, 0xc4, 0x2b, 0x32, 0xf9, 0x56, 0xf1, 0x2f, 0x58, 0xdc, 0x02, 0xf1, 0x33, 0xd7, 0xf4, 0x0a, 0xd8, 0xe6, 0x23, 0x53, 0xd8, 0x4f, 0x2e, 0xec, 0xee, 0xc8, 0x2e, 0x2e, 0xc7, 0x51, 0x04, 0x44, 0xc9, 0x43, 0xfb, 0x10, 0x2d, 0x33, 0xec, 0x0a, 0x0c, 0xac, 0x12, 0xfb, 0x87, 0xc2, 0x1b, 0x11, 0x1f, 0xf7, 0xb0, 0x2c, 0x40, 0xb2, 0xa1, 0xc1, 0x9f, 0xb9, 0x10, 0xd1, 0x0f, 0x4c, 0xc8, 0x71, 0x45, 0xca, 0xf3, 0x0b, 0x33, 0x81, 0x75, 0xa3, 0xac, 0x38, 0xd7, 0x50, 0x7d, 0x53, 0x00, 0x10, 0x63, 0x48, 0x1c, 0xa1, 0xcb, 0x62, 0xa7, 0x89, 0xc8, 0xe6, 0xd7, 0x91, 0x3b, 0x81, 0x1e, 0x4e, 0x06, 0x02, 0x6a, 0x97, 0x9e, 0x08, 0xff, 0x7a, 0xfd, 0xf7, 0xe3, 0x1a, 0xa7, 0x3f, 0xb3, 0x06, 0xa1, 0x79, 0xe6, 0xc9, 0xfc, 0xcc, 0x7b, 0x4c, 0x95, 0x1e, 0x0d, 0xf5, 0x3a, 0xf3, 0x86, 0xca, 0x70, 0x03, 0x8c, 0x9c, 0x5c, 0x2e, 0x6b, 0x42, 0x19, 0x9d, 0x94, 0x95, 0xfa, 0x30, 0x1d, 0x81, 0x66, 0x2c, 0xb1, 0x96, 0x49, 0x37, 0xdd, 0x7e, 0x65, 0x2a, 0xa5, 0xe1, 0x9b, 0x26, 0x1d, 0xdd, 0x54, 0xda, 0x17, 0x26, 0x88, 0xf1, 0x05, 0xbd, 0x78, 0xfa, 0x32, 0x71, 0x6f, 0x32, 0x1d, 0x11, 0x81, 0x15, 0x5f, 0xd9, 0x9d, 0x5f, 0x18, 0xd6, 0x89, 0x61, 0x75, 0x19, 0xe6, 0x93, 0x44, 0x24, 0xb9, 0x75, 0xc4, 0xc4, 0xb6, 0x15, 0x0f, 0x9e, 0x6a, 0xc2, 0x96, 0x3d, 0x12, 0x6d, 0x71, 0x49, 0xb8, 0x20, 0xc8, 0x09, 0x44, 0x3a, 0x0a, 0x0f, 0xbd, 0xdc, 0x67, 0x7f, 0xec, 0xa3, 0x89, 0xbb, 0x40, 0xee, 0x73, 0x5d, 0x5c, 0x8d, 0x05, 0xee, 0x8a, 0x96, 0xb5, 0xf5, 0x9b, 0x4f, 0xf1, 0x70, 0x2f, 0x29, 0xd7, 0xe1, 0x82, 0x07, 0xe8, 0xd6, 0x12, 0xe6, 0xaa, 0x94, 0x25, 0x8b, 0xcb, 0x8c, 0xeb, 0xea, 0x63, 0xe7, 0x04, 0xb8, 0x21, 0xbc, 0x92, 0x05, 0x32, 0x18, 0xea, 0xb9, 0x3f, 0xb4, 0x39, 0xdd, 0x6a, 0xb3, 0x6b, 0xa3, 0x51, 0x78, 0x97, 0xc9, 0xd5, 0xd6, 0xa7, 0xca, 0x03, 0x8f, 0x2c, 0xcb, 0xf5, 0x23, 0x03, 0xb8, 0x28, 0x9d, 0x1c, 0x2f, 0x81, 0xb5, 0x0b, 0x92, 0x4a, 0xed, 0xe7, 0x43, 0x2f, 0xbe, 0xbc, 0x0e, 0xc6, 0xe2, 0x4a, 0x1d, 0x05, 0x5a, 0x04, 0x83, 0x19, 0x6c, 0xbd, 0x6d, 0xeb, 0x06, 0x46, 0xbb, 0x2b, 0x7b, 0x00, 0x42, 0xae, 0x9c, 0xea, 0x43, 0xa8, 0xb5, 0x4b, 0x2c, 0xb4, 0x26, 0x61, 0x58, 0x1c, 0x32, 0xb6, 0x86, 0xc1, 0xd4, 0xe4, 0xe2, 0x12, 0xc0, 0x3c, 0x12, 0x43, 0x37, 0x34, 0xaf, 0x52, 0xf6, 0xdd, 0xe4, 0x5d, 0xaa, 0x14, 0x86, 0x8e, 0x73, 0xe9, 0x6c, 0x82, 0x5e, 0x4b, 0x6b, 0x0d, 0x09, 0x98, 0x5d, 0xa4, 0xa2, 0x78, 0xd1, 0x84, 0xc2, 0x30, 0x7c, 0x4e, 0x9f, 0x3e, 0x4b, 0x29, 0x1f, 0xa8, 0x84, 0x7c, 0x96, 0x11, 0x83, 0x48, 0xc0, 0xad, 0xea, 0x65, 0x74, 0xb3, 0xcf, 0x1f, 0xb4, 0x55, 0x9c, 0x93, 0x03, 0x46, 0x5d, 0x56, 0x5b, 0x19, 0x6d, 0xa4, 0xec, 0xc1, 0x4d, 0xc0, 0x3b, 0x1d, 0xe2, 0x9a, 0x33, 0xcb, 0x2a, 0x01, 0x42, 0x2c, 0xd5, 0x43, 0xf8, 0x22, 0xa0, 0x56, 0xa7, 0x11, 0xbd, 0x46, 0x36, 0x9a, 0xa3, 0x1d, 0xa3, 0x4f, 0xbe, 0x22, 0x37, 0xdd, 0x81, 0xbd, 0x5d, 0x34, 0x9f, 0x52, 0xa3, 0x9d, 0xa8, 0xb7, 0x99, 0x0d, 0x92, 0x5a, 0xa3, 0x3a, 0x65, 0xe6, 0x5a, 0xdc, 0x32, 0xa2, 0xcd, 0x08, 0xc8, 0xba, 0xf3, 0x22, 0x35, 0xaa, 0x31, 0x03, 0x0b, 0x2e, 0x20, 0x57, 0x48, 0x9d, 0xa7, 0x92, 0x25, 0x1f, 0xd0, 0x26, 0x4c, 0x13, 0xd3, 0xce, 0x9e, 0x8d, 0xbb, 0xa7, 0xb7, 0x21, 0x11, 0x2c, 0x25, 0x3a, 0xa1, 0xc1, 0x4f, 0x22, 0x5c, 0xf5, 0x87, 0xa9, 0xdd, 0xd2, 0x1e, 0xa6, 0x25, 0x31, 0x8b, 0x99, 0xf0, 0xaf, 0x1a, 0xca, 0x52, 0x4d, 0x5f, 0x5d, 0xb9, 0x57, 0xc3, 0x4b, 0xb4, 0xef, 0xea, 0x10, 0xe3, 0xa7, 0x56, 0xb9, 0xc1, 0xd3, 0x91, 0x3b, 0x06, 0xb7, 0x42, 0xe2, 0x54, 0x92, 0xf4, 0x25, 0xc6, 0x68, 0xfc, 0x05, 0x99, 0xe8, 0x51, 0xcc, 0xf4, 0x00, 0xef, 0xad, 0xde, 0xc0, 0xd4, 0x25, 0xa3, 0x5f, 0xbd, 0x4f, 0xa9, 0xae, 0x38, 0xae, 0xc1, 0x49, 0x33, 0x1b, 0xdb, 0x15, 0x58, 0xb4, 0x50, 0xad, 0x92, 0xb7, 0xff, 0xe5, 0x31, 0x5b, 0x04, 0x40, 0x24, 0x59, 0x52, 0x8d, 0xf3, 0xc3, 0x48, 0x5c, 0x4d, 0x4b, 0x47, 0xea, 0xf8, 0xf5, 0xde, 0x45, 0xb6, 0xe4, 0x30, 0x6b, 0x8d, 0x3d, 0xa5, 0x2c, 0x42, 0x97, 0xee, 0xa1, 0xba, 0x17, 0xb5, 0x9f, 0x33, 0xc6, 0xaa, 0x0b, 0x63, 0xe7, 0x4e, 0x0f, 0x4f, 0x1e, 0x18, 0x8d, 0x2f, 0x4c, 0x0c, 0x3d, 0xba, 0xf2, 0xf6, 0x68, 0x42, 0x92, 0x39, 0x9b, 0xce, 0xdb, 0x5d, 0x9e, 0x2b, 0x23, 0xa9, 0x22, 0x59, 0xfe, 0xe6, 0x4e, 0xc1, 0x15, 0x4d, 0x3d, 0x47, 0x57, 0xc0, 0x4e, 0x50, 0x27, 0x92, 0xc8, 0x5c, 0x0e, 0x6b, 0xd7, 0x01, 0x1b, 0xc6, 0x49, 0xeb, 0x9b, 0x73, 0x4e, 0x41, 0x03, 0x05, 0x55, 0xea, 0x22, 0x3b, 0xa7, 0xb8, 0x17, 0xc4, 0xe7, 0x9d, 0xcd, 0x1b, 0x92, 0xf7, 0xda, 0xeb, 0x52, 0xfb, 0x13, 0xcf, 0xe8, 0xac, 0xd1, 0x0a, 0x3b, 0x57, 0xd3, 0xb9, 0x98, 0x47, 0xab, 0x3a, 0x30, 0xe3, 0xa7, 0xd2, 0xc1, 0xf4, 0x5e, 0xf8, 0xfd, 0x9a, 0xe6, 0x5f, 0xb3, 0x07, 0xa8, 0x99, 0x56, 0x00, 0x58, 0xca, 0x4c, 0xf4, 0xc0, 0x95, 0xa0, 0xdb, 0x19, 0xb3, 0xed, 0xc0, 0x44, 0x17, 0x05, 0x1f, 0xd6, 0xd8, 0xa8, 0x1c, 0x4c, 0x12, 0x18, 0x08, 0xc5, 0xbb, 0xf0, 0xb2, 0x21, 0xf7, 0xba, 0x9e, 0xa5, 0x43, 0x9a, 0x4f, 0x48, 0xbb, 0x9b, 0x5a, 0x29, 0xe2, 0x3e, 0xc5, 0x4f, 0x49, 0x93, 0x90, 0x3b, 0xcb, 0xaf, 0x25, 0xd9, 0x2a, 0x30, 0x11, 0xe3, 0xf2, 0x3b, 0x50, 0xf8, 0x61, 0x0c, 0x50, 0x9b, 0x94, 0x22, 0x3c, 0xe9, 0x23, 0x8e, 0xbb, 0x60, 0xf2, 0x45, 0x03, 0x28, 0xe7, 0x04, 0x39, 0x0f, 0x2b, 0xa5, 0xff, 0x32, 0x36, 0xe2, 0x39, 0xc0, 0x1c, 0xf8, 0xda, 0x08, 0x97, 0xb2, 0xda, 0x2b, 0xd8, 0x3c, 0x97, 0x48, 0x93, 0x9c, 0xe4, 0xf5, 0xe6, 0xdb, 0x26, 0x4a, 0xd4, 0xf5, 0xd3, 0x09, 0xc5, 0xcc, 0x97, 0xde, 0xbd, 0x38, 0x81, 0xd4, 0xa4, 0xee, 0x65, 0xe9, 0xc6, 0x27, 0x99, 0xf8, 0xd6, 0xc5, 0x53, 0xfb, 0xa0, 0x99, 0x3a, 0x04, 0x10, 0x70, 0x8e, 0xce, 0x6a, 0xf1, 0x8c, 0x22, 0xb9, 0x26, 0xc9, 0xfc, 0x41, 0x59, 0x03, 0x38, 0xa4, 0x30, 0x06, 0xd4, 0x1e, 0xe8, 0xab, 0x1d, 0xd5, 0x10, 0x26, 0xbe, 0xec, 0x4b, 0x6d, 0xbf, 0xc8, 0x1b, 0xb5, 0x27, 0xe2, 0x9f, 0xe8, 0x83, 0x37, 0x95, 0xa2, 0xb8, 0xd9, 0x49, 0x47, 0x49, 0x37, 0xdc, 0x51, 0x63, 0xd2, 0xc4, 0xad, 0x47, 0x2c, 0x53, 0xf6, 0xd6, 0xd9, 0x8e, 0x34, 0x0c, 0xbc, 0x3e, 0x9a, 0xff, 0xc3, 0x07, 0x07, 0xbc, 0xfc, 0x5f, 0x94, 0xc2, 0x13, 0x55, 0xfb, 0x44, 0xf9, 0x51, 0x2d, 0x8d, 0x0b, 0x21, 0xf6, 0x57, 0x4c, 0xcf, 0x86, 0x69, 0x34, 0x29, 0xf4, 0xf6, 0xa6, 0xfc, 0x51, 0x44, 0x5e, 0xbb, 0xb7, 0xe8, 0x0c, 0xb7, 0x13, 0xa6, 0xd5, 0x9b, 0x04, 0x6a, 0x34, 0x1c, 0xd0, 0x4d, 0xf5, 0xfb, 0x20, 0x2c, 0x33, 0xd3, 0x0b, 0xb9, 0xb2, 0x55, 0xa8, 0x43, 0x5e, 0x47, 0xa3, 0x2b, 0xbb, 0x52, 0xdc, 0xf1, 0x41, 0x65, 0x02, 0x59, 0x69, 0x43, 0x38, 0x2d, 0x15, 0xda, 0x85, 0xd8, 0x5a, 0xc9, 0xed, 0x8d, 0x59, 0x33, 0x92, 0x50, 0x15, 0x30, 0x2a, 0x05, 0x4e, 0x0a, 0xf7, 0x48, 0x52, 0xef, 0x24, 0xdd, 0xd0, 0x1d, 0xa5, 0x36, 0x12, 0x15, 0xe9, 0xb1, 0xe8, 0x66, 0xbe, 0x0f, 0xe6, 0xd8, 0x02, 0x1a, 0x0e, 0x12, 0x07, 0xec, 0x9a, 0xb8, 0x84, 0xff, 0x54, 0xa3, 0x5b, 0xa1, 0x49, 0xd5, 0xf1, 0x65, 0x86, 0x9c, 0xd0, 0x64, 0x29, 0xdc, 0x90, 0xe7, 0x5c, 0xdc, 0x3c, 0x27, 0x45, 0xcb, 0x9e, 0x68, 0x35, 0xd6, 0x09, 0xaf, 0x41, 0xcc, 0x04, 0xc2, 0xef, 0x0f, 0xc9, 0xac, 0x49, 0x63, 0x0b, 0x6f, 0x2f, 0x03, 0x4c, 0xa7, 0x2d, 0xf3, 0xe4, 0x2c, 0x3e, 0xe8, 0x31, 0xca, 0x0a, 0x13, 0xce, 0x17, 0x63, 0xf5, 0x19, 0x70, 0x1d, 0x3e, 0xb4, 0xc0, 0x55, 0x43, 0x42, 0x0c, 0x05, 0x0d, 0xfb, 0x9f, 0xa4, 0x99, 0x38, 0x28, 0x09, 0xd4, 0x20, 0xcd, 0x84, 0xf3, 0xde, 0xa1, 0x0c, 0x87, 0x50, 0x3b, 0x03, 0x3a, 0x02, 0x2c, 0x27, 0x9d, 0x0a, 0x37, 0xdc, 0xa0, 0xd2, 0x90, 0x51, 0xb2, 0xec, 0xb8, 0xcf, 0xae, 0xa4, 0xb9, 0x3d, 0x66, 0x47, 0xcf, 0xd2, 0xae, 0xfc, 0x4b, 0xe0, 0xdd, 0x21, 0x5e, 0xb9, 0xe9, 0xca, 0x15, 0x0b, 0x3e, 0x46, 0x5b, 0xd6, 0xb4, 0x60, 0xa3, 0x39, 0x39, 0xeb, 0xf4, 0xd1, 0x1e, 0xb5, 0xcf, 0x17, 0x0a, 0x38, 0x47, 0x45, 0x0b, 0x29, 0xcc, 0x4c, 0x5d, 0xec, 0x59, 0xeb, 0xae, 0x25, 0x4a, 0x0d, 0x00, 0xff, 0x12, 0x56, 0x0a, 0xff, 0x0a, 0xb2, 0x1e, 0xd3, 0x36, 0x4f, 0x1f, 0x48, 0x56, 0x13, 0xf1, 0x04, 0xdc, 0xc3, 0xec, 0xf6, 0x56, 0xb1, 0xd7, 0xd4, 0x09, 0x61, 0x3b, 0xfb, 0xf4, 0x60, 0x4a, 0xe8, 0xe4, 0x50, 0xb6, 0xf2, 0x18, 0x0f, 0x0a, 0x21, 0xb4, 0xc9, 0x0e, 0xc4, 0xca, 0x48, 0xaa, 0xb2, 0x13, 0xca, 0x10, 0xa3, 0x12, 0xaa, 0x38, 0xa6, 0xcd, 0x96, 0x0a, 0xfb, 0x33, 0xe6, 0x48, 0xb7, 0xd2, 0xc5, 0xf7, 0x3a, 0xf1, 0x34, 0x2a, 0xfc, 0x23, 0xfd, 0x50, 0x2a, 0x0c, 0xcc, 0x3c, 0x52, 0x40, 0xc0, 0xaf, 0x00, 0xea, 0xd6, 0x1f, 0x0f, 0x50, 0x2f, 0xff, 0xfe, 0x16, 0x5b, 0xd0, 0x30, 0x21, 0x00, 0x29, 0xbe, 0xc1, 0xbc, 0xf7, 0xd3, 0xce, 0x4c, 0x42, 0x9a, 0x14, 0x16, 0xd8, 0x35, 0x03, 0x41, 0x21, 0x1b, 0x53, 0x05, 0xd8, 0x1e, 0xee, 0xe4, 0x35, 0xb0, 0x4b, 0x03, 0x2c, 0xe4, 0xc0, 0xf2, 0x7f, 0x07, 0xe6, 0x29, 0xc1, 0x24, 0xdd, 0x04, 0xdf, 0xad, 0x1e, 0x38, 0xdc, 0x5f, 0xc1, 0xe6, 0xdb, 0x04, 0xbc, 0xca, 0xd9, 0x05, 0x9f, 0x12, 0xc3, 0xcb, 0x9d, 0x34, 0x0c, 0xe7, 0xa7, 0x3f, 0x28, 0x17, 0x32, 0xf6, 0xd1, 0xa6, 0x21, 0x28, 0x30, 0x33, 0x34, 0x28, 0xbc, 0x3b, 0x49, 0x08, 0xf7, 0xa8, 0xa2, 0x00, 0xb3, 0x3b, 0xbb, 0x46, 0x46, 0xbc, 0x27, 0xd7, 0xf7, 0x9a, 0xd0, 0xf4, 0xe9, 0x93, 0xcf, 0x53, 0xbf, 0x40, 0xbc, 0xcf, 0x10, 0x00, 0x4b, 0x19, 0x4d, 0xaf, 0xdd, 0x4c, 0x47, 0x63, 0xda, 0xa7, 0xa1, 0xe4, 0xb5, 0xed, 0x34, 0x38, 0x52, 0x49, 0xde, 0x38, 0x05, 0x28, 0xec, 0x2f, 0x43, 0xe0, 0xeb, 0xb8, 0x2f, 0xa7, 0x16, 0x5b, 0xc7, 0x24, 0xde, 0x51, 0x1e, 0x1d, 0x14, 0xed, 0x12, 0xd6, 0x54, 0x09, 0x5c, 0x47, 0x93, 0x13, 0xdb, 0xc9, 0x35, 0x09, 0xab, 0xe6, 0x12, 0xd9, 0x0d, 0xf3, 0xb8, 0xef, 0x92, 0x47, 0x10, 0xb2, 0x32, 0xa3, 0xef, 0xcd, 0x4e, 0xce, 0x26, 0x26, 0x2f, 0xd4, 0x0e, 0xf2, 0xd3, 0x20, 0x01, 0xe9, 0x2d, 0xdc, 0x38, 0x07, 0x21, 0xea, 0x0a, 0x48, 0xea, 0x59, 0x58, 0xb4, 0x5b, 0xf7, 0xde, 0xde, 0x4c, 0x1c, 0x14, 0xa9, 0x10, 0x58, 0x08, 0x9e, 0x2e, 0x26, 0x51, 0xfd, 0xd8, 0x58, 0xdb, 0xb3, 0xba, 0xa3, 0x10, 0xe9, 0xf8, 0x25, 0xd8, 0x19, 0x9b, 0xce, 0x1c, 0x1f, 0x3c, 0xd1, 0xab, 0x8b, 0xe2, 0xb3, 0xd5, 0x1c, 0xd9, 0xe9, 0xb8, 0xd2, 0x04, 0xdb, 0x21, 0xf9, 0xc8, 0x9f, 0x6f, 0x01, 0x8f, 0xba, 0x06, 0x9a, 0x50, 0x8e, 0x5b, 0x4e, 0xd8, 0x3c, 0x04, 0x4d, 0xa9, 0xa1, 0x55, 0x22, 0x27, 0x10, 0x9b, 0x4d, 0x49, 0x18, 0x68, 0xd0, 0xb9, 0x2d, 0xce, 0xf5, 0xe5, 0xa9, 0xed, 0x25, 0x35, 0x01, 0xf9, 0xac, 0xb6, 0xf2, 0x97, 0x76, 0x26, 0x3e, 0xb0, 0x02, 0xac, 0x2b, 0x4e, 0xc0, 0x02, 0x69, 0x1c, 0x94, 0xfd, 0x56, 0xe6, 0x5c, 0x33, 0x73, 0xe0, 0x0b, 0xec, 0xd9, 0x82, 0x2c, 0x66, 0x15, 0x96, 0x08, 0xb9, 0x24, 0x8c, 0x79, 0xc7, 0x90, 0x18, 0x12, 0x7c, 0x4c, 0x61, 0xae, 0x0a, 0x68, 0xad, 0x9a, 0x01, 0x98, 0xe6, 0xa5, 0x76, 0xf3, 0xfb, 0x8f, 0x39, 0x82, 0x0b, 0xf1, 0xc4, 0x1b, 0x4f, 0xad, 0x51, 0x81, 0xd9, 0xc7, 0x5f, 0xc7, 0xbe, 0xb1, 0x15, 0xd7, 0x95, 0x27, 0xea, 0xde, 0xaf, 0x1f, 0x61, 0xc9, 0x52, 0x41, 0x0b, 0x11, 0xb4, 0xd9, 0x46, 0x1a, 0x33, 0x91, 0xb4, 0x60, 0x55, 0xab, 0x3d, 0xc6, 0x2f, 0x36, 0x35, 0x9d, 0x88, 0x64, 0xad, 0x23, 0xa6, 0xd0, 0xb9, 0x6e, 0x1d, 0xc1, 0xf0, 0xfe, 0x0f, 0x61, 0x36, 0x2f, 0x9e, 0x8b, 0xdd, 0x0b, 0x63, 0x69, 0x84, 0xb8, 0x35, 0xc5, 0x4e, 0xfa, 0x91, 0x65, 0x25, 0xf8, 0xcc, 0x6b, 0x2e, 0x4f, 0xaf, 0x02, 0xad, 0x40, 0x24, 0xbc, 0xe2, 0xd8, 0x71, 0xf0, 0x88, 0x93, 0xb5, 0xa7, 0x36, 0x34, 0x76, 0xb7, 0x8c, 0xdf, 0x71, 0xa6, 0x0f, 0x3b, 0xb1, 0xbf, 0x5d, 0xb9, 0x2a, 0xf3, 0xe4, 0x7d, 0x5c, 0xc2, 0x47, 0x35, 0xf5, 0x95, 0x9a, 0x87, 0xb2, 0x1d, 0x14, 0xc7, 0x9a, 0x00, 0x01, 0x63, 0x1b, 0xa9, 0x85, 0xfe, 0x36, 0xec, 0xb3, 0xb5, 0xad, 0x37, 0x20, 0x5c, 0x3b, 0x13, 0xa2, 0x08, 0xc9, 0xe8, 0x5b, 0x85, 0xce, 0xa6, 0x50, 0x45, 0x4e, 0xfb, 0xbe, 0xd0, 0x15, 0x3d, 0x0d, 0xad, 0xa5, 0x82, 0x11, 0x03, 0x15, 0xaa, 0x14, 0x97, 0x88, 0xad, 0xc4, 0x1a, 0xd8, 0xd2, 0xc8, 0x16, 0x67, 0x8f, 0xa3, 0xc7, 0x08, 0x39, 0xb0, 0xf0, 0x49, 0x70, 0x23, 0xed, 0x8e, 0x40, 0x84, 0xd3, 0x68, 0x72, 0x8f, 0x9d, 0x8f, 0x65, 0x45, 0x24, 0x3e, 0xb4, 0xd0, 0xf9, 0x2a, 0xe1, 0xe1, 0x43, 0x30, 0x2a, 0x86, 0x8a, 0xd7, 0xd7, 0x11, 0x3a, 0x67, 0x06, 0xb9, 0xc3, 0x3c, 0xfc, 0xbf, 0xd2, 0x3f, 0x16, 0x6d, 0xe9, 0xe1, 0x0f, 0xbe, 0x64, 0xf6, 0xc4, 0xdd, 0x93, 0xb4, 0x12, 0x00, 0x77, 0x86, 0xc5, 0xbe, 0x55, 0x71, 0x9c, 0xe8, 0x9a, 0xf4, 0xf6, 0xf0, 0x00, 0x69, 0xa1, 0x0e, 0x52, 0xb3, 0x28, 0xbd, 0x61, 0x0d, 0x65, 0xca, 0x4c, 0x9b, 0x4a, 0x5f, 0x90, 0x8d, 0x76, 0x1b, 0x1d, 0x63, 0xd1, 0xf0, 0xea, 0xeb, 0x08, 0x96, 0x35, 0x02, 0x72, 0x98, 0xb0, 0x86, 0x5f, 0x5e, 0x64, 0x39, 0xad, 0x54, 0x96, 0x96, 0xc1, 0x45, 0x13, 0x64, 0x52, 0x34, 0x0b, 0xb0, 0x15, 0xd5, 0x21, 0xeb, 0x29, 0x1c, 0x4c, 0x2d, 0xc9, 0x9b, 0xf7, 0x15, 0xc7, 0xdb, 0xf4, 0x52, 0x5f, 0x4b, 0xdf, 0x31, 0x68, 0xe1, 0x9f, 0xe8, 0x10, 0x4b, 0x87, 0xb5, 0x68, 0x0c, 0x8a, 0x1f, 0xe1, 0xd1, 0x8d, 0x23, 0xae, 0x67, 0x2c, 0xc9, 0x52, 0x3f, 0x58, 0x8f, 0xcf, 0x90, 0xbd, 0xb5, 0x97, 0xf9, 0xa5, 0x6f, 0x1f, 0x01, 0xe1, 0x2a, 0x18, 0xe0, 0x10, 0x28, 0x84, 0xd1, 0xcd, 0x70, 0x37, 0x4b, 0x34, 0xcc, 0xd2, 0x8a, 0x60, 0xd7, 0xa9, 0xad, 0xe1, 0xf9, 0xa2, 0x72, 0xbf, 0xdd, 0x6b, 0x2d, 0x96, 0x04, 0x05, 0x27, 0x5d, 0x63, 0x0c, 0x39, 0xf2, 0x50, 0x28, 0x43, 0xe4, 0x29, 0x9e, 0x3b, 0x87, 0xc8, 0xb4, 0x33, 0x95, 0xce, 0x5a, 0x2a, 0x40, 0x13, 0xeb, 0xbf, 0xad, 0x5a, 0x4f, 0xc3, 0xf1, 0x05, 0x08, 0xac, 0xc3, 0xe0, 0x82, 0x21, 0x54, 0x00, 0xae, 0x30, 0xd6, 0x57, 0x22, 0xc8, 0x0c, 0xc4, 0xfc, 0x28, 0x1e, 0xd4, 0x44, 0xf8, 0xc1, 0xd7, 0xe4, 0x4f, 0xa0, 0x74, 0x1c, 0x33, 0x8d, 0x11, 0x28, 0xc3, 0xfa, 0x1d, 0xb5, 0xa6, 0xd6, 0xd3, 0x23, 0x28, 0xb6, 0x8c, 0x15, 0x29, 0xe9, 0xb9, 0x2b, 0xe6, 0x19, 0x4e, 0xdd, 0x23, 0xc6, 0x92, 0x1f, 0x3c, 0x89, 0xa1, 0xcb, 0x81, 0x18, 0x87, 0x93, 0x99, 0xf8, 0xe3, 0xf2, 0x73, 0xca, 0x4b, 0x74, 0x9b, 0xe7, 0x00, 0x0f, 0x1f, 0xb2, 0xd1, 0x49, 0xcc, 0x02, 0x54, 0xec, 0x4c, 0x5b, 0x90, 0x2c, 0x55, 0xc0, 0x0b, 0xee, 0x40, 0xe3, 0x37, 0xcc, 0xbc, 0xf6, 0xa7, 0x47, 0x8a, 0xdb, 0xb9, 0xe5, 0xe8, 0xd0, 0x9e, 0x47, 0xdb, 0x31, 0x61, 0x03, 0x73, 0xa9, 0xba, 0xcc, 0x25, 0x0c, 0x43, 0xbe, 0x96, 0x73, 0x9c, 0x9a, 0x89, 0x62, 0xfd, 0x81, 0x58, 0x58, 0x08, 0xa8, 0x9f, 0xc3, 0x26, 0x88, 0x8b, 0x10, 0xd9, 0x94, 0x5a, 0x09, 0xed, 0x01, 0x0f, 0x5b, 0x32, 0x38, 0xb1, 0x55, 0xc0, 0xdc, 0x93, 0xd4, 0x5c, 0xed, 0xf3, 0x8a, 0x6f, 0xde, 0x54, 0xde, 0xf7, 0x5f, 0xd6, 0xab, 0x51, 0x1d, 0xcd, 0x16, 0xe3, 0xc9, 0x01, 0x84, 0xe1, 0x73, 0xde, 0x63, 0xc4, 0x83, 0x62, 0x09, 0x79, 0x90, 0xff, 0xe8, 0xce, 0x15, 0xfc, 0x5b, 0x99, 0x91, 0x34, 0xa8, 0x66, 0x72, 0x6b, 0xea, 0x51, 0x40, 0xe6, 0xeb, 0x71, 0xf9, 0x49, 0x64, 0x1e, 0xbd, 0x04, 0x2c, 0xb1, 0xbd, 0x5f, 0xf7, 0x9f, 0x17, 0xe6, 0x5c, 0x68, 0x15, 0x14, 0xa1, 0x6f, 0x23, 0x6c, 0x02, 0x8b, 0xd0, 0x8a, 0x6b, 0x35, 0xda, 0xd8, 0x2e, 0xe2, 0xe6, 0xeb, 0xc3, 0xc0, 0x1d, 0x5c, 0x19, 0x26, 0x3b, 0xcf, 0x0d, 0x3b, 0xd3, 0xec, 0x4f, 0x24, 0xf9, 0x3f, 0x4f, 0xdc, 0x1a, 0xc9, 0xa3, 0xde, 0xe3, 0xb0, 0xbb, 0x4e, 0x3f, 0x47, 0x0c, 0x4a, 0x3b, 0xd1, 0x28, 0x0d, 0xb5, 0x1e, 0xce, 0xc5, 0x97, 0xce, 0x3f, 0x7f, 0xf7, 0x66, 0xee, 0xf3, 0xd0, 0xe0, 0xc0, 0x03, 0x1e, 0xb4, 0xab, 0xb7, 0xe9, 0xb6, 0x10, 0xd8, 0xee, 0xe3, 0x3e, 0x07, 0x50, 0xa7, 0xb9, 0xc7, 0xe0, 0xfe, 0x1b, 0x05, 0x1f, 0x29, 0xf6, 0xe2, 0x85, 0x56, 0x2a, 0xd1, 0x40, 0xfd, 0xb4, 0x1f, 0xaa, 0x9e, 0xf0, 0x06, 0xb5, 0xc4, 0xed, 0xe3, 0xdf, 0xa3, 0xe8, 0xea, 0x29, 0xe9, 0xb7, 0x2a, 0xd4, 0x28, 0x55, 0xad, 0x4a, 0xd4, 0xce, 0x02, 0xae, 0x06, 0xf4, 0x02, 0xa0, 0xda, 0x45, 0x46, 0xd4, 0xdf, 0xbe, 0xbc, 0x55, 0xb7, 0x1f, 0x96, 0x37, 0x0c, 0xda, 0x5f, 0x3b, 0xa4, 0xbe, 0xce, 0xd6, 0xd3, 0xc4, 0xea, 0xfa, 0x27, 0xce, 0x58, 0x37, 0x14, 0xb4, 0xc2, 0x1d, 0x3f, 0xef, 0xf3, 0x54, 0xf6, 0xf8, 0x59, 0x02, 0x5c, 0xfb, 0xd6, 0x19, 0xba, 0xf9, 0x48, 0xcd, 0xa1, 0xf9, 0x01, 0xe8, 0x61, 0x34, 0x29, 0x23, 0x1c, 0x20, 0x1b, 0xc6, 0x30, 0xd1, 0xf0, 0xb4, 0xca, 0x32, 0x37, 0xec, 0x3c, 0xb3, 0xb0, 0x43, 0x45, 0xed, 0x05, 0x4c, 0xfc, 0x4a, 0x56, 0xe9, 0x31, 0xb6, 0x42, 0xda, 0x39, 0x28, 0xc3, 0xb4, 0x28, 0x18, 0xdc, 0xfa, 0x53, 0x45, 0x4e, 0x57, 0x2f, 0xea, 0x47, 0xe9, 0x12, 0x05, 0xe9, 0xb1, 0x53, 0x2d, 0xb5, 0x07, 0x03, 0xec, 0xb8, 0x58, 0x03, 0xa1, 0x64, 0x34, 0x02, 0x32, 0x2d, 0xc3, 0xf2, 0xab, 0x4a, 0x42, 0xe2, 0xdd, 0x4d, 0x06, 0xbf, 0x04, 0xd9, 0xfd, 0xc2, 0x50, 0xde, 0xf6, 0xba, 0x53, 0xc4, 0x2d, 0x00, 0x42, 0x50, 0x0b, 0x2c, 0xd9, 0x22, 0x75, 0xc9, 0x0a, 0x47, 0x4d, 0xdb, 0x25, 0xae, 0x0f, 0x2d, 0x52, 0x02, 0xd7, 0x68, 0xca, 0xfb, 0xd6, 0xd3, 0xb5, 0x0b, 0xad, 0xde, 0x2f, 0x4a, 0x14, 0xec, 0xc2, 0x1b, 0x27, 0xdd, 0xac, 0xf8, 0x5f, 0x02, 0x11, 0x3f, 0x00, 0xb5, 0x60, 0xad, 0x0a, 0xa9, 0x52, 0x29, 0x59, 0x4d, 0x23, 0xf8, 0xef, 0x1c, 0xf9, 0x26, 0xab, 0x99, 0x2d, 0x05, 0x0c, 0xb3, 0xde, 0xbf, 0x28, 0x36, 0xd0, 0x2f, 0x02, 0x16, 0xba, 0x20, 0xeb, 0x6a, 0x32, 0x57, 0x9f, 0x47, 0x2d, 0xea, 0xc3, 0x21, 0x25, 0x56, 0x37, 0x14, 0xd1, 0x1d, 0x48, 0x4a, 0x14, 0xb1, 0xb6, 0xb2, 0x03, 0x38, 0xbb, 0xee, 0xf7, 0xaf, 0xef, 0x0d, 0xc3, 0x30, 0xbf, 0xdc, 0xe5, 0x10, 0xf2, 0x16, 0xbf, 0x48, 0xea, 0xa4, 0xfb, 0x6b, 0xef, 0xb7, 0x2c, 0xf8, 0x58, 0x4a, 0x0c, 0x00, 0xb4, 0x25, 0xd6, 0xcc, 0x42, 0x31, 0x06, 0xd9, 0xdb, 0xc5, 0x0b, 0x40, 0xd0, 0x33, 0x4a, 0x8e, 0xd8, 0x1a, 0xc5, 0xb4, 0x24, 0x26, 0x49, 0x7f, 0x56, 0xc8, 0x07, 0xd4, 0x2f, 0xeb, 0x24, 0xdf, 0xc7, 0x01, 0xd1, 0x30, 0x34, 0xd5, 0x4f, 0x39, 0x24, 0xfa, 0x24, 0x0e, 0xff, 0x35, 0xed, 0xc4, 0xfd, 0x44, 0xcd, 0x26, 0x53, 0xbf, 0xfb, 0x21, 0x05, 0x08, 0xc2, 0x44, 0xd9, 0xde, 0x1f, 0x41, 0x0c, 0x3e, 0xdb, 0xc7, 0x09, 0xe6, 0xcd, 0x5b, 0x21, 0xdc, 0x3b, 0xb7, 0xcd, 0x0b, 0x29, 0x26, 0xe5, 0x05, 0xe8, 0xd0, 0x51, 0xb1, 0xc0, 0x12, 0x2e, 0x03, 0xec, 0xbb, 0x2a, 0xe3, 0x09, 0x1d, 0x36, 0x3d, 0x1b, 0xec, 0xd1, 0x28, 0x2e, 0xd8, 0xca, 0x41, 0xda, 0xe5, 0xb4, 0xbb, 0xb5, 0xc6, 0x16, 0xee, 0xb3, 0xe4, 0xe3, 0x08, 0xdb, 0x47, 0x3f, 0xee, 0x19, 0x36, 0xfd, 0x45, 0xd0, 0xfd, 0x35, 0xb2, 0x00, 0x46, 0xf7, 0x26, 0x31, 0xc7, 0xc0, 0x06, 0x08, 0x44, 0x43, 0x0f, 0xdb, 0x49, 0x4b, 0xc3, 0xd4, 0x4c, 0x0f, 0x4c, 0xf9, 0x4b, 0x0c, 0x4c, 0x12, 0xeb, 0x4e, 0xdb, 0x2c, 0xdf, 0xf2, 0xef, 0xd6, 0xf0, 0xeb, 0x2a, 0x21, 0x7a, 0x4f, 0xc8, 0xe3, 0xba, 0xd1, 0x36, 0x4c, 0x38, 0xfc, 0x1a, 0x0d, 0xf2, 0x3d, 0x47, 0xd5, 0x02, 0xb6, 0x59, 0x04, 0xe0, 0xd7, 0xf9, 0x17, 0x5d, 0x6a, 0xc4, 0xc5, 0x32, 0x28, 0xef, 0xc4, 0xf5, 0xec, 0xf1, 0x18, 0xad, 0xfe, 0xad, 0xb8, 0xda, 0x2b, 0xfa, 0x4c, 0xba, 0xaa, 0x4e, 0x0c, 0x31, 0x1f, 0x25, 0xf6, 0x0a, 0x2d, 0x3b, 0x06, 0x64, 0xfb, 0xa8, 0x00, 0x39, 0xc3, 0x52, 0x49, 0xd7, 0xda, 0xc8, 0x52, 0xfa, 0xf4, 0x29, 0x28, 0x38, 0xf1, 0x37, 0xf1, 0xee, 0x24, 0xb5, 0x2a, 0x64, 0x42, 0xb2, 0x23, 0xc2, 0xc1, 0x3d, 0xc0, 0x35, 0x5b, 0x4a, 0xb2, 0x15, 0xf2, 0xaa, 0xf3, 0x3a, 0x46, 0xec, 0xcb, 0xd8, 0x27, 0xc8, 0xe8, 0x51, 0x0d, 0xd0, 0xe6, 0xf9, 0xb4, 0x1d, 0xb4, 0x2e, 0xd9, 0xaa, 0xc0, 0xb0, 0xc7, 0x41, 0x20, 0x54, 0xe9, 0xce, 0xdc, 0xe7, 0x1b, 0xee, 0x34, 0xeb, 0x29, 0x03, 0xef, 0x09, 0x4a, 0xb3, 0x38, 0x52, 0x44, 0xe3, 0x05, 0x4c, 0xf9, 0x41, 0x03, 0x6d, 0x07, 0x21, 0x4a, 0x3c, 0x21, 0xb3, 0x25, 0x1f, 0x0c, 0xf3, 0x26, 0xbd, 0x3f, 0x3f, 0xd4, 0x46, 0x31, 0xe9, 0xc7, 0x37, 0x05, 0x38, 0x1a, 0x0c, 0xf1, 0x39, 0xed, 0x3f, 0x36, 0x3c, 0xd9, 0x4d, 0xb6, 0xee, 0xca, 0xe9, 0x3a, 0xf4, 0x2e, 0x16, 0x20, 0xd4, 0x3f, 0xdc, 0xce, 0xa6, 0x34, 0x16, 0x66, 0x43, 0x06, 0x20, 0x35, 0x29, 0x22, 0xad, 0x05, 0x4f, 0xe3, 0xb4, 0xe6, 0x29, 0x39, 0x1e, 0x19, 0x4a, 0xac, 0x00, 0xe5, 0xbf, 0xc1, 0xe1, 0xd5, 0xc4, 0xf1, 0xfc, 0x07, 0x48, 0x0a, 0xd6, 0x54, 0x16, 0xf1, 0x15, 0x4d, 0xd4, 0xd1, 0x02, 0x37, 0x18, 0xd4, 0x6b, 0xac, 0x70, 0xaa, 0xad, 0xf1, 0xa0, 0x49, 0xf9, 0xff, 0x38, 0x66, 0x58, 0x52, 0x3c, 0xec, 0x34, 0xbd, 0x0a, 0x8c, 0xf6, 0xc6, 0x4c, 0xa1, 0x41, 0x3c, 0x3d, 0x78, 0xe0, 0x1c, 0x2e, 0xd2, 0x25, 0x61, 0x53, 0x24, 0x3d, 0xf6, 0x47, 0x18, 0x1c, 0xe1, 0x16, 0x5f, 0xa1, 0x1d, 0x51, 0x2f, 0x27, 0xfb, 0x3e, 0xa1, 0x66, 0xfe, 0xcc, 0x1d, 0xac, 0x90, 0x99, 0x65, 0xa0, 0x38, 0x24, 0xe0, 0x5b, 0xc3, 0xb9, 0xb7, 0x0a, 0x89, 0x1a, 0x4e, 0x31, 0x36, 0x86, 0x04, 0x05, 0x53, 0x62, 0x38, 0x03, 0x99, 0xcc, 0x49, 0x2e, 0xde, 0x4f, 0xca, 0x6a, 0x5d, 0x8d, 0x2b, 0xa5, 0x2c, 0x8b, 0x44, 0x02, 0xa2, 0xf2, 0xf2, 0x70, 0x25, 0xbf, 0xdc, 0x68, 0x97, 0xda, 0x8a, 0xaa, 0xc4, 0xe9, 0xdb, 0xb1, 0xa1, 0xa0, 0x5c, 0x9a, 0x2f, 0xd6, 0xe4, 0x57, 0x0a, 0xa6, 0x5f, 0x97, 0x12, 0xcc, 0x1a, 0xde, 0x92, 0x67, 0x9d, 0x9c, 0xe8, 0x3d, 0x87, 0x45, 0x51, 0x22, 0x4e, 0xc0, 0xf8, 0xd6, 0xb7, 0x2b, 0x88, 0x58, 0xb0, 0xfd, 0xd4, 0x30, 0xc0, 0x41, 0xe6, 0xca, 0xd2, 0xfb, 0xc9, 0x4f, 0x9c, 0xec, 0x61, 0x5c, 0x14, 0x59, 0x01, 0x8f, 0x64, 0x07, 0x43, 0xa7, 0x25, 0x12, 0xf8, 0xb4, 0xd1, 0x09, 0xb2, 0x14, 0xce, 0x2d, 0x14, 0xd4, 0x37, 0x44, 0xfa, 0x8f, 0x63, 0x2c, 0x75, 0xc7, 0xd9, 0x9a, 0xaa, 0x9d, 0x96, 0xc6, 0xd7, 0x27, 0x35, 0x6e, 0x70, 0x52, 0xb2, 0xa4, 0x70, 0x39, 0xd8, 0xd3, 0xb9, 0xe6, 0x4c, 0x98, 0xf5, 0xb2, 0xb1, 0x53, 0x24, 0x18, 0xaf, 0x23, 0x86, 0xd5, 0x35, 0xc3, 0xa5, 0xe6, 0xfc, 0x41, 0xfc, 0xf4, 0xf6, 0x63, 0xe2, 0x2b, 0x53, 0x63, 0x6f, 0x4f, 0x42, 0x33, 0x26, 0x09, 0x0b, 0x58, 0x45, 0xf4, 0x8d, 0x5b, 0xea, 0xc5, 0xb2, 0x10, 0x63, 0xfd, 0x63, 0x82, 0x08, 0xb9, 0x1d, 0xe6, 0x4d, 0xbe, 0x88, 0xab, 0xa3, 0x31, 0xe2, 0x6f, 0x07, 0x2f, 0x65, 0xa2, 0x67, 0x51, 0xb3, 0x71, 0x47, 0xad, 0x5c, 0x4e, 0x97, 0x12, 0x05, 0xe2, 0x40, 0x1a, 0x39, 0xe6, 0xbe, 0x11, 0x69, 0x3c, 0x1c, 0x26, 0xe6, 0xa2, 0xe3, 0x8c, 0xb5, 0xdd, 0xc9, 0x8d, 0x91, 0xc4, 0xfa, 0x1a, 0xf5, 0xc1, 0x24, 0x21, 0xff, 0x91, 0xe1, 0xc5, 0x6b, 0x88, 0x6e, 0x29, 0x4d, 0x02, 0x2d, 0xb0, 0x58, 0xb5, 0x1e, 0x3f, 0xb5, 0xe0, 0xbb, 0xbc, 0x15, 0x44, 0x50, 0x6c, 0x44, 0xf9, 0xbb, 0x38, 0xab, 0xd2, 0x73, 0xad, 0xfb, 0x68, 0x90, 0xcd, 0xde, 0xcb, 0x9c, 0x6d, 0x41, 0xbc, 0xc2, 0xf5, 0x46, 0xcc, 0x14, 0xf1, 0x9e, 0x34, 0xfd, 0x81, 0x93, 0x93, 0x39, 0x51, 0xa5, 0xcc, 0x54, 0x1a, 0xcd, 0x20, 0xc7, 0x57, 0xb6, 0x05, 0x66, 0xa7, 0x0f, 0x69, 0xee, 0x41, 0xef, 0xd1, 0x35, 0xed, 0x25, 0x05, 0xcb, 0xe2, 0xe9, 0xd1, 0x35, 0x11, 0xd6, 0xd9, 0x3b, 0xf3, 0x37, 0x26, 0xd6, 0xd0, 0x15, 0xf8, 0x26, 0x01, 0x3c, 0x12, 0xd7, 0x2c, 0xe0, 0xb8, 0x49, 0x18, 0xe4, 0xcd, 0x30, 0x01, 0xbe, 0xcf, 0xfa, 0xc7, 0xec, 0x2c, 0x1e, 0xc3, 0x34, 0x0d, 0x0a, 0xc8, 0xfb, 0x35, 0x12, 0x0b, 0x03, 0x28, 0x09, 0x2e, 0xe4, 0x06, 0x0a, 0x19, 0x09, 0x2a, 0x5a, 0x26, 0x20, 0x15, 0x0b, 0xc5, 0x13, 0xd6, 0x05, 0xc9, 0x0f, 0xef, 0x02, 0xe1, 0xfa, 0xeb, 0x32, 0x1f, 0x2e, 0x26, 0xf1, 0xe5, 0x15, 0xbf, 0xec, 0x20, 0xcb, 0xc9, 0xcd, 0x06, 0xea, 0x2c, 0xae, 0x18, 0xc5, 0x1a, 0x44, 0x15, 0x31, 0x12, 0xf3, 0x0b, 0xf8, 0x1f, 0x05, 0x15, 0x0e, 0xe1, 0x3a, 0x33, 0x19, 0x04, 0x1d, 0x4b, 0x2a, 0x08, 0x10, 0x53, 0x1c, 0x2b, 0xc9, 0x40, 0x35, 0x94, 0x7f, 0x17, 0xf3, 0xe6, 0xe2, 0xd5, 0xdd, 0x0f, 0x0d, 0x24, 0xc6, 0x28, 0x20, 0xe7, 0xed, 0xc2, 0xc5, 0x21, 0x03, 0x0e, 0x15, 0xf8, 0xea, 0x2b, 0xee, 0x1a, 0xef, 0x16, 0x3c, 0xcb, 0x33, 0xff, 0x1e, 0xbd, 0x07, 0xdf, 0x2f, 0x36, 0x02, 0xf7, 0xb6, 0x20, 0x00, 0x23, 0xef, 0x1a, 0xe7, 0xc3, 0x53, 0x28, 0xee, 0xdc, 0x0b, 0x07, 0x11, 0xa3, 0xeb, 0x29, 0xeb, 0xf5, 0xee, 0x28, 0xf5, 0x1a, 0x9a, 0xfc, 0x17, 0x06, 0x27, 0xf2, 0xef, 0x22, 0xee, 0xcc, 0xfe, 0xe8, 0xba, 0x1e, 0x07, 0x15, 0x06, 0x04, 0x1e, 0x12, 0xdb, 0x15, 0xfc, 0xfb, 0xe2, 0xb6, 0xfa, 0x06, 0x29, 0xee, 0xcf, 0xeb, 0x16, 0xe6, 0x27, 0xe0, 0xf4, 0x27, 0xbe, 0x07, 0x00, 0x2d, 0xf9, 0xfe, 0xe7, 0xe5, 0xef, 0x67, 0xec, 0x16, 0x29, 0xec, 0xcc, 0x1f, 0x01, 0x07, 0x60, 0x22, 0xe7, 0xd5, 0x0d, 0x1b, 0xeb, 0xc7, 0x1c, 0x2d, 0xc5, 0xfb, 0x02, 0x2d, 0xc5, 0xca, 0xfa, 0xcd, 0x18, 0x1f, 0xc4, 0xd7, 0x02, 0x82, 0x5d, 0xed, 0xba, 0x25, 0xe0, 0xba, 0xdb, 0xaa, 0xf1, 0xd6, 0xf1, 0xc6, 0xaf, 0xbe, 0xea, 0x34, 0xdd, 0xee, 0x1b, 0x35, 0xef, 0xc3, 0x2e, 0x02, 0xed, 0xd6, 0xf8, 0x1b, 0xd9, 0x3d, 0xf8, 0x1c, 0xc4, 0x0a, 0x08, 0x03, 0x32, 0xe1, 0xc7, 0xde, 0xa4, 0xb1, 0xbb, 0xd4, 0xf8, 0x17, 0x38, 0xcc, 0x0d, 0xf8, 0xcd, 0xce, 0x41, 0xb4, 0xc5, 0xc1, 0xdc, 0x30, 0xbd, 0xe5, 0xee, 0xcd, 0x34, 0xe8, 0xcf, 0xfa, 0x0b, 0x02, 0x35, 0xcd, 0xee, 0x30, 0xf2, 0xca, 0xe5, 0xc8, 0xc1, 0x07, 0xc7, 0x1c, 0x9c, 0x1e, 0x12, 0xf5, 0x33, 0xec, 0x20, 0xe2, 0x04, 0xbc, 0x1c, 0xf2, 0xed, 0xd0, 0x01, 0x14, 0x5a, 0x22, 0x12, 0xcb, 0x4f, 0x0f, 0xed, 0x1b, 0x07, 0xd4, 0xc8, 0x04, 0xdc, 0x36, 0xe4, 0xf8, 0xf1, 0xd6, 0x0a, 0x1a, 0xd2, 0x15, 0xbb, 0x2c, 0x31, 0x48, 0xfb, 0x4f, 0x25, 0xdc, 0xfd, 0xc9, 0xdd, 0xed, 0x20, 0x09, 0xf5, 0x1d, 0x0b, 0x1a, 0xb9, 0x08, 0x3f, 0x3e, 0xcc, 0x2c, 0xb8, 0xe8, 0x39, 0x38, 0xde, 0xb5, 0x2c, 0xd0, 0xaa, 0xdf, 0x36, 0xe1, 0x37, 0x39, 0xa9, 0xaa, 0xe5, 0x53, 0xd0, 0xe4, 0xfa, 0xf2, 0xbb, 0xe5, 0xc7, 0x13, 0xdc, 0x48, 0xb7, 0x06, 0x20, 0x4f, 0x2c, 0x1f, 0x29, 0x06, 0x14, 0xec, 0x2d, 0x39, 0xdd, 0x8c, 0x23, 0x12, 0x11, 0xe9, 0xd6, 0x01, 0xe0, 0x02, 0x5f, 0x19, 0xff, 0x2b, 0x0f, 0x2b, 0x3c, 0xf5, 0x34, 0x39, 0x25, 0xd4, 0xcb, 0xd9, 0x07, 0xef, 0x50, 0xd0, 0x37, 0x46, 0x08, 0xbb, 0x59, 0x18, 0x27, 0x2a, 0x2a, 0xfc, 0x1f, 0x21, 0x1f, 0x13, 0xc3, 0x2a, 0x27, 0x9f, 0x36, 0x9e, 0x4f, 0xcf, 0xd4, 0xcb, 0x48, 0x23, 0x0c, 0x25, 0x20, 0xb6, 0x3b, 0x09, 0xfc, 0xd3, 0xe9, 0x07, 0x3e, 0x63, 0xe8, 0xd9, 0x21, 0x26, 0xbe, 0xa7, 0x06, 0xe4, 0xdc, 0xf7, 0x48, 0x36, 0x0f, 0xdc, 0xbe, 0xff, 0x0f, 0x15, 0xe2, 0xec, 0x2b, 0x12, 0x1b, 0xdf, 0xbb, 0xba, 0xf8, 0xc1, 0x00, 0xe6, 0xf3, 0xa3, 0xcc, 0x13, 0xc5, 0x14, 0x0e, 0xdf, 0x9e, 0x2a, 0x7f, 0xf4, 0xd9, 0xaf, 0xe8, 0xbc, 0xbd, 0xfb, 0xd9, 0xda, 0xae, 0xfa, 0xbe, 0xac, 0xf6, 0xca, 0x22, 0x27, 0xe2, 0x29, 0xf2, 0xbe, 0x46, 0x0f, 0x3d, 0x14, 0x40, 0x18, 0x40, 0xeb, 0xcf, 0xfc, 0xe3, 0x56, 0x2f, 0xea, 0xb6, 0xc6, 0xef, 0xdc, 0xe3, 0xe7, 0xbb, 0x14, 0xad, 0x0e, 0xaf, 0x4e, 0x30, 0x2c, 0x25, 0xd5, 0x19, 0x19, 0xdf, 0xf4, 0x02, 0xc5, 0x2b, 0xab, 0x31, 0xd3, 0x32, 0x01, 0x43, 0x14, 0x2c, 0x39, 0xdd, 0xdd, 0xdb, 0x45, 0xe2, 0xc5, 0xdd, 0x1f, 0x5d, 0xe8, 0xe1, 0x1e, 0x0a, 0xd2, 0x0a, 0x04, 0xf5, 0xeb, 0x46, 0x3c, 0xd2, 0x0a, 0x3a, 0x0b, 0xcc, 0x4a, 0xdb, 0xbb, 0x1c, 0x51, 0x34, 0xaf, 0xb5, 0xdc, 0xb5, 0xce, 0x32, 0x26, 0xde, 0x0f, 0xd0, 0xa2, 0xaf, 0xc9, 0x00, 0xf4, 0xb0, 0x45, 0x27, 0x4a, 0xc1, 0x46, 0x5e, 0xe8, 0x51, 0xc0, 0xeb, 0xc2, 0x10, 0xfc, 0x23, 0x2f, 0xda, 0x4d, 0x1a, 0x38, 0xf7, 0xf5, 0xdf, 0x29, 0xdf, 0x2c, 0x0a, 0xb4, 0xfe, 0xf1, 0x4b, 0x3b, 0xe1, 0x42, 0xec, 0x22, 0xe4, 0xd0, 0x29, 0xa7, 0xc7, 0x11, 0xd2, 0x04, 0xc8, 0xef, 0x73, 0x13, 0xb4, 0x0d, 0x0b, 0xc0, 0x38, 0xf5, 0xdf, 0x47, 0x2c, 0xaf, 0x1f, 0xc9, 0x09, 0xfd, 0x06, 0x16, 0xf0, 0x4b, 0x27, 0x52, 0x1e, 0xf4, 0x69, 0xbf, 0xce, 0xf8, 0xe4, 0xf1, 0x19, 0xcd, 0x60, 0x27, 0x54, 0x42, 0x04, 0xfa, 0x15, 0x09, 0xf8, 0xf3, 0xdb, 0x1d, 0x4b, 0xba, 0x39, 0x43, 0x78, 0x27, 0x2f, 0xa6, 0x60, 0xb3, 0xf3, 0x34, 0x8d, 0x27, 0x25, 0xe0, 0x94, 0xed, 0x10, 0x6f, 0x9b, 0x27, 0x20, 0xf3, 0x14, 0x6c, 0x5a, 0x32, 0x64, 0x9b, 0x33, 0x61, 0xce, 0x1b, 0x48, 0x00, 0xff, 0xe8, 0x68, 0xd1, 0x83, 0xc1, 0xde, 0xea, 0x2f, 0x42, 0x9d, 0xa6, 0xe3, 0x69, 0x41, 0x5b, 0x30, 0x59, 0x19, 0x35, 0xd0, 0x81, 0x1f, 0x02, 0xac, 0x70, 0xe1, 0x69, 0xbb, 0x74, 0xbb, 0x6c, 0xe1, 0x43, 0x00, 0x89, 0x0b, 0x09, 0x73, 0xa3, 0x60, 0x6c, 0x33, 0xbc, 0xdd, 0xa4, 0xe9, 0xa2, 0xe5, 0x90, 0x57, 0x23, 0xb4, 0xcd, 0x0b, 0x34, 0xc8, 0x85, 0x61, 0x29, 0xc6, 0x56, 0xd6, 0xf1, 0x13, 0x46, 0x0f, 0x4d, 0x9b, 0xbd, 0xb5, 0x29, 0x45, 0xbc, 0x98, 0x32, 0x05, 0x84, 0x6c, 0x72, 0xba, 0xdc, 0xf1, 0x38, 0xde, 0xff, 0x9c, 0x08, 0x60, 0x57, 0x5a, 0xaf, 0x4f, 0x49, 0xa0, 0xe4, 0x1b, 0x0d, 0x87, 0xb4, 0x33, 0x28, 0xb4, 0xb6, 0x69, 0x00, 0xac, 0xdb, 0xa9, 0xaa, 0xb9, 0x7b, 0x5b, 0xab, 0xca, 0xf3, 0x1e, 0xc3, 0x3b, 0x62, 0x13, 0x88, 0xe0, 0x77, 0xf6, 0x70, 0x87, 0xca, 0x69, 0x38, 0x8b, 0x43, 0xe3, 0x37, 0x8c, 0xb8, 0x51, 0x36, 0x5f, 0x99, 0x44, 0x90, 0xbb, 0xbf, 0xc0, 0xff, 0x32, 0xee, 0x6b, 0xa6, 0xb9, 0x9a, 0x41, 0x96, 0x74, 0x44, 0x51, 0x6c, 0xc7, 0x33, 0x9f, 0x6c, 0xdd, 0x59, 0x1f, 0x76, 0x64, 0x21, 0x99, 0xc4, 0x2d, 0x8b, 0xe2, 0xc7, 0x6a, 0x49, 0xba, 0xf7, 0x28, 0xbd, 0x3c, 0xb0, 0xf8, 0x28, 0xed, 0xdb, 0xd7, 0x28, 0x8f, 0x01, 0x88, 0x36, 0xbd, 0x6e, 0x5b, 0xca, 0xb0, 0xbe, 0x0c, 0x16, 0x6f, 0xa7, 0x06, 0x04, 0x1d, 0xb6, 0x91, 0x02, 0x22, 0xc7, 0x37, 0xf8, 0xa2, 0x71, 0xe4, 0xf4, 0xa4, 0x38, 0x1e, 0x02, 0x64, 0x89, 0x12, 0xb3, 0x93, 0xf1, 0x05, 0x9a, 0x9e, 0xec, 0x0e, 0xf6, 0x2b, 0x5e, 0x39, 0xe7, 0xf7, 0xb9, 0xc2, 0x69, 0x17, 0x8f, 0xad, 0x3d, 0x47, 0x49, 0x63, 0x72, 0x48, 0xdb, 0x9f, 0x9e, 0x03, 0xf2, 0xd1, 0x5a, 0x07, 0x81, 0xdc, 0x9e, 0x49, 0x2b, 0xef, 0x49, 0x14, 0xb6, 0xae, 0xe0, 0xd8, 0x9c, 0xa5, 0x09, 0x14, 0x53, 0x44, 0x20, 0x60, 0xf4, 0x18, 0xb2, 0x2f, 0x08, 0x1d, 0x2b, 0x1e, 0x8f, 0x35, 0x2c, 0xaf, 0x4a, 0xae, 0xdd, 0xd3, 0x87, 0x82, 0x25, 0xcf, 0xe3, 0x6e, 0x5e, 0x33, 0xa5, 0xd6, 0xb1, 0xf5, 0x57, 0xb4, 0xc2, 0x72, 0x28, 0xec, 0x61, 0x7b, 0xf3, 0x5c, 0xa6, 0xe9, 0x8c, 0xeb, 0xe7, 0x7a, 0xdb, 0x96, 0xbb, 0xa4, 0x9e, 0xe0, 0xed, 0xb3, 0x1e, 0xa5, 0xce, 0x2c, 0xa6, 0xd6, 0xb4, 0xb4, 0xbd, 0x6b, 0x68, 0xed, 0xab, 0x6e, 0x7a, 0x31, 0x09, 0xb7, 0x50, 0xce, 0x0b, 0x00, 0xd2, 0xb6, 0xfe, 0xff, 0xff, 0x04, 0x00, 0x00, 0x00, 0x40, 0x00, 0x00, 0x00, 0xfb, 0xff, 0xff, 0xff, 0xf4, 0xff, 0xff, 0xff, 0xfa, 0xff, 0xff, 0xff, 0xfd, 0xff, 0xff, 0xff, 0x00, 0x00, 0x00, 0x00, 0xf0, 0xff, 0xff, 0xff, 0xef, 0xff, 0xff, 0xff, 0xed, 0xff, 0xff, 0xff, 0xf7, 0xff, 0xff, 0xff, 0xf0, 0xff, 0xff, 0xff, 0xf9, 0xff, 0xff, 0xff, 0xfe, 0xff, 0xff, 0xff, 0xed, 0xff, 0xff, 0xff, 0xf4, 0xff, 0xff, 0xff, 0x0c, 0x00, 0x00, 0x00, 0xf6, 0xff, 0xff, 0xff, 0x02, 0xff, 0xff, 0xff, 0x04, 0x00, 0x00, 0x00, 0x30, 0x00, 0x00, 0x00, 0xcf, 0x28, 0xa4, 0x55, 0xcc, 0xd9, 0xd1, 0xc4, 0xc1, 0xd1, 0x1f, 0x4a, 0xe9, 0x38, 0x7f, 0x0f, 0xc5, 0x9c, 0x1e, 0x32, 0xf2, 0xa5, 0x50, 0x52, 0xa4, 0x69, 0x8d, 0x69, 0x5a, 0x4f, 0x4a, 0x81, 0x11, 0x0b, 0x91, 0xd7, 0x7e, 0x7f, 0xb6, 0x67, 0xf2, 0xee, 0x4d, 0x2f, 0x2f, 0x2a, 0x05, 0x48, 0x3e, 0xff, 0xff, 0xff, 0x04, 0x00, 0x00, 0x00, 0x0c, 0x00, 0x00, 0x00, 0x1f, 0x00, 0x00, 0x00, 0x00, 0x00, 0x00, 0x00, 0xe5, 0xff, 0xff, 0xff, 0x56, 0xff, 0xff, 0xff, 0x04, 0x00, 0x00, 0x00, 0x08, 0x00, 0x00, 0x00, 0xff, 0xff, 0xff, 0xff, 0x80, 0x01, 0x00, 0x00, 0xf8, 0xf0, 0xff, 0xff, 0xfc, 0xf0, 0xff, 0xff, 0x0f, 0x00, 0x00, 0x00, 0x4d, 0x4c, 0x49, 0x52, 0x20, 0x43, 0x6f, 0x6e, 0x76, 0x65, 0x72, 0x74, 0x65, 0x64, 0x2e, 0x00, 0x01, 0x00, 0x00, 0x00, 0x14, 0x00, 0x00, 0x00, 0x00, 0x00, 0x0e, 0x00, 0x18, 0x00, 0x14, 0x00, 0x10, 0x00, 0x0c, 0x00, 0x08, 0x00, 0x04, 0x00, 0x0e, 0x00, 0x00, 0x00, 0x14, 0x00, 0x00, 0x00, 0x1c, 0x00, 0x00, 0x00, 0x4c, 0x02, 0x00, 0x00, 0x50, 0x02, 0x00, 0x00, 0x54, 0x02, 0x00, 0x00, 0x04, 0x00, 0x00, 0x00, 0x6d, 0x61, 0x69, 0x6e, 0x00, 0x00, 0x00, 0x00, 0x08, 0x00, 0x00, 0x00, 0xe8, 0x01, 0x00, 0x00, 0x84, 0x01, 0x00, 0x00, 0x34, 0x01, 0x00, 0x00, 0xf0, 0x00, 0x00, 0x00, 0xc8, 0x00, 0x00, 0x00, 0x78, 0x00, 0x00, 0x00, 0x40, 0x00, 0x00, 0x00, 0x04, 0x00, 0x00, 0x00, 0xa6, 0xfe, 0xff, 0xff, 0x1c, 0x00, 0x00, 0x00, 0x00, 0x00, 0x00, 0x09, 0x1c, 0x00, 0x00, 0x00, 0x20, 0x00, 0x00, 0x00, 0x04, 0x00, 0x00, 0x00, 0x00, 0x00, 0x06, 0x00, 0x08, 0x00, 0x04, 0x00, 0x06, 0x00, 0x00, 0x00, 0x00, 0x00, 0x80, 0x3f, 0x01, 0x00, 0x00, 0x00, 0x11, 0x00, 0x00, 0x00, 0x01, 0x00, 0x00, 0x00, 0x10, 0x00, 0x00, 0x00, 0xde, 0xfe, 0xff, 0xff, 0x14, 0x00, 0x00, 0x00, 0x00, 0x00, 0x00, 0x08, 0x10, 0x00, 0x00, 0x00, 0x14, 0x00, 0x00, 0x00, 0x03, 0x00, 0x00, 0x00, 0xc4, 0xf1, 0xff, 0xff, 0x01, 0x00, 0x00, 0x00, 0x10, 0x00, 0x00, 0x00, 0x03, 0x00, 0x00, 0x00, 0x0f, 0x00, 0x00, 0x00, 0x03, 0x00, 0x00, 0x00, 0x02, 0x00, 0x00, 0x00, 0x12, 0xff, 0xff, 0xff, 0x1c, 0x00, 0x00, 0x00, 0x00, 0x00, 0x00, 0x08, 0x1c, 0x00, 0x00, 0x00, 0x20, 0x00, 0x00, 0x00, 0x03, 0x00, 0x00, 0x00, 0x00, 0x00, 0x06, 0x00, 0x08, 0x00, 0x07, 0x00, 0x06, 0x00, 0x00, 0x00, 0x00, 0x00, 0x00, 0x01, 0x01, 0x00, 0x00, 0x00, 0x0f, 0x00, 0x00, 0x00, 0x03, 0x00, 0x00, 0x00, 0x0e, 0x00, 0x00, 0x00, 0x05, 0x00, 0x00, 0x00, 0x04, 0x00, 0x00, 0x00, 0x00, 0x00, 0x0a, 0x00, 0x10, 0x00, 0x0c, 0x00, 0x08, 0x00, 0x04, 0x00, 0x0a, 0x00, 0x00, 0x00, 0x0c, 0x00, 0x00, 0x00, 0x10, 0x00, 0x00, 0x00, 0x02, 0x00, 0x00, 0x00, 0x01, 0x00, 0x00, 0x00, 0x0e, 0x00, 0x00, 0x00, 0x02, 0x00, 0x00, 0x00, 0x0d, 0x00, 0x00, 0x00, 0x01, 0x00, 0x00, 0x00, 0x82, 0xff, 0xff, 0xff, 0x14, 0x00, 0x00, 0x00, 0x00, 0x00, 0x00, 0x05, 0x24, 0x00, 0x00, 0x00, 0x28, 0x00, 0x00, 0x00, 0x01, 0x00, 0x00, 0x00, 0x72, 0xff, 0xff, 0xff, 0x02, 0x00, 0x00, 0x00, 0x02, 0x00, 0x00, 0x00, 0x02, 0x00, 0x00, 0x00, 0x02, 0x00, 0x00, 0x00, 0x00, 0x00, 0x00, 0x01, 0x01, 0x00, 0x00, 0x00, 0x0d, 0x00, 0x00, 0x00, 0x01, 0x00, 0x00, 0x00, 0x0c, 0x00, 0x00, 0x00, 0x62, 0xff, 0xff, 0xff, 0x10, 0x00, 0x00, 0x00, 0x00, 0x00, 0x00, 0x01, 0x18, 0x00, 0x00, 0x00, 0x1c, 0x00, 0x00, 0x00, 0x54, 0xff, 0xff, 0xff, 0x00, 0x00, 0x00, 0x01, 0x01, 0x00, 0x00, 0x00, 0x01, 0x00, 0x00, 0x00, 0x01, 0x00, 0x00, 0x00, 0x0c, 0x00, 0x00, 0x00, 0x03, 0x00, 0x00, 0x00, 0x0b, 0x00, 0x00, 0x00, 0x07, 0x00, 0x00, 0x00, 0x06, 0x00, 0x00, 0x00, 0x00, 0x00, 0x0e, 0x00, 0x1a, 0x00, 0x14, 0x00, 0x10, 0x00, 0x0c, 0x00, 0x0b, 0x00, 0x04, 0x00, 0x0e, 0x00, 0x00, 0x00, 0x24, 0x00, 0x00, 0x00, 0x00, 0x00, 0x00, 0x05, 0x34, 0x00, 0x00, 0x00, 0x38, 0x00, 0x00, 0x00, 0x01, 0x00, 0x00, 0x00, 0x00, 0x00, 0x0e, 0x00, 0x18, 0x00, 0x17, 0x00, 0x10, 0x00, 0x0c, 0x00, 0x08, 0x00, 0x04, 0x00, 0x0e, 0x00, 0x00, 0x00, 0x02, 0x00, 0x00, 0x00, 0x02, 0x00, 0x00, 0x00, 0x02, 0x00, 0x00, 0x00, 0x02, 0x00, 0x00, 0x00, 0x00, 0x00, 0x00, 0x01, 0x01, 0x00, 0x00, 0x00, 0x0b, 0x00, 0x00, 0x00, 0x01, 0x00, 0x00, 0x00, 0x0a, 0x00, 0x00, 0x00, 0x00, 0x00, 0x0e, 0x00, 0x14, 0x00, 0x00, 0x00, 0x10, 0x00, 0x0c, 0x00, 0x0b, 0x00, 0x04, 0x00, 0x0e, 0x00, 0x00, 0x00, 0x1c, 0x00, 0x00, 0x00, 0x00, 0x00, 0x00, 0x01, 0x24, 0x00, 0x00, 0x00, 0x28, 0x00, 0x00, 0x00, 0x0c, 0x00, 0x10, 0x00, 0x00, 0x00, 0x0c, 0x00, 0x08, 0x00, 0x07, 0x00, 0x0c, 0x00, 0x00, 0x00, 0x00, 0x00, 0x00, 0x01, 0x01, 0x00, 0x00, 0x00, 0x01, 0x00, 0x00, 0x00, 0x01, 0x00, 0x00, 0x00, 0x0a, 0x00, 0x00, 0x00, 0x03, 0x00, 0x00, 0x00, 0x00, 0x00, 0x00, 0x00, 0x09, 0x00, 0x00, 0x00, 0x08, 0x00, 0x00, 0x00, 0x01, 0x00, 0x00, 0x00, 0x11, 0x00, 0x00, 0x00, 0x01, 0x00, 0x00, 0x00, 0x00, 0x00, 0x00, 0x00, 0x12, 0x00, 0x00, 0x00, 0xa4, 0x0c, 0x00, 0x00, 0x48, 0x0c, 0x00, 0x00, 0xb8, 0x0b, 0x00, 0x00, 0x3c, 0x0b, 0x00, 0x00, 0x28, 0x0a, 0x00, 0x00, 0x0c, 0x09, 0x00, 0x00, 0xf8, 0x07, 0x00, 0x00, 0xd4, 0x06, 0x00, 0x00, 0x20, 0x06, 0x00, 0x00, 0x5c, 0x05, 0x00, 0x00, 0x88, 0x04, 0x00, 0x00, 0xec, 0x03, 0x00, 0x00, 0xf8, 0x02, 0x00, 0x00, 0x5c, 0x02, 0x00, 0x00, 0xd8, 0x01, 0x00, 0x00, 0x24, 0x01, 0x00, 0x00, 0x80, 0x00, 0x00, 0x00, 0x04, 0x00, 0x00, 0x00, 0xba, 0xf3, 0xff, 0xff, 0x00, 0x00, 0x00, 0x01, 0x18, 0x00, 0x00, 0x00, 0x20, 0x00, 0x00, 0x00, 0x3c, 0x00, 0x00, 0x00, 0x12, 0x00, 0x00, 0x00, 0x00, 0x00, 0x00, 0x09, 0x50, 0x00, 0x00, 0x00, 0x02, 0x00, 0x00, 0x00, 0xff, 0xff, 0xff, 0xff, 0x03, 0x00, 0x00, 0x00, 0x9c, 0xf3, 0xff, 0xff, 0x08, 0x00, 0x00, 0x00, 0x10, 0x00, 0x00, 0x00, 0x01, 0x00, 0x00, 0x00, 0x80, 0xff, 0xff, 0xff, 0xff, 0xff, 0xff, 0xff, 0x01, 0x00, 0x00, 0x00, 0x00, 0x00, 0x80, 0x3b, 0x1b, 0x00, 0x00, 0x00, 0x53, 0x74, 0x61, 0x74, 0x65, 0x66, 0x75, 0x6c, 0x50, 0x61, 0x72, 0x74, 0x69, 0x74, 0x69, 0x6f, 0x6e, 0x65, 0x64, 0x43, 0x61, 0x6c, 0x6c, 0x5f, 0x31, 0x3a, 0x30, 0x00, 0x02, 0x00, 0x00, 0x00, 0x01, 0x00, 0x00, 0x00, 0x03, 0x00, 0x00, 0x00, 0x32, 0xf4, 0xff, 0xff, 0x00, 0x00, 0x00, 0x01, 0x18, 0x00, 0x00, 0x00, 0x20, 0x00, 0x00, 0x00, 0x40, 0x00, 0x00, 0x00, 0x11, 0x00, 0x00, 0x00, 0x00, 0x00, 0x00, 0x09, 0x78, 0x00, 0x00, 0x00, 0x02, 0x00, 0x00, 0x00, 0xff, 0xff, 0xff, 0xff, 0x03, 0x00, 0x00, 0x00, 0x14, 0xf4, 0xff, 0xff, 0x08, 0x00, 0x00, 0x00, 0x14, 0x00, 0x00, 0x00, 0x01, 0x00, 0x00, 0x00, 0xae, 0xff, 0xff, 0xff, 0xff, 0xff, 0xff, 0xff, 0x00, 0x00, 0x00, 0x00, 0x01, 0x00, 0x00, 0x00, 0x4c, 0x79, 0x88, 0x3e, 0x3c, 0x00, 0x00, 0x00, 0x73, 0x65, 0x71, 0x75, 0x65, 0x6e, 0x74, 0x69, 0x61, 0x6c, 0x5f, 0x31, 0x2f, 0x64, 0x65, 0x6e, 0x73, 0x65, 0x5f, 0x31, 0x5f, 0x32, 0x2f, 0x4d, 0x61, 0x74, 0x4d, 0x75, 0x6c, 0x3b, 0x73, 0x65, 0x71, 0x75, 0x65, 0x6e, 0x74, 0x69, 0x61, 0x6c, 0x5f, 0x31, 0x2f, 0x64, 0x65, 0x6e, 0x73, 0x65, 0x5f, 0x31, 0x5f, 0x32, 0x2f, 0x42, 0x69, 0x61, 0x73, 0x41, 0x64, 0x64, 0x00, 0x00, 0x00, 0x00, 0x02, 0x00, 0x00, 0x00, 0x01, 0x00, 0x00, 0x00, 0x03, 0x00, 0x00, 0x00, 0xd2, 0xf4, 0xff, 0xff, 0x00, 0x00, 0x00, 0x01, 0x18, 0x00, 0x00, 0x00, 0x20, 0x00, 0x00, 0x00, 0x3c, 0x00, 0x00, 0x00, 0x10, 0x00, 0x00, 0x00, 0x00, 0x00, 0x00, 0x09, 0x88, 0x00, 0x00, 0x00, 0x02, 0x00, 0x00, 0x00, 0xff, 0xff, 0xff, 0xff, 0x10, 0x00, 0x00, 0x00, 0xb4, 0xf4, 0xff, 0xff, 0x08, 0x00, 0x00, 0x00, 0x10, 0x00, 0x00, 0x00, 0x01, 0x00, 0x00, 0x00, 0x80, 0xff, 0xff, 0xff, 0xff, 0xff, 0xff, 0xff, 0x01, 0x00, 0x00, 0x00, 0x24, 0x21, 0x2a, 0x3e, 0x52, 0x00, 0x00, 0x00, 0x73, 0x65, 0x71, 0x75, 0x65, 0x6e, 0x74, 0x69, 0x61, 0x6c, 0x5f, 0x31, 0x2f, 0x64, 0x65, 0x6e, 0x73, 0x65, 0x5f, 0x31, 0x2f, 0x4d, 0x61, 0x74, 0x4d, 0x75, 0x6c, 0x3b, 0x73, 0x65, 0x71, 0x75, 0x65, 0x6e, 0x74, 0x69, 0x61, 0x6c, 0x5f, 0x31, 0x2f, 0x64, 0x65, 0x6e, 0x73, 0x65, 0x5f, 0x31, 0x2f, 0x52, 0x65, 0x6c, 0x75, 0x3b, 0x73, 0x65, 0x71, 0x75, 0x65, 0x6e, 0x74, 0x69, 0x61, 0x6c, 0x5f, 0x31, 0x2f, 0x64, 0x65, 0x6e, 0x73, 0x65, 0x5f, 0x31, 0x2f, 0x42, 0x69, 0x61, 0x73, 0x41, 0x64, 0x64, 0x00, 0x00, 0x02, 0x00, 0x00, 0x00, 0x01, 0x00, 0x00, 0x00, 0x10, 0x00, 0x00, 0x00, 0x82, 0xf5, 0xff, 0xff, 0x00, 0x00, 0x00, 0x01, 0x18, 0x00, 0x00, 0x00, 0x20, 0x00, 0x00, 0x00, 0x40, 0x00, 0x00, 0x00, 0x0f, 0x00, 0x00, 0x00, 0x00, 0x00, 0x00, 0x09, 0x58, 0x00, 0x00, 0x00, 0x02, 0x00, 0x00, 0x00, 0xff, 0xff, 0xff, 0xff, 0x80, 0x01, 0x00, 0x00, 0x64, 0xf5, 0xff, 0xff, 0x08, 0x00, 0x00, 0x00, 0x14, 0x00, 0x00, 0x00, 0x01, 0x00, 0x00, 0x00, 0x80, 0xff, 0xff, 0xff, 0xff, 0xff, 0xff, 0xff, 0x00, 0x00, 0x00, 0x00, 0x01, 0x00, 0x00, 0x00, 0xf3, 0x17, 0xd3, 0x3e, 0x1e, 0x00, 0x00, 0x00, 0x73, 0x65, 0x71, 0x75, 0x65, 0x6e, 0x74, 0x69, 0x61, 0x6c, 0x5f, 0x31, 0x2f, 0x66, 0x6c, 0x61, 0x74, 0x74, 0x65, 0x6e, 0x5f, 0x31, 0x2f, 0x52, 0x65, 0x73, 0x68, 0x61, 0x70, 0x65, 0x00, 0x00, 0x02, 0x00, 0x00, 0x00, 0x01, 0x00, 0x00, 0x00, 0x80, 0x01, 0x00, 0x00, 0x02, 0xf6, 0xff, 0xff, 0x00, 0x00, 0x00, 0x01, 0x18, 0x00, 0x00, 0x00, 0x28, 0x00, 0x00, 0x00, 0x44, 0x00, 0x00, 0x00, 0x0e, 0x00, 0x00, 0x00, 0x00, 0x00, 0x00, 0x09, 0x68, 0x00, 0x00, 0x00, 0x04, 0x00, 0x00, 0x00, 0xff, 0xff, 0xff, 0xff, 0x08, 0x00, 0x00, 0x00, 0x03, 0x00, 0x00, 0x00, 0x10, 0x00, 0x00, 0x00, 0xec, 0xf5, 0xff, 0xff, 0x08, 0x00, 0x00, 0x00, 0x10, 0x00, 0x00, 0x00, 0x01, 0x00, 0x00, 0x00, 0x80, 0xff, 0xff, 0xff, 0xff, 0xff, 0xff, 0xff, 0x01, 0x00, 0x00, 0x00, 0xf3, 0x17, 0xd3, 0x3e, 0x28, 0x00, 0x00, 0x00, 0x73, 0x65, 0x71, 0x75, 0x65, 0x6e, 0x74, 0x69, 0x61, 0x6c, 0x5f, 0x31, 0x2f, 0x6d, 0x61, 0x78, 0x5f, 0x70, 0x6f, 0x6f, 0x6c, 0x69, 0x6e, 0x67, 0x32, 0x64, 0x5f, 0x31, 0x5f, 0x32, 0x2f, 0x4d, 0x61, 0x78, 0x50, 0x6f, 0x6f, 0x6c, 0x32, 0x64, 0x00, 0x00, 0x00, 0x00, 0x04, 0x00, 0x00, 0x00, 0x01, 0x00, 0x00, 0x00, 0x08, 0x00, 0x00, 0x00, 0x03, 0x00, 0x00, 0x00, 0x10, 0x00, 0x00, 0x00, 0x9a, 0xf6, 0xff, 0xff, 0x00, 0x00, 0x00, 0x01, 0x18, 0x00, 0x00, 0x00, 0x28, 0x00, 0x00, 0x00, 0x44, 0x00, 0x00, 0x00, 0x0d, 0x00, 0x00, 0x00, 0x00, 0x00, 0x00, 0x09, 0xc0, 0x00, 0x00, 0x00, 0x04, 0x00, 0x00, 0x00, 0xff, 0xff, 0xff, 0xff, 0x10, 0x00, 0x00, 0x00, 0x06, 0x00, 0x00, 0x00, 0x10, 0x00, 0x00, 0x00, 0x84, 0xf6, 0xff, 0xff, 0x08, 0x00, 0x00, 0x00, 0x10, 0x00, 0x00, 0x00, 0x01, 0x00, 0x00, 0x00, 0x80, 0xff, 0xff, 0xff, 0xff, 0xff, 0xff, 0xff, 0x01, 0x00, 0x00, 0x00, 0xf3, 0x17, 0xd3, 0x3e, 0x80, 0x00, 0x00, 0x00, 0x73, 0x65, 0x71, 0x75, 0x65, 0x6e, 0x74, 0x69, 0x61, 0x6c, 0x5f, 0x31, 0x2f, 0x63, 0x6f, 0x6e, 0x76, 0x32, 0x64, 0x5f, 0x31, 0x5f, 0x32, 0x2f, 0x52, 0x65, 0x6c, 0x75, 0x3b, 0x73, 0x65, 0x71, 0x75, 0x65, 0x6e, 0x74, 0x69, 0x61, 0x6c, 0x5f, 0x31, 0x2f, 0x63, 0x6f, 0x6e, 0x76, 0x32, 0x64, 0x5f, 0x31, 0x5f, 0x32, 0x2f, 0x42, 0x69, 0x61, 0x73, 0x41, 0x64, 0x64, 0x3b, 0x73, 0x65, 0x71, 0x75, 0x65, 0x6e, 0x74, 0x69, 0x61, 0x6c, 0x5f, 0x31, 0x2f, 0x63, 0x6f, 0x6e, 0x76, 0x32, 0x64, 0x5f, 0x31, 0x5f, 0x32, 0x2f, 0x63, 0x6f, 0x6e, 0x76, 0x6f, 0x6c, 0x75, 0x74, 0x69, 0x6f, 0x6e, 0x3b, 0x73, 0x65, 0x71, 0x75, 0x65, 0x6e, 0x74, 0x69, 0x61, 0x6c, 0x5f, 0x31, 0x2f, 0x63, 0x6f, 0x6e, 0x76, 0x32, 0x64, 0x5f, 0x31, 0x5f, 0x32, 0x2f, 0x53, 0x71, 0x75, 0x65, 0x65, 0x7a, 0x65, 0x00, 0x00, 0x00, 0x00, 0x04, 0x00, 0x00, 0x00, 0x01, 0x00, 0x00, 0x00, 0x10, 0x00, 0x00, 0x00, 0x06, 0x00, 0x00, 0x00, 0x10, 0x00, 0x00, 0x00, 0x8a, 0xf7, 0xff, 0xff, 0x00, 0x00, 0x00, 0x01, 0x18, 0x00, 0x00, 0x00, 0x28, 0x00, 0x00, 0x00, 0x48, 0x00, 0x00, 0x00, 0x0c, 0x00, 0x00, 0x00, 0x00, 0x00, 0x00, 0x09, 0x68, 0x00, 0x00, 0x00, 0x04, 0x00, 0x00, 0x00, 0xff, 0xff, 0xff, 0xff, 0x10, 0x00, 0x00, 0x00, 0x06, 0x00, 0x00, 0x00, 0x08, 0x00, 0x00, 0x00, 0x74, 0xf7, 0xff, 0xff, 0x08, 0x00, 0x00, 0x00, 0x14, 0x00, 0x00, 0x00, 0x01, 0x00, 0x00, 0x00, 0x80, 0xff, 0xff, 0xff, 0xff, 0xff, 0xff, 0xff, 0x00, 0x00, 0x00, 0x00, 0x01, 0x00, 0x00, 0x00, 0x53, 0xa7, 0x62, 0x3f, 0x26, 0x00, 0x00, 0x00, 0x73, 0x65, 0x71, 0x75, 0x65, 0x6e, 0x74, 0x69, 0x61, 0x6c, 0x5f, 0x31, 0x2f, 0x6d, 0x61, 0x78, 0x5f, 0x70, 0x6f, 0x6f, 0x6c, 0x69, 0x6e, 0x67, 0x32, 0x64, 0x5f, 0x31, 0x2f, 0x4d, 0x61, 0x78, 0x50, 0x6f, 0x6f, 0x6c, 0x32, 0x64, 0x00, 0x00, 0x04, 0x00, 0x00, 0x00, 0x01, 0x00, 0x00, 0x00, 0x10, 0x00, 0x00, 0x00, 0x06, 0x00, 0x00, 0x00, 0x08, 0x00, 0x00, 0x00, 0x22, 0xf8, 0xff, 0xff, 0x00, 0x00, 0x00, 0x01, 0x18, 0x00, 0x00, 0x00, 0x28, 0x00, 0x00, 0x00, 0x48, 0x00, 0x00, 0x00, 0x0b, 0x00, 0x00, 0x00, 0x00, 0x00, 0x00, 0x09, 0xa0, 0x00, 0x00, 0x00, 0x04, 0x00, 0x00, 0x00, 0xff, 0xff, 0xff, 0xff, 0x20, 0x00, 0x00, 0x00, 0x0d, 0x00, 0x00, 0x00, 0x08, 0x00, 0x00, 0x00, 0x0c, 0xf8, 0xff, 0xff, 0x08, 0x00, 0x00, 0x00, 0x14, 0x00, 0x00, 0x00, 0x01, 0x00, 0x00, 0x00, 0x80, 0xff, 0xff, 0xff, 0xff, 0xff, 0xff, 0xff, 0x00, 0x00, 0x00, 0x00, 0x01, 0x00, 0x00, 0x00, 0x53, 0xa7, 0x62, 0x3f, 0x5c, 0x00, 0x00, 0x00, 0x73, 0x65, 0x71, 0x75, 0x65, 0x6e, 0x74, 0x69, 0x61, 0x6c, 0x5f, 0x31, 0x2f, 0x63, 0x6f, 0x6e, 0x76, 0x32, 0x64, 0x5f, 0x31, 0x2f, 0x52, 0x65, 0x6c, 0x75, 0x3b, 0x73, 0x65, 0x71, 0x75, 0x65, 0x6e, 0x74, 0x69, 0x61, 0x6c, 0x5f, 0x31, 0x2f, 0x63, 0x6f, 0x6e, 0x76, 0x32, 0x64, 0x5f, 0x31, 0x2f, 0x42, 0x69, 0x61, 0x73, 0x41, 0x64, 0x64, 0x3b, 0x73, 0x65, 0x71, 0x75, 0x65, 0x6e, 0x74, 0x69, 0x61, 0x6c, 0x5f, 0x31, 0x2f, 0x63, 0x6f, 0x6e, 0x76, 0x32, 0x64, 0x5f, 0x31, 0x2f, 0x63, 0x6f, 0x6e, 0x76, 0x6f, 0x6c, 0x75, 0x74, 0x69, 0x6f, 0x6e, 0x3b, 0x31, 0x00, 0x00, 0x00, 0x00, 0x04, 0x00, 0x00, 0x00, 0x01, 0x00, 0x00, 0x00, 0x20, 0x00, 0x00, 0x00, 0x0d, 0x00, 0x00, 0x00, 0x08, 0x00, 0x00, 0x00, 0x4a, 0xf9, 0xff, 0xff, 0x00, 0x00, 0x00, 0x01, 0x14, 0x00, 0x00, 0x00, 0x88, 0x00, 0x00, 0x00, 0x0a, 0x00, 0x00, 0x00, 0x00, 0x00, 0x00, 0x09, 0x94, 0x00, 0x00, 0x00, 0xc4, 0xf8, 0xff, 0xff, 0x08, 0x00, 0x00, 0x00, 0x4c, 0x00, 0x00, 0x00, 0x08, 0x00, 0x00, 0x00, 0x00, 0x00, 0x00, 0x00, 0x00, 0x00, 0x00, 0x00, 0x00, 0x00, 0x00, 0x00, 0x00, 0x00, 0x00, 0x00, 0x00, 0x00, 0x00, 0x00, 0x00, 0x00, 0x00, 0x00, 0x00, 0x00, 0x00, 0x00, 0x00, 0x00, 0x00, 0x00, 0x00, 0x00, 0x00, 0x00, 0x00, 0x00, 0x00, 0x00, 0x00, 0x00, 0x00, 0x00, 0x00, 0x00, 0x00, 0x00, 0x00, 0x00, 0x00, 0x00, 0x00, 0x00, 0x00, 0x00, 0x00, 0x00, 0x00, 0x00, 0x00, 0x00, 0x00, 0x00, 0x00, 0x00, 0x00, 0x00, 0x08, 0x00, 0x00, 0x00, 0xda, 0x1b, 0x10, 0x3b, 0x5a, 0x9a, 0xc6, 0x3a, 0x42, 0xa7, 0x0e, 0x3b, 0x33, 0xee, 0xf1, 0x3a, 0xb6, 0xf4, 0xd5, 0x3a, 0x0c, 0x63, 0x03, 0x3b, 0x09, 0x2a, 0xde, 0x3a, 0xec, 0xdd, 0x06, 0x3b, 0x12, 0x00, 0x00, 0x00, 0x74, 0x66, 0x6c, 0x2e, 0x70, 0x73, 0x65, 0x75, 0x64, 0x6f, 0x5f, 0x71, 0x63, 0x6f, 0x6e, 0x73, 0x74, 0x37, 0x00, 0x00, 0x04, 0x00, 0x00, 0x00, 0x08, 0x00, 0x00, 0x00, 0x03, 0x00, 0x00, 0x00, 0x03, 0x00, 0x00, 0x00, 0x01, 0x00, 0x00, 0x00, 0x0a, 0xfa, 0xff, 0xff, 0x00, 0x00, 0x00, 0x01, 0x14, 0x00, 0x00, 0x00, 0x84, 0x00, 0x00, 0x00, 0x09, 0x00, 0x00, 0x00, 0x00, 0x00, 0x00, 0x02, 0x90, 0x00, 0x00, 0x00, 0x84, 0xf9, 0xff, 0xff, 0x08, 0x00, 0x00, 0x00, 0x48, 0x00, 0x00, 0x00, 0x08, 0x00, 0x00, 0x00, 0x00, 0x00, 0x00, 0x00, 0x00, 0x00, 0x00, 0x00, 0x00, 0x00, 0x00, 0x00, 0x00, 0x00, 0x00, 0x00, 0x00, 0x00, 0x00, 0x00, 0x00, 0x00, 0x00, 0x00, 0x00, 0x00, 0x00, 0x00, 0x00, 0x00, 0x00, 0x00, 0x00, 0x00, 0x00, 0x00, 0x00, 0x00, 0x00, 0x00, 0x00, 0x00, 0x00, 0x00, 0x00, 0x00, 0x00, 0x00, 0x00, 0x00, 0x00, 0x00, 0x00, 0x00, 0x00, 0x00, 0x00, 0x00, 0x00, 0x00, 0x00, 0x00, 0x00, 0x00, 0x08, 0x00, 0x00, 0x00, 0x10, 0x39, 0xd6, 0x3b, 0x7e, 0x9d, 0x93, 0x3b, 0x30, 0x0f, 0xd4, 0x3b, 0xb5, 0xd1, 0xb3, 0x3b, 0xcd, 0x06, 0x9f, 0x3b, 0xb4, 0x4f, 0xc3, 0x3b, 0xa6, 0x20, 0xa5, 0x3b, 0x06, 0x7c, 0xc8, 0x3b, 0x12, 0x00, 0x00, 0x00, 0x74, 0x66, 0x6c, 0x2e, 0x70, 0x73, 0x65, 0x75, 0x64, 0x6f, 0x5f, 0x71, 0x63, 0x6f, 0x6e, 0x73, 0x74, 0x36, 0x00, 0x00, 0x01, 0x00, 0x00, 0x00, 0x08, 0x00, 0x00, 0x00, 0xba, 0xfa, 0xff, 0xff, 0x00, 0x00, 0x00, 0x01, 0x14, 0x00, 0x00, 0x00, 0xe8, 0x00, 0x00, 0x00, 0x08, 0x00, 0x00, 0x00, 0x00, 0x00, 0x00, 0x09, 0xf4, 0x00, 0x00, 0x00, 0x34, 0xfa, 0xff, 0xff, 0x08, 0x00, 0x00, 0x00, 0x8c, 0x00, 0x00, 0x00, 0x10, 0x00, 0x00, 0x00, 0x00, 0x00, 0x00, 0x00, 0x00, 0x00, 0x00, 0x00, 0x00, 0x00, 0x00, 0x00, 0x00, 0x00, 0x00, 0x00, 0x00, 0x00, 0x00, 0x00, 0x00, 0x00, 0x00, 0x00, 0x00, 0x00, 0x00, 0x00, 0x00, 0x00, 0x00, 0x00, 0x00, 0x00, 0x00, 0x00, 0x00, 0x00, 0x00, 0x00, 0x00, 0x00, 0x00, 0x00, 0x00, 0x00, 0x00, 0x00, 0x00, 0x00, 0x00, 0x00, 0x00, 0x00, 0x00, 0x00, 0x00, 0x00, 0x00, 0x00, 0x00, 0x00, 0x00, 0x00, 0x00, 0x00, 0x00, 0x00, 0x00, 0x00, 0x00, 0x00, 0x00, 0x00, 0x00, 0x00, 0x00, 0x00, 0x00, 0x00, 0x00, 0x00, 0x00, 0x00, 0x00, 0x00, 0x00, 0x00, 0x00, 0x00, 0x00, 0x00, 0x00, 0x00, 0x00, 0x00, 0x00, 0x00, 0x00, 0x00, 0x00, 0x00, 0x00, 0x00, 0x00, 0x00, 0x00, 0x00, 0x00, 0x00, 0x00, 0x00, 0x00, 0x00, 0x00, 0x00, 0x00, 0x00, 0x00, 0x00, 0x00, 0x00, 0x00, 0x00, 0x00, 0x00, 0x00, 0x00, 0x00, 0x00, 0x00, 0x00, 0x10, 0x00, 0x00, 0x00, 0x18, 0xbf, 0xc7, 0x3a, 0x17, 0x9b, 0xaa, 0x3a, 0x22, 0xd9, 0xbf, 0x3a, 0x8c, 0x7b, 0xcc, 0x3a, 0x80, 0x71, 0xbf, 0x3a, 0xcf, 0x68, 0xc1, 0x3a, 0xbe, 0x16, 0xb4, 0x3a, 0x3e, 0x16, 0xde, 0x3a, 0x12, 0x13, 0xcc, 0x3a, 0x81, 0x6d, 0xa9, 0x3a, 0xae, 0x45, 0xbc, 0x3a, 0x3a, 0x7e, 0xba, 0x3a, 0xec, 0x03, 0xcb, 0x3a, 0x1a, 0xbf, 0xb6, 0x3a, 0x20, 0xc8, 0xb8, 0x3a, 0x18, 0x54, 0xd9, 0x3a, 0x12, 0x00, 0x00, 0x00, 0x74, 0x66, 0x6c, 0x2e, 0x70, 0x73, 0x65, 0x75, 0x64, 0x6f, 0x5f, 0x71, 0x63, 0x6f, 0x6e, 0x73, 0x74, 0x35, 0x00, 0x00, 0x04, 0x00, 0x00, 0x00, 0x10, 0x00, 0x00, 0x00, 0x03, 0x00, 0x00, 0x00, 0x03, 0x00, 0x00, 0x00, 0x08, 0x00, 0x00, 0x00, 0xda, 0xfb, 0xff, 0xff, 0x00, 0x00, 0x00, 0x01, 0x14, 0x00, 0x00, 0x00, 0xe4, 0x00, 0x00, 0x00, 0x07, 0x00, 0x00, 0x00, 0x00, 0x00, 0x00, 0x02, 0xf0, 0x00, 0x00, 0x00, 0x54, 0xfb, 0xff, 0xff, 0x08, 0x00, 0x00, 0x00, 0x88, 0x00, 0x00, 0x00, 0x10, 0x00, 0x00, 0x00, 0x00, 0x00, 0x00, 0x00, 0x00, 0x00, 0x00, 0x00, 0x00, 0x00, 0x00, 0x00, 0x00, 0x00, 0x00, 0x00, 0x00, 0x00, 0x00, 0x00, 0x00, 0x00, 0x00, 0x00, 0x00, 0x00, 0x00, 0x00, 0x00, 0x00, 0x00, 0x00, 0x00, 0x00, 0x00, 0x00, 0x00, 0x00, 0x00, 0x00, 0x00, 0x00, 0x00, 0x00, 0x00, 0x00, 0x00, 0x00, 0x00, 0x00, 0x00, 0x00, 0x00, 0x00, 0x00, 0x00, 0x00, 0x00, 0x00, 0x00, 0x00, 0x00, 0x00, 0x00, 0x00, 0x00, 0x00, 0x00, 0x00, 0x00, 0x00, 0x00, 0x00, 0x00, 0x00, 0x00, 0x00, 0x00, 0x00, 0x00, 0x00, 0x00, 0x00, 0x00, 0x00, 0x00, 0x00, 0x00, 0x00, 0x00, 0x00, 0x00, 0x00, 0x00, 0x00, 0x00, 0x00, 0x00, 0x00, 0x00, 0x00, 0x00, 0x00, 0x00, 0x00, 0x00, 0x00, 0x00, 0x00, 0x00, 0x00, 0x00, 0x00, 0x00, 0x00, 0x00, 0x00, 0x00, 0x00, 0x00, 0x00, 0x00, 0x00, 0x00, 0x00, 0x00, 0x00, 0x00, 0x10, 0x00, 0x00, 0x00, 0x42, 0xd9, 0xb0, 0x3a, 0x6d, 0x0c, 0x97, 0x3a, 0x15, 0xdb, 0xa9, 0x3a, 0xb8, 0x0a, 0xb5, 0x3a, 0x54, 0x7f, 0xa9, 0x3a, 0xf1, 0x3c, 0xab, 0x3a, 0xc9, 0x71, 0x9f, 0x3a, 0xcb, 0xa0, 0xc4, 0x3a, 0x38, 0xae, 0xb4, 0x3a, 0x69, 0x01, 0x96, 0x3a, 0x92, 0xb0, 0xa6, 0x3a, 0x54, 0x1d, 0xa5, 0x3a, 0x28, 0xbe, 0xb3, 0x3a, 0x27, 0xcc, 0xa1, 0x3a, 0x73, 0x99, 0xa3, 0x3a, 0x4a, 0x6a, 0xc0, 0x3a, 0x12, 0x00, 0x00, 0x00, 0x74, 0x66, 0x6c, 0x2e, 0x70, 0x73, 0x65, 0x75, 0x64, 0x6f, 0x5f, 0x71, 0x63, 0x6f, 0x6e, 0x73, 0x74, 0x34, 0x00, 0x00, 0x01, 0x00, 0x00, 0x00, 0x10, 0x00, 0x00, 0x00, 0xea, 0xfc, 0xff, 0xff, 0x00, 0x00, 0x00, 0x01, 0x14, 0x00, 0x00, 0x00, 0xe8, 0x00, 0x00, 0x00, 0x06, 0x00, 0x00, 0x00, 0x00, 0x00, 0x00, 0x09, 0xf4, 0x00, 0x00, 0x00, 0x64, 0xfc, 0xff, 0xff, 0x08, 0x00, 0x00, 0x00, 0x8c, 0x00, 0x00, 0x00, 0x10, 0x00, 0x00, 0x00, 0x00, 0x00, 0x00, 0x00, 0x00, 0x00, 0x00, 0x00, 0x00, 0x00, 0x00, 0x00, 0x00, 0x00, 0x00, 0x00, 0x00, 0x00, 0x00, 0x00, 0x00, 0x00, 0x00, 0x00, 0x00, 0x00, 0x00, 0x00, 0x00, 0x00, 0x00, 0x00, 0x00, 0x00, 0x00, 0x00, 0x00, 0x00, 0x00, 0x00, 0x00, 0x00, 0x00, 0x00, 0x00, 0x00, 0x00, 0x00, 0x00, 0x00, 0x00, 0x00, 0x00, 0x00, 0x00, 0x00, 0x00, 0x00, 0x00, 0x00, 0x00, 0x00, 0x00, 0x00, 0x00, 0x00, 0x00, 0x00, 0x00, 0x00, 0x00, 0x00, 0x00, 0x00, 0x00, 0x00, 0x00, 0x00, 0x00, 0x00, 0x00, 0x00, 0x00, 0x00, 0x00, 0x00, 0x00, 0x00, 0x00, 0x00, 0x00, 0x00, 0x00, 0x00, 0x00, 0x00, 0x00, 0x00, 0x00, 0x00, 0x00, 0x00, 0x00, 0x00, 0x00, 0x00, 0x00, 0x00, 0x00, 0x00, 0x00, 0x00, 0x00, 0x00, 0x00, 0x00, 0x00, 0x00, 0x00, 0x00, 0x00, 0x00, 0x00, 0x00, 0x00, 0x00, 0x00, 0x00, 0x00, 0x00, 0x00, 0x00, 0x10, 0x00, 0x00, 0x00, 0x8d, 0xf4, 0xee, 0x3a, 0xa4, 0xaa, 0x83, 0x3a, 0x47, 0x8b, 0xa7, 0x3a, 0xb0, 0xfc, 0xd3, 0x3a, 0x4c, 0x1a, 0x7b, 0x3a, 0xc6, 0xd0, 0x97, 0x3a, 0x85, 0x75, 0x88, 0x3a, 0x7e, 0x10, 0xa2, 0x3a, 0x27, 0x22, 0x82, 0x3a, 0x92, 0xc7, 0x82, 0x3a, 0xe8, 0xcc, 0xa3, 0x3a, 0x48, 0xb6, 0xbc, 0x3a, 0x25, 0x68, 0x85, 0x3a, 0x3a, 0xa7, 0xfc, 0x3a, 0x10, 0xb5, 0xbc, 0x3a, 0xff, 0x81, 0x82, 0x3a, 0x12, 0x00, 0x00, 0x00, 0x74, 0x66, 0x6c, 0x2e, 0x70, 0x73, 0x65, 0x75, 0x64, 0x6f, 0x5f, 0x71, 0x63, 0x6f, 0x6e, 0x73, 0x74, 0x33, 0x00, 0x00, 0x02, 0x00, 0x00, 0x00, 0x10, 0x00, 0x00, 0x00, 0x80, 0x01, 0x00, 0x00, 0x02, 0xfe, 0xff, 0xff, 0x00, 0x00, 0x00, 0x01, 0x14, 0x00, 0x00, 0x00, 0xe4, 0x00, 0x00, 0x00, 0x05, 0x00, 0x00, 0x00, 0x00, 0x00, 0x00, 0x02, 0xf0, 0x00, 0x00, 0x00, 0x7c, 0xfd, 0xff, 0xff, 0x08, 0x00, 0x00, 0x00, 0x88, 0x00, 0x00, 0x00, 0x10, 0x00, 0x00, 0x00, 0x00, 0x00, 0x00, 0x00, 0x00, 0x00, 0x00, 0x00, 0x00, 0x00, 0x00, 0x00, 0x00, 0x00, 0x00, 0x00, 0x00, 0x00, 0x00, 0x00, 0x00, 0x00, 0x00, 0x00, 0x00, 0x00, 0x00, 0x00, 0x00, 0x00, 0x00, 0x00, 0x00, 0x00, 0x00, 0x00, 0x00, 0x00, 0x00, 0x00, 0x00, 0x00, 0x00, 0x00, 0x00, 0x00, 0x00, 0x00, 0x00, 0x00, 0x00, 0x00, 0x00, 0x00, 0x00, 0x00, 0x00, 0x00, 0x00, 0x00, 0x00, 0x00, 0x00, 0x00, 0x00, 0x00, 0x00, 0x00, 0x00, 0x00, 0x00, 0x00, 0x00, 0x00, 0x00, 0x00, 0x00, 0x00, 0x00, 0x00, 0x00, 0x00, 0x00, 0x00, 0x00, 0x00, 0x00, 0x00, 0x00, 0x00, 0x00, 0x00, 0x00, 0x00, 0x00, 0x00, 0x00, 0x00, 0x00, 0x00, 0x00, 0x00, 0x00, 0x00, 0x00, 0x00, 0x00, 0x00, 0x00, 0x00, 0x00, 0x00, 0x00, 0x00, 0x00, 0x00, 0x00, 0x00, 0x00, 0x00, 0x00, 0x00, 0x00, 0x00, 0x00, 0x00, 0x00, 0x00, 0x10, 0x00, 0x00, 0x00, 0xeb, 0x09, 0x45, 0x3a, 0xed, 0x23, 0xd9, 0x39, 0x78, 0x27, 0x0a, 0x3a, 0x1a, 0xcd, 0x2e, 0x3a, 0x2a, 0x0e, 0xcf, 0x39, 0x8e, 0x5e, 0xfa, 0x39, 0x41, 0x0b, 0xe1, 0x39, 0xc1, 0xa2, 0x05, 0x3a, 0xa5, 0x9c, 0xd6, 0x39, 0x73, 0xad, 0xd7, 0x39, 0x36, 0x11, 0x07, 0x3a, 0xe5, 0x9b, 0x1b, 0x3a, 0xa3, 0x02, 0xdc, 0x39, 0x78, 0x55, 0x50, 0x3a, 0xe4, 0x9a, 0x1b, 0x3a, 0xb5, 0x3a, 0xd7, 0x39, 0x12, 0x00, 0x00, 0x00, 0x74, 0x66, 0x6c, 0x2e, 0x70, 0x73, 0x65, 0x75, 0x64, 0x6f, 0x5f, 0x71, 0x63, 0x6f, 0x6e, 0x73, 0x74, 0x32, 0x00, 0x00, 0x01, 0x00, 0x00, 0x00, 0x10, 0x00, 0x00, 0x00, 0x12, 0xff, 0xff, 0xff, 0x00, 0x00, 0x00, 0x01, 0x14, 0x00, 0x00, 0x00, 0x48, 0x00, 0x00, 0x00, 0x04, 0x00, 0x00, 0x00, 0x00, 0x00, 0x00, 0x09, 0x54, 0x00, 0x00, 0x00, 0x8c, 0xfe, 0xff, 0xff, 0x08, 0x00, 0x00, 0x00, 0x20, 0x00, 0x00, 0x00, 0x03, 0x00, 0x00, 0x00, 0x00, 0x00, 0x00, 0x00, 0x00, 0x00, 0x00, 0x00, 0x00, 0x00, 0x00, 0x00, 0x00, 0x00, 0x00, 0x00, 0x00, 0x00, 0x00, 0x00, 0x00, 0x00, 0x00, 0x00, 0x03, 0x00, 0x00, 0x00, 0x06, 0x6d, 0x98, 0x3b, 0xbc, 0xf7, 0x8c, 0x3b, 0x54, 0xd9, 0x77, 0x3b, 0x12, 0x00, 0x00, 0x00, 0x74, 0x66, 0x6c, 0x2e, 0x70, 0x73, 0x65, 0x75, 0x64, 0x6f, 0x5f, 0x71, 0x63, 0x6f, 0x6e, 0x73, 0x74, 0x31, 0x00, 0x00, 0x02, 0x00, 0x00, 0x00, 0x03, 0x00, 0x00, 0x00, 0x10, 0x00, 0x00, 0x00, 0x8a, 0xff, 0xff, 0xff, 0x00, 0x00, 0x00, 0x01, 0x14, 0x00, 0x00, 0x00, 0x48, 0x00, 0x00, 0x00, 0x03, 0x00, 0x00, 0x00, 0x00, 0x00, 0x00, 0x02, 0x54, 0x00, 0x00, 0x00, 0x04, 0xff, 0xff, 0xff, 0x08, 0x00, 0x00, 0x00, 0x20, 0x00, 0x00, 0x00, 0x03, 0x00, 0x00, 0x00, 0x00, 0x00, 0x00, 0x00, 0x00, 0x00, 0x00, 0x00, 0x00, 0x00, 0x00, 0x00, 0x00, 0x00, 0x00, 0x00, 0x00, 0x00, 0x00, 0x00, 0x00, 0x00, 0x00, 0x00, 0x03, 0x00, 0x00, 0x00, 0x43, 0x98, 0x4a, 0x3a, 0x85, 0x5d, 0x3b, 0x3a, 0x68, 0xb6, 0x24, 0x3a, 0x11, 0x00, 0x00, 0x00, 0x74, 0x66, 0x6c, 0x2e, 0x70, 0x73, 0x65, 0x75, 0x64, 0x6f, 0x5f, 0x71, 0x63, 0x6f, 0x6e, 0x73, 0x74, 0x00, 0x00, 0x00, 0x01, 0x00, 0x00, 0x00, 0x03, 0x00, 0x00, 0x00, 0x00, 0x00, 0x16, 0x00, 0x1c, 0x00, 0x18, 0x00, 0x17, 0x00, 0x10, 0x00, 0x0c, 0x00, 0x08, 0x00, 0x00, 0x00, 0x00, 0x00, 0x00, 0x00, 0x07, 0x00, 0x16, 0x00, 0x00, 0x00, 0x00, 0x00, 0x00, 0x01, 0x18, 0x00, 0x00, 0x00, 0x18, 0x00, 0x00, 0x00, 0x02, 0x00, 0x00, 0x00, 0x00, 0x00, 0x00, 0x02, 0x20, 0x00, 0x00, 0x00, 0x04, 0x00, 0x04, 0x00, 0x04, 0x00, 0x00, 0x00, 0x0e, 0x00, 0x00, 0x00, 0x61, 0x72, 0x69, 0x74, 0x68, 0x2e, 0x63, 0x6f, 0x6e, 0x73, 0x74, 0x61, 0x6e, 0x74, 0x00, 0x00, 0x01, 0x00, 0x00, 0x00, 0x02, 0x00, 0x00, 0x00, 0x00, 0x00, 0x16, 0x00, 0x20, 0x00, 0x1c, 0x00, 0x1b, 0x00, 0x14, 0x00, 0x10, 0x00, 0x0c, 0x00, 0x00, 0x00, 0x00, 0x00, 0x08, 0x00, 0x07, 0x00, 0x16, 0x00, 0x00, 0x00, 0x00, 0x00, 0x00, 0x01, 0x18, 0x00, 0x00, 0x00, 0x34, 0x00, 0x00, 0x00, 0x54, 0x00, 0x00, 0x00, 0x01, 0x00, 0x00, 0x00, 0x00, 0x00, 0x00, 0x09, 0x6c, 0x00, 0x00, 0x00, 0x04, 0x00, 0x00, 0x00, 0xff, 0xff, 0xff, 0xff, 0x20, 0x00, 0x00, 0x00, 0x0d, 0x00, 0x00, 0x00, 0x01, 0x00, 0x00, 0x00, 0x0c, 0x00, 0x0c, 0x00, 0x00, 0x00, 0x00, 0x00, 0x08, 0x00, 0x04, 0x00, 0x0c, 0x00, 0x00, 0x00, 0x08, 0x00, 0x00, 0x00, 0x14, 0x00, 0x00, 0x00, 0x01, 0x00, 0x00, 0x00, 0x37, 0x00, 0x00, 0x00, 0x00, 0x00, 0x00, 0x00, 0x00, 0x00, 0x00, 0x00, 0x01, 0x00, 0x00, 0x00, 0xcf, 0x46, 0x3e, 0x40, 0x1e, 0x00, 0x00, 0x00, 0x73, 0x65, 0x72, 0x76, 0x69, 0x6e, 0x67, 0x5f, 0x64, 0x65, 0x66, 0x61, 0x75, 0x6c, 0x74, 0x5f, 0x6b, 0x65, 0x72, 0x61, 0x73, 0x5f, 0x74, 0x65, 0x6e, 0x73, 0x6f, 0x72, 0x3a, 0x30, 0x00, 0x00, 0x04, 0x00, 0x00, 0x00, 0x01, 0x00, 0x00, 0x00, 0x20, 0x00, 0x00, 0x00, 0x0d, 0x00, 0x00, 0x00, 0x01, 0x00, 0x00, 0x00, 0x05, 0x00, 0x00, 0x00, 0x68, 0x00, 0x00, 0x00, 0x48, 0x00, 0x00, 0x00, 0x38, 0x00, 0x00, 0x00, 0x18, 0x00, 0x00, 0x00, 0x04, 0x00, 0x00, 0x00, 0xb8, 0xff, 0xff, 0xff, 0x19, 0x00, 0x00, 0x00, 0x02, 0x00, 0x00, 0x00, 0x00, 0x00, 0x00, 0x19, 0xc8, 0xff, 0xff, 0xff, 0x09, 0x00, 0x00, 0x00, 0x04, 0x00, 0x00, 0x00, 0x00, 0x00, 0x00, 0x09, 0x0c, 0x00, 0x0c, 0x00, 0x0b, 0x00, 0x00, 0x00, 0x00, 0x00, 0x04, 0x00, 0x0c, 0x00, 0x00, 0x00, 0x16, 0x00, 0x00, 0x00, 0x00, 0x00, 0x00, 0x16, 0xf0, 0xff, 0xff, 0xff, 0x11, 0x00, 0x00, 0x00, 0x02, 0x00, 0x00, 0x00, 0x00, 0x00, 0x00, 0x11, 0x0c, 0x00, 0x10, 0x00, 0x0f, 0x00, 0x00, 0x00, 0x08, 0x00, 0x04, 0x00, 0x0c, 0x00, 0x00, 0x00, 0x03, 0x00, 0x00, 0x00, 0x03, 0x00, 0x00, 0x00, 0x00, 0x00, 0x00, 0x03
};
const unsigned int audio_model_len = 12488;
