// Auto-generated by pipeline
#include <stdint.h>

const unsigned char audio_model[] = {
0x1c, 0x00, 0x00, 0x00, 0x54, 0x46, 0x4c, 0x33, 0x14, 0x00, 0x20, 0x00, 0x1c, 0x00, 0x18, 0x00, 0x14, 0x00, 0x10, 0x00, 0x0c, 0x00, 0x00, 0x00, 0x08, 0x00, 0x04, 0x00, 0x14, 0x00, 0x00, 0x00, 0x1c, 0x00, 0x00, 0x00, 0x8c, 0x00, 0x00, 0x00, 0x0c, 0x01, 0x00, 0x00, 0x48, 0x20, 0x00, 0x00, 0x58, 0x20, 0x00, 0x00, 0x18, 0x30, 0x00, 0x00, 0x03, 0x00, 0x00, 0x00, 0x01, 0x00, 0x00, 0x00, 0x04, 0x00, 0x00, 0x00, 0xae, 0xde, 0xff, 0xff, 0x0c, 0x00, 0x00, 0x00, 0x1c, 0x00, 0x00, 0x00, 0x3c, 0x00, 0x00, 0x00, 0x0f, 0x00, 0x00, 0x00, 0x73, 0x65, 0x72, 0x76, 0x69, 0x6e, 0x67, 0x5f, 0x64, 0x65, 0x66, 0x61, 0x75, 0x6c, 0x74, 0x00, 0x01, 0x00, 0x00, 0x00, 0x04, 0x00, 0x00, 0x00, 0x68, 0xff, 0xff, 0xff, 0x11, 0x00, 0x00, 0x00, 0x04, 0x00, 0x00, 0x00, 0x08, 0x00, 0x00, 0x00, 0x6f, 0x75, 0x74, 0x70, 0x75, 0x74, 0x5f, 0x30, 0x00, 0x00, 0x00, 0x00, 0x01, 0x00, 0x00, 0x00, 0x04, 0x00, 0x00, 0x00, 0x92, 0xdf, 0xff, 0xff, 0x04, 0x00, 0x00, 0x00, 0x0c, 0x00, 0x00, 0x00, 0x6b, 0x65, 0x72, 0x61, 0x73, 0x5f, 0x74, 0x65, 0x6e, 0x73, 0x6f, 0x72, 0x00, 0x00, 0x00, 0x00, 0x03, 0x00, 0x00, 0x00, 0x5c, 0x00, 0x00, 0x00, 0x2c, 0x00, 0x00, 0x00, 0x04, 0x00, 0x00, 0x00, 0xb8, 0xff, 0xff, 0xff, 0x15, 0x00, 0x00, 0x00, 0x04, 0x00, 0x00, 0x00, 0x13, 0x00, 0x00, 0x00, 0x43, 0x4f, 0x4e, 0x56, 0x45, 0x52, 0x53, 0x49, 0x4f, 0x4e, 0x5f, 0x4d, 0x45, 0x54, 0x41, 0x44, 0x41, 0x54, 0x41, 0x00, 0xdc, 0xff, 0xff, 0xff, 0x14, 0x00, 0x00, 0x00, 0x04, 0x00, 0x00, 0x00, 0x13, 0x00, 0x00, 0x00, 0x6d, 0x69, 0x6e, 0x5f, 0x72, 0x75, 0x6e, 0x74, 0x69, 0x6d, 0x65, 0x5f, 0x76, 0x65, 0x72, 0x73, 0x69, 0x6f, 0x6e, 0x00, 0x08, 0x00, 0x0c, 0x00, 0x08, 0x00, 0x04, 0x00, 0x08, 0x00, 0x00, 0x00, 0x13, 0x00, 0x00, 0x00, 0x04, 0x00, 0x00, 0x00, 0x13, 0x00, 0x00, 0x00, 0x6d, 0x69, 0x6e, 0x5f, 0x72, 0x75, 0x6e, 0x74, 0x69, 0x6d, 0x65, 0x5f, 0x76, 0x65, 0x72, 0x73, 0x69, 0x6f, 0x6e, 0x00, 0x16, 0x00, 0x00, 0x00, 0x38, 0x1f, 0x00, 0x00, 0x30, 0x1f, 0x00, 0x00, 0x18, 0x1f, 0x00, 0x00, 0xfc, 0x1e, 0x00, 0x00, 0xbc, 0x1e, 0x00, 0x00, 0x6c, 0x1e, 0x00, 0x00, 0x5c, 0x06, 0x00, 0x00, 0x0c, 0x06, 0x00, 0x00, 0x7c, 0x01, 0x00, 0x00, 0x4c, 0x01, 0x00, 0x00, 0xf4, 0x00, 0x00, 0x00, 0xec, 0x00, 0x00, 0x00, 0xe4, 0x00, 0x00, 0x00, 0xdc, 0x00, 0x00, 0x00, 0xd4, 0x00, 0x00, 0x00, 0xcc, 0x00, 0x00, 0x00, 0xc4, 0x00, 0x00, 0x00, 0xbc, 0x00, 0x00, 0x00, 0xb4, 0x00, 0x00, 0x00, 0x94, 0x00, 0x00, 0x00, 0x74, 0x00, 0x00, 0x00, 0x04, 0x00, 0x00, 0x00, 0x8e, 0xe0, 0xff, 0xff, 0x04, 0x00, 0x00, 0x00, 0x60, 0x00, 0x00, 0x00, 0x0c, 0x00, 0x00, 0x00, 0x08, 0x00, 0x0e, 0x00, 0x08, 0x00, 0x04, 0x00, 0x08, 0x00, 0x00, 0x00, 0x10, 0x00, 0x00, 0x00, 0x28, 0x00, 0x00, 0x00, 0x00, 0x00, 0x06, 0x00, 0x08, 0x00, 0x04, 0x00, 0x06, 0x00, 0x00, 0x00, 0x04, 0x00, 0x00, 0x00, 0x01, 0x00, 0x00, 0x00, 0xeb, 0x03, 0x00, 0x00, 0x0c, 0x00, 0x18, 0x00, 0x14, 0x00, 0x10, 0x00, 0x0c, 0x00, 0x04, 0x00, 0x0c, 0x00, 0x00, 0x00, 0xbb, 0x46, 0x89, 0xff, 0xc6, 0x44, 0x1d, 0x13, 0x02, 0x00, 0x00, 0x00, 0x02, 0x00, 0x00, 0x00, 0x04, 0x00, 0x00, 0x00, 0x06, 0x00, 0x00, 0x00, 0x32, 0x2e, 0x31, 0x39, 0x2e, 0x30, 0x00, 0x00, 0xfa, 0xe0, 0xff, 0xff, 0x04, 0x00, 0x00, 0x00, 0x10, 0x00, 0x00, 0x00, 0x00, 0x00, 0x00, 0x00, 0x00, 0x00, 0x00, 0x00, 0x00, 0x00, 0x00, 0x00, 0x00, 0x00, 0x00, 0x00, 0x16, 0xe1, 0xff, 0xff, 0x04, 0x00, 0x00, 0x00, 0x10, 0x00, 0x00, 0x00, 0x31, 0x2e, 0x31, 0x34, 0x2e, 0x30, 0x00, 0x00, 0x00, 0x00, 0x00, 0x00, 0x00, 0x00, 0x00, 0x00, 0xc0, 0xd2, 0xff, 0xff, 0xc4, 0xd2, 0xff, 0xff, 0xc8, 0xd2, 0xff, 0xff, 0xcc, 0xd2, 0xff, 0xff, 0xd0, 0xd2, 0xff, 0xff, 0xd4, 0xd2, 0xff, 0xff, 0xd8, 0xd2, 0xff, 0xff, 0xdc, 0xd2, 0xff, 0xff, 0x52, 0xe1, 0xff, 0xff, 0x04, 0x00, 0x00, 0x00, 0x48, 0x00, 0x00, 0x00, 0x9b, 0x42, 0xd6, 0x92, 0x81, 0xb8, 0x50, 0xe3, 0xed, 0xb1, 0x35, 0xfa, 0x4f, 0xa3, 0xe9, 0x69, 0x7f, 0x7c, 0x51, 0x44, 0x48, 0x46, 0x7f, 0x03, 0xc8, 0x24, 0xd7, 0x7f, 0xcd, 0xd1, 0x0c, 0x35, 0x10, 0x3b, 0x21, 0x2c, 0x6e, 0xda, 0x97, 0x57, 0x7f, 0xe7, 0xc5, 0x59, 0xea, 0xd7, 0xb3, 0x57, 0x10, 0x90, 0x52, 0x81, 0x33, 0xd0, 0x79, 0xbd, 0xf4, 0xda, 0xae, 0x7f, 0xe6, 0xf2, 0x58, 0x43, 0xbd, 0x61, 0xad, 0x33, 0x94, 0xde, 0xb1, 0x81, 0xa6, 0xe1, 0xff, 0xff, 0x04, 0x00, 0x00, 0x00, 0x20, 0x00, 0x00, 0x00, 0x02, 0x00, 0x00, 0x00, 0xfe, 0xff, 0xff, 0xff, 0xfe, 0xff, 0xff, 0xff, 0x03, 0x00, 0x00, 0x00, 0xfd, 0xff, 0xff, 0xff, 0x03, 0x00, 0x00, 0x00, 0x02, 0x00, 0x00, 0x00, 0x01, 0x00, 0x00, 0x00, 0xd2, 0xe1, 0xff, 0xff, 0x04, 0x00, 0x00, 0x00, 0x80, 0x04, 0x00, 0x00, 0xc7, 0xe9, 0x22, 0xe7, 0x24, 0xd8, 0xc0, 0xee, 0xfa, 0xaa, 0xbd, 0xe8, 0x37, 0x3a, 0xff, 0x4a, 0x1f, 0xf3, 0xe3, 0xdf, 0xbc, 0x1c, 0xc0, 0xe5, 0xd4, 0xc6, 0x23, 0x0d, 0xed, 0xb2, 0x25, 0x04, 0x3a, 0xad, 0x0c, 0xe8, 0x20, 0xbe, 0x0b, 0x55, 0x27, 0xdc, 0x33, 0xe0, 0xde, 0xfa, 0x0a, 0x5f, 0xf1, 0x1e, 0xc9, 0xf4, 0x47, 0xcb, 0x10, 0x32, 0x14, 0x33, 0xc2, 0x4c, 0xfc, 0x3d, 0x0c, 0x28, 0x7f, 0xc0, 0xda, 0xd2, 0x1c, 0x76, 0xf3, 0x43, 0x72, 0x5e, 0x26, 0xd8, 0x7f, 0xbc, 0x0a, 0xfc, 0xab, 0x89, 0xce, 0x94, 0x52, 0x38, 0x89, 0xae, 0xf5, 0x1e, 0x66, 0xd8, 0x0d, 0xfd, 0x65, 0xc7, 0x64, 0xcc, 0x5e, 0x92, 0xe6, 0x2a, 0x16, 0xfb, 0x2f, 0x95, 0x0a, 0xa2, 0x2e, 0x7c, 0x26, 0x1f, 0x85, 0x5a, 0xe4, 0x5c, 0xeb, 0x79, 0x78, 0xe8, 0x4f, 0x1a, 0x09, 0x4f, 0xe3, 0x86, 0x6f, 0x72, 0x05, 0xab, 0x53, 0xdf, 0x8b, 0xfe, 0x5c, 0x5c, 0x01, 0x28, 0x0d, 0x38, 0x2a, 0xea, 0xcb, 0xf6, 0xe2, 0xc0, 0x66, 0x4f, 0xe6, 0xd0, 0xec, 0x49, 0x3c, 0xc6, 0x10, 0x40, 0xc8, 0x32, 0xe8, 0xd4, 0x3e, 0x9a, 0x63, 0x56, 0x47, 0xf9, 0xcf, 0x7f, 0x84, 0x63, 0x0a, 0xfe, 0x73, 0xb0, 0x23, 0x44, 0xc8, 0xa3, 0xaf, 0x24, 0xa5, 0x2d, 0xa1, 0x20, 0xde, 0xcf, 0x48, 0x13, 0x24, 0xd9, 0xac, 0x7c, 0xf8, 0x33, 0xa6, 0x54, 0x5c, 0xb9, 0xa6, 0x9a, 0x17, 0x41, 0x46, 0xa0, 0x12, 0x0f, 0x40, 0xa7, 0x66, 0x56, 0x43, 0x4b, 0x2a, 0x79, 0x35, 0x52, 0x40, 0xb2, 0xc1, 0x9d, 0x4e, 0x3f, 0xba, 0x06, 0x7f, 0x24, 0x3a, 0xa3, 0x09, 0x0e, 0xcf, 0xfe, 0x71, 0xce, 0x16, 0xff, 0xb4, 0x40, 0x69, 0x09, 0x21, 0x3e, 0x1c, 0xd6, 0xdf, 0xa9, 0x47, 0x20, 0x6d, 0xcb, 0x0f, 0xd3, 0x17, 0x1e, 0x03, 0xc2, 0x7a, 0x52, 0x11, 0xed, 0xfe, 0xc8, 0x63, 0xb9, 0xe9, 0xcf, 0x06, 0xd5, 0xdb, 0x2c, 0x25, 0x36, 0x33, 0xd2, 0xa2, 0xd9, 0x43, 0x08, 0xfe, 0x0a, 0xf8, 0xcb, 0x1e, 0x37, 0x1f, 0x69, 0x47, 0x40, 0x26, 0xef, 0xb2, 0x74, 0x46, 0xc9, 0x83, 0x4b, 0xdf, 0x5c, 0x81, 0x31, 0x24, 0xfa, 0x1d, 0xbc, 0x4c, 0x48, 0x25, 0x99, 0xd7, 0x75, 0x6c, 0x3e, 0x47, 0x0a, 0x75, 0x16, 0x5c, 0xbf, 0x3c, 0x11, 0x23, 0x45, 0x0b, 0xb9, 0xda, 0xe2, 0x21, 0x45, 0x29, 0xe8, 0x24, 0xb1, 0x2f, 0xbe, 0xb2, 0xee, 0x36, 0xfe, 0xfe, 0x78, 0x15, 0xf3, 0x9d, 0x3b, 0xe7, 0x43, 0x30, 0x98, 0x57, 0x4f, 0x63, 0x62, 0xa2, 0x28, 0x0b, 0xa0, 0x95, 0xa5, 0x1d, 0x3e, 0xf0, 0xb3, 0x44, 0xef, 0xfe, 0x1b, 0xe6, 0x1e, 0x25, 0xce, 0x1f, 0x39, 0x4e, 0x89, 0xc6, 0xe7, 0x5e, 0x39, 0x47, 0x2a, 0xe9, 0xf3, 0xd3, 0x16, 0x35, 0xf1, 0x2e, 0xbb, 0xdc, 0xac, 0x5d, 0xbf, 0x39, 0xf8, 0x4a, 0x5f, 0x7f, 0x48, 0xcc, 0x0c, 0xfc, 0xc2, 0xa5, 0xf9, 0xb6, 0xeb, 0x8e, 0xa1, 0x26, 0x31, 0xfc, 0xd6, 0x46, 0x18, 0xc2, 0x2b, 0xe6, 0xd0, 0x1b, 0x9a, 0xf2, 0x90, 0x4e, 0x35, 0x27, 0xe4, 0x57, 0xba, 0x31, 0x25, 0xe3, 0x5c, 0xb0, 0x05, 0xbe, 0xb6, 0x49, 0x34, 0xd4, 0x71, 0x86, 0xab, 0x3c, 0xd7, 0x99, 0xa9, 0x67, 0x93, 0xa2, 0x01, 0x3e, 0x7f, 0xf1, 0xb7, 0x00, 0x71, 0x27, 0x79, 0x92, 0x65, 0x01, 0x2a, 0x22, 0x1c, 0xb0, 0x54, 0xff, 0x18, 0x3b, 0x7a, 0xd8, 0xeb, 0x65, 0x21, 0x51, 0x95, 0xeb, 0x5e, 0x51, 0x98, 0x99, 0x8c, 0x87, 0xf6, 0x16, 0xde, 0x4f, 0xea, 0x3c, 0x8b, 0x2f, 0xe3, 0xe2, 0xfb, 0xcb, 0xc9, 0x04, 0xfc, 0x0f, 0xb4, 0x5e, 0xe1, 0x91, 0xe0, 0xe2, 0x14, 0x57, 0x23, 0x56, 0x9e, 0x98, 0x35, 0xca, 0xb1, 0x08, 0x43, 0x8f, 0xf9, 0x23, 0xf6, 0xe6, 0x50, 0x1c, 0xed, 0x49, 0xbf, 0xfc, 0x9d, 0x81, 0xff, 0x10, 0x4f, 0x4c, 0xf8, 0xfb, 0x90, 0xdc, 0xcd, 0x02, 0x0b, 0x9a, 0x1f, 0x2c, 0xd5, 0x01, 0x93, 0x4a, 0x44, 0xb5, 0xd6, 0x4d, 0x40, 0x06, 0xe0, 0xa4, 0xc5, 0xee, 0x95, 0xdc, 0x9a, 0x10, 0x1a, 0x20, 0x0d, 0x16, 0x40, 0x48, 0x21, 0xde, 0x20, 0x38, 0xdb, 0x13, 0xee, 0xca, 0x4f, 0x35, 0xf1, 0x1a, 0xc9, 0xa3, 0xe7, 0x44, 0x2e, 0xdd, 0x4a, 0xbe, 0x21, 0x45, 0xb6, 0x46, 0x9f, 0xc9, 0x46, 0x8c, 0x22, 0xb3, 0xd9, 0xfd, 0x1d, 0x55, 0xe6, 0xbc, 0xf0, 0xff, 0xe5, 0xec, 0x6e, 0x4a, 0xe3, 0xf8, 0x3e, 0x73, 0x48, 0x48, 0x55, 0x48, 0x1c, 0x15, 0xbc, 0x23, 0x9b, 0xa3, 0x77, 0xd3, 0xee, 0x27, 0x81, 0x3d, 0x18, 0x37, 0xe3, 0x60, 0xca, 0x49, 0x40, 0x7e, 0x32, 0xfc, 0x29, 0x03, 0x0b, 0xc4, 0x13, 0xd7, 0xf6, 0xcc, 0xe7, 0xed, 0x1b, 0x55, 0xc3, 0x39, 0x40, 0xa3, 0x3e, 0x21, 0xdb, 0x33, 0xe4, 0x45, 0xf8, 0x51, 0xed, 0xe1, 0xbb, 0x5d, 0xfa, 0x1e, 0xf8, 0x19, 0xcf, 0xd8, 0xbe, 0xcf, 0x20, 0xbc, 0x2d, 0xfb, 0xb5, 0xd7, 0xc8, 0x20, 0x00, 0xbe, 0x56, 0xa9, 0x2d, 0x7f, 0x10, 0xc8, 0x61, 0xfe, 0x5e, 0x57, 0x58, 0xc8, 0x55, 0x02, 0x4b, 0xc3, 0xd4, 0x02, 0xde, 0xad, 0xf4, 0x2d, 0x5b, 0xec, 0xc6, 0xfa, 0x54, 0x42, 0xa9, 0xc4, 0x4f, 0x5a, 0xaf, 0x19, 0x1b, 0x4e, 0x4c, 0xea, 0x15, 0xce, 0xe7, 0xe6, 0x41, 0xf3, 0x07, 0xce, 0x45, 0xa8, 0xbb, 0x5c, 0x85, 0x18, 0xbf, 0x14, 0x53, 0x45, 0x8a, 0x25, 0x4d, 0xc5, 0x43, 0xf7, 0x6c, 0x2c, 0xb8, 0x04, 0xb2, 0x91, 0x00, 0xb6, 0xe5, 0x60, 0x44, 0xc7, 0x34, 0x81, 0xcf, 0x05, 0x69, 0xae, 0x01, 0xd9, 0x22, 0xd7, 0xb1, 0x8f, 0x68, 0xd2, 0xb9, 0x53, 0x3e, 0x16, 0xe6, 0xda, 0x10, 0xf6, 0xcc, 0xfd, 0x68, 0x99, 0x41, 0x2e, 0xc7, 0x15, 0xaf, 0xfb, 0xcf, 0x47, 0xdd, 0xba, 0x6c, 0x00, 0x81, 0x48, 0xec, 0xb0, 0xcb, 0xc6, 0xff, 0x02, 0x0e, 0x58, 0x9f, 0x2e, 0x39, 0x1a, 0xaf, 0x18, 0x28, 0xc7, 0xfe, 0xfc, 0x03, 0x23, 0x00, 0x00, 0x4b, 0x5d, 0xa9, 0x5d, 0xa6, 0x6c, 0xbf, 0xae, 0x09, 0xc5, 0xef, 0xe9, 0xff, 0xae, 0x53, 0x88, 0x2b, 0x5e, 0x06, 0x9a, 0xba, 0x0e, 0x2b, 0x9d, 0xfa, 0x2e, 0x4e, 0x58, 0x1a, 0xa8, 0xc4, 0x28, 0xae, 0xa9, 0xcf, 0x22, 0x9d, 0xd9, 0x32, 0x1b, 0xaa, 0x14, 0xb0, 0xde, 0x41, 0x5c, 0x93, 0x7a, 0xed, 0x55, 0xef, 0x5c, 0x31, 0xa6, 0x4b, 0x50, 0x82, 0x6b, 0xc5, 0x3a, 0x73, 0x0d, 0xdf, 0xe8, 0xac, 0xf6, 0xf1, 0x1a, 0xd7, 0x9b, 0xbb, 0xc4, 0xfa, 0xfe, 0x93, 0x82, 0x05, 0xeb, 0x74, 0xe6, 0xd5, 0xe4, 0xc2, 0x5b, 0xed, 0xaa, 0x36, 0x07, 0x87, 0x87, 0x57, 0xb8, 0x02, 0x35, 0xa6, 0x9d, 0x69, 0xd6, 0x76, 0x0d, 0x87, 0xa1, 0x47, 0xfc, 0x74, 0x4b, 0xad, 0xc4, 0x04, 0x7a, 0x9b, 0x3c, 0x81, 0xbc, 0xb3, 0xfe, 0x25, 0xe6, 0x2d, 0xcb, 0x02, 0xdd, 0x3e, 0x56, 0xad, 0x43, 0x1d, 0x9e, 0x5a, 0xf3, 0x1b, 0xe4, 0x49, 0xec, 0x0d, 0x69, 0xa3, 0xb3, 0x81, 0xb7, 0xf4, 0xbd, 0x3d, 0x59, 0xfa, 0x03, 0x0d, 0xaf, 0xba, 0x4f, 0x63, 0x9e, 0x1f, 0x15, 0xbb, 0xea, 0xd4, 0x52, 0x6f, 0xf2, 0x9f, 0x9b, 0xdf, 0xe6, 0xdc, 0xb4, 0x32, 0x35, 0xf3, 0x4d, 0xd3, 0xd0, 0xe5, 0x5b, 0xd4, 0x51, 0xbf, 0xf5, 0xee, 0x52, 0x12, 0x41, 0x35, 0xf6, 0x2d, 0x11, 0x88, 0x29, 0x4b, 0xac, 0xc2, 0x44, 0x10, 0xc7, 0x8e, 0x3a, 0xce, 0x1a, 0x95, 0x87, 0x41, 0xf9, 0x65, 0xee, 0x14, 0x40, 0x47, 0x1b, 0x54, 0xef, 0xd3, 0x0e, 0xb1, 0xcf, 0x07, 0x7f, 0xd6, 0xda, 0xbe, 0xe0, 0xeb, 0x25, 0xf6, 0xc3, 0x41, 0x4e, 0x03, 0x50, 0xc5, 0xea, 0x1c, 0xd5, 0xec, 0xb2, 0x04, 0x39, 0x5c, 0x77, 0xb7, 0x23, 0x55, 0x1f, 0x15, 0xa8, 0x4b, 0xf8, 0x57, 0xdf, 0x16, 0xa2, 0xf1, 0x51, 0x9c, 0x32, 0xd8, 0xd8, 0xfc, 0xad, 0xe0, 0xf9, 0xbf, 0xb3, 0x35, 0xe4, 0xa6, 0x47, 0xba, 0xd8, 0xb9, 0xbb, 0xbe, 0xd4, 0x14, 0x17, 0x1c, 0x01, 0x44, 0xc1, 0x41, 0x2c, 0xe1, 0x09, 0xb3, 0x2e, 0xb8, 0xaf, 0xd6, 0x68, 0x19, 0x1e, 0x15, 0xc1, 0x56, 0xb4, 0x09, 0x20, 0xd3, 0x4c, 0x4c, 0xb6, 0xf3, 0x0d, 0xf9, 0x5a, 0x8c, 0x81, 0xd1, 0x3c, 0xa6, 0x2e, 0x55, 0xbc, 0xae, 0xc5, 0xc5, 0x00, 0x0c, 0xa6, 0xb2, 0xce, 0x23, 0x1d, 0x3b, 0xae, 0x26, 0xa5, 0x14, 0x1d, 0xfc, 0xbd, 0xa4, 0x5e, 0xe6, 0xff, 0xff, 0x04, 0x00, 0x00, 0x00, 0x40, 0x00, 0x00, 0x00, 0x05, 0x00, 0x00, 0x00, 0xf1, 0xff, 0xff, 0xff, 0xf6, 0xff, 0xff, 0xff, 0x04, 0x00, 0x00, 0x00, 0xf9, 0xff, 0xff, 0xff, 0xf5, 0xff, 0xff, 0xff, 0x00, 0x00, 0x00, 0x00, 0xfb, 0xff, 0xff, 0xff, 0x01, 0x00, 0x00, 0x00, 0x05, 0x00, 0x00, 0x00, 0x08, 0x00, 0x00, 0x00, 0xf7, 0xff, 0xff, 0xff, 0x07, 0x00, 0x00, 0x00, 0x03, 0x00, 0x00, 0x00, 0xf9, 0xff, 0xff, 0xff, 0xf8, 0xff, 0xff, 0xff, 0xaa, 0xe6, 0xff, 0xff, 0x04, 0x00, 0x00, 0x00, 0x00, 0x18, 0x00, 0x00, 0x5f, 0xe0, 0x23, 0x30, 0xc5, 0x9e, 0x9b, 0x40, 0x59, 0xc6, 0x02, 0x09, 0xe3, 0xe6, 0xc3, 0x19, 0xb6, 0xd5, 0x3a, 0xbb, 0x9b, 0x57, 0x28, 0x36, 0xa1, 0x0c, 0xc2, 0x8a, 0x15, 0xdb, 0x39, 0x73, 0x88, 0x08, 0x56, 0x2f, 0x9c, 0x25, 0xb3, 0xc0, 0xde, 0x63, 0xa5, 0x27, 0x6e, 0xcc, 0x6a, 0x8d, 0x0e, 0x87, 0x62, 0x0d, 0xa1, 0x62, 0x91, 0xf5, 0xc1, 0xd7, 0xbd, 0xa4, 0x00, 0x57, 0xe9, 0x65, 0x9f, 0x1b, 0x16, 0x91, 0x89, 0x2e, 0xa3, 0xde, 0xfc, 0x3f, 0xa2, 0xfd, 0xb3, 0x33, 0xa7, 0xd0, 0x0e, 0x2f, 0xa9, 0x8b, 0xa0, 0xce, 0xdc, 0x89, 0x98, 0xec, 0x32, 0x2e, 0x64, 0x3b, 0xd3, 0x4f, 0x8d, 0xf0, 0x2f, 0xea, 0x01, 0x9c, 0xaa, 0x8c, 0x01, 0x48, 0x1c, 0x58, 0xbe, 0x5e, 0x9c, 0xda, 0x9f, 0xb7, 0x07, 0x1d, 0x81, 0x11, 0x32, 0x4d, 0x5d, 0x10, 0x89, 0x4c, 0xfc, 0x30, 0xe9, 0xf2, 0x05, 0x3b, 0x86, 0x6c, 0xbf, 0x27, 0x64, 0x35, 0xc9, 0x38, 0x42, 0xd5, 0x03, 0x8a, 0xb4, 0xbe, 0xce, 0x8c, 0x1c, 0xa4, 0x5b, 0x46, 0x32, 0x23, 0xa9, 0x00, 0x4d, 0x4b, 0xe5, 0x82, 0x31, 0x62, 0xc0, 0xff, 0xc3, 0x03, 0xa6, 0x9d, 0xd6, 0xb0, 0x0e, 0x2f, 0xaf, 0x09, 0xc5, 0x3f, 0xf1, 0xc8, 0x08, 0x9c, 0xb7, 0x44, 0x38, 0xd3, 0x91, 0xfa, 0x30, 0x22, 0x20, 0x90, 0x68, 0xdf, 0xe9, 0x0e, 0x8c, 0xe0, 0xb9, 0xe0, 0xea, 0x6e, 0xb3, 0xfc, 0x39, 0xeb, 0x97, 0xa4, 0xd1, 0xfc, 0xa1, 0x09, 0xd7, 0xf6, 0x61, 0xc3, 0xf2, 0xf4, 0xd5, 0xd8, 0xee, 0xce, 0x35, 0x91, 0xa7, 0x99, 0x4d, 0xca, 0x90, 0xfa, 0xc6, 0xab, 0xee, 0x89, 0xa1, 0xd0, 0x5e, 0xce, 0x67, 0xec, 0x16, 0xd5, 0x59, 0xfe, 0xba, 0x46, 0xf9, 0xd9, 0x56, 0xbd, 0xbe, 0x22, 0x12, 0x5d, 0xee, 0xe4, 0x8a, 0x1a, 0xd1, 0xad, 0x3f, 0x39, 0xa1, 0xc5, 0xc0, 0x5e, 0x17, 0x8c, 0x5f, 0x31, 0x0e, 0x99, 0xb3, 0x3d, 0x61, 0x25, 0x99, 0x26, 0x62, 0x4b, 0xd7, 0xf4, 0x58, 0x1f, 0x3e, 0x65, 0x06, 0xaa, 0xfa, 0x5e, 0x1e, 0xa5, 0x8b, 0xf9, 0x2a, 0x45, 0xd1, 0x5b, 0x17, 0xc5, 0x29, 0x3d, 0xaa, 0xcc, 0xaa, 0x19, 0x49, 0x52, 0x35, 0xe7, 0x5f, 0xf4, 0xcb, 0x96, 0x17, 0xad, 0x02, 0xa3, 0x45, 0xb0, 0xf1, 0x92, 0x09, 0x45, 0xb3, 0x01, 0xd2, 0xf3, 0xc7, 0xbe, 0x17, 0x19, 0x8a, 0xdb, 0x09, 0x39, 0xb7, 0xf9, 0x23, 0xac, 0x05, 0x4e, 0xfa, 0xc6, 0xf9, 0xd1, 0x33, 0x47, 0x21, 0x8d, 0xa4, 0x2e, 0x42, 0xc2, 0x0e, 0x91, 0x45, 0xbc, 0xc5, 0x11, 0x29, 0x05, 0xa4, 0xf8, 0xf9, 0x89, 0xdb, 0xae, 0x84, 0x65, 0x00, 0xb7, 0x98, 0x24, 0xcb, 0x56, 0xb7, 0x95, 0xf2, 0x58, 0x56, 0xda, 0xcc, 0x67, 0xe3, 0x49, 0xa9, 0x3b, 0xa9, 0xf7, 0x20, 0xc2, 0x31, 0xf1, 0x38, 0xd2, 0x27, 0x2f, 0x03, 0x17, 0x25, 0x44, 0xad, 0x10, 0xcc, 0xf2, 0xd7, 0x4a, 0xcb, 0xf9, 0xd7, 0x2c, 0xc6, 0xba, 0xc9, 0xde, 0xf5, 0xd5, 0x18, 0xe1, 0x36, 0x42, 0x30, 0x14, 0xd2, 0xf7, 0xeb, 0xdc, 0x42, 0xbf, 0xe4, 0x46, 0xdd, 0xd1, 0xb2, 0x25, 0x1b, 0x2b, 0x3e, 0x1b, 0x2d, 0xe0, 0x15, 0x3c, 0x14, 0x18, 0xf7, 0x47, 0x33, 0x4e, 0x44, 0xe3, 0x36, 0xf3, 0x22, 0xf8, 0x24, 0xfa, 0x34, 0xd9, 0x19, 0xdd, 0xbc, 0xc8, 0x5e, 0xb8, 0x47, 0xc5, 0xac, 0xea, 0xef, 0x14, 0xec, 0x19, 0xe0, 0x07, 0x54, 0xef, 0x08, 0x22, 0xd0, 0x0e, 0xc4, 0x1f, 0x06, 0xe7, 0xc9, 0x12, 0x43, 0x11, 0x12, 0xde, 0x0b, 0x48, 0x2a, 0x17, 0xde, 0xf8, 0xff, 0xf2, 0x66, 0x5f, 0x08, 0xf7, 0x5c, 0xcc, 0xd7, 0xc9, 0x06, 0x25, 0xf1, 0xe6, 0xac, 0xe8, 0x14, 0x34, 0xa4, 0x5d, 0x97, 0x20, 0x29, 0x19, 0x18, 0xd4, 0xc2, 0xcb, 0x13, 0xc8, 0x45, 0xfc, 0xf9, 0xdf, 0xcd, 0xf8, 0x2d, 0xeb, 0x28, 0xc3, 0x03, 0x45, 0xad, 0xd2, 0x05, 0x28, 0x4d, 0xfb, 0x43, 0x2a, 0x62, 0xb5, 0xef, 0x29, 0x2f, 0xb7, 0xcf, 0xd7, 0xeb, 0x31, 0xdd, 0xe4, 0x07, 0x91, 0xf4, 0xde, 0x03, 0x55, 0xf3, 0xed, 0xbd, 0x42, 0xd3, 0x2e, 0xd9, 0xf2, 0xf0, 0xe2, 0x17, 0x2f, 0x44, 0x22, 0x98, 0x09, 0xf7, 0xf3, 0x2d, 0x27, 0xc9, 0xc3, 0xbe, 0xbd, 0x33, 0xe9, 0x44, 0x16, 0xee, 0x45, 0x10, 0xc3, 0xe9, 0x2d, 0x26, 0xdf, 0x21, 0xc5, 0x81, 0x25, 0xec, 0xbb, 0x1b, 0xb3, 0x51, 0xba, 0x01, 0xcb, 0xfa, 0xfb, 0x31, 0xf7, 0xde, 0xd7, 0x20, 0xb9, 0x27, 0xb4, 0x17, 0xfa, 0xda, 0x13, 0xc3, 0x19, 0xf9, 0x20, 0xbc, 0xe6, 0xbd, 0x29, 0x0a, 0xe0, 0xf4, 0x4c, 0x18, 0xba, 0xe9, 0xd2, 0x50, 0xc1, 0xc5, 0x33, 0x38, 0x1d, 0xc4, 0xc0, 0xd8, 0x2e, 0xdd, 0x28, 0xe5, 0xbe, 0xe5, 0xf2, 0x13, 0xe8, 0x1d, 0x24, 0xc1, 0xcc, 0xf1, 0x35, 0xb7, 0x0b, 0xc0, 0x4e, 0x0b, 0xc4, 0x31, 0x28, 0xc3, 0xed, 0xf9, 0xfc, 0xdc, 0x0a, 0xb7, 0x4f, 0xfa, 0xca, 0xd4, 0x32, 0xf6, 0xfa, 0xc5, 0xde, 0xd1, 0xb6, 0x14, 0xb2, 0xe0, 0x48, 0xd0, 0x36, 0xdd, 0x41, 0xbf, 0xe5, 0xbf, 0xb3, 0xdd, 0xdb, 0xb0, 0x21, 0x18, 0x1b, 0xf4, 0xa2, 0xf2, 0xb8, 0xed, 0x2b, 0xbb, 0xb7, 0x0f, 0xe2, 0x49, 0xdf, 0xfb, 0xaf, 0xd2, 0x1b, 0x02, 0x29, 0x11, 0x25, 0xeb, 0xe7, 0x31, 0x2f, 0x43, 0xff, 0x24, 0x38, 0x14, 0x32, 0x12, 0xc7, 0x1d, 0x2b, 0x16, 0xd2, 0xba, 0xb3, 0x44, 0x07, 0x10, 0xe1, 0xb1, 0xbe, 0xe8, 0x0f, 0x41, 0xff, 0x0b, 0xe5, 0x01, 0x2a, 0xbd, 0x09, 0x08, 0x9c, 0xf2, 0xba, 0x35, 0xcc, 0x01, 0x1d, 0x87, 0xda, 0x9e, 0xab, 0x00, 0x45, 0xac, 0xb0, 0xea, 0x2b, 0x6b, 0x4d, 0xe3, 0xe5, 0x3d, 0x30, 0x1b, 0x03, 0x22, 0x9e, 0x89, 0xa7, 0xcd, 0xad, 0xd7, 0xf8, 0x5b, 0xfc, 0x14, 0xec, 0x20, 0x99, 0x48, 0x33, 0x08, 0x95, 0xd6, 0x17, 0x92, 0x8e, 0x36, 0xa7, 0xef, 0xe1, 0xe7, 0xfc, 0x96, 0x45, 0x5b, 0xc2, 0x23, 0x27, 0x19, 0x38, 0x31, 0xd8, 0xa7, 0xc2, 0xd1, 0xbd, 0xc8, 0xfe, 0xe1, 0xec, 0xd6, 0x02, 0xdc, 0x17, 0x0c, 0xc6, 0xb6, 0xa3, 0x93, 0xfd, 0x6d, 0x28, 0xd4, 0xdf, 0x55, 0x64, 0xc8, 0x09, 0xb7, 0xf0, 0x91, 0x00, 0x35, 0x40, 0x58, 0x93, 0x71, 0x05, 0xf6, 0x6b, 0xe4, 0x48, 0xbd, 0x42, 0x9e, 0x0f, 0x93, 0x02, 0xf1, 0xd4, 0xf0, 0xfb, 0x63, 0xc9, 0x96, 0xd5, 0x77, 0xf0, 0x2a, 0x35, 0xd9, 0x27, 0x98, 0xb8, 0x06, 0x56, 0x36, 0x00, 0xed, 0xff, 0x92, 0x36, 0xf0, 0x6d, 0x5b, 0x3c, 0x18, 0x90, 0xd2, 0x40, 0xd4, 0xe4, 0xbc, 0xf8, 0x23, 0x02, 0xf1, 0x6b, 0xe5, 0xc8, 0x08, 0x61, 0x25, 0xfa, 0x01, 0x0a, 0x47, 0xc2, 0x93, 0xdd, 0x4c, 0x36, 0x0a, 0x99, 0xef, 0xff, 0xe2, 0xe4, 0xf5, 0x31, 0x92, 0x03, 0xda, 0xb0, 0xff, 0xce, 0x2e, 0x60, 0xbf, 0xf9, 0x0f, 0xd3, 0x93, 0x4d, 0xed, 0x2b, 0x9b, 0xc9, 0xb8, 0x87, 0x3a, 0x49, 0x3c, 0x56, 0x82, 0xc0, 0xfb, 0x68, 0xec, 0x1f, 0xe5, 0x24, 0xa9, 0x0e, 0x90, 0x39, 0x68, 0x0b, 0xe4, 0xdd, 0x29, 0x86, 0x73, 0xeb, 0x42, 0x00, 0xab, 0xc8, 0x1b, 0x58, 0xbb, 0xe0, 0xf0, 0x62, 0xc5, 0xc4, 0x6d, 0x20, 0xeb, 0x44, 0xd4, 0xf5, 0xe3, 0xd8, 0xac, 0x39, 0x82, 0xf3, 0xa4, 0xda, 0x71, 0x16, 0x53, 0x11, 0x81, 0x37, 0xf2, 0x86, 0x44, 0x61, 0x54, 0x14, 0x46, 0xac, 0xfa, 0xd2, 0x97, 0xce, 0x55, 0x4c, 0x75, 0xf9, 0xf0, 0x5b, 0x85, 0x98, 0x5b, 0x8e, 0x8a, 0x04, 0x28, 0xbb, 0x26, 0xbe, 0x44, 0x5e, 0x03, 0x43, 0x0d, 0x26, 0x2d, 0x44, 0x91, 0xfe, 0x65, 0xe4, 0xd6, 0xb3, 0xd6, 0x3d, 0x4c, 0xce, 0x8c, 0xec, 0x59, 0xb6, 0x5e, 0xe7, 0x47, 0x27, 0x9a, 0x9a, 0x29, 0xeb, 0x32, 0x41, 0x4f, 0xa9, 0xf2, 0x93, 0x14, 0x2f, 0x44, 0x61, 0x38, 0xc4, 0x1c, 0x17, 0x0d, 0xb7, 0x50, 0xa7, 0xe8, 0x61, 0xa7, 0xb4, 0xde, 0x5b, 0x70, 0xde, 0xfd, 0xe8, 0x57, 0x9a, 0xe8, 0xa7, 0x12, 0x30, 0xc4, 0x3b, 0xd4, 0x43, 0x8e, 0xcd, 0x5d, 0xbe, 0xd0, 0x56, 0xc6, 0xdc, 0x6b, 0xb1, 0x2b, 0xa5, 0x9c, 0xa6, 0xdf, 0xf6, 0x9e, 0xef, 0x82, 0x40, 0x87, 0xea, 0xd6, 0xcb, 0x42, 0x42, 0xd6, 0x39, 0x04, 0xc4, 0xf1, 0x43, 0xf1, 0x0a, 0xbb, 0xb6, 0xbf, 0xc5, 0x8c, 0xe3, 0x8c, 0xcb, 0x24, 0x96, 0xca, 0x49, 0x12, 0x40, 0x4a, 0x43, 0x02, 0x27, 0x02, 0xeb, 0x22, 0xda, 0x2b, 0x05, 0xc0, 0xf7, 0xf0, 0x1e, 0x10, 0x18, 0x59, 0x50, 0x3a, 0x1a, 0x13, 0x00, 0x22, 0xab, 0xf2, 0x06, 0x46, 0xe0, 0x4b, 0xff, 0x45, 0x35, 0xda, 0x42, 0xff, 0x1e, 0xf2, 0xcd, 0xee, 0x46, 0x3c, 0xc4, 0xa0, 0xd2, 0xc6, 0x3d, 0x1b, 0xc6, 0xf5, 0x58, 0x39, 0xcc, 0xf6, 0x48, 0x56, 0x1f, 0x1d, 0xe3, 0x3e, 0x48, 0x0c, 0xc7, 0xff, 0xec, 0x48, 0xf3, 0x3e, 0xdf, 0x25, 0x07, 0x3a, 0x3a, 0xb7, 0x57, 0x2d, 0xd5, 0xce, 0xdb, 0x27, 0xac, 0xd2, 0xf0, 0xff, 0xb8, 0x37, 0xeb, 0x2a, 0xfe, 0xe8, 0x29, 0x2c, 0x12, 0xd9, 0xd5, 0x0a, 0xdf, 0x18, 0xdf, 0xfb, 0x5d, 0xb9, 0xfe, 0x13, 0x3e, 0xe9, 0x30, 0xcc, 0xd0, 0xfd, 0x2f, 0x60, 0xcd, 0xd4, 0x02, 0x37, 0x33, 0x68, 0x13, 0x0c, 0x21, 0xc4, 0x19, 0xda, 0xf9, 0x2b, 0x3b, 0xa7, 0x50, 0xa4, 0xc3, 0x3b, 0xe2, 0x06, 0x2a, 0x42, 0x17, 0x4f, 0xcd, 0x3a, 0xcf, 0x3d, 0xcc, 0xed, 0x20, 0xd1, 0xcd, 0x28, 0xc8, 0xf2, 0xd0, 0x1d, 0x14, 0x16, 0xba, 0xed, 0xdf, 0xf4, 0x07, 0xf7, 0xfc, 0x18, 0x32, 0x3a, 0xf1, 0x2b, 0xf7, 0xa4, 0x0a, 0x36, 0xf2, 0x46, 0xbf, 0x4e, 0xa6, 0xe6, 0x17, 0xd5, 0xd7, 0xa9, 0xe0, 0x16, 0x9a, 0xf2, 0xf8, 0x56, 0x22, 0x31, 0xb3, 0x10, 0x3d, 0xbc, 0xb2, 0x47, 0xb2, 0x46, 0xed, 0x2a, 0x3d, 0x46, 0xda, 0xbc, 0x0d, 0xe9, 0x2a, 0xb9, 0xed, 0x4d, 0xf9, 0xbb, 0x03, 0x3f, 0xe7, 0x48, 0xfe, 0xaf, 0xb8, 0xd1, 0x2b, 0xd0, 0xb3, 0xd2, 0xca, 0xf6, 0xb2, 0xb9, 0x16, 0xdb, 0xf1, 0xe9, 0xb1, 0xd6, 0x27, 0x58, 0x38, 0x24, 0xc8, 0x14, 0xc3, 0x37, 0xc8, 0xf3, 0xf4, 0x10, 0x27, 0xff, 0xc5, 0xfc, 0x0b, 0xcc, 0x01, 0x04, 0x2d, 0x18, 0xbd, 0x1c, 0xc9, 0x20, 0x23, 0xf5, 0x0b, 0xb9, 0x19, 0xd3, 0xef, 0x45, 0xcd, 0x0c, 0xb3, 0xa6, 0xd6, 0x28, 0x34, 0xe2, 0x66, 0xd6, 0xff, 0x35, 0xa4, 0x07, 0xf4, 0xeb, 0x22, 0x19, 0xe1, 0xca, 0x07, 0xf2, 0x0b, 0x0e, 0xc0, 0xca, 0x14, 0xe6, 0x0e, 0xdc, 0xcc, 0xba, 0xc0, 0x03, 0xdc, 0xe6, 0x4a, 0xd1, 0x0a, 0xdb, 0xf0, 0xff, 0xf6, 0x4c, 0xf7, 0xff, 0xa8, 0xbc, 0xc3, 0x2b, 0xf3, 0x9a, 0x7f, 0xa1, 0xd2, 0xe5, 0xec, 0xd1, 0xfe, 0xd7, 0xf3, 0xc7, 0x04, 0xcf, 0xe7, 0x4e, 0x08, 0x36, 0xb1, 0xf8, 0xf8, 0x37, 0xde, 0xb2, 0x07, 0x35, 0xd0, 0x4d, 0x39, 0xda, 0xf7, 0xf5, 0x4a, 0xea, 0xce, 0xeb, 0xe3, 0xa8, 0xa0, 0xef, 0x1c, 0xdd, 0xaa, 0x3b, 0x18, 0x24, 0x33, 0x34, 0xd4, 0xb4, 0x3b, 0x08, 0x00, 0x42, 0x00, 0xe0, 0x15, 0xca, 0x0d, 0x1c, 0x12, 0xb3, 0xd1, 0xec, 0x15, 0xe4, 0xba, 0x2d, 0xfe, 0xd7, 0x50, 0x38, 0x2c, 0xea, 0xf0, 0xe0, 0x16, 0xc1, 0x31, 0xe6, 0x10, 0xc0, 0x04, 0xe5, 0x52, 0x08, 0xbf, 0xb6, 0x14, 0xd0, 0x47, 0xc0, 0xe1, 0x31, 0x29, 0xe8, 0x23, 0xa6, 0x21, 0x37, 0x3e, 0x34, 0xc9, 0xbd, 0xe4, 0x3a, 0xcd, 0xc4, 0xe7, 0xe8, 0x00, 0xe6, 0xb9, 0x1b, 0xb1, 0x43, 0x3f, 0x47, 0xbb, 0x27, 0xbe, 0xdf, 0x48, 0x11, 0x48, 0xe7, 0x24, 0xf3, 0xda, 0x10, 0x49, 0x0d, 0xab, 0x31, 0x23, 0xd5, 0xc5, 0x4e, 0x2d, 0x33, 0xde, 0x58, 0xe7, 0xb8, 0xcc, 0xfc, 0x27, 0x02, 0xbf, 0xd0, 0xd7, 0xa9, 0xfb, 0x2a, 0x2f, 0x2d, 0xe1, 0xa5, 0xbc, 0xc6, 0x4c, 0x0f, 0x35, 0x46, 0x3c, 0xe6, 0x25, 0xff, 0xb8, 0x45, 0x18, 0x2a, 0x18, 0x2e, 0x18, 0x05, 0x05, 0x2a, 0x06, 0xd0, 0xa8, 0xcc, 0xb9, 0xa2, 0x2d, 0x33, 0xb4, 0x32, 0xa7, 0xe8, 0xcc, 0xdd, 0x4c, 0xc9, 0x3b, 0x9c, 0x14, 0x22, 0x2c, 0xb1, 0x20, 0xb7, 0xb0, 0xc6, 0x0b, 0x3f, 0xc9, 0x19, 0xe7, 0x26, 0xcc, 0x42, 0xd2, 0xc9, 0x43, 0x28, 0xfb, 0xb4, 0x50, 0xbe, 0xd2, 0xbe, 0xb0, 0x1c, 0x12, 0x0a, 0x34, 0xc4, 0x2a, 0x20, 0x26, 0x24, 0xce, 0xea, 0x27, 0x2a, 0xd5, 0xe8, 0x28, 0x45, 0xba, 0xec, 0xd3, 0x03, 0xc5, 0x27, 0xdd, 0xb3, 0xe4, 0x38, 0x5a, 0x29, 0xe9, 0x1f, 0x10, 0xb7, 0x38, 0x0d, 0x3c, 0xd7, 0xc3, 0xbf, 0xd4, 0x0e, 0x2c, 0xd7, 0xae, 0xe2, 0x22, 0xfd, 0x29, 0x16, 0xe1, 0x32, 0xe1, 0x81, 0xdc, 0xe8, 0xeb, 0x1f, 0x45, 0x53, 0xad, 0xe1, 0xd3, 0x30, 0x3a, 0x30, 0x38, 0xfd, 0x68, 0x1f, 0xfd, 0xbf, 0xd0, 0x03, 0x33, 0x54, 0x3a, 0x1d, 0x34, 0xe3, 0x3a, 0x32, 0x0e, 0xcb, 0x36, 0x08, 0xc1, 0x15, 0x52, 0x07, 0x0d, 0x14, 0x15, 0x17, 0xf0, 0xd3, 0x31, 0xbf, 0xdf, 0x46, 0x3e, 0xb0, 0x26, 0xdc, 0xa3, 0xe8, 0x24, 0x02, 0x27, 0xd9, 0xcf, 0x3a, 0xfd, 0xa7, 0xcd, 0x28, 0x16, 0xe1, 0x3a, 0x0c, 0xad, 0x05, 0x1a, 0xde, 0x31, 0x47, 0xed, 0x1a, 0xad, 0xbb, 0x31, 0x19, 0xec, 0x13, 0xe0, 0xf5, 0xb1, 0x48, 0xad, 0xb2, 0xc1, 0x32, 0xef, 0xfc, 0xdd, 0x47, 0x11, 0xfd, 0x32, 0xe7, 0x14, 0x0f, 0xcf, 0xc5, 0x4a, 0xc7, 0x02, 0x2c, 0x3c, 0xc0, 0x26, 0x26, 0xfd, 0x83, 0x45, 0xe7, 0x14, 0xcd, 0x25, 0x06, 0xba, 0x6e, 0xee, 0x56, 0xe6, 0x27, 0xee, 0x04, 0xc5, 0xe3, 0xfd, 0xc1, 0x17, 0x39, 0xbf, 0xc3, 0x2f, 0x27, 0x18, 0x2f, 0xaa, 0x3a, 0xfc, 0xc7, 0xde, 0x45, 0xae, 0xfd, 0x23, 0xa2, 0xec, 0x1f, 0x1a, 0x1f, 0xb7, 0xbb, 0xde, 0x42, 0x1c, 0x48, 0xb6, 0xee, 0x5d, 0x33, 0xd0, 0xbf, 0x14, 0xb3, 0x5d, 0x46, 0x36, 0xf3, 0xf8, 0xde, 0x0a, 0x18, 0x14, 0x29, 0xff, 0xdc, 0x16, 0x4c, 0xe3, 0xaa, 0x6b, 0x86, 0x25, 0x0b, 0xac, 0x6a, 0xc4, 0xd3, 0x4c, 0xab, 0xc6, 0xb8, 0x51, 0x88, 0xa4, 0xc7, 0x47, 0x0a, 0x3c, 0xfb, 0x47, 0xee, 0xf1, 0x96, 0x56, 0x2b, 0xdf, 0x9d, 0x5e, 0x02, 0x2b, 0x62, 0xac, 0x8e, 0xd7, 0xc8, 0xe7, 0x14, 0x74, 0x5a, 0xeb, 0x3b, 0x73, 0xdd, 0x52, 0xf6, 0x1e, 0x11, 0x60, 0x39, 0x15, 0xb7, 0x1c, 0x3e, 0x2c, 0xc2, 0x13, 0xd8, 0x9a, 0x8d, 0x07, 0x63, 0x44, 0x8e, 0x14, 0xe9, 0xd9, 0x83, 0xb9, 0xbe, 0x08, 0xa5, 0xa0, 0x41, 0x48, 0x3b, 0x1f, 0xc6, 0x52, 0xfd, 0x11, 0x47, 0x65, 0x0d, 0xd1, 0x9c, 0xcd, 0x5c, 0xfd, 0xa2, 0x4e, 0xd4, 0xe6, 0x92, 0xa9, 0xef, 0x3d, 0x86, 0x9a, 0xaf, 0x69, 0x48, 0x41, 0x87, 0x22, 0xe8, 0x06, 0x51, 0xb3, 0xf9, 0xe2, 0x6b, 0xf8, 0x63, 0x34, 0x31, 0xf0, 0xcd, 0x95, 0x5e, 0x14, 0x30, 0xb3, 0x39, 0xf0, 0x31, 0x85, 0x4d, 0x47, 0x49, 0x2d, 0x83, 0x20, 0xbe, 0xf8, 0xc7, 0x13, 0xc9, 0xea, 0xf3, 0xbe, 0xd5, 0xb2, 0xbb, 0x04, 0xe9, 0xfd, 0xd5, 0x2d, 0x95, 0xcf, 0x4e, 0xe5, 0x1b, 0xcb, 0xc3, 0xa5, 0xf9, 0x95, 0xa3, 0x19, 0x6c, 0xdc, 0xb9, 0x08, 0x55, 0xe7, 0x91, 0x26, 0x92, 0x5d, 0xc6, 0xc3, 0x1a, 0x85, 0x4d, 0xed, 0xd5, 0x36, 0x3d, 0x67, 0x2a, 0x84, 0x98, 0x8a, 0x6f, 0xfe, 0xb6, 0x36, 0x81, 0xa1, 0xb8, 0x28, 0x00, 0x1a, 0x85, 0xb2, 0xe3, 0xed, 0x0c, 0x63, 0x9a, 0xc3, 0x3b, 0x03, 0xa7, 0x49, 0x8a, 0xa4, 0xfb, 0xc4, 0x98, 0x57, 0x63, 0x22, 0xe6, 0x14, 0xa7, 0xd5, 0x2e, 0x86, 0xe5, 0x51, 0x51, 0xc3, 0x54, 0xf6, 0x00, 0x09, 0x0f, 0x32, 0xce, 0xaf, 0x07, 0x95, 0xb9, 0x4e, 0x68, 0x62, 0x5a, 0x6d, 0x41, 0x05, 0xeb, 0x5f, 0x1d, 0x2f, 0x2b, 0xf4, 0x3d, 0x38, 0xff, 0xa3, 0xbe, 0x6e, 0xe5, 0x01, 0xd1, 0x43, 0x91, 0x4c, 0x58, 0xab, 0x0e, 0x49, 0xea, 0xd5, 0x5d, 0x22, 0x1b, 0x0a, 0xa5, 0x10, 0xe3, 0x6a, 0x2c, 0x06, 0x42, 0xf7, 0x04, 0xaf, 0x0c, 0xb0, 0x40, 0xda, 0x0f, 0x4d, 0x9a, 0x2f, 0x8e, 0xba, 0xf9, 0xf3, 0xf1, 0xad, 0xad, 0xc2, 0xb3, 0xb7, 0xc8, 0x2a, 0x45, 0xe9, 0x3c, 0xb9, 0xf1, 0x53, 0xa1, 0xe3, 0x4e, 0x15, 0x36, 0x3d, 0x51, 0x4c, 0x86, 0xd0, 0x84, 0xa3, 0x5b, 0x84, 0x69, 0xa1, 0xe0, 0x48, 0xc9, 0xa5, 0x53, 0x8a, 0xb5, 0x8c, 0x04, 0x3f, 0xa6, 0x91, 0x41, 0x0e, 0xc0, 0xa9, 0xff, 0x4e, 0x6b, 0xcd, 0xd5, 0x1e, 0x17, 0x26, 0x4a, 0x3e, 0x07, 0x44, 0x9e, 0x63, 0xb9, 0x00, 0x0b, 0x57, 0x48, 0x05, 0xe9, 0xcc, 0x99, 0xcf, 0x1b, 0x6c, 0xb1, 0xa2, 0x9b, 0x91, 0xef, 0xed, 0xa0, 0x06, 0x42, 0x54, 0xbf, 0x1d, 0xf1, 0xeb, 0x4e, 0xca, 0x3b, 0x0a, 0x51, 0xe8, 0xa5, 0x01, 0x1c, 0x2a, 0x1b, 0x1a, 0xf9, 0xda, 0x50, 0x43, 0xea, 0x4e, 0x24, 0x96, 0x32, 0xb9, 0xc8, 0xb2, 0x02, 0x5a, 0x44, 0xb3, 0xc9, 0x5b, 0x0c, 0xc2, 0x6c, 0x9f, 0x2a, 0xf5, 0xe5, 0xc9, 0x65, 0xd9, 0xf3, 0x70, 0xfe, 0x05, 0x98, 0x18, 0x40, 0x44, 0xf7, 0x3a, 0xf8, 0xcf, 0x09, 0x42, 0xf9, 0xe5, 0xd0, 0x00, 0x3a, 0xf4, 0xcc, 0xae, 0xa4, 0xf3, 0xc3, 0x3c, 0xb3, 0xce, 0xce, 0x4e, 0x15, 0xb8, 0xcd, 0x26, 0x0c, 0x44, 0xb8, 0x03, 0x18, 0x00, 0x1c, 0x9c, 0x0c, 0xe8, 0xa7, 0xb5, 0xbe, 0xe8, 0xd5, 0x57, 0xc3, 0x08, 0xae, 0x3d, 0xc9, 0xa1, 0x05, 0xd0, 0xf8, 0xfb, 0x59, 0x3e, 0xd5, 0x27, 0xde, 0x49, 0xa3, 0xc3, 0x0b, 0xef, 0xce, 0xcb, 0x89, 0x49, 0x10, 0x90, 0x49, 0xd8, 0x40, 0x4c, 0xd0, 0xbd, 0x5d, 0x57, 0x10, 0x19, 0x8a, 0xfd, 0x14, 0xc0, 0x65, 0x96, 0x51, 0x78, 0x07, 0xc6, 0x36, 0x3c, 0xd4, 0x2d, 0x37, 0x1a, 0x3e, 0x2d, 0x22, 0xc9, 0xee, 0xd0, 0x23, 0xf7, 0x19, 0xd8, 0x60, 0xe4, 0xde, 0x38, 0xd1, 0xc0, 0xb6, 0x0f, 0xa8, 0x3d, 0xaa, 0x9b, 0xb6, 0xe8, 0x1c, 0xce, 0xd6, 0x3b, 0x5c, 0xd4, 0x06, 0x6b, 0x8a, 0x25, 0xc3, 0xef, 0xc7, 0xde, 0xda, 0x43, 0xe1, 0x42, 0xfa, 0x3e, 0x5c, 0x15, 0xfc, 0x4b, 0x16, 0x1e, 0x1d, 0x58, 0xfb, 0x57, 0xd7, 0x52, 0x69, 0x1c, 0xf3, 0x40, 0x81, 0x28, 0x05, 0xe8, 0x04, 0x23, 0x90, 0x1c, 0xbb, 0x90, 0xb0, 0xc4, 0xfd, 0xe7, 0xed, 0x23, 0x04, 0x02, 0xe6, 0xf8, 0xcb, 0x7f, 0xf1, 0xf1, 0x1b, 0x89, 0xda, 0x74, 0x4b, 0x79, 0xe1, 0x5d, 0xe0, 0xd8, 0x55, 0xfb, 0x9b, 0xa0, 0xb9, 0x05, 0x20, 0xa6, 0x08, 0xf7, 0x11, 0xe1, 0x32, 0x45, 0xd8, 0x30, 0x43, 0xd5, 0x61, 0xd5, 0x86, 0xf4, 0x37, 0xd5, 0xbf, 0x01, 0x71, 0xc3, 0xf0, 0x1f, 0xf7, 0xe4, 0xb5, 0x25, 0x20, 0x6a, 0x26, 0xf9, 0x5f, 0x1d, 0x03, 0x40, 0x58, 0x51, 0xe0, 0x16, 0xd3, 0x41, 0x33, 0x39, 0xfc, 0xdb, 0x56, 0x2f, 0x49, 0x28, 0xd1, 0x40, 0xeb, 0xa8, 0x4a, 0xae, 0x56, 0xda, 0x61, 0x47, 0xfd, 0xc2, 0x24, 0xf8, 0xf8, 0x04, 0xe9, 0x2d, 0xce, 0xbd, 0xf2, 0xb2, 0x4a, 0x01, 0xbf, 0xef, 0x39, 0x12, 0xc3, 0xf5, 0xcb, 0x1f, 0xd8, 0x6d, 0x00, 0x15, 0x40, 0xf5, 0x48, 0x30, 0x2e, 0x39, 0xf8, 0xe5, 0x0f, 0x2b, 0x56, 0x1d, 0x02, 0xd2, 0xea, 0x19, 0xcf, 0x3e, 0x37, 0x56, 0x2e, 0x38, 0xaf, 0xfc, 0x15, 0x3f, 0x5b, 0x8f, 0xba, 0xda, 0xf2, 0xba, 0xc3, 0xc3, 0x4f, 0x0f, 0x2b, 0x09, 0xba, 0x5f, 0x54, 0x2c, 0x28, 0xcf, 0xf0, 0x72, 0x13, 0xc5, 0x0f, 0x27, 0x00, 0xfd, 0x6c, 0xd4, 0xbe, 0x2c, 0x4c, 0x4d, 0xc0, 0xfc, 0x0f, 0xe5, 0xbc, 0xc4, 0xb8, 0x49, 0x1f, 0xe2, 0x3f, 0xcd, 0x04, 0xe4, 0x21, 0xde, 0xfd, 0x55, 0xf3, 0x22, 0x0a, 0xed, 0x4a, 0xf1, 0xfd, 0xd7, 0xf0, 0x2d, 0x14, 0x15, 0x05, 0xf7, 0x0f, 0x54, 0xe8, 0xbd, 0x20, 0xc7, 0xc6, 0xd2, 0x28, 0x0b, 0xe9, 0xe7, 0x35, 0x16, 0x17, 0xb2, 0xc4, 0xc3, 0x3b, 0xc7, 0x3f, 0xfa, 0x15, 0x1c, 0x36, 0x4e, 0xb8, 0x3b, 0x17, 0x41, 0x7f, 0xb7, 0xba, 0xf1, 0x34, 0x38, 0xb3, 0xfe, 0xf3, 0xe4, 0xa3, 0x2e, 0x27, 0xe4, 0xfc, 0x2a, 0xb1, 0x12, 0x1e, 0x51, 0x26, 0xf0, 0x19, 0x31, 0xd2, 0x9e, 0xf6, 0x2a, 0xcb, 0xc0, 0x10, 0x19, 0xc1, 0xf0, 0x4c, 0x1b, 0xe7, 0x2c, 0xfa, 0x0f, 0xf6, 0x49, 0xdd, 0xe8, 0xf3, 0x1c, 0xef, 0x43, 0x61, 0x48, 0x2f, 0x73, 0x00, 0xda, 0xb4, 0xb6, 0x41, 0xcf, 0xe3, 0xf3, 0xbb, 0xf4, 0xe9, 0x35, 0xea, 0xff, 0x05, 0x48, 0x3e, 0xad, 0x3c, 0xf4, 0x2f, 0xf3, 0xa7, 0xfc, 0x4a, 0xd9, 0x1d, 0xf7, 0xee, 0xb3, 0xbd, 0xde, 0xc4, 0xc1, 0x01, 0xd0, 0xc6, 0xc0, 0x53, 0x3a, 0x31, 0x25, 0xe4, 0x13, 0x11, 0x1e, 0x49, 0x2b, 0x4c, 0x0a, 0xea, 0xc6, 0xcf, 0xc1, 0xfe, 0xb4, 0xea, 0xfd, 0x54, 0x30, 0x0c, 0x34, 0xb2, 0xf2, 0x1d, 0xfe, 0xfb, 0xe4, 0x28, 0x04, 0xe7, 0xd2, 0x25, 0xb7, 0x12, 0xd8, 0xb8, 0x0a, 0x1a, 0xf1, 0x43, 0x1c, 0x1c, 0xfa, 0xe7, 0xe7, 0xeb, 0x02, 0x43, 0xca, 0xc1, 0x20, 0x43, 0x1c, 0xd2, 0xf0, 0x1a, 0x0d, 0x00, 0x0c, 0x4d, 0xf0, 0xff, 0xb3, 0xfe, 0xc1, 0x1e, 0xba, 0x15, 0x4b, 0x08, 0xdf, 0x2d, 0xe1, 0xed, 0xeb, 0xd3, 0x19, 0x06, 0xdb, 0xda, 0x09, 0xd5, 0x11, 0x47, 0xfc, 0xf7, 0xe5, 0x01, 0xf6, 0x15, 0x28, 0x16, 0x1b, 0x37, 0xda, 0x22, 0x0f, 0x2e, 0x3b, 0xce, 0xca, 0x31, 0x26, 0x30, 0x4f, 0x39, 0x1e, 0xeb, 0x4b, 0x49, 0xcb, 0x21, 0x00, 0xd0, 0xce, 0xe2, 0x1b, 0x26, 0xe8, 0x0c, 0xef, 0xb2, 0x13, 0x39, 0x2e, 0xea, 0xd3, 0x22, 0x1e, 0x01, 0xfa, 0x44, 0x3f, 0xd0, 0xd5, 0x31, 0x0c, 0x2e, 0xea, 0xe8, 0xce, 0x48, 0xe3, 0xd8, 0xc2, 0x3e, 0xe5, 0xda, 0x3c, 0x13, 0x24, 0xb2, 0x15, 0x18, 0x45, 0xb8, 0x06, 0xf3, 0xe8, 0x0a, 0x22, 0x06, 0xc0, 0x15, 0x08, 0xb1, 0x1c, 0xfe, 0x1a, 0xfe, 0xdb, 0x19, 0xbf, 0x30, 0xe6, 0xb4, 0xe2, 0xec, 0xcb, 0x24, 0x29, 0x08, 0x07, 0xdf, 0xe0, 0x05, 0xd2, 0x34, 0xbf, 0xff, 0x11, 0x31, 0x1b, 0xf5, 0x02, 0xa3, 0xbd, 0xc3, 0x38, 0x32, 0x11, 0x27, 0xbc, 0x0f, 0x0a, 0x0e, 0xc0, 0x08, 0x3f, 0xd6, 0xf9, 0xc1, 0x42, 0xc4, 0x31, 0xe5, 0x03, 0x18, 0x38, 0xa4, 0xc7, 0xc6, 0x2a, 0xfd, 0xbd, 0xed, 0xe6, 0xda, 0xbb, 0x1b, 0xfe, 0x3f, 0xf1, 0x23, 0xdb, 0x10, 0x20, 0x34, 0xda, 0xe0, 0xb8, 0x05, 0x26, 0x25, 0xe8, 0xd7, 0xb6, 0xc7, 0xc4, 0xce, 0xdd, 0xec, 0x26, 0xc4, 0xe6, 0xf4, 0x26, 0x04, 0x26, 0x42, 0xf2, 0xfa, 0x42, 0x40, 0xce, 0xcc, 0x1f, 0x02, 0xd8, 0x2f, 0x1d, 0x1b, 0xdf, 0x26, 0xcc, 0xde, 0xda, 0x0d, 0xbd, 0x1f, 0xdd, 0x3f, 0xe0, 0x1f, 0xe5, 0x18, 0x0d, 0xf1, 0xd8, 0xb2, 0x22, 0x0c, 0xc2, 0x27, 0xd7, 0xf8, 0x2d, 0x15, 0x0a, 0x3b, 0x43, 0xd1, 0x1c, 0xee, 0x10, 0xaa, 0xf6, 0x20, 0x53, 0x40, 0x28, 0x03, 0x2f, 0x44, 0xe6, 0xe0, 0xf5, 0xa6, 0x1a, 0x53, 0x29, 0xd4, 0xec, 0x24, 0xd2, 0x00, 0x29, 0x35, 0x2e, 0x13, 0xc6, 0xdf, 0xf5, 0x21, 0x3d, 0xd9, 0xf9, 0xdf, 0xe3, 0x1e, 0xbd, 0x1c, 0x36, 0x24, 0xfa, 0x0f, 0xdf, 0xff, 0x35, 0xd4, 0xd8, 0x2d, 0xc2, 0xe3, 0xd4, 0x34, 0x38, 0xdb, 0x36, 0xc8, 0xba, 0x48, 0x27, 0xc5, 0xe1, 0xcb, 0x06, 0x1d, 0x28, 0x07, 0x16, 0x1d, 0xf1, 0xcb, 0xff, 0xf0, 0xf9, 0xd8, 0xc1, 0xbd, 0xdc, 0x32, 0x05, 0x51, 0x0a, 0x12, 0xef, 0x0e, 0xda, 0xfb, 0xed, 0x39, 0x18, 0xc8, 0x23, 0xf5, 0xd1, 0xf3, 0x4d, 0xee, 0xdb, 0x4a, 0xea, 0x7f, 0x3f, 0xfd, 0xee, 0xca, 0xd3, 0xb8, 0xf6, 0x02, 0x13, 0xee, 0x1d, 0x16, 0x03, 0x12, 0x0a, 0x0b, 0x10, 0x42, 0xd4, 0x18, 0x41, 0xe4, 0x28, 0x12, 0x31, 0xee, 0x1b, 0xc7, 0xf6, 0x06, 0xf1, 0x3e, 0xec, 0x4b, 0x14, 0x46, 0xce, 0xd2, 0x3e, 0x3e, 0xfb, 0xdf, 0xc2, 0x1a, 0xd9, 0xc9, 0x03, 0x2f, 0xc4, 0xcb, 0x0b, 0xd2, 0xa9, 0x15, 0x20, 0x36, 0xe8, 0xd7, 0xe3, 0x34, 0xc9, 0xe8, 0x22, 0x04, 0x27, 0xf7, 0xe4, 0x2e, 0x29, 0xfe, 0x19, 0xe5, 0x28, 0xc1, 0x38, 0xb3, 0xd6, 0xc7, 0x2d, 0xb9, 0x27, 0x07, 0xea, 0xed, 0x15, 0x2d, 0x4a, 0x68, 0x51, 0xfe, 0xc8, 0xf2, 0x06, 0x29, 0xfe, 0x55, 0x0c, 0x2d, 0xd8, 0x40, 0x0a, 0xed, 0xf1, 0x0b, 0x0e, 0x62, 0xc7, 0xf7, 0x3f, 0xec, 0xdd, 0x01, 0x23, 0xf2, 0xf6, 0x0c, 0xd8, 0x13, 0xd6, 0xce, 0xe5, 0x12, 0xb6, 0xbe, 0x35, 0x01, 0x2a, 0xdc, 0xc4, 0x43, 0x6d, 0xca, 0x21, 0xe7, 0x17, 0x19, 0x51, 0xdc, 0xb6, 0xd8, 0x34, 0x32, 0xe3, 0xed, 0xfe, 0x3c, 0xd9, 0xe0, 0x22, 0xbe, 0x10, 0xe9, 0x21, 0x3e, 0xfd, 0x16, 0xc6, 0x09, 0x1c, 0x33, 0x13, 0xe9, 0xfe, 0x0b, 0xe7, 0x07, 0x37, 0x0b, 0xc5, 0x48, 0x3a, 0xe2, 0x35, 0xf9, 0x1d, 0xe2, 0x52, 0xd0, 0x16, 0x02, 0xba, 0xfc, 0x54, 0x27, 0x30, 0xcd, 0xf5, 0xe9, 0xe3, 0x18, 0xe6, 0x11, 0xb4, 0x14, 0xe4, 0x25, 0x2d, 0xf6, 0xc7, 0xbc, 0xe4, 0x2c, 0xe5, 0xac, 0x39, 0xd9, 0x2e, 0xd3, 0x25, 0xcb, 0x08, 0xda, 0x0c, 0x0a, 0x0a, 0xf4, 0xce, 0x22, 0x24, 0xca, 0x0e, 0x0c, 0xcc, 0x3a, 0x23, 0xcb, 0x11, 0x11, 0x11, 0xe1, 0xf8, 0xf5, 0x07, 0xf9, 0xfc, 0xdc, 0x1d, 0xcf, 0x2e, 0xde, 0x3c, 0xd8, 0xdd, 0xd9, 0xf3, 0xdc, 0x09, 0x02, 0x11, 0xef, 0xcc, 0x3c, 0x1d, 0xcc, 0x0a, 0xff, 0xce, 0xf7, 0x2d, 0x19, 0xe6, 0x21, 0x27, 0x08, 0xe5, 0xc5, 0xef, 0x05, 0xbf, 0xdd, 0xd4, 0x78, 0xfa, 0xed, 0x4b, 0x24, 0xe2, 0xd6, 0xbf, 0x32, 0x3c, 0xe7, 0xb7, 0x0d, 0xc5, 0x0a, 0xd2, 0x15, 0xf5, 0x1a, 0x40, 0x31, 0x0d, 0xc1, 0x1a, 0xed, 0xfe, 0xf1, 0xee, 0x56, 0x39, 0x0a, 0x27, 0xce, 0xf8, 0x27, 0xc7, 0xe9, 0xdb, 0xd9, 0x1c, 0xfd, 0xf9, 0x1d, 0x2a, 0x0a, 0x1a, 0xe5, 0x24, 0x42, 0x1e, 0xde, 0x37, 0xe6, 0x32, 0xb6, 0xd2, 0xd7, 0xfa, 0x1d, 0xbd, 0xe5, 0x27, 0xe1, 0x2c, 0x38, 0x30, 0xc2, 0x44, 0xe3, 0x13, 0xf5, 0x03, 0xf3, 0xd6, 0xe7, 0xe5, 0x4b, 0xfe, 0x28, 0x10, 0x2c, 0xc0, 0x19, 0xea, 0xc5, 0xf2, 0xcd, 0xec, 0x04, 0x06, 0xf1, 0xd1, 0xe3, 0xd8, 0x2f, 0xf7, 0x7f, 0x37, 0xf4, 0xf4, 0x2c, 0x16, 0xd3, 0x18, 0xe6, 0xe5, 0xcf, 0xe4, 0xf2, 0x17, 0x41, 0xf4, 0x28, 0x1a, 0x1e, 0x09, 0x36, 0x20, 0x19, 0x0f, 0x1b, 0xeb, 0xf5, 0x0f, 0x3b, 0x1d, 0xed, 0x06, 0x03, 0xde, 0x31, 0xf6, 0x0c, 0x29, 0x2a, 0x10, 0xc4, 0x0a, 0x0e, 0x19, 0xd3, 0x2a, 0xe1, 0x3b, 0x58, 0x0b, 0x0a, 0x3e, 0x00, 0xe2, 0x03, 0x3b, 0xf3, 0x11, 0xf0, 0xba, 0xdc, 0x2c, 0xfd, 0x00, 0x13, 0x3b, 0xd0, 0x3e, 0xff, 0xf2, 0x00, 0xc2, 0x17, 0x11, 0x22, 0x30, 0xd1, 0x1b, 0x24, 0xf0, 0xcc, 0x11, 0x25, 0x02, 0x07, 0x2f, 0x37, 0x1c, 0xe8, 0x06, 0xd2, 0xdb, 0xb8, 0xd4, 0x17, 0xf0, 0x2d, 0xcb, 0x31, 0x57, 0xd4, 0x30, 0x0e, 0x14, 0x2c, 0x15, 0xd6, 0x09, 0xf7, 0xdb, 0x02, 0xe2, 0x47, 0x1c, 0x00, 0x45, 0x0f, 0xf1, 0xc5, 0xe3, 0x32, 0xbb, 0x3b, 0xdc, 0xce, 0x2a, 0x07, 0x3d, 0xfe, 0xcf, 0xea, 0xf2, 0x2e, 0x33, 0x25, 0x32, 0x2f, 0xf9, 0x2a, 0xef, 0x03, 0xc2, 0xcd, 0x37, 0xdb, 0xda, 0xe9, 0x54, 0x29, 0xfd, 0xc6, 0xe5, 0x30, 0x1a, 0xd8, 0xf8, 0x2e, 0x13, 0xf0, 0xb6, 0xd4, 0x0c, 0x24, 0x35, 0x11, 0xdb, 0xeb, 0x07, 0x29, 0xc1, 0xd7, 0x36, 0xc3, 0x24, 0x17, 0xf7, 0xf2, 0x02, 0x0f, 0x26, 0x09, 0x18, 0xbe, 0xd5, 0x24, 0x16, 0xf2, 0xcc, 0xd5, 0xf5, 0x24, 0xe8, 0xe0, 0x2a, 0xef, 0xec, 0xfa, 0x17, 0x18, 0xfd, 0xdd, 0x28, 0xd8, 0xae, 0x22, 0x2a, 0x3f, 0xd2, 0xfd, 0xcf, 0x1b, 0xf8, 0x26, 0xe6, 0xae, 0xf7, 0xb0, 0xcd, 0xd5, 0xe9, 0x0a, 0x04, 0x2d, 0x17, 0x3e, 0x3b, 0x20, 0xd5, 0xb7, 0x0c, 0xee, 0x0b, 0x30, 0xd0, 0xd0, 0xf5, 0xc4, 0xdb, 0x1f, 0x2e, 0x39, 0x58, 0xc6, 0xd2, 0x3e, 0x11, 0xf7, 0x41, 0x01, 0x00, 0xb8, 0xbd, 0xb3, 0x0c, 0x34, 0x54, 0x11, 0xad, 0xc3, 0xdf, 0x10, 0xde, 0xe8, 0x00, 0xfc, 0xab, 0xa7, 0x34, 0x2c, 0xcf, 0xa6, 0x21, 0xc4, 0x33, 0xe3, 0x00, 0xf9, 0x2a, 0xbe, 0x00, 0x23, 0x19, 0xbe, 0x0b, 0x1e, 0xd2, 0x02, 0x3f, 0xfb, 0x2a, 0xd2, 0x41, 0xb3, 0xfc, 0xd4, 0x07, 0x22, 0x0f, 0x99, 0x44, 0x47, 0xb0, 0x21, 0xf6, 0xa7, 0xcc, 0x0e, 0xc8, 0x1b, 0x0c, 0x2b, 0xfe, 0x1a, 0x40, 0xe6, 0x39, 0xb0, 0xce, 0x10, 0x51, 0xaf, 0x2b, 0xb5, 0xe1, 0x11, 0x4b, 0xfa, 0xaa, 0x31, 0xc9, 0xee, 0xd9, 0x4f, 0x3f, 0xb4, 0x42, 0x6b, 0xff, 0x3d, 0x63, 0x52, 0xc6, 0xd6, 0x1d, 0x26, 0xe6, 0xaf, 0xf4, 0x20, 0xd7, 0x7f, 0x34, 0xdc, 0xde, 0xed, 0x22, 0x12, 0xb3, 0xdd, 0xc9, 0xdd, 0xec, 0xe4, 0x2c, 0x41, 0x9f, 0x4b, 0xbf, 0xf9, 0x9f, 0x56, 0xef, 0x1e, 0xa9, 0xc5, 0x32, 0x12, 0xf4, 0xdc, 0xca, 0x2a, 0xc1, 0x13, 0x31, 0x1d, 0xe5, 0xb4, 0xfe, 0xe0, 0xf7, 0xc9, 0x00, 0xe0, 0x2e, 0xb5, 0xbb, 0xdf, 0xe2, 0xda, 0xcf, 0xae, 0xc1, 0x21, 0xd2, 0xb3, 0xe7, 0x3c, 0x27, 0x41, 0xcf, 0xd4, 0xd8, 0xcc, 0x1e, 0x4a, 0x23, 0xf2, 0xe5, 0x14, 0xa3, 0x4e, 0xfc, 0xbd, 0x33, 0xb5, 0x3d, 0xea, 0x2a, 0x50, 0xfa, 0x20, 0xeb, 0xdc, 0x27, 0xfb, 0x39, 0x3f, 0x44, 0xf1, 0x39, 0xee, 0xad, 0xbe, 0xb0, 0x0c, 0xf6, 0xd6, 0x4c, 0xcd, 0xfc, 0x99, 0x26, 0x23, 0x05, 0xdd, 0x1f, 0xdf, 0x50, 0xf4, 0x17, 0xda, 0xb9, 0x46, 0x08, 0x28, 0x28, 0xaf, 0xd7, 0x38, 0xff, 0x3a, 0x14, 0xdb, 0xfa, 0xee, 0x4c, 0x4e, 0xb4, 0xbc, 0xe1, 0x1f, 0x3a, 0x20, 0xdf, 0xec, 0xab, 0x30, 0xce, 0x00, 0xcd, 0xe1, 0xe9, 0xab, 0xf7, 0xaa, 0xe7, 0xda, 0x1f, 0xde, 0x2c, 0x29, 0x9e, 0x8c, 0xc0, 0xb2, 0x20, 0x29, 0x29, 0x20, 0x32, 0xcf, 0xc8, 0xd8, 0x51, 0xf0, 0x42, 0xa6, 0x50, 0x09, 0x48, 0x13, 0x02, 0x54, 0xcd, 0xea, 0xc2, 0xc9, 0x1f, 0xcc, 0xd6, 0xbb, 0xcf, 0xd2, 0x4d, 0x42, 0xbe, 0xe9, 0xcf, 0x3c, 0x07, 0xa5, 0x20, 0xba, 0x18, 0xf3, 0x31, 0x0e, 0x70, 0xd2, 0xee, 0xb8, 0xfe, 0xe9, 0xdf, 0xe7, 0x31, 0x41, 0xa4, 0x01, 0xb8, 0xdd, 0x21, 0xce, 0xf4, 0x52, 0x03, 0xde, 0xc8, 0xe2, 0x50, 0x30, 0x05, 0x43, 0x4e, 0xa8, 0xfd, 0x02, 0x06, 0x16, 0xa0, 0x24, 0xd6, 0xe3, 0x35, 0xd0, 0xde, 0x2b, 0x25, 0xb9, 0xbb, 0xd4, 0xf4, 0xcc, 0xf2, 0x37, 0xec, 0xf1, 0x2f, 0xa4, 0xdf, 0x2d, 0x3a, 0xb1, 0x41, 0xa4, 0xd7, 0x43, 0xa1, 0xfe, 0xcc, 0xce, 0x40, 0xc4, 0xd3, 0x4e, 0x30, 0x21, 0x0e, 0xf9, 0xc0, 0xca, 0xd7, 0xdb, 0x00, 0xc7, 0xfb, 0xee, 0xe7, 0x1e, 0x38, 0x03, 0xeb, 0x1c, 0xdc, 0x63, 0x0b, 0xc3, 0xd8, 0x03, 0x98, 0x9f, 0xb5, 0xfb, 0x37, 0x2a, 0x04, 0x12, 0x28, 0xda, 0xbc, 0x08, 0xff, 0xd8, 0xed, 0x1d, 0xe2, 0xee, 0x36, 0xb8, 0xc1, 0x1c, 0xb7, 0x49, 0x23, 0xb6, 0x30, 0xe6, 0x20, 0x3c, 0x3d, 0xc2, 0x38, 0xd3, 0xe6, 0xaf, 0xcf, 0x1a, 0xe5, 0x0c, 0x41, 0xda, 0x37, 0x41, 0xc1, 0x86, 0x28, 0xa2, 0x43, 0x7f, 0xd6, 0xe1, 0xc9, 0xfb, 0x26, 0xd1, 0x48, 0xe0, 0x0b, 0xb1, 0x14, 0xc4, 0x0a, 0x06, 0xec, 0x3a, 0xf6, 0xb9, 0xf2, 0xd3, 0xd0, 0xc1, 0x38, 0xfb, 0xbd, 0xd2, 0x4e, 0x08, 0xd2, 0x33, 0xf3, 0x02, 0x1e, 0xe8, 0xfd, 0xcc, 0xd4, 0xdd, 0xde, 0x3b, 0x13, 0x42, 0xfa, 0x38, 0x64, 0xb5, 0x25, 0xf1, 0x13, 0xd4, 0xb6, 0x2d, 0xef, 0x32, 0xcd, 0x4e, 0xfc, 0xde, 0xcb, 0xca, 0xd6, 0xbc, 0xae, 0x16, 0x46, 0xd5, 0xef, 0x1c, 0x42, 0x08, 0xba, 0x2f, 0x2b, 0xf3, 0xe0, 0x2d, 0x34, 0xd0, 0x4e, 0x8d, 0x04, 0xc5, 0xd7, 0xd9, 0xb6, 0xee, 0xee, 0xe6, 0xd4, 0xcb, 0x11, 0x1c, 0x1f, 0x2e, 0x26, 0x39, 0xf5, 0xd6, 0x08, 0x1e, 0x3e, 0xaa, 0x45, 0xa8, 0xc5, 0xf6, 0xc0, 0x08, 0xde, 0xbf, 0xb6, 0x34, 0x11, 0xf1, 0x20, 0xbe, 0x33, 0x4e, 0xba, 0x20, 0x33, 0xc1, 0x0f, 0x2b, 0x1d, 0x4c, 0x06, 0xcb, 0x0a, 0xc3, 0xb2, 0xca, 0xc8, 0x27, 0x4c, 0x4c, 0x47, 0x10, 0x02, 0xe5, 0x45, 0xdd, 0x1f, 0x2c, 0xda, 0xeb, 0xe2, 0x4e, 0x10, 0xba, 0x27, 0x28, 0x3d, 0xdb, 0xa7, 0xc7, 0xd6, 0xab, 0x14, 0x54, 0x1b, 0x0e, 0x01, 0x38, 0x02, 0x48, 0x15, 0x36, 0x67, 0xd2, 0x0d, 0xfd, 0x20, 0xe8, 0xda, 0x95, 0x57, 0x21, 0x06, 0x30, 0xea, 0x56, 0x36, 0x36, 0x2c, 0xdc, 0x5e, 0x3b, 0xf2, 0xd9, 0x20, 0xf7, 0x36, 0x1b, 0xb0, 0x4f, 0x37, 0x33, 0x31, 0x19, 0x07, 0x4f, 0x24, 0xf8, 0x55, 0xb7, 0xae, 0xc8, 0x18, 0xf4, 0x09, 0xc4, 0xd0, 0x14, 0x2b, 0x3f, 0x16, 0xf7, 0x14, 0xdf, 0x05, 0x47, 0xc7, 0xd7, 0x20, 0x12, 0x96, 0xd2, 0x3e, 0x3c, 0x0e, 0xf6, 0xec, 0x1c, 0xf9, 0x56, 0x0d, 0xc2, 0x17, 0xf6, 0x2b, 0xe0, 0x2c, 0xd6, 0xdd, 0x17, 0xf0, 0x32, 0xf6, 0x0c, 0x22, 0x1a, 0xec, 0x2c, 0xa4, 0xc7, 0x1c, 0x59, 0xda, 0x2a, 0xe4, 0xfa, 0xd5, 0xf8, 0x21, 0xf6, 0x06, 0x48, 0xc2, 0xf9, 0x31, 0x1f, 0x53, 0xf2, 0x22, 0x1c, 0xea, 0xf1, 0xce, 0x21, 0x17, 0x1d, 0xdf, 0x25, 0x24, 0x2d, 0x62, 0x3d, 0xe8, 0x5a, 0x9e, 0x4f, 0x2f, 0x2a, 0x0c, 0x55, 0x23, 0x43, 0x3a, 0x50, 0x49, 0xf2, 0x32, 0x37, 0x4d, 0xf8, 0x08, 0xa1, 0x0f, 0x5d, 0xd6, 0x49, 0xcd, 0x60, 0xe7, 0xcd, 0x20, 0x2b, 0x94, 0xbc, 0x26, 0x06, 0x3c, 0x5d, 0x44, 0xda, 0xfb, 0x46, 0x9e, 0x8a, 0xcb, 0xad, 0xbb, 0xf4, 0x10, 0xaa, 0x92, 0x42, 0xe5, 0xe2, 0x8b, 0xf4, 0xaa, 0x63, 0xfe, 0x16, 0xa2, 0x18, 0xa9, 0x4a, 0x9f, 0xcf, 0x84, 0x88, 0x0c, 0xdc, 0x1d, 0x92, 0xb3, 0x96, 0x23, 0x5f, 0x07, 0xe3, 0xf7, 0x09, 0xf5, 0x12, 0x45, 0xbb, 0x9d, 0xbb, 0x88, 0x3c, 0xdf, 0x00, 0x4b, 0xdc, 0xaa, 0x3d, 0xa1, 0xd2, 0xfe, 0x5d, 0xd7, 0xae, 0x8b, 0x00, 0x58, 0xd7, 0xe5, 0xbe, 0x62, 0xc7, 0xcc, 0x46, 0x0a, 0x45, 0xf9, 0x0e, 0x0e, 0x26, 0xf2, 0xf7, 0x45, 0x4d, 0x1d, 0x8f, 0x88, 0x87, 0xfb, 0x54, 0xb5, 0xb0, 0xc5, 0x41, 0xbc, 0x39, 0x2a, 0x1b, 0x50, 0x32, 0xe5, 0xd8, 0x0b, 0x58, 0xb3, 0xc3, 0x16, 0xe8, 0xb1, 0x0a, 0xe3, 0xec, 0xd9, 0x0c, 0xa2, 0x32, 0xfc, 0x2d, 0xae, 0x08, 0xbe, 0xbd, 0x45, 0x13, 0xce, 0x35, 0x53, 0x5b, 0x0e, 0x20, 0x63, 0x0a, 0x28, 0xad, 0x1d, 0xc0, 0xd5, 0xd1, 0xa9, 0x43, 0xcc, 0xa2, 0xe9, 0xb9, 0x2c, 0xd6, 0xb6, 0x65, 0x85, 0x63, 0x26, 0x9d, 0x10, 0x27, 0x97, 0x02, 0xc3, 0x29, 0xba, 0x8a, 0x5f, 0x5b, 0xf4, 0x9e, 0x52, 0x96, 0x24, 0xba, 0x0b, 0xad, 0x98, 0x15, 0xa3, 0x2e, 0x33, 0x45, 0x33, 0xc0, 0xd2, 0x11, 0xb8, 0xcf, 0x0f, 0x1c, 0xec, 0x23, 0xa8, 0x38, 0xc6, 0xc2, 0x5f, 0x67, 0x67, 0x5e, 0x64, 0xf1, 0x4f, 0x3c, 0xfc, 0xa9, 0x9b, 0x39, 0xe0, 0x20, 0x43, 0x30, 0x24, 0xe9, 0x62, 0xa7, 0x56, 0x94, 0xc2, 0xfd, 0xb6, 0xa4, 0x5e, 0xc2, 0x21, 0xd8, 0x19, 0xb9, 0xd4, 0xe1, 0x31, 0xce, 0x32, 0x2b, 0x95, 0xb1, 0xfe, 0x8b, 0x87, 0x8b, 0xfd, 0x4d, 0x08, 0x15, 0xc9, 0xda, 0x60, 0x9b, 0x39, 0x42, 0x06, 0x91, 0x4d, 0xc2, 0xfc, 0x11, 0x36, 0xff, 0xa8, 0x4b, 0x49, 0x5c, 0x55, 0xe0, 0x65, 0xa5, 0x42, 0xcc, 0x1e, 0x1f, 0xeb, 0x28, 0x15, 0x60, 0x3e, 0x89, 0x5f, 0x8e, 0xbe, 0x36, 0x09, 0x2f, 0x59, 0xc6, 0x89, 0x12, 0xff, 0x26, 0xac, 0x5f, 0xf9, 0x1b, 0x8c, 0x22, 0x88, 0xdf, 0x96, 0x12, 0x4b, 0xcb, 0x8c, 0xf2, 0xee, 0xa7, 0x62, 0xd6, 0xc2, 0x47, 0x9c, 0xb4, 0x44, 0x8b, 0x87, 0x44, 0x87, 0x89, 0xa6, 0xf9, 0x13, 0xab, 0x1d, 0xe5, 0x4f, 0x5d, 0x54, 0xef, 0x33, 0x63, 0x90, 0x54, 0xd2, 0xa8, 0x81, 0x96, 0x99, 0x5e, 0x31, 0x57, 0x19, 0x20, 0x29, 0x4d, 0xa3, 0x87, 0xef, 0xf6, 0x58, 0xf9, 0x1f, 0x55, 0xd3, 0x18, 0x50, 0x5a, 0x91, 0x11, 0x3a, 0x2d, 0x10, 0x8a, 0x3c, 0xc5, 0x4c, 0xc3, 0xf7, 0x03, 0xb0, 0xd0, 0xe3, 0x18, 0x11, 0x13, 0x4f, 0x56, 0x49, 0xd8, 0x57, 0x65, 0x9d, 0x82, 0x47, 0xc4, 0xe3, 0x3c, 0x86, 0xae, 0x6e, 0xf8, 0x0f, 0xf1, 0x9a, 0xc4, 0x56, 0x98, 0xf2, 0x00, 0xc1, 0xd3, 0xc4, 0x22, 0x64, 0x9d, 0xae, 0xc4, 0x00, 0xda, 0x16, 0x3a, 0x0d, 0xf4, 0xea, 0x2f, 0x4c, 0x19, 0xa8, 0x66, 0xd6, 0x73, 0x8c, 0xaf, 0xd7, 0x93, 0x9b, 0x1f, 0x89, 0xd4, 0xfd, 0x8d, 0x62, 0x48, 0x9c, 0x5c, 0x52, 0x31, 0x36, 0xda, 0xa1, 0x00, 0xbe, 0x0f, 0xfc, 0x28, 0xe8, 0x8a, 0x1e, 0xb2, 0xc7, 0x0c, 0xef, 0x76, 0x5d, 0xf0, 0x56, 0x1e, 0xf6, 0xb9, 0x0d, 0xbc, 0x04, 0x4a, 0x8f, 0xa0, 0x70, 0x3b, 0x2a, 0x42, 0xf5, 0xc1, 0x9b, 0x37, 0x38, 0xbd, 0xb5, 0xfb, 0x0b, 0x45, 0xe6, 0x34, 0x48, 0xda, 0xcd, 0x23, 0x46, 0xc9, 0xc0, 0x48, 0x26, 0xb1, 0xa7, 0xe1, 0xbc, 0x1d, 0xba, 0x2c, 0x5b, 0xd8, 0x28, 0xd9, 0x94, 0x85, 0xdf, 0xfd, 0xb6, 0x64, 0x55, 0x06, 0x3d, 0x4c, 0x3b, 0x10, 0x46, 0x4b, 0xfa, 0x11, 0xec, 0xe0, 0xc0, 0xf3, 0x4b, 0x0f, 0x3f, 0x26, 0x33, 0x5b, 0x4d, 0x35, 0x23, 0x4a, 0x87, 0x60, 0xd5, 0x08, 0x2f, 0x2f, 0xa9, 0x38, 0xb4, 0xed, 0x6b, 0xe4, 0x56, 0xb4, 0x9f, 0xe6, 0xfa, 0xee, 0x89, 0x66, 0x86, 0x1a, 0xff, 0x6d, 0x83, 0x68, 0x37, 0xfa, 0x11, 0x65, 0x41, 0x44, 0x9b, 0x66, 0x99, 0xf1, 0x4b, 0x9c, 0x4c, 0x94, 0xe0, 0x17, 0x43, 0xd3, 0xe3, 0x24, 0xd6, 0x67, 0x55, 0x83, 0xa2, 0xd6, 0x1c, 0xbf, 0x2d, 0x56, 0x5e, 0x89, 0x9e, 0x55, 0x53, 0xf8, 0x21, 0xd1, 0x8f, 0xeb, 0x27, 0xb9, 0x81, 0x8c, 0x59, 0x6e, 0xb2, 0x3b, 0xb4, 0x38, 0xbe, 0xcc, 0xa2, 0xca, 0xc7, 0x70, 0x37, 0x9a, 0x8d, 0xe3, 0x3e, 0x16, 0xbf, 0xfb, 0xad, 0xab, 0x9a, 0x26, 0xe2, 0xc1, 0x57, 0x58, 0x0a, 0x1a, 0x3a, 0x3b, 0x09, 0x19, 0x90, 0x73, 0xfe, 0x8e, 0xb4, 0xac, 0xee, 0x22, 0x5a, 0x09, 0x49, 0x25, 0x59, 0x8f, 0x78, 0xd3, 0x6c, 0x46, 0xa1, 0xe8, 0xa1, 0xfb, 0x67, 0x6e, 0x20, 0xb8, 0xf3, 0x2f, 0xcc, 0xc4, 0x9f, 0x5c, 0x5c, 0x19, 0xbe, 0x27, 0x4d, 0x06, 0x05, 0x57, 0x18, 0x3c, 0xd8, 0x5f, 0x88, 0x03, 0xe0, 0x5c, 0x6c, 0xa1, 0xe7, 0x4d, 0xcc, 0x96, 0xf4, 0xdf, 0xdc, 0x66, 0x4e, 0x94, 0x4c, 0x0e, 0x93, 0xc6, 0xc9, 0x34, 0x9e, 0x82, 0x08, 0x2a, 0xa6, 0xa5, 0xf7, 0xd4, 0x71, 0xba, 0xa8, 0xb2, 0xa2, 0x2a, 0xf0, 0x3f, 0xb8, 0xa5, 0x4b, 0x4b, 0xdf, 0x29, 0x90, 0x11, 0x5b, 0xec, 0x44, 0x24, 0xab, 0x0c, 0x28, 0xa9, 0xdc, 0x97, 0xde, 0x67, 0x4b, 0xb3, 0xcb, 0x0d, 0x34, 0x64, 0x52, 0x9a, 0x94, 0x93, 0xc7, 0xc4, 0x4a, 0xe0, 0x97, 0x00, 0x97, 0xb7, 0x9b, 0x6a, 0x62, 0xb6, 0x6a, 0xea, 0x53, 0xb7, 0x23, 0x72, 0xe5, 0x06, 0x28, 0x4b, 0xc8, 0xf6, 0x66, 0x3b, 0x0b, 0x12, 0xfc, 0x21, 0x55, 0xed, 0x28, 0xc2, 0x3a, 0xa5, 0x92, 0xa0, 0xff, 0x95, 0xdf, 0x51, 0x98, 0xea, 0x52, 0xdd, 0x17, 0xe6, 0x2c, 0x40, 0x71, 0x35, 0xd0, 0x1b, 0x48, 0x5b, 0x62, 0xae, 0xfc, 0x94, 0x25, 0xf9, 0xd7, 0x56, 0xe7, 0x9f, 0x32, 0x16, 0x72, 0x0e, 0xb0, 0xd6, 0x94, 0x3f, 0xd5, 0xa4, 0xdf, 0x39, 0x2d, 0xbc, 0x64, 0x58, 0x5b, 0xf7, 0x00, 0xd0, 0xad, 0xa8, 0x31, 0xb6, 0x76, 0xb4, 0xbd, 0xe1, 0xfb, 0xca, 0x9d, 0xce, 0xe0, 0x6a, 0x22, 0xde, 0xd7, 0xe3, 0xd9, 0xa1, 0x61, 0xaa, 0xb2, 0xa0, 0xbc, 0xbf, 0x93, 0x4e, 0x34, 0xc9, 0x38, 0xa6, 0x9e, 0x53, 0x48, 0x52, 0x0f, 0x1b, 0x29, 0x1c, 0x81, 0x5a, 0x0f, 0x59, 0x1d, 0xc9, 0x1e, 0xb8, 0x83, 0x9b, 0x30, 0xfa, 0x1d, 0xaf, 0x9d, 0xb0, 0xba, 0xa1, 0x09, 0xa1, 0x12, 0xde, 0xf7, 0x06, 0x02, 0x9f, 0x3e, 0x8b, 0x21, 0x51, 0x67, 0x66, 0x4e, 0x19, 0x04, 0x28, 0xd6, 0x40, 0x16, 0x62, 0x26, 0xa7, 0xe2, 0xf4, 0x6b, 0x60, 0x96, 0x91, 0xa9, 0x3d, 0x56, 0x07, 0xd0, 0xc8, 0x13, 0xf8, 0x6a, 0xa8, 0x31, 0xbb, 0x97, 0x54, 0x36, 0x0f, 0x83, 0xcd, 0x0b, 0x36, 0xcc, 0xce, 0xc9, 0x68, 0x8e, 0x3a, 0x53, 0xd5, 0x41, 0x67, 0x0e, 0xc4, 0x1e, 0x49, 0x44, 0xc7, 0xfa, 0x97, 0x4e, 0xe1, 0x1f, 0x9b, 0xb0, 0xb9, 0x5b, 0x51, 0xf2, 0xf8, 0x16, 0x50, 0xc9, 0xf1, 0xfe, 0xac, 0xae, 0xe4, 0x28, 0x14, 0x11, 0x1a, 0x65, 0x6a, 0xbe, 0x6f, 0xe7, 0x02, 0x33, 0x3d, 0x15, 0x27, 0xf8, 0x6c, 0xd8, 0x38, 0x57, 0x3b, 0xb6, 0xf1, 0xa3, 0x61, 0xff, 0xa5, 0xcf, 0x3e, 0xd3, 0x66, 0xfd, 0x07, 0xee, 0x29, 0xc8, 0x9b, 0x9a, 0x55, 0x94, 0x31, 0xe4, 0x9e, 0xa4, 0xca, 0x67, 0x0d, 0x67, 0xb6, 0xa4, 0xa0, 0xa0, 0xbd, 0x9a, 0x6a, 0x3e, 0xa3, 0x58, 0x36, 0xff, 0xaf, 0xf9, 0x2b, 0x60, 0x27, 0x03, 0x40, 0x0b, 0xe4, 0x0b, 0xd6, 0xd7, 0xa9, 0xb8, 0xfb, 0xbd, 0x5d, 0xa3, 0x08, 0x6e, 0xe3, 0x2f, 0xac, 0x5e, 0xfd, 0x15, 0x1d, 0x1f, 0xa3, 0xdf, 0x50, 0xa1, 0x0f, 0xdf, 0x9d, 0x09, 0x30, 0xb6, 0x94, 0xb2, 0xf7, 0x64, 0xde, 0x39, 0x19, 0xea, 0xce, 0xba, 0x0a, 0xc8, 0x69, 0xde, 0x9f, 0x4e, 0xea, 0xa1, 0x95, 0xa0, 0x40, 0xe8, 0x8e, 0x97, 0x24, 0xfc, 0xdc, 0x29, 0x11, 0x0d, 0xd0, 0xe5, 0xf6, 0xfe, 0xc5, 0xc3, 0xb5, 0x53, 0x0e, 0x18, 0xb9, 0x38, 0x3f, 0xa8, 0xdc, 0xb0, 0x07, 0xd8, 0xff, 0xd8, 0xca, 0xbd, 0x44, 0xbc, 0xe3, 0xe8, 0xc5, 0xf9, 0xbc, 0xab, 0xa0, 0xfb, 0xd9, 0x5c, 0x0b, 0x6b, 0xfa, 0x76, 0xbb, 0x31, 0xc1, 0xf0, 0x49, 0xf2, 0x2e, 0xab, 0x45, 0xe3, 0xef, 0x4d, 0x0e, 0xed, 0x07, 0x49, 0x73, 0xfc, 0x1d, 0x1b, 0x51, 0x35, 0xba, 0xca, 0x33, 0x14, 0x06, 0xcd, 0x2e, 0x97, 0xc7, 0x02, 0x2e, 0x33, 0xfe, 0x44, 0xef, 0xeb, 0x55, 0xb1, 0x03, 0x13, 0x3d, 0x45, 0x32, 0xcf, 0xc4, 0x09, 0x1b, 0xb9, 0xd2, 0xc3, 0xe7, 0xd7, 0x52, 0xe9, 0x0a, 0x32, 0x24, 0x22, 0x2d, 0x4a, 0x12, 0xcb, 0x4c, 0x1d, 0x5d, 0x71, 0x37, 0xb1, 0xfb, 0x08, 0xc4, 0xb3, 0xe7, 0xf7, 0x45, 0xc8, 0x17, 0xc7, 0xe7, 0xc2, 0x09, 0x36, 0x26, 0xe1, 0x08, 0x06, 0x05, 0x01, 0xe8, 0xca, 0x57, 0xed, 0xa5, 0x33, 0x31, 0x04, 0x43, 0xed, 0xf2, 0x3d, 0x27, 0xce, 0x27, 0x24, 0x53, 0xb2, 0x26, 0xf0, 0xfc, 0x0a, 0xd1, 0x4e, 0xfe, 0x21, 0x2e, 0xd8, 0x2f, 0x08, 0x46, 0x11, 0x38, 0xbc, 0x08, 0xda, 0xc0, 0xb1, 0x81, 0xec, 0xe8, 0x53, 0xc5, 0x38, 0x45, 0x38, 0xb9, 0x4e, 0x3d, 0xbc, 0x57, 0xd6, 0xea, 0x43, 0xa9, 0x49, 0x0d, 0xa9, 0xd0, 0x06, 0xeb, 0x35, 0xe2, 0xaf, 0xb8, 0xbb, 0xf2, 0xe5, 0x35, 0xc2, 0x02, 0xff, 0x1e, 0xbb, 0xc1, 0x51, 0x06, 0xee, 0x19, 0x37, 0x9a, 0xaa, 0x3a, 0x22, 0xf6, 0x45, 0x1d, 0xcb, 0xc8, 0xc7, 0xfd, 0x18, 0x30, 0xea, 0xeb, 0x09, 0xb8, 0x0a, 0xae, 0xf1, 0x3b, 0xc4, 0x05, 0x38, 0xf1, 0xd1, 0x3c, 0x2c, 0x2d, 0x35, 0x39, 0xc7, 0x40, 0xc2, 0x4b, 0xc8, 0x9b, 0x41, 0x0b, 0xf4, 0xb2, 0x35, 0x25, 0xeb, 0xd0, 0x30, 0x1b, 0xeb, 0xbb, 0x2a, 0x0c, 0xc1, 0x29, 0x32, 0x22, 0x35, 0x3a, 0x67, 0xd8, 0x32, 0xcd, 0x24, 0xa7, 0xc6, 0xab, 0x54, 0x07, 0x30, 0x17, 0xfa, 0xf6, 0x42, 0x0c, 0xb7, 0x0e, 0x3f, 0x03, 0xce, 0x01, 0xc0, 0xeb, 0x49, 0x00, 0xa8, 0xd3, 0xe4, 0xd8, 0xa6, 0xa9, 0xf5, 0x22, 0xea, 0xc4, 0x00, 0xfe, 0xda, 0x19, 0xaf, 0x00, 0x4c, 0x09, 0xca, 0x2e, 0xfe, 0x0d, 0xc5, 0xe3, 0xbd, 0xd8, 0x20, 0xb5, 0xb3, 0x9f, 0xc6, 0x00, 0xad, 0x19, 0xcf, 0x36, 0xdf, 0xc2, 0xfd, 0x27, 0x15, 0x0a, 0xb6, 0xb6, 0xcf, 0x41, 0xef, 0xe2, 0xf3, 0x0b, 0xdc, 0xd9, 0xf2, 0x3b, 0xa7, 0xd7, 0xd2, 0x3d, 0x1e, 0xc9, 0x9a, 0xf7, 0x35, 0xc6, 0xc2, 0x0e, 0x3d, 0xd2, 0x38, 0xa9, 0xed, 0xc3, 0x1d, 0x9f, 0x1a, 0xc8, 0x1b, 0xdf, 0xfc, 0x9c, 0x08, 0x4e, 0x1d, 0x23, 0x47, 0xa9, 0xe2, 0xfb, 0xae, 0xc8, 0xe1, 0xc1, 0xbd, 0xab, 0xe3, 0x03, 0xe0, 0xca, 0xa4, 0xb5, 0xdf, 0x1f, 0xce, 0x9f, 0x2c, 0x46, 0x32, 0x3c, 0xc5, 0x25, 0xef, 0xf2, 0xcd, 0xf7, 0x4a, 0xd2, 0xe5, 0x0f, 0x33, 0xe0, 0xfc, 0xfb, 0x17, 0x42, 0xd0, 0xc4, 0xb8, 0x9f, 0xf8, 0xdc, 0x12, 0xb6, 0xfe, 0xff, 0xff, 0x04, 0x00, 0x00, 0x00, 0x40, 0x00, 0x00, 0x00, 0xf5, 0xff, 0xff, 0xff, 0xf8, 0xff, 0xff, 0xff, 0xf6, 0xff, 0xff, 0xff, 0xfd, 0xff, 0xff, 0xff, 0x01, 0x00, 0x00, 0x00, 0xf6, 0xff, 0xff, 0xff, 0x1b, 0x00, 0x00, 0x00, 0xfa, 0xff, 0xff, 0xff, 0xf9, 0xff, 0xff, 0xff, 0xf4, 0xff, 0xff, 0xff, 0xf4, 0xff, 0xff, 0xff, 0x12, 0x00, 0x00, 0x00, 0xef, 0xff, 0xff, 0xff, 0xf2, 0xff, 0xff, 0xff, 0xf7, 0xff, 0xff, 0xff, 0xef, 0xff, 0xff, 0xff, 0x02, 0xff, 0xff, 0xff, 0x04, 0x00, 0x00, 0x00, 0x30, 0x00, 0x00, 0x00, 0x75, 0xf4, 0xf2, 0x15, 0x4d, 0xd2, 0x33, 0x15, 0xc4, 0x81, 0x8b, 0x32, 0x23, 0xa4, 0xdd, 0xe6, 0x2f, 0x32, 0x84, 0x2e, 0xa1, 0x81, 0x98, 0x7e, 0xb1, 0xa1, 0x4c, 0xb3, 0x27, 0x79, 0xd6, 0x5d, 0x16, 0xf4, 0x6a, 0xe7, 0xd2, 0x29, 0xcc, 0x7f, 0x2a, 0xb2, 0xd1, 0x1a, 0x23, 0xc4, 0xad, 0x10, 0x3e, 0xff, 0xff, 0xff, 0x04, 0x00, 0x00, 0x00, 0x0c, 0x00, 0x00, 0x00, 0x2d, 0x00, 0x00, 0x00, 0x9d, 0xff, 0xff, 0xff, 0x23, 0x00, 0x00, 0x00, 0x56, 0xff, 0xff, 0xff, 0x04, 0x00, 0x00, 0x00, 0x08, 0x00, 0x00, 0x00, 0xff, 0xff, 0xff, 0xff, 0x80, 0x01, 0x00, 0x00, 0xf8, 0xf0, 0xff, 0xff, 0xfc, 0xf0, 0xff, 0xff, 0x0f, 0x00, 0x00, 0x00, 0x4d, 0x4c, 0x49, 0x52, 0x20, 0x43, 0x6f, 0x6e, 0x76, 0x65, 0x72, 0x74, 0x65, 0x64, 0x2e, 0x00, 0x01, 0x00, 0x00, 0x00, 0x14, 0x00, 0x00, 0x00, 0x00, 0x00, 0x0e, 0x00, 0x18, 0x00, 0x14, 0x00, 0x10, 0x00, 0x0c, 0x00, 0x08, 0x00, 0x04, 0x00, 0x0e, 0x00, 0x00, 0x00, 0x14, 0x00, 0x00, 0x00, 0x1c, 0x00, 0x00, 0x00, 0x4c, 0x02, 0x00, 0x00, 0x50, 0x02, 0x00, 0x00, 0x54, 0x02, 0x00, 0x00, 0x04, 0x00, 0x00, 0x00, 0x6d, 0x61, 0x69, 0x6e, 0x00, 0x00, 0x00, 0x00, 0x08, 0x00, 0x00, 0x00, 0xe8, 0x01, 0x00, 0x00, 0x84, 0x01, 0x00, 0x00, 0x34, 0x01, 0x00, 0x00, 0xf0, 0x00, 0x00, 0x00, 0xc8, 0x00, 0x00, 0x00, 0x78, 0x00, 0x00, 0x00, 0x40, 0x00, 0x00, 0x00, 0x04, 0x00, 0x00, 0x00, 0xa6, 0xfe, 0xff, 0xff, 0x1c, 0x00, 0x00, 0x00, 0x00, 0x00, 0x00, 0x09, 0x1c, 0x00, 0x00, 0x00, 0x20, 0x00, 0x00, 0x00, 0x04, 0x00, 0x00, 0x00, 0x00, 0x00, 0x06, 0x00, 0x08, 0x00, 0x04, 0x00, 0x06, 0x00, 0x00, 0x00, 0x00, 0x00, 0x80, 0x3f, 0x01, 0x00, 0x00, 0x00, 0x11, 0x00, 0x00, 0x00, 0x01, 0x00, 0x00, 0x00, 0x10, 0x00, 0x00, 0x00, 0xde, 0xfe, 0xff, 0xff, 0x14, 0x00, 0x00, 0x00, 0x00, 0x00, 0x00, 0x08, 0x10, 0x00, 0x00, 0x00, 0x14, 0x00, 0x00, 0x00, 0x03, 0x00, 0x00, 0x00, 0xc4, 0xf1, 0xff, 0xff, 0x01, 0x00, 0x00, 0x00, 0x10, 0x00, 0x00, 0x00, 0x03, 0x00, 0x00, 0x00, 0x0f, 0x00, 0x00, 0x00, 0x03, 0x00, 0x00, 0x00, 0x02, 0x00, 0x00, 0x00, 0x12, 0xff, 0xff, 0xff, 0x1c, 0x00, 0x00, 0x00, 0x00, 0x00, 0x00, 0x08, 0x1c, 0x00, 0x00, 0x00, 0x20, 0x00, 0x00, 0x00, 0x03, 0x00, 0x00, 0x00, 0x00, 0x00, 0x06, 0x00, 0x08, 0x00, 0x07, 0x00, 0x06, 0x00, 0x00, 0x00, 0x00, 0x00, 0x00, 0x01, 0x01, 0x00, 0x00, 0x00, 0x0f, 0x00, 0x00, 0x00, 0x03, 0x00, 0x00, 0x00, 0x0e, 0x00, 0x00, 0x00, 0x05, 0x00, 0x00, 0x00, 0x04, 0x00, 0x00, 0x00, 0x00, 0x00, 0x0a, 0x00, 0x10, 0x00, 0x0c, 0x00, 0x08, 0x00, 0x04, 0x00, 0x0a, 0x00, 0x00, 0x00, 0x0c, 0x00, 0x00, 0x00, 0x10, 0x00, 0x00, 0x00, 0x02, 0x00, 0x00, 0x00, 0x01, 0x00, 0x00, 0x00, 0x0e, 0x00, 0x00, 0x00, 0x02, 0x00, 0x00, 0x00, 0x0d, 0x00, 0x00, 0x00, 0x01, 0x00, 0x00, 0x00, 0x82, 0xff, 0xff, 0xff, 0x14, 0x00, 0x00, 0x00, 0x00, 0x00, 0x00, 0x05, 0x24, 0x00, 0x00, 0x00, 0x28, 0x00, 0x00, 0x00, 0x01, 0x00, 0x00, 0x00, 0x72, 0xff, 0xff, 0xff, 0x02, 0x00, 0x00, 0x00, 0x02, 0x00, 0x00, 0x00, 0x02, 0x00, 0x00, 0x00, 0x02, 0x00, 0x00, 0x00, 0x00, 0x00, 0x00, 0x01, 0x01, 0x00, 0x00, 0x00, 0x0d, 0x00, 0x00, 0x00, 0x01, 0x00, 0x00, 0x00, 0x0c, 0x00, 0x00, 0x00, 0x62, 0xff, 0xff, 0xff, 0x10, 0x00, 0x00, 0x00, 0x00, 0x00, 0x00, 0x01, 0x18, 0x00, 0x00, 0x00, 0x1c, 0x00, 0x00, 0x00, 0x54, 0xff, 0xff, 0xff, 0x00, 0x00, 0x00, 0x01, 0x01, 0x00, 0x00, 0x00, 0x01, 0x00, 0x00, 0x00, 0x01, 0x00, 0x00, 0x00, 0x0c, 0x00, 0x00, 0x00, 0x03, 0x00, 0x00, 0x00, 0x0b, 0x00, 0x00, 0x00, 0x07, 0x00, 0x00, 0x00, 0x06, 0x00, 0x00, 0x00, 0x00, 0x00, 0x0e, 0x00, 0x1a, 0x00, 0x14, 0x00, 0x10, 0x00, 0x0c, 0x00, 0x0b, 0x00, 0x04, 0x00, 0x0e, 0x00, 0x00, 0x00, 0x24, 0x00, 0x00, 0x00, 0x00, 0x00, 0x00, 0x05, 0x34, 0x00, 0x00, 0x00, 0x38, 0x00, 0x00, 0x00, 0x01, 0x00, 0x00, 0x00, 0x00, 0x00, 0x0e, 0x00, 0x18, 0x00, 0x17, 0x00, 0x10, 0x00, 0x0c, 0x00, 0x08, 0x00, 0x04, 0x00, 0x0e, 0x00, 0x00, 0x00, 0x02, 0x00, 0x00, 0x00, 0x02, 0x00, 0x00, 0x00, 0x02, 0x00, 0x00, 0x00, 0x02, 0x00, 0x00, 0x00, 0x00, 0x00, 0x00, 0x01, 0x01, 0x00, 0x00, 0x00, 0x0b, 0x00, 0x00, 0x00, 0x01, 0x00, 0x00, 0x00, 0x0a, 0x00, 0x00, 0x00, 0x00, 0x00, 0x0e, 0x00, 0x14, 0x00, 0x00, 0x00, 0x10, 0x00, 0x0c, 0x00, 0x0b, 0x00, 0x04, 0x00, 0x0e, 0x00, 0x00, 0x00, 0x1c, 0x00, 0x00, 0x00, 0x00, 0x00, 0x00, 0x01, 0x24, 0x00, 0x00, 0x00, 0x28, 0x00, 0x00, 0x00, 0x0c, 0x00, 0x10, 0x00, 0x00, 0x00, 0x0c, 0x00, 0x08, 0x00, 0x07, 0x00, 0x0c, 0x00, 0x00, 0x00, 0x00, 0x00, 0x00, 0x01, 0x01, 0x00, 0x00, 0x00, 0x01, 0x00, 0x00, 0x00, 0x01, 0x00, 0x00, 0x00, 0x0a, 0x00, 0x00, 0x00, 0x03, 0x00, 0x00, 0x00, 0x00, 0x00, 0x00, 0x00, 0x09, 0x00, 0x00, 0x00, 0x08, 0x00, 0x00, 0x00, 0x01, 0x00, 0x00, 0x00, 0x11, 0x00, 0x00, 0x00, 0x01, 0x00, 0x00, 0x00, 0x00, 0x00, 0x00, 0x00, 0x12, 0x00, 0x00, 0x00, 0xa4, 0x0c, 0x00, 0x00, 0x48, 0x0c, 0x00, 0x00, 0xb8, 0x0b, 0x00, 0x00, 0x3c, 0x0b, 0x00, 0x00, 0x28, 0x0a, 0x00, 0x00, 0x0c, 0x09, 0x00, 0x00, 0xf8, 0x07, 0x00, 0x00, 0xd4, 0x06, 0x00, 0x00, 0x20, 0x06, 0x00, 0x00, 0x5c, 0x05, 0x00, 0x00, 0x88, 0x04, 0x00, 0x00, 0xec, 0x03, 0x00, 0x00, 0xf8, 0x02, 0x00, 0x00, 0x5c, 0x02, 0x00, 0x00, 0xd8, 0x01, 0x00, 0x00, 0x24, 0x01, 0x00, 0x00, 0x80, 0x00, 0x00, 0x00, 0x04, 0x00, 0x00, 0x00, 0xba, 0xf3, 0xff, 0xff, 0x00, 0x00, 0x00, 0x01, 0x18, 0x00, 0x00, 0x00, 0x20, 0x00, 0x00, 0x00, 0x3c, 0x00, 0x00, 0x00, 0x12, 0x00, 0x00, 0x00, 0x00, 0x00, 0x00, 0x09, 0x50, 0x00, 0x00, 0x00, 0x02, 0x00, 0x00, 0x00, 0xff, 0xff, 0xff, 0xff, 0x03, 0x00, 0x00, 0x00, 0x9c, 0xf3, 0xff, 0xff, 0x08, 0x00, 0x00, 0x00, 0x10, 0x00, 0x00, 0x00, 0x01, 0x00, 0x00, 0x00, 0x80, 0xff, 0xff, 0xff, 0xff, 0xff, 0xff, 0xff, 0x01, 0x00, 0x00, 0x00, 0x00, 0x00, 0x80, 0x3b, 0x1b, 0x00, 0x00, 0x00, 0x53, 0x74, 0x61, 0x74, 0x65, 0x66, 0x75, 0x6c, 0x50, 0x61, 0x72, 0x74, 0x69, 0x74, 0x69, 0x6f, 0x6e, 0x65, 0x64, 0x43, 0x61, 0x6c, 0x6c, 0x5f, 0x31, 0x3a, 0x30, 0x00, 0x02, 0x00, 0x00, 0x00, 0x01, 0x00, 0x00, 0x00, 0x03, 0x00, 0x00, 0x00, 0x32, 0xf4, 0xff, 0xff, 0x00, 0x00, 0x00, 0x01, 0x18, 0x00, 0x00, 0x00, 0x20, 0x00, 0x00, 0x00, 0x40, 0x00, 0x00, 0x00, 0x11, 0x00, 0x00, 0x00, 0x00, 0x00, 0x00, 0x09, 0x78, 0x00, 0x00, 0x00, 0x02, 0x00, 0x00, 0x00, 0xff, 0xff, 0xff, 0xff, 0x03, 0x00, 0x00, 0x00, 0x14, 0xf4, 0xff, 0xff, 0x08, 0x00, 0x00, 0x00, 0x14, 0x00, 0x00, 0x00, 0x01, 0x00, 0x00, 0x00, 0xf9, 0xff, 0xff, 0xff, 0xff, 0xff, 0xff, 0xff, 0x00, 0x00, 0x00, 0x00, 0x01, 0x00, 0x00, 0x00, 0x64, 0xcf, 0x9f, 0x3e, 0x3c, 0x00, 0x00, 0x00, 0x73, 0x65, 0x71, 0x75, 0x65, 0x6e, 0x74, 0x69, 0x61, 0x6c, 0x5f, 0x31, 0x2f, 0x64, 0x65, 0x6e, 0x73, 0x65, 0x5f, 0x31, 0x5f, 0x32, 0x2f, 0x4d, 0x61, 0x74, 0x4d, 0x75, 0x6c, 0x3b, 0x73, 0x65, 0x71, 0x75, 0x65, 0x6e, 0x74, 0x69, 0x61, 0x6c, 0x5f, 0x31, 0x2f, 0x64, 0x65, 0x6e, 0x73, 0x65, 0x5f, 0x31, 0x5f, 0x32, 0x2f, 0x42, 0x69, 0x61, 0x73, 0x41, 0x64, 0x64, 0x00, 0x00, 0x00, 0x00, 0x02, 0x00, 0x00, 0x00, 0x01, 0x00, 0x00, 0x00, 0x03, 0x00, 0x00, 0x00, 0xd2, 0xf4, 0xff, 0xff, 0x00, 0x00, 0x00, 0x01, 0x18, 0x00, 0x00, 0x00, 0x20, 0x00, 0x00, 0x00, 0x3c, 0x00, 0x00, 0x00, 0x10, 0x00, 0x00, 0x00, 0x00, 0x00, 0x00, 0x09, 0x88, 0x00, 0x00, 0x00, 0x02, 0x00, 0x00, 0x00, 0xff, 0xff, 0xff, 0xff, 0x10, 0x00, 0x00, 0x00, 0xb4, 0xf4, 0xff, 0xff, 0x08, 0x00, 0x00, 0x00, 0x10, 0x00, 0x00, 0x00, 0x01, 0x00, 0x00, 0x00, 0x80, 0xff, 0xff, 0xff, 0xff, 0xff, 0xff, 0xff, 0x01, 0x00, 0x00, 0x00, 0xa6, 0x4c, 0x6d, 0x3e, 0x52, 0x00, 0x00, 0x00, 0x73, 0x65, 0x71, 0x75, 0x65, 0x6e, 0x74, 0x69, 0x61, 0x6c, 0x5f, 0x31, 0x2f, 0x64, 0x65, 0x6e, 0x73, 0x65, 0x5f, 0x31, 0x2f, 0x4d, 0x61, 0x74, 0x4d, 0x75, 0x6c, 0x3b, 0x73, 0x65, 0x71, 0x75, 0x65, 0x6e, 0x74, 0x69, 0x61, 0x6c, 0x5f, 0x31, 0x2f, 0x64, 0x65, 0x6e, 0x73, 0x65, 0x5f, 0x31, 0x2f, 0x52, 0x65, 0x6c, 0x75, 0x3b, 0x73, 0x65, 0x71, 0x75, 0x65, 0x6e, 0x74, 0x69, 0x61, 0x6c, 0x5f, 0x31, 0x2f, 0x64, 0x65, 0x6e, 0x73, 0x65, 0x5f, 0x31, 0x2f, 0x42, 0x69, 0x61, 0x73, 0x41, 0x64, 0x64, 0x00, 0x00, 0x02, 0x00, 0x00, 0x00, 0x01, 0x00, 0x00, 0x00, 0x10, 0x00, 0x00, 0x00, 0x82, 0xf5, 0xff, 0xff, 0x00, 0x00, 0x00, 0x01, 0x18, 0x00, 0x00, 0x00, 0x20, 0x00, 0x00, 0x00, 0x40, 0x00, 0x00, 0x00, 0x0f, 0x00, 0x00, 0x00, 0x00, 0x00, 0x00, 0x09, 0x58, 0x00, 0x00, 0x00, 0x02, 0x00, 0x00, 0x00, 0xff, 0xff, 0xff, 0xff, 0x80, 0x01, 0x00, 0x00, 0x64, 0xf5, 0xff, 0xff, 0x08, 0x00, 0x00, 0x00, 0x14, 0x00, 0x00, 0x00, 0x01, 0x00, 0x00, 0x00, 0x80, 0xff, 0xff, 0xff, 0xff, 0xff, 0xff, 0xff, 0x00, 0x00, 0x00, 0x00, 0x01, 0x00, 0x00, 0x00, 0x3e, 0xe2, 0x28, 0x3f, 0x1e, 0x00, 0x00, 0x00, 0x73, 0x65, 0x71, 0x75, 0x65, 0x6e, 0x74, 0x69, 0x61, 0x6c, 0x5f, 0x31, 0x2f, 0x66, 0x6c, 0x61, 0x74, 0x74, 0x65, 0x6e, 0x5f, 0x31, 0x2f, 0x52, 0x65, 0x73, 0x68, 0x61, 0x70, 0x65, 0x00, 0x00, 0x02, 0x00, 0x00, 0x00, 0x01, 0x00, 0x00, 0x00, 0x80, 0x01, 0x00, 0x00, 0x02, 0xf6, 0xff, 0xff, 0x00, 0x00, 0x00, 0x01, 0x18, 0x00, 0x00, 0x00, 0x28, 0x00, 0x00, 0x00, 0x44, 0x00, 0x00, 0x00, 0x0e, 0x00, 0x00, 0x00, 0x00, 0x00, 0x00, 0x09, 0x68, 0x00, 0x00, 0x00, 0x04, 0x00, 0x00, 0x00, 0xff, 0xff, 0xff, 0xff, 0x08, 0x00, 0x00, 0x00, 0x03, 0x00, 0x00, 0x00, 0x10, 0x00, 0x00, 0x00, 0xec, 0xf5, 0xff, 0xff, 0x08, 0x00, 0x00, 0x00, 0x10, 0x00, 0x00, 0x00, 0x01, 0x00, 0x00, 0x00, 0x80, 0xff, 0xff, 0xff, 0xff, 0xff, 0xff, 0xff, 0x01, 0x00, 0x00, 0x00, 0x3e, 0xe2, 0x28, 0x3f, 0x28, 0x00, 0x00, 0x00, 0x73, 0x65, 0x71, 0x75, 0x65, 0x6e, 0x74, 0x69, 0x61, 0x6c, 0x5f, 0x31, 0x2f, 0x6d, 0x61, 0x78, 0x5f, 0x70, 0x6f, 0x6f, 0x6c, 0x69, 0x6e, 0x67, 0x32, 0x64, 0x5f, 0x31, 0x5f, 0x32, 0x2f, 0x4d, 0x61, 0x78, 0x50, 0x6f, 0x6f, 0x6c, 0x32, 0x64, 0x00, 0x00, 0x00, 0x00, 0x04, 0x00, 0x00, 0x00, 0x01, 0x00, 0x00, 0x00, 0x08, 0x00, 0x00, 0x00, 0x03, 0x00, 0x00, 0x00, 0x10, 0x00, 0x00, 0x00, 0x9a, 0xf6, 0xff, 0xff, 0x00, 0x00, 0x00, 0x01, 0x18, 0x00, 0x00, 0x00, 0x28, 0x00, 0x00, 0x00, 0x44, 0x00, 0x00, 0x00, 0x0d, 0x00, 0x00, 0x00, 0x00, 0x00, 0x00, 0x09, 0xc0, 0x00, 0x00, 0x00, 0x04, 0x00, 0x00, 0x00, 0xff, 0xff, 0xff, 0xff, 0x10, 0x00, 0x00, 0x00, 0x06, 0x00, 0x00, 0x00, 0x10, 0x00, 0x00, 0x00, 0x84, 0xf6, 0xff, 0xff, 0x08, 0x00, 0x00, 0x00, 0x10, 0x00, 0x00, 0x00, 0x01, 0x00, 0x00, 0x00, 0x80, 0xff, 0xff, 0xff, 0xff, 0xff, 0xff, 0xff, 0x01, 0x00, 0x00, 0x00, 0x3e, 0xe2, 0x28, 0x3f, 0x80, 0x00, 0x00, 0x00, 0x73, 0x65, 0x71, 0x75, 0x65, 0x6e, 0x74, 0x69, 0x61, 0x6c, 0x5f, 0x31, 0x2f, 0x63, 0x6f, 0x6e, 0x76, 0x32, 0x64, 0x5f, 0x31, 0x5f, 0x32, 0x2f, 0x52, 0x65, 0x6c, 0x75, 0x3b, 0x73, 0x65, 0x71, 0x75, 0x65, 0x6e, 0x74, 0x69, 0x61, 0x6c, 0x5f, 0x31, 0x2f, 0x63, 0x6f, 0x6e, 0x76, 0x32, 0x64, 0x5f, 0x31, 0x5f, 0x32, 0x2f, 0x42, 0x69, 0x61, 0x73, 0x41, 0x64, 0x64, 0x3b, 0x73, 0x65, 0x71, 0x75, 0x65, 0x6e, 0x74, 0x69, 0x61, 0x6c, 0x5f, 0x31, 0x2f, 0x63, 0x6f, 0x6e, 0x76, 0x32, 0x64, 0x5f, 0x31, 0x5f, 0x32, 0x2f, 0x63, 0x6f, 0x6e, 0x76, 0x6f, 0x6c, 0x75, 0x74, 0x69, 0x6f, 0x6e, 0x3b, 0x73, 0x65, 0x71, 0x75, 0x65, 0x6e, 0x74, 0x69, 0x61, 0x6c, 0x5f, 0x31, 0x2f, 0x63, 0x6f, 0x6e, 0x76, 0x32, 0x64, 0x5f, 0x31, 0x5f, 0x32, 0x2f, 0x53, 0x71, 0x75, 0x65, 0x65, 0x7a, 0x65, 0x00, 0x00, 0x00, 0x00, 0x04, 0x00, 0x00, 0x00, 0x01, 0x00, 0x00, 0x00, 0x10, 0x00, 0x00, 0x00, 0x06, 0x00, 0x00, 0x00, 0x10, 0x00, 0x00, 0x00, 0x8a, 0xf7, 0xff, 0xff, 0x00, 0x00, 0x00, 0x01, 0x18, 0x00, 0x00, 0x00, 0x28, 0x00, 0x00, 0x00, 0x48, 0x00, 0x00, 0x00, 0x0c, 0x00, 0x00, 0x00, 0x00, 0x00, 0x00, 0x09, 0x68, 0x00, 0x00, 0x00, 0x04, 0x00, 0x00, 0x00, 0xff, 0xff, 0xff, 0xff, 0x10, 0x00, 0x00, 0x00, 0x06, 0x00, 0x00, 0x00, 0x08, 0x00, 0x00, 0x00, 0x74, 0xf7, 0xff, 0xff, 0x08, 0x00, 0x00, 0x00, 0x14, 0x00, 0x00, 0x00, 0x01, 0x00, 0x00, 0x00, 0x80, 0xff, 0xff, 0xff, 0xff, 0xff, 0xff, 0xff, 0x00, 0x00, 0x00, 0x00, 0x01, 0x00, 0x00, 0x00, 0xa9, 0x9f, 0xb0, 0x3f, 0x26, 0x00, 0x00, 0x00, 0x73, 0x65, 0x71, 0x75, 0x65, 0x6e, 0x74, 0x69, 0x61, 0x6c, 0x5f, 0x31, 0x2f, 0x6d, 0x61, 0x78, 0x5f, 0x70, 0x6f, 0x6f, 0x6c, 0x69, 0x6e, 0x67, 0x32, 0x64, 0x5f, 0x31, 0x2f, 0x4d, 0x61, 0x78, 0x50, 0x6f, 0x6f, 0x6c, 0x32, 0x64, 0x00, 0x00, 0x04, 0x00, 0x00, 0x00, 0x01, 0x00, 0x00, 0x00, 0x10, 0x00, 0x00, 0x00, 0x06, 0x00, 0x00, 0x00, 0x08, 0x00, 0x00, 0x00, 0x22, 0xf8, 0xff, 0xff, 0x00, 0x00, 0x00, 0x01, 0x18, 0x00, 0x00, 0x00, 0x28, 0x00, 0x00, 0x00, 0x48, 0x00, 0x00, 0x00, 0x0b, 0x00, 0x00, 0x00, 0x00, 0x00, 0x00, 0x09, 0xa0, 0x00, 0x00, 0x00, 0x04, 0x00, 0x00, 0x00, 0xff, 0xff, 0xff, 0xff, 0x20, 0x00, 0x00, 0x00, 0x0d, 0x00, 0x00, 0x00, 0x08, 0x00, 0x00, 0x00, 0x0c, 0xf8, 0xff, 0xff, 0x08, 0x00, 0x00, 0x00, 0x14, 0x00, 0x00, 0x00, 0x01, 0x00, 0x00, 0x00, 0x80, 0xff, 0xff, 0xff, 0xff, 0xff, 0xff, 0xff, 0x00, 0x00, 0x00, 0x00, 0x01, 0x00, 0x00, 0x00, 0xa9, 0x9f, 0xb0, 0x3f, 0x5c, 0x00, 0x00, 0x00, 0x73, 0x65, 0x71, 0x75, 0x65, 0x6e, 0x74, 0x69, 0x61, 0x6c, 0x5f, 0x31, 0x2f, 0x63, 0x6f, 0x6e, 0x76, 0x32, 0x64, 0x5f, 0x31, 0x2f, 0x52, 0x65, 0x6c, 0x75, 0x3b, 0x73, 0x65, 0x71, 0x75, 0x65, 0x6e, 0x74, 0x69, 0x61, 0x6c, 0x5f, 0x31, 0x2f, 0x63, 0x6f, 0x6e, 0x76, 0x32, 0x64, 0x5f, 0x31, 0x2f, 0x42, 0x69, 0x61, 0x73, 0x41, 0x64, 0x64, 0x3b, 0x73, 0x65, 0x71, 0x75, 0x65, 0x6e, 0x74, 0x69, 0x61, 0x6c, 0x5f, 0x31, 0x2f, 0x63, 0x6f, 0x6e, 0x76, 0x32, 0x64, 0x5f, 0x31, 0x2f, 0x63, 0x6f, 0x6e, 0x76, 0x6f, 0x6c, 0x75, 0x74, 0x69, 0x6f, 0x6e, 0x3b, 0x31, 0x00, 0x00, 0x00, 0x00, 0x04, 0x00, 0x00, 0x00, 0x01, 0x00, 0x00, 0x00, 0x20, 0x00, 0x00, 0x00, 0x0d, 0x00, 0x00, 0x00, 0x08, 0x00, 0x00, 0x00, 0x4a, 0xf9, 0xff, 0xff, 0x00, 0x00, 0x00, 0x01, 0x14, 0x00, 0x00, 0x00, 0x88, 0x00, 0x00, 0x00, 0x0a, 0x00, 0x00, 0x00, 0x00, 0x00, 0x00, 0x09, 0x94, 0x00, 0x00, 0x00, 0xc4, 0xf8, 0xff, 0xff, 0x08, 0x00, 0x00, 0x00, 0x4c, 0x00, 0x00, 0x00, 0x08, 0x00, 0x00, 0x00, 0x00, 0x00, 0x00, 0x00, 0x00, 0x00, 0x00, 0x00, 0x00, 0x00, 0x00, 0x00, 0x00, 0x00, 0x00, 0x00, 0x00, 0x00, 0x00, 0x00, 0x00, 0x00, 0x00, 0x00, 0x00, 0x00, 0x00, 0x00, 0x00, 0x00, 0x00, 0x00, 0x00, 0x00, 0x00, 0x00, 0x00, 0x00, 0x00, 0x00, 0x00, 0x00, 0x00, 0x00, 0x00, 0x00, 0x00, 0x00, 0x00, 0x00, 0x00, 0x00, 0x00, 0x00, 0x00, 0x00, 0x00, 0x00, 0x00, 0x00, 0x00, 0x00, 0x00, 0x00, 0x00, 0x00, 0x00, 0x00, 0x08, 0x00, 0x00, 0x00, 0x1f, 0xa4, 0x09, 0x3b, 0xd0, 0x34, 0x00, 0x3b, 0x4d, 0x77, 0xf3, 0x3a, 0x71, 0x02, 0xda, 0x3a, 0x1c, 0x1e, 0x1f, 0x3b, 0x67, 0xa9, 0x04, 0x3b, 0x61, 0xbc, 0xc5, 0x3a, 0x2a, 0x9f, 0x16, 0x3b, 0x12, 0x00, 0x00, 0x00, 0x74, 0x66, 0x6c, 0x2e, 0x70, 0x73, 0x65, 0x75, 0x64, 0x6f, 0x5f, 0x71, 0x63, 0x6f, 0x6e, 0x73, 0x74, 0x37, 0x00, 0x00, 0x04, 0x00, 0x00, 0x00, 0x08, 0x00, 0x00, 0x00, 0x03, 0x00, 0x00, 0x00, 0x03, 0x00, 0x00, 0x00, 0x01, 0x00, 0x00, 0x00, 0x0a, 0xfa, 0xff, 0xff, 0x00, 0x00, 0x00, 0x01, 0x14, 0x00, 0x00, 0x00, 0x84, 0x00, 0x00, 0x00, 0x09, 0x00, 0x00, 0x00, 0x00, 0x00, 0x00, 0x02, 0x90, 0x00, 0x00, 0x00, 0x84, 0xf9, 0xff, 0xff, 0x08, 0x00, 0x00, 0x00, 0x48, 0x00, 0x00, 0x00, 0x08, 0x00, 0x00, 0x00, 0x00, 0x00, 0x00, 0x00, 0x00, 0x00, 0x00, 0x00, 0x00, 0x00, 0x00, 0x00, 0x00, 0x00, 0x00, 0x00, 0x00, 0x00, 0x00, 0x00, 0x00, 0x00, 0x00, 0x00, 0x00, 0x00, 0x00, 0x00, 0x00, 0x00, 0x00, 0x00, 0x00, 0x00, 0x00, 0x00, 0x00, 0x00, 0x00, 0x00, 0x00, 0x00, 0x00, 0x00, 0x00, 0x00, 0x00, 0x00, 0x00, 0x00, 0x00, 0x00, 0x00, 0x00, 0x00, 0x00, 0x00, 0x00, 0x00, 0x00, 0x00, 0x00, 0x00, 0x00, 0x08, 0x00, 0x00, 0x00, 0xe1, 0x5c, 0x0a, 0x3c, 0xe8, 0xe0, 0x00, 0x3c, 0x1c, 0xbe, 0xf4, 0x3b, 0x14, 0x27, 0xdb, 0x3b, 0xb2, 0xf3, 0x1f, 0x3c, 0x7a, 0x5b, 0x05, 0x3c, 0xce, 0xc5, 0xc6, 0x3b, 0x59, 0x69, 0x17, 0x3c, 0x12, 0x00, 0x00, 0x00, 0x74, 0x66, 0x6c, 0x2e, 0x70, 0x73, 0x65, 0x75, 0x64, 0x6f, 0x5f, 0x71, 0x63, 0x6f, 0x6e, 0x73, 0x74, 0x36, 0x00, 0x00, 0x01, 0x00, 0x00, 0x00, 0x08, 0x00, 0x00, 0x00, 0xba, 0xfa, 0xff, 0xff, 0x00, 0x00, 0x00, 0x01, 0x14, 0x00, 0x00, 0x00, 0xe8, 0x00, 0x00, 0x00, 0x08, 0x00, 0x00, 0x00, 0x00, 0x00, 0x00, 0x09, 0xf4, 0x00, 0x00, 0x00, 0x34, 0xfa, 0xff, 0xff, 0x08, 0x00, 0x00, 0x00, 0x8c, 0x00, 0x00, 0x00, 0x10, 0x00, 0x00, 0x00, 0x00, 0x00, 0x00, 0x00, 0x00, 0x00, 0x00, 0x00, 0x00, 0x00, 0x00, 0x00, 0x00, 0x00, 0x00, 0x00, 0x00, 0x00, 0x00, 0x00, 0x00, 0x00, 0x00, 0x00, 0x00, 0x00, 0x00, 0x00, 0x00, 0x00, 0x00, 0x00, 0x00, 0x00, 0x00, 0x00, 0x00, 0x00, 0x00, 0x00, 0x00, 0x00, 0x00, 0x00, 0x00, 0x00, 0x00, 0x00, 0x00, 0x00, 0x00, 0x00, 0x00, 0x00, 0x00, 0x00, 0x00, 0x00, 0x00, 0x00, 0x00, 0x00, 0x00, 0x00, 0x00, 0x00, 0x00, 0x00, 0x00, 0x00, 0x00, 0x00, 0x00, 0x00, 0x00, 0x00, 0x00, 0x00, 0x00, 0x00, 0x00, 0x00, 0x00, 0x00, 0x00, 0x00, 0x00, 0x00, 0x00, 0x00, 0x00, 0x00, 0x00, 0x00, 0x00, 0x00, 0x00, 0x00, 0x00, 0x00, 0x00, 0x00, 0x00, 0x00, 0x00, 0x00, 0x00, 0x00, 0x00, 0x00, 0x00, 0x00, 0x00, 0x00, 0x00, 0x00, 0x00, 0x00, 0x00, 0x00, 0x00, 0x00, 0x00, 0x00, 0x00, 0x00, 0x00, 0x00, 0x00, 0x00, 0x00, 0x00, 0x10, 0x00, 0x00, 0x00, 0x09, 0x5c, 0x08, 0x3b, 0xc2, 0x60, 0xa9, 0x3a, 0x23, 0x2a, 0xca, 0x3a, 0x26, 0xe0, 0xe5, 0x3a, 0x49, 0xaf, 0xaf, 0x3a, 0x3a, 0xc3, 0xcb, 0x3a, 0x85, 0xba, 0xad, 0x3a, 0xcf, 0xfd, 0xcf, 0x3a, 0xd7, 0x24, 0xcd, 0x3a, 0xae, 0x85, 0xdf, 0x3a, 0x72, 0xfa, 0xcb, 0x3a, 0x8c, 0x32, 0xc3, 0x3a, 0x47, 0xa9, 0xa9, 0x3a, 0x9a, 0xec, 0xce, 0x3a, 0x8e, 0xae, 0xc8, 0x3a, 0x3f, 0x22, 0xe3, 0x3a, 0x12, 0x00, 0x00, 0x00, 0x74, 0x66, 0x6c, 0x2e, 0x70, 0x73, 0x65, 0x75, 0x64, 0x6f, 0x5f, 0x71, 0x63, 0x6f, 0x6e, 0x73, 0x74, 0x35, 0x00, 0x00, 0x04, 0x00, 0x00, 0x00, 0x10, 0x00, 0x00, 0x00, 0x03, 0x00, 0x00, 0x00, 0x03, 0x00, 0x00, 0x00, 0x08, 0x00, 0x00, 0x00, 0xda, 0xfb, 0xff, 0xff, 0x00, 0x00, 0x00, 0x01, 0x14, 0x00, 0x00, 0x00, 0xe4, 0x00, 0x00, 0x00, 0x07, 0x00, 0x00, 0x00, 0x00, 0x00, 0x00, 0x02, 0xf0, 0x00, 0x00, 0x00, 0x54, 0xfb, 0xff, 0xff, 0x08, 0x00, 0x00, 0x00, 0x88, 0x00, 0x00, 0x00, 0x10, 0x00, 0x00, 0x00, 0x00, 0x00, 0x00, 0x00, 0x00, 0x00, 0x00, 0x00, 0x00, 0x00, 0x00, 0x00, 0x00, 0x00, 0x00, 0x00, 0x00, 0x00, 0x00, 0x00, 0x00, 0x00, 0x00, 0x00, 0x00, 0x00, 0x00, 0x00, 0x00, 0x00, 0x00, 0x00, 0x00, 0x00, 0x00, 0x00, 0x00, 0x00, 0x00, 0x00, 0x00, 0x00, 0x00, 0x00, 0x00, 0x00, 0x00, 0x00, 0x00, 0x00, 0x00, 0x00, 0x00, 0x00, 0x00, 0x00, 0x00, 0x00, 0x00, 0x00, 0x00, 0x00, 0x00, 0x00, 0x00, 0x00, 0x00, 0x00, 0x00, 0x00, 0x00, 0x00, 0x00, 0x00, 0x00, 0x00, 0x00, 0x00, 0x00, 0x00, 0x00, 0x00, 0x00, 0x00, 0x00, 0x00, 0x00, 0x00, 0x00, 0x00, 0x00, 0x00, 0x00, 0x00, 0x00, 0x00, 0x00, 0x00, 0x00, 0x00, 0x00, 0x00, 0x00, 0x00, 0x00, 0x00, 0x00, 0x00, 0x00, 0x00, 0x00, 0x00, 0x00, 0x00, 0x00, 0x00, 0x00, 0x00, 0x00, 0x00, 0x00, 0x00, 0x00, 0x00, 0x00, 0x00, 0x00, 0x00, 0x10, 0x00, 0x00, 0x00, 0xa3, 0x28, 0x3c, 0x3b, 0x51, 0xb8, 0xe9, 0x3a, 0x0e, 0x7b, 0x0b, 0x3b, 0x78, 0x99, 0x1e, 0x3b, 0x28, 0x6c, 0xf2, 0x3a, 0x4d, 0x95, 0x0c, 0x3b, 0x2a, 0xb9, 0xef, 0x3a, 0x36, 0x80, 0x0f, 0x3b, 0x45, 0x89, 0x0d, 0x3b, 0x4f, 0x37, 0x1a, 0x3b, 0x66, 0xbb, 0x0c, 0x3b, 0x7e, 0xac, 0x06, 0x3b, 0x62, 0x1c, 0xea, 0x3a, 0xb7, 0xc3, 0x0e, 0x3b, 0x2b, 0x75, 0x0a, 0x3b, 0x34, 0xb5, 0x1c, 0x3b, 0x12, 0x00, 0x00, 0x00, 0x74, 0x66, 0x6c, 0x2e, 0x70, 0x73, 0x65, 0x75, 0x64, 0x6f, 0x5f, 0x71, 0x63, 0x6f, 0x6e, 0x73, 0x74, 0x34, 0x00, 0x00, 0x01, 0x00, 0x00, 0x00, 0x10, 0x00, 0x00, 0x00, 0xea, 0xfc, 0xff, 0xff, 0x00, 0x00, 0x00, 0x01, 0x14, 0x00, 0x00, 0x00, 0xe8, 0x00, 0x00, 0x00, 0x06, 0x00, 0x00, 0x00, 0x00, 0x00, 0x00, 0x09, 0xf4, 0x00, 0x00, 0x00, 0x64, 0xfc, 0xff, 0xff, 0x08, 0x00, 0x00, 0x00, 0x8c, 0x00, 0x00, 0x00, 0x10, 0x00, 0x00, 0x00, 0x00, 0x00, 0x00, 0x00, 0x00, 0x00, 0x00, 0x00, 0x00, 0x00, 0x00, 0x00, 0x00, 0x00, 0x00, 0x00, 0x00, 0x00, 0x00, 0x00, 0x00, 0x00, 0x00, 0x00, 0x00, 0x00, 0x00, 0x00, 0x00, 0x00, 0x00, 0x00, 0x00, 0x00, 0x00, 0x00, 0x00, 0x00, 0x00, 0x00, 0x00, 0x00, 0x00, 0x00, 0x00, 0x00, 0x00, 0x00, 0x00, 0x00, 0x00, 0x00, 0x00, 0x00, 0x00, 0x00, 0x00, 0x00, 0x00, 0x00, 0x00, 0x00, 0x00, 0x00, 0x00, 0x00, 0x00, 0x00, 0x00, 0x00, 0x00, 0x00, 0x00, 0x00, 0x00, 0x00, 0x00, 0x00, 0x00, 0x00, 0x00, 0x00, 0x00, 0x00, 0x00, 0x00, 0x00, 0x00, 0x00, 0x00, 0x00, 0x00, 0x00, 0x00, 0x00, 0x00, 0x00, 0x00, 0x00, 0x00, 0x00, 0x00, 0x00, 0x00, 0x00, 0x00, 0x00, 0x00, 0x00, 0x00, 0x00, 0x00, 0x00, 0x00, 0x00, 0x00, 0x00, 0x00, 0x00, 0x00, 0x00, 0x00, 0x00, 0x00, 0x00, 0x00, 0x00, 0x00, 0x00, 0x00, 0x00, 0x00, 0x10, 0x00, 0x00, 0x00, 0xf9, 0xa7, 0x87, 0x3a, 0x26, 0xe1, 0xc9, 0x3a, 0xbe, 0x2c, 0x85, 0x3a, 0x70, 0x01, 0xc7, 0x3a, 0x6c, 0x39, 0xc0, 0x3a, 0xdc, 0xe3, 0x86, 0x3a, 0x8c, 0xd6, 0xa9, 0x3a, 0x44, 0x05, 0xcf, 0x3a, 0xb7, 0x64, 0xdf, 0x3a, 0x0b, 0x78, 0x09, 0x3b, 0xcd, 0x2f, 0xb5, 0x3a, 0xf2, 0xe6, 0xc0, 0x3a, 0x0b, 0xe1, 0x8d, 0x3a, 0x34, 0x07, 0x86, 0x3a, 0xba, 0x62, 0x87, 0x3a, 0x17, 0xb8, 0xb2, 0x3a, 0x12, 0x00, 0x00, 0x00, 0x74, 0x66, 0x6c, 0x2e, 0x70, 0x73, 0x65, 0x75, 0x64, 0x6f, 0x5f, 0x71, 0x63, 0x6f, 0x6e, 0x73, 0x74, 0x33, 0x00, 0x00, 0x02, 0x00, 0x00, 0x00, 0x10, 0x00, 0x00, 0x00, 0x80, 0x01, 0x00, 0x00, 0x02, 0xfe, 0xff, 0xff, 0x00, 0x00, 0x00, 0x01, 0x14, 0x00, 0x00, 0x00, 0xe4, 0x00, 0x00, 0x00, 0x05, 0x00, 0x00, 0x00, 0x00, 0x00, 0x00, 0x02, 0xf0, 0x00, 0x00, 0x00, 0x7c, 0xfd, 0xff, 0xff, 0x08, 0x00, 0x00, 0x00, 0x88, 0x00, 0x00, 0x00, 0x10, 0x00, 0x00, 0x00, 0x00, 0x00, 0x00, 0x00, 0x00, 0x00, 0x00, 0x00, 0x00, 0x00, 0x00, 0x00, 0x00, 0x00, 0x00, 0x00, 0x00, 0x00, 0x00, 0x00, 0x00, 0x00, 0x00, 0x00, 0x00, 0x00, 0x00, 0x00, 0x00, 0x00, 0x00, 0x00, 0x00, 0x00, 0x00, 0x00, 0x00, 0x00, 0x00, 0x00, 0x00, 0x00, 0x00, 0x00, 0x00, 0x00, 0x00, 0x00, 0x00, 0x00, 0x00, 0x00, 0x00, 0x00, 0x00, 0x00, 0x00, 0x00, 0x00, 0x00, 0x00, 0x00, 0x00, 0x00, 0x00, 0x00, 0x00, 0x00, 0x00, 0x00, 0x00, 0x00, 0x00, 0x00, 0x00, 0x00, 0x00, 0x00, 0x00, 0x00, 0x00, 0x00, 0x00, 0x00, 0x00, 0x00, 0x00, 0x00, 0x00, 0x00, 0x00, 0x00, 0x00, 0x00, 0x00, 0x00, 0x00, 0x00, 0x00, 0x00, 0x00, 0x00, 0x00, 0x00, 0x00, 0x00, 0x00, 0x00, 0x00, 0x00, 0x00, 0x00, 0x00, 0x00, 0x00, 0x00, 0x00, 0x00, 0x00, 0x00, 0x00, 0x00, 0x00, 0x00, 0x00, 0x00, 0x00, 0x00, 0x10, 0x00, 0x00, 0x00, 0x3d, 0xfc, 0x32, 0x3a, 0x2b, 0x2e, 0x85, 0x3a, 0x1d, 0xb6, 0x2f, 0x3a, 0xd1, 0x48, 0x83, 0x3a, 0x20, 0x9f, 0x7d, 0x3a, 0x7c, 0xf9, 0x31, 0x3a, 0xc9, 0x15, 0x60, 0x3a, 0x69, 0x92, 0x88, 0x3a, 0x85, 0x5f, 0x93, 0x3a, 0x89, 0x60, 0xb5, 0x3a, 0xfd, 0x0e, 0x6f, 0x3a, 0x13, 0x84, 0x7e, 0x3a, 0x25, 0x32, 0x3b, 0x3a, 0x5a, 0xd6, 0x30, 0x3a, 0xe0, 0xa0, 0x32, 0x3a, 0x82, 0xcd, 0x6b, 0x3a, 0x12, 0x00, 0x00, 0x00, 0x74, 0x66, 0x6c, 0x2e, 0x70, 0x73, 0x65, 0x75, 0x64, 0x6f, 0x5f, 0x71, 0x63, 0x6f, 0x6e, 0x73, 0x74, 0x32, 0x00, 0x00, 0x01, 0x00, 0x00, 0x00, 0x10, 0x00, 0x00, 0x00, 0x12, 0xff, 0xff, 0xff, 0x00, 0x00, 0x00, 0x01, 0x14, 0x00, 0x00, 0x00, 0x48, 0x00, 0x00, 0x00, 0x04, 0x00, 0x00, 0x00, 0x00, 0x00, 0x00, 0x09, 0x54, 0x00, 0x00, 0x00, 0x8c, 0xfe, 0xff, 0xff, 0x08, 0x00, 0x00, 0x00, 0x20, 0x00, 0x00, 0x00, 0x03, 0x00, 0x00, 0x00, 0x00, 0x00, 0x00, 0x00, 0x00, 0x00, 0x00, 0x00, 0x00, 0x00, 0x00, 0x00, 0x00, 0x00, 0x00, 0x00, 0x00, 0x00, 0x00, 0x00, 0x00, 0x00, 0x00, 0x00, 0x03, 0x00, 0x00, 0x00, 0x47, 0xaf, 0x83, 0x3b, 0xf9, 0x27, 0x87, 0x3b, 0x61, 0xa0, 0x85, 0x3b, 0x12, 0x00, 0x00, 0x00, 0x74, 0x66, 0x6c, 0x2e, 0x70, 0x73, 0x65, 0x75, 0x64, 0x6f, 0x5f, 0x71, 0x63, 0x6f, 0x6e, 0x73, 0x74, 0x31, 0x00, 0x00, 0x02, 0x00, 0x00, 0x00, 0x03, 0x00, 0x00, 0x00, 0x10, 0x00, 0x00, 0x00, 0x8a, 0xff, 0xff, 0xff, 0x00, 0x00, 0x00, 0x01, 0x14, 0x00, 0x00, 0x00, 0x48, 0x00, 0x00, 0x00, 0x03, 0x00, 0x00, 0x00, 0x00, 0x00, 0x00, 0x02, 0x54, 0x00, 0x00, 0x00, 0x04, 0xff, 0xff, 0xff, 0x08, 0x00, 0x00, 0x00, 0x20, 0x00, 0x00, 0x00, 0x03, 0x00, 0x00, 0x00, 0x00, 0x00, 0x00, 0x00, 0x00, 0x00, 0x00, 0x00, 0x00, 0x00, 0x00, 0x00, 0x00, 0x00, 0x00, 0x00, 0x00, 0x00, 0x00, 0x00, 0x00, 0x00, 0x00, 0x00, 0x03, 0x00, 0x00, 0x00, 0x64, 0x21, 0x74, 0x3a, 0xf2, 0x90, 0x7a, 0x3a, 0xf8, 0xba, 0x77, 0x3a, 0x11, 0x00, 0x00, 0x00, 0x74, 0x66, 0x6c, 0x2e, 0x70, 0x73, 0x65, 0x75, 0x64, 0x6f, 0x5f, 0x71, 0x63, 0x6f, 0x6e, 0x73, 0x74, 0x00, 0x00, 0x00, 0x01, 0x00, 0x00, 0x00, 0x03, 0x00, 0x00, 0x00, 0x00, 0x00, 0x16, 0x00, 0x1c, 0x00, 0x18, 0x00, 0x17, 0x00, 0x10, 0x00, 0x0c, 0x00, 0x08, 0x00, 0x00, 0x00, 0x00, 0x00, 0x00, 0x00, 0x07, 0x00, 0x16, 0x00, 0x00, 0x00, 0x00, 0x00, 0x00, 0x01, 0x18, 0x00, 0x00, 0x00, 0x18, 0x00, 0x00, 0x00, 0x02, 0x00, 0x00, 0x00, 0x00, 0x00, 0x00, 0x02, 0x20, 0x00, 0x00, 0x00, 0x04, 0x00, 0x04, 0x00, 0x04, 0x00, 0x00, 0x00, 0x0e, 0x00, 0x00, 0x00, 0x61, 0x72, 0x69, 0x74, 0x68, 0x2e, 0x63, 0x6f, 0x6e, 0x73, 0x74, 0x61, 0x6e, 0x74, 0x00, 0x00, 0x01, 0x00, 0x00, 0x00, 0x02, 0x00, 0x00, 0x00, 0x00, 0x00, 0x16, 0x00, 0x20, 0x00, 0x1c, 0x00, 0x1b, 0x00, 0x14, 0x00, 0x10, 0x00, 0x0c, 0x00, 0x00, 0x00, 0x00, 0x00, 0x08, 0x00, 0x07, 0x00, 0x16, 0x00, 0x00, 0x00, 0x00, 0x00, 0x00, 0x01, 0x18, 0x00, 0x00, 0x00, 0x34, 0x00, 0x00, 0x00, 0x54, 0x00, 0x00, 0x00, 0x01, 0x00, 0x00, 0x00, 0x00, 0x00, 0x00, 0x09, 0x6c, 0x00, 0x00, 0x00, 0x04, 0x00, 0x00, 0x00, 0xff, 0xff, 0xff, 0xff, 0x20, 0x00, 0x00, 0x00, 0x0d, 0x00, 0x00, 0x00, 0x01, 0x00, 0x00, 0x00, 0x0c, 0x00, 0x0c, 0x00, 0x00, 0x00, 0x00, 0x00, 0x08, 0x00, 0x04, 0x00, 0x0c, 0x00, 0x00, 0x00, 0x08, 0x00, 0x00, 0x00, 0x14, 0x00, 0x00, 0x00, 0x01, 0x00, 0x00, 0x00, 0x4b, 0x00, 0x00, 0x00, 0x00, 0x00, 0x00, 0x00, 0x00, 0x00, 0x00, 0x00, 0x01, 0x00, 0x00, 0x00, 0xd1, 0xab, 0x80, 0x40, 0x1e, 0x00, 0x00, 0x00, 0x73, 0x65, 0x72, 0x76, 0x69, 0x6e, 0x67, 0x5f, 0x64, 0x65, 0x66, 0x61, 0x75, 0x6c, 0x74, 0x5f, 0x6b, 0x65, 0x72, 0x61, 0x73, 0x5f, 0x74, 0x65, 0x6e, 0x73, 0x6f, 0x72, 0x3a, 0x30, 0x00, 0x00, 0x04, 0x00, 0x00, 0x00, 0x01, 0x00, 0x00, 0x00, 0x20, 0x00, 0x00, 0x00, 0x0d, 0x00, 0x00, 0x00, 0x01, 0x00, 0x00, 0x00, 0x05, 0x00, 0x00, 0x00, 0x68, 0x00, 0x00, 0x00, 0x48, 0x00, 0x00, 0x00, 0x38, 0x00, 0x00, 0x00, 0x18, 0x00, 0x00, 0x00, 0x04, 0x00, 0x00, 0x00, 0xb8, 0xff, 0xff, 0xff, 0x19, 0x00, 0x00, 0x00, 0x02, 0x00, 0x00, 0x00, 0x00, 0x00, 0x00, 0x19, 0xc8, 0xff, 0xff, 0xff, 0x09, 0x00, 0x00, 0x00, 0x04, 0x00, 0x00, 0x00, 0x00, 0x00, 0x00, 0x09, 0x0c, 0x00, 0x0c, 0x00, 0x0b, 0x00, 0x00, 0x00, 0x00, 0x00, 0x04, 0x00, 0x0c, 0x00, 0x00, 0x00, 0x16, 0x00, 0x00, 0x00, 0x00, 0x00, 0x00, 0x16, 0xf0, 0xff, 0xff, 0xff, 0x11, 0x00, 0x00, 0x00, 0x02, 0x00, 0x00, 0x00, 0x00, 0x00, 0x00, 0x11, 0x0c, 0x00, 0x10, 0x00, 0x0f, 0x00, 0x00, 0x00, 0x08, 0x00, 0x04, 0x00, 0x0c, 0x00, 0x00, 0x00, 0x03, 0x00, 0x00, 0x00, 0x03, 0x00, 0x00, 0x00, 0x00, 0x00, 0x00, 0x03
};
const unsigned int audio_model_len = 12488;
