// Auto-generated by pipeline
#include <stdint.h>

const unsigned char audio_model[] = {
0x1c, 0x00, 0x00, 0x00, 0x54, 0x46, 0x4c, 0x33, 0x14, 0x00, 0x20, 0x00, 0x1c, 0x00, 0x18, 0x00, 0x14, 0x00, 0x10, 0x00, 0x0c, 0x00, 0x00, 0x00, 0x08, 0x00, 0x04, 0x00, 0x14, 0x00, 0x00, 0x00, 0x1c, 0x00, 0x00, 0x00, 0x8c, 0x00, 0x00, 0x00, 0x0c, 0x01, 0x00, 0x00, 0x48, 0x20, 0x00, 0x00, 0x58, 0x20, 0x00, 0x00, 0x18, 0x30, 0x00, 0x00, 0x03, 0x00, 0x00, 0x00, 0x01, 0x00, 0x00, 0x00, 0x04, 0x00, 0x00, 0x00, 0xae, 0xde, 0xff, 0xff, 0x0c, 0x00, 0x00, 0x00, 0x1c, 0x00, 0x00, 0x00, 0x3c, 0x00, 0x00, 0x00, 0x0f, 0x00, 0x00, 0x00, 0x73, 0x65, 0x72, 0x76, 0x69, 0x6e, 0x67, 0x5f, 0x64, 0x65, 0x66, 0x61, 0x75, 0x6c, 0x74, 0x00, 0x01, 0x00, 0x00, 0x00, 0x04, 0x00, 0x00, 0x00, 0x68, 0xff, 0xff, 0xff, 0x11, 0x00, 0x00, 0x00, 0x04, 0x00, 0x00, 0x00, 0x08, 0x00, 0x00, 0x00, 0x6f, 0x75, 0x74, 0x70, 0x75, 0x74, 0x5f, 0x30, 0x00, 0x00, 0x00, 0x00, 0x01, 0x00, 0x00, 0x00, 0x04, 0x00, 0x00, 0x00, 0x92, 0xdf, 0xff, 0xff, 0x04, 0x00, 0x00, 0x00, 0x0c, 0x00, 0x00, 0x00, 0x6b, 0x65, 0x72, 0x61, 0x73, 0x5f, 0x74, 0x65, 0x6e, 0x73, 0x6f, 0x72, 0x00, 0x00, 0x00, 0x00, 0x03, 0x00, 0x00, 0x00, 0x5c, 0x00, 0x00, 0x00, 0x2c, 0x00, 0x00, 0x00, 0x04, 0x00, 0x00, 0x00, 0xb8, 0xff, 0xff, 0xff, 0x15, 0x00, 0x00, 0x00, 0x04, 0x00, 0x00, 0x00, 0x13, 0x00, 0x00, 0x00, 0x43, 0x4f, 0x4e, 0x56, 0x45, 0x52, 0x53, 0x49, 0x4f, 0x4e, 0x5f, 0x4d, 0x45, 0x54, 0x41, 0x44, 0x41, 0x54, 0x41, 0x00, 0xdc, 0xff, 0xff, 0xff, 0x14, 0x00, 0x00, 0x00, 0x04, 0x00, 0x00, 0x00, 0x13, 0x00, 0x00, 0x00, 0x6d, 0x69, 0x6e, 0x5f, 0x72, 0x75, 0x6e, 0x74, 0x69, 0x6d, 0x65, 0x5f, 0x76, 0x65, 0x72, 0x73, 0x69, 0x6f, 0x6e, 0x00, 0x08, 0x00, 0x0c, 0x00, 0x08, 0x00, 0x04, 0x00, 0x08, 0x00, 0x00, 0x00, 0x13, 0x00, 0x00, 0x00, 0x04, 0x00, 0x00, 0x00, 0x13, 0x00, 0x00, 0x00, 0x6d, 0x69, 0x6e, 0x5f, 0x72, 0x75, 0x6e, 0x74, 0x69, 0x6d, 0x65, 0x5f, 0x76, 0x65, 0x72, 0x73, 0x69, 0x6f, 0x6e, 0x00, 0x16, 0x00, 0x00, 0x00, 0x38, 0x1f, 0x00, 0x00, 0x30, 0x1f, 0x00, 0x00, 0x18, 0x1f, 0x00, 0x00, 0xfc, 0x1e, 0x00, 0x00, 0xbc, 0x1e, 0x00, 0x00, 0x6c, 0x1e, 0x00, 0x00, 0x5c, 0x06, 0x00, 0x00, 0x0c, 0x06, 0x00, 0x00, 0x7c, 0x01, 0x00, 0x00, 0x4c, 0x01, 0x00, 0x00, 0xf4, 0x00, 0x00, 0x00, 0xec, 0x00, 0x00, 0x00, 0xe4, 0x00, 0x00, 0x00, 0xdc, 0x00, 0x00, 0x00, 0xd4, 0x00, 0x00, 0x00, 0xcc, 0x00, 0x00, 0x00, 0xc4, 0x00, 0x00, 0x00, 0xbc, 0x00, 0x00, 0x00, 0xb4, 0x00, 0x00, 0x00, 0x94, 0x00, 0x00, 0x00, 0x74, 0x00, 0x00, 0x00, 0x04, 0x00, 0x00, 0x00, 0x8e, 0xe0, 0xff, 0xff, 0x04, 0x00, 0x00, 0x00, 0x60, 0x00, 0x00, 0x00, 0x0c, 0x00, 0x00, 0x00, 0x08, 0x00, 0x0e, 0x00, 0x08, 0x00, 0x04, 0x00, 0x08, 0x00, 0x00, 0x00, 0x10, 0x00, 0x00, 0x00, 0x28, 0x00, 0x00, 0x00, 0x00, 0x00, 0x06, 0x00, 0x08, 0x00, 0x04, 0x00, 0x06, 0x00, 0x00, 0x00, 0x04, 0x00, 0x00, 0x00, 0x01, 0x00, 0x00, 0x00, 0xeb, 0x03, 0x00, 0x00, 0x0c, 0x00, 0x18, 0x00, 0x14, 0x00, 0x10, 0x00, 0x0c, 0x00, 0x04, 0x00, 0x0c, 0x00, 0x00, 0x00, 0xbb, 0x46, 0x89, 0xff, 0xc6, 0x44, 0x1d, 0x13, 0x02, 0x00, 0x00, 0x00, 0x02, 0x00, 0x00, 0x00, 0x04, 0x00, 0x00, 0x00, 0x06, 0x00, 0x00, 0x00, 0x32, 0x2e, 0x31, 0x39, 0x2e, 0x30, 0x00, 0x00, 0xfa, 0xe0, 0xff, 0xff, 0x04, 0x00, 0x00, 0x00, 0x10, 0x00, 0x00, 0x00, 0x00, 0x00, 0x00, 0x00, 0x00, 0x00, 0x00, 0x00, 0x00, 0x00, 0x00, 0x00, 0x00, 0x00, 0x00, 0x00, 0x16, 0xe1, 0xff, 0xff, 0x04, 0x00, 0x00, 0x00, 0x10, 0x00, 0x00, 0x00, 0x31, 0x2e, 0x31, 0x34, 0x2e, 0x30, 0x00, 0x00, 0x00, 0x00, 0x00, 0x00, 0x00, 0x00, 0x00, 0x00, 0xc0, 0xd2, 0xff, 0xff, 0xc4, 0xd2, 0xff, 0xff, 0xc8, 0xd2, 0xff, 0xff, 0xcc, 0xd2, 0xff, 0xff, 0xd0, 0xd2, 0xff, 0xff, 0xd4, 0xd2, 0xff, 0xff, 0xd8, 0xd2, 0xff, 0xff, 0xdc, 0xd2, 0xff, 0xff, 0x52, 0xe1, 0xff, 0xff, 0x04, 0x00, 0x00, 0x00, 0x48, 0x00, 0x00, 0x00, 0x7c, 0x32, 0xfe, 0x3b, 0x7f, 0x82, 0xbe, 0x98, 0x60, 0x81, 0xe5, 0xac, 0x6e, 0x73, 0xd7, 0x5d, 0x8f, 0xda, 0xd9, 0xf6, 0x63, 0x9e, 0xfe, 0x7f, 0x29, 0xaf, 0x33, 0x4a, 0xcb, 0x89, 0x81, 0xd3, 0x34, 0xb1, 0x0b, 0x09, 0xe4, 0x18, 0x81, 0x8e, 0x8e, 0x04, 0x0b, 0x01, 0x63, 0x81, 0x28, 0x32, 0xb5, 0x12, 0x7d, 0x4e, 0x4f, 0x70, 0x7f, 0xe6, 0x10, 0x1f, 0x32, 0x53, 0x6b, 0xee, 0x30, 0x0f, 0x11, 0x0f, 0xc8, 0xf6, 0xe5, 0x4f, 0xc5, 0x81, 0xa6, 0xe1, 0xff, 0xff, 0x04, 0x00, 0x00, 0x00, 0x20, 0x00, 0x00, 0x00, 0xfd, 0xff, 0xff, 0xff, 0x01, 0x00, 0x00, 0x00, 0x00, 0x00, 0x00, 0x00, 0x02, 0x00, 0x00, 0x00, 0x05, 0x00, 0x00, 0x00, 0x02, 0x00, 0x00, 0x00, 0xfe, 0xff, 0xff, 0xff, 0xff, 0xff, 0xff, 0xff, 0xd2, 0xe1, 0xff, 0xff, 0x04, 0x00, 0x00, 0x00, 0x80, 0x04, 0x00, 0x00, 0x08, 0x15, 0xd7, 0xa6, 0x63, 0x46, 0x1e, 0x22, 0xc1, 0x1f, 0xb2, 0x92, 0xb5, 0xd4, 0x17, 0xbd, 0x11, 0x9e, 0xa1, 0x4e, 0x17, 0xa2, 0x00, 0x29, 0x85, 0xa7, 0xc2, 0x5e, 0xbc, 0x1b, 0x6a, 0xae, 0x81, 0xa0, 0x8e, 0x40, 0xac, 0x01, 0xe2, 0x6a, 0x6c, 0x0e, 0xf6, 0xe5, 0x56, 0x42, 0x3f, 0x01, 0x51, 0x31, 0x9f, 0xfe, 0xd8, 0xb6, 0x9a, 0xdc, 0xd9, 0x6b, 0xec, 0x51, 0x8f, 0x62, 0xd2, 0xb2, 0x4d, 0xe6, 0x36, 0x0a, 0xeb, 0x69, 0xc2, 0xfe, 0xef, 0x1e, 0xa9, 0x4e, 0x7f, 0xcc, 0x45, 0xd3, 0x47, 0x29, 0xda, 0x5e, 0xc8, 0xc0, 0x0d, 0x01, 0x47, 0x9b, 0x06, 0xa4, 0xd0, 0x45, 0x10, 0x64, 0xac, 0x5a, 0x0c, 0xeb, 0x35, 0xf1, 0xb9, 0x47, 0xfc, 0xb3, 0xf9, 0x49, 0x31, 0x55, 0x06, 0xbe, 0x02, 0x0f, 0x4a, 0x1e, 0x32, 0x1e, 0xfb, 0x2d, 0x51, 0xd2, 0xb7, 0x3f, 0x58, 0xc0, 0xa5, 0x21, 0xa5, 0xe3, 0xba, 0x00, 0x5e, 0x22, 0xda, 0x21, 0x21, 0x3c, 0xd1, 0xee, 0xed, 0x62, 0x54, 0x04, 0x53, 0xbf, 0x2e, 0x5a, 0xf6, 0x44, 0xe7, 0xac, 0xfc, 0xd1, 0x09, 0x96, 0xe4, 0x96, 0xc1, 0xc8, 0x4e, 0xe1, 0xe5, 0xf3, 0x5d, 0xe5, 0xd8, 0xe8, 0xab, 0xf0, 0x46, 0xcf, 0x4d, 0x30, 0xcf, 0xc0, 0xca, 0x8d, 0x67, 0xe7, 0x50, 0x4c, 0x16, 0x98, 0x92, 0x61, 0x8e, 0x06, 0xf7, 0xcf, 0x1a, 0xdf, 0x91, 0x30, 0xe7, 0x18, 0xe5, 0x96, 0xef, 0x92, 0x0b, 0x12, 0x3b, 0x56, 0xa0, 0xab, 0x24, 0xe1, 0x47, 0xd6, 0x8f, 0xf1, 0x50, 0x2b, 0x65, 0x7f, 0x8c, 0x6d, 0xd2, 0xd8, 0x49, 0xfb, 0x24, 0x75, 0xdc, 0xd6, 0x63, 0x83, 0x08, 0x57, 0xcb, 0x88, 0x32, 0x51, 0x5a, 0x8f, 0x48, 0xdd, 0x24, 0x89, 0x69, 0xb6, 0xff, 0xe6, 0x0b, 0xc5, 0xc1, 0x70, 0xd7, 0x12, 0x5d, 0x06, 0xd8, 0x62, 0x61, 0xa0, 0x4c, 0x43, 0x1a, 0x87, 0xfc, 0xee, 0x28, 0x04, 0xf7, 0xf9, 0x12, 0x3d, 0xc0, 0x50, 0x22, 0xf5, 0xfc, 0xdc, 0xa4, 0x90, 0x81, 0xd7, 0xb0, 0x67, 0x55, 0xe4, 0xc2, 0xff, 0xbc, 0x33, 0xbd, 0xca, 0x69, 0x4a, 0x1d, 0x17, 0x71, 0x5b, 0x47, 0xe5, 0x12, 0x61, 0x40, 0xd0, 0xc8, 0x72, 0x5d, 0xa0, 0xc7, 0xcf, 0xf4, 0x2e, 0x3f, 0x78, 0xca, 0x28, 0xad, 0xe8, 0x33, 0x08, 0xfe, 0x3b, 0xf4, 0x2a, 0x17, 0x6e, 0x1b, 0x7a, 0x89, 0x89, 0xf6, 0x1b, 0x4b, 0x56, 0xdd, 0x18, 0x5a, 0x48, 0x3e, 0x0e, 0xcc, 0x35, 0xc0, 0x66, 0xf7, 0x22, 0x38, 0x0b, 0x61, 0xc5, 0x23, 0xed, 0xc8, 0xdd, 0x5e, 0x2a, 0xd0, 0x62, 0x36, 0x7f, 0x1f, 0xa7, 0x38, 0x50, 0x22, 0x50, 0xf6, 0x0d, 0x09, 0x0d, 0x88, 0xe0, 0x25, 0x70, 0xeb, 0xab, 0xbf, 0xc0, 0xd1, 0x60, 0x81, 0x37, 0xfd, 0xf8, 0x9f, 0x6a, 0xc0, 0x05, 0xc9, 0x6b, 0x33, 0x3b, 0x3e, 0x4e, 0xde, 0x6b, 0x0e, 0xaa, 0xfa, 0x0a, 0x8b, 0x56, 0xd2, 0x3a, 0xdf, 0xdf, 0xd1, 0xee, 0xb8, 0xd4, 0x2f, 0xf0, 0xa2, 0x6c, 0xfe, 0x87, 0xa4, 0xdb, 0xf6, 0x93, 0x17, 0x43, 0x4c, 0xf4, 0x36, 0x85, 0x30, 0x00, 0x09, 0x0e, 0xdf, 0xc5, 0x4f, 0xfd, 0xa1, 0xbf, 0x5a, 0x11, 0xb7, 0x12, 0x38, 0xb6, 0x61, 0x1b, 0xdc, 0x34, 0xc1, 0x49, 0xc0, 0x37, 0xef, 0x37, 0x4d, 0xc4, 0xfd, 0x6b, 0x36, 0xa9, 0xb9, 0x0d, 0x2b, 0x08, 0x4c, 0x38, 0xf9, 0xb1, 0xcd, 0x4b, 0xab, 0xfa, 0xde, 0x0c, 0x39, 0xc5, 0x53, 0xdd, 0x0a, 0x24, 0xe8, 0xbe, 0x2b, 0xaa, 0x24, 0xba, 0xc1, 0x4a, 0xcf, 0x2c, 0x21, 0xc8, 0x53, 0x03, 0xe5, 0xaf, 0xab, 0x46, 0x7f, 0xa1, 0x1d, 0xc2, 0xf6, 0x03, 0xee, 0xe0, 0xe4, 0xfd, 0xf4, 0xaf, 0xb4, 0x5a, 0xb6, 0xf5, 0xae, 0x21, 0xea, 0x66, 0xd8, 0xf1, 0xd9, 0xe1, 0xd3, 0xbe, 0x96, 0x39, 0xd9, 0xb9, 0x03, 0x4b, 0x35, 0x63, 0x0d, 0x18, 0xe9, 0x79, 0xe6, 0xdc, 0x29, 0x3d, 0x8f, 0xf6, 0x33, 0xc1, 0xf8, 0x62, 0xc7, 0x32, 0x19, 0x24, 0xc8, 0xc8, 0xdb, 0x7b, 0x7f, 0x41, 0x10, 0x4d, 0x5e, 0x5b, 0xb5, 0x3d, 0x02, 0x37, 0xdb, 0x9e, 0xf7, 0x48, 0xd1, 0xf7, 0x62, 0xf3, 0xf0, 0x2d, 0x1f, 0x5d, 0x0f, 0x4a, 0x20, 0x01, 0x12, 0x3c, 0x41, 0x47, 0x59, 0x85, 0x3f, 0xa0, 0x03, 0x75, 0xba, 0x90, 0xe2, 0x65, 0x65, 0x43, 0x60, 0x0d, 0x6e, 0x81, 0xb8, 0xd7, 0x13, 0xa1, 0xb4, 0x50, 0x93, 0x51, 0xc8, 0x14, 0x0b, 0x3d, 0x53, 0xde, 0xbf, 0xbf, 0xd0, 0x30, 0x93, 0xa3, 0x3d, 0x0c, 0x4c, 0x20, 0xcc, 0xa1, 0x30, 0x55, 0x3c, 0x76, 0x01, 0x0d, 0x31, 0x06, 0xcb, 0x36, 0x54, 0x3e, 0x60, 0xb6, 0x66, 0x75, 0x26, 0x78, 0xce, 0x5f, 0x88, 0x45, 0x9b, 0x2f, 0xe9, 0x81, 0x8f, 0xef, 0x08, 0xe5, 0x97, 0xc6, 0x40, 0xc7, 0x36, 0x6c, 0x95, 0x28, 0xff, 0xe6, 0xdf, 0x91, 0xc7, 0xdc, 0x8b, 0xd9, 0x6b, 0xa2, 0x75, 0x2f, 0x1f, 0x2a, 0xfa, 0x17, 0x08, 0x1f, 0x54, 0x6f, 0xb0, 0x3c, 0x43, 0xbf, 0x91, 0xa2, 0x91, 0x3f, 0x50, 0xc8, 0xc5, 0x68, 0x35, 0xfd, 0xb2, 0x70, 0x21, 0x8b, 0x8f, 0x73, 0xeb, 0xec, 0xc2, 0x62, 0xb1, 0x1c, 0xdf, 0xf8, 0x52, 0xa9, 0x67, 0xe4, 0x9e, 0x92, 0x2b, 0x63, 0x1d, 0x96, 0x42, 0x7f, 0x33, 0xa7, 0xc3, 0xae, 0x16, 0xa4, 0xc5, 0x3e, 0xac, 0x6e, 0xd1, 0xd5, 0xd3, 0xbc, 0x49, 0x31, 0x8b, 0x43, 0x40, 0x15, 0x11, 0x67, 0x7f, 0xb3, 0xf9, 0x59, 0x51, 0x58, 0x1d, 0x90, 0xc9, 0xe5, 0x4e, 0x93, 0xff, 0x25, 0xd2, 0xdf, 0x61, 0x4f, 0xc5, 0xee, 0xc4, 0x26, 0xcd, 0x2b, 0x23, 0x0b, 0x05, 0x51, 0x0d, 0xe7, 0x29, 0x0a, 0x90, 0xd1, 0x44, 0xc9, 0x56, 0x05, 0x31, 0xb5, 0x60, 0x24, 0xc6, 0x90, 0x08, 0xff, 0x3c, 0x03, 0x01, 0x96, 0xaf, 0x34, 0xe3, 0x4e, 0x18, 0x81, 0x91, 0x82, 0x3e, 0x75, 0x46, 0xfc, 0xff, 0x37, 0x6d, 0xcf, 0x99, 0x0f, 0x20, 0xee, 0xd2, 0xc8, 0x26, 0xb4, 0xe3, 0xff, 0xda, 0x39, 0xd9, 0x97, 0x0f, 0x68, 0x98, 0xb8, 0xf6, 0x25, 0x2b, 0x3c, 0x5f, 0xd5, 0xf7, 0xa4, 0xa9, 0xce, 0x1a, 0xe9, 0xa4, 0x78, 0xef, 0xd6, 0x41, 0x42, 0x34, 0x11, 0x71, 0x51, 0x2c, 0x6b, 0x68, 0x51, 0xdc, 0x0a, 0x13, 0x1a, 0x8f, 0x75, 0x17, 0xbe, 0xe6, 0xa6, 0xc4, 0x50, 0xa1, 0x43, 0x4d, 0xd5, 0x36, 0xad, 0x97, 0x42, 0xb4, 0x69, 0x17, 0x45, 0x42, 0x15, 0x53, 0xb1, 0xe7, 0x96, 0xa7, 0x07, 0xb7, 0xb0, 0xe9, 0xc3, 0x82, 0xd5, 0x6e, 0x2b, 0x7f, 0x1f, 0xbe, 0xc5, 0x71, 0x95, 0x0b, 0x32, 0x4d, 0xd2, 0x92, 0x08, 0xd4, 0xe3, 0x13, 0x0f, 0xab, 0xea, 0x44, 0xc8, 0x15, 0xa0, 0x1a, 0xe2, 0xc7, 0xf0, 0x42, 0x4b, 0x93, 0xab, 0x47, 0x62, 0x32, 0xd5, 0x67, 0x1a, 0xd1, 0x5e, 0xfd, 0x66, 0xb6, 0x67, 0x35, 0xda, 0xef, 0x14, 0xad, 0x89, 0x1c, 0xac, 0x85, 0x89, 0x1e, 0x3b, 0x35, 0x63, 0xc9, 0x9b, 0x2f, 0xfa, 0x5f, 0x47, 0xf8, 0xff, 0x29, 0xe4, 0x36, 0xf4, 0x24, 0xdc, 0x65, 0x93, 0xbd, 0x71, 0x16, 0x70, 0xb7, 0x66, 0x9c, 0x1a, 0xa0, 0xfd, 0x66, 0xdb, 0x67, 0x7f, 0x1f, 0x09, 0xc8, 0xa5, 0x47, 0xad, 0x4b, 0x56, 0x6d, 0x43, 0x85, 0x07, 0x21, 0x8f, 0x44, 0x15, 0x6c, 0x3a, 0xac, 0x2c, 0x45, 0xff, 0x11, 0x78, 0xe2, 0x75, 0xb4, 0x71, 0xc1, 0x98, 0x6b, 0x07, 0x32, 0x06, 0xa8, 0x64, 0xb4, 0xfc, 0x2c, 0x4a, 0x34, 0x9e, 0x9d, 0xb9, 0x66, 0x44, 0xe8, 0x4f, 0x6e, 0x19, 0x72, 0xa2, 0x58, 0x94, 0x06, 0x27, 0xe3, 0x6c, 0x02, 0xbf, 0x5c, 0xde, 0xa4, 0x7f, 0x61, 0x68, 0xad, 0x49, 0x4e, 0x86, 0x1a, 0x28, 0xfa, 0xb7, 0xe5, 0xff, 0x27, 0xd5, 0x2c, 0x7b, 0x64, 0x5a, 0x06, 0x16, 0x97, 0x9b, 0xd9, 0x16, 0x1b, 0xbc, 0x3b, 0x34, 0xff, 0x55, 0xbc, 0x91, 0x8d, 0x56, 0xa0, 0x18, 0x2d, 0x3d, 0xd3, 0xbe, 0x36, 0x15, 0xfd, 0x81, 0xe4, 0x2c, 0x0d, 0x74, 0xe5, 0xe3, 0x5d, 0x77, 0xd8, 0xc9, 0xeb, 0xeb, 0xbc, 0xea, 0x64, 0x29, 0x44, 0x41, 0xae, 0xc4, 0x29, 0xf8, 0xa1, 0xd5, 0x5b, 0xff, 0xa9, 0xbf, 0xb2, 0xbe, 0xb9, 0x4e, 0x25, 0xfa, 0x93, 0x68, 0x9a, 0x1c, 0xb2, 0xb4, 0x5e, 0x77, 0x65, 0x38, 0x3a, 0xd1, 0xda, 0xf4, 0xeb, 0x13, 0x63, 0x20, 0x02, 0x12, 0xbb, 0x3b, 0x72, 0x33, 0xb9, 0x2f, 0x2b, 0x65, 0xe8, 0xde, 0xbd, 0xa3, 0x67, 0x5b, 0x5e, 0xe6, 0xff, 0xff, 0x04, 0x00, 0x00, 0x00, 0x40, 0x00, 0x00, 0x00, 0xf9, 0xff, 0xff, 0xff, 0x06, 0x00, 0x00, 0x00, 0xf9, 0xff, 0xff, 0xff, 0x06, 0x00, 0x00, 0x00, 0x02, 0x00, 0x00, 0x00, 0x04, 0x00, 0x00, 0x00, 0x0f, 0x00, 0x00, 0x00, 0xfd, 0xff, 0xff, 0xff, 0xec, 0xff, 0xff, 0xff, 0x0b, 0x00, 0x00, 0x00, 0xff, 0xff, 0xff, 0xff, 0x05, 0x00, 0x00, 0x00, 0xef, 0xff, 0xff, 0xff, 0xf3, 0xff, 0xff, 0xff, 0x00, 0x00, 0x00, 0x00, 0x02, 0x00, 0x00, 0x00, 0xaa, 0xe6, 0xff, 0xff, 0x04, 0x00, 0x00, 0x00, 0x00, 0x18, 0x00, 0x00, 0xe0, 0x07, 0x0c, 0xe0, 0xe9, 0x0d, 0x2d, 0x00, 0x12, 0xfd, 0xdd, 0xd0, 0x12, 0xda, 0xd3, 0xf5, 0xd6, 0xf4, 0x2b, 0xcf, 0xe5, 0xcd, 0x3c, 0xe3, 0xdf, 0xf2, 0xcb, 0xcf, 0xfd, 0xc9, 0xcf, 0xd5, 0xf5, 0xdd, 0x30, 0xd3, 0x1c, 0x2d, 0xf6, 0xf9, 0xe6, 0x27, 0x09, 0x2d, 0x1d, 0x13, 0xe8, 0x0a, 0xe9, 0x18, 0x00, 0xd7, 0x15, 0x00, 0x4c, 0x12, 0x32, 0x0d, 0xf0, 0x10, 0xdd, 0xe2, 0x11, 0xe4, 0xce, 0x01, 0xd6, 0xff, 0x21, 0xfc, 0x27, 0xcc, 0xea, 0xd1, 0x26, 0x03, 0xd3, 0x20, 0xca, 0x11, 0xe3, 0x1a, 0x12, 0xeb, 0xe9, 0x0c, 0xe5, 0x01, 0x2e, 0xe8, 0x1f, 0x0a, 0xd9, 0x20, 0xe6, 0xd4, 0x0c, 0xcf, 0xce, 0x24, 0x1b, 0x10, 0x65, 0x39, 0xcf, 0xff, 0x2a, 0x28, 0x0c, 0x18, 0x1c, 0xd5, 0x29, 0xee, 0x2e, 0xd5, 0xed, 0xcc, 0x11, 0xd3, 0x1b, 0xe0, 0x27, 0xde, 0x13, 0x13, 0x09, 0xe6, 0x0b, 0x1a, 0x06, 0xe4, 0x29, 0xf0, 0xfe, 0x10, 0x1b, 0xd0, 0xe5, 0xf6, 0x1e, 0xe8, 0x0d, 0x04, 0x03, 0xde, 0xf9, 0xd4, 0x11, 0xff, 0x7f, 0x21, 0x00, 0x0f, 0x2e, 0x13, 0x06, 0xe8, 0xf2, 0xda, 0xe0, 0x15, 0x01, 0x37, 0x04, 0xf3, 0x24, 0xfd, 0xd5, 0x0f, 0x24, 0x1c, 0xe0, 0x10, 0xee, 0xfe, 0xfc, 0x0e, 0x10, 0x2e, 0xe2, 0xde, 0xf2, 0x0e, 0xd8, 0xef, 0x03, 0xcd, 0xfc, 0x0d, 0x1d, 0x23, 0x26, 0x34, 0xe9, 0xda, 0xec, 0xe8, 0x2d, 0x30, 0x30, 0xe6, 0x09, 0xf8, 0x20, 0xf0, 0x31, 0x0f, 0x09, 0x30, 0x31, 0x24, 0xf9, 0x1e, 0x26, 0x08, 0xde, 0xd1, 0xc8, 0x2d, 0xc5, 0xc9, 0xd9, 0xf9, 0xdf, 0x05, 0xdb, 0x28, 0xdf, 0x18, 0xcc, 0x11, 0x31, 0x05, 0x22, 0xfb, 0x30, 0xfb, 0x21, 0x21, 0x1a, 0x0e, 0xf3, 0x2e, 0xdc, 0x1f, 0x4f, 0x07, 0x2b, 0x0b, 0x2f, 0xff, 0xff, 0xe0, 0x0b, 0x1f, 0x20, 0x2c, 0x1b, 0x11, 0xeb, 0xee, 0x28, 0x0e, 0xfe, 0xfe, 0x09, 0xd4, 0xe5, 0x01, 0x27, 0x03, 0xd2, 0xe1, 0xf5, 0x06, 0x1a, 0xfe, 0xdc, 0x11, 0xe3, 0x05, 0x1b, 0x0d, 0x02, 0xde, 0x16, 0xdb, 0xf9, 0xe1, 0xde, 0x20, 0xf9, 0x1f, 0x18, 0xf9, 0xe0, 0x19, 0x29, 0xe0, 0x05, 0x32, 0xe5, 0x1b, 0xf5, 0xeb, 0x05, 0x1e, 0x21, 0xc9, 0x1a, 0xfe, 0x30, 0x2c, 0x05, 0x2d, 0xe1, 0x04, 0xf6, 0x02, 0x10, 0x10, 0x1d, 0xff, 0x1c, 0x2c, 0xf9, 0xcd, 0x09, 0x0f, 0x07, 0x03, 0xe1, 0x2a, 0xe6, 0x23, 0x02, 0xd5, 0xde, 0x2a, 0x04, 0xdb, 0xfc, 0xe8, 0x1e, 0xf5, 0xc5, 0xe7, 0xfe, 0xdf, 0xeb, 0xd1, 0x25, 0x3a, 0xfb, 0xdf, 0x16, 0x2a, 0xee, 0x34, 0x29, 0xf0, 0x31, 0x43, 0x2c, 0x07, 0x1a, 0xfd, 0x1b, 0xde, 0xf2, 0xf0, 0xf4, 0xff, 0x24, 0xfb, 0xcc, 0xd9, 0xef, 0x09, 0x31, 0xd7, 0xdb, 0x12, 0x12, 0x14, 0xb8, 0x21, 0xb6, 0xd9, 0x32, 0x0b, 0xfd, 0x15, 0xcc, 0xe6, 0x1e, 0x2f, 0x28, 0xcc, 0x36, 0xe9, 0xc2, 0x2d, 0xf6, 0xe9, 0xc6, 0x3d, 0x12, 0x03, 0x31, 0x1a, 0x0a, 0x1e, 0x02, 0xd8, 0x04, 0x04, 0x22, 0xcc, 0x3d, 0xd4, 0xff, 0x40, 0x21, 0x21, 0xbb, 0x0f, 0x38, 0xd7, 0x2b, 0x38, 0x41, 0x1b, 0x06, 0xf5, 0x12, 0x1a, 0xd2, 0x00, 0x0b, 0xfb, 0x27, 0xf8, 0x0e, 0x03, 0x09, 0xec, 0x3e, 0xba, 0x08, 0x32, 0xd3, 0xd7, 0xa0, 0xd0, 0xf0, 0xab, 0xca, 0xe5, 0x35, 0xdf, 0xb0, 0x09, 0xfa, 0x17, 0xea, 0x20, 0x1c, 0xc9, 0x4d, 0xf8, 0xbf, 0x1c, 0xe2, 0x09, 0x3b, 0x13, 0xf5, 0x44, 0x00, 0x28, 0xff, 0xf0, 0x13, 0xf6, 0x40, 0xea, 0x17, 0xf7, 0x31, 0x22, 0xbd, 0xb3, 0xc7, 0x2f, 0x17, 0xb7, 0x49, 0x36, 0xe9, 0xdc, 0x00, 0xf9, 0x34, 0x04, 0x17, 0xff, 0xca, 0xef, 0x20, 0x01, 0xd9, 0x26, 0xb6, 0xfd, 0xe0, 0xff, 0x23, 0x18, 0xde, 0x18, 0xee, 0x4f, 0x12, 0xf5, 0x0a, 0x33, 0xf5, 0x1d, 0xc3, 0xeb, 0xde, 0xf4, 0x1d, 0x34, 0x0a, 0xf1, 0xfb, 0xf6, 0x2f, 0xfc, 0x06, 0x2f, 0xdf, 0xbe, 0x1e, 0xf8, 0x0b, 0x1a, 0xb7, 0xdf, 0xe5, 0xb3, 0xc9, 0xb8, 0x2f, 0xe6, 0xd9, 0x02, 0xcf, 0xdc, 0xe6, 0xe1, 0xf8, 0x11, 0x7f, 0x38, 0xeb, 0x03, 0x3f, 0x32, 0x3c, 0xe0, 0xd5, 0xf4, 0xf1, 0x39, 0x0d, 0xcc, 0xf9, 0xf5, 0x25, 0xd7, 0x2a, 0x1f, 0xd9, 0xf2, 0x24, 0x25, 0x1b, 0xf3, 0x16, 0x20, 0x07, 0x4e, 0x32, 0xe2, 0x4b, 0x13, 0xf6, 0x11, 0x2b, 0xed, 0xe4, 0x0b, 0xd0, 0x03, 0xbf, 0x2b, 0xc1, 0x2b, 0x11, 0x04, 0x49, 0xe3, 0xfe, 0xdb, 0x0b, 0x50, 0xf1, 0xeb, 0x34, 0x4c, 0xed, 0xc7, 0xf8, 0x49, 0x3c, 0xc1, 0xeb, 0x45, 0x11, 0xf1, 0xfb, 0xc4, 0xc4, 0x38, 0x35, 0xe3, 0x0f, 0x29, 0x01, 0x21, 0xc2, 0x36, 0xb7, 0xdf, 0xf7, 0x30, 0xc6, 0x1a, 0x36, 0xfa, 0x45, 0xf4, 0xfc, 0xd8, 0xb3, 0x24, 0x21, 0xbb, 0x26, 0x11, 0x0a, 0x2f, 0x39, 0xec, 0xb4, 0x11, 0xed, 0x3e, 0xec, 0xf0, 0x23, 0x49, 0xcb, 0x1b, 0xf2, 0x35, 0x1d, 0x44, 0x0a, 0x2b, 0xcd, 0xaa, 0x0e, 0x22, 0xe8, 0xd0, 0xd7, 0xdb, 0x2c, 0x4a, 0x16, 0x1c, 0xce, 0x18, 0xe7, 0xe2, 0xde, 0x20, 0x01, 0x0c, 0x08, 0xd1, 0x02, 0xdf, 0x4b, 0xfb, 0xe4, 0xd9, 0xda, 0x32, 0xdd, 0xcc, 0x10, 0x20, 0x3a, 0x20, 0xf0, 0x16, 0xf2, 0x3c, 0x1b, 0x02, 0x18, 0x15, 0x1a, 0xda, 0xd7, 0x1e, 0x2a, 0x36, 0x35, 0xb6, 0x31, 0x29, 0x05, 0xf7, 0xe4, 0xd4, 0xfe, 0x00, 0xe9, 0xda, 0xec, 0xd9, 0x2b, 0xd7, 0xca, 0xef, 0xf0, 0xf5, 0xf2, 0x0e, 0x31, 0xca, 0x38, 0xd8, 0x0a, 0xda, 0xf1, 0xed, 0x16, 0xc2, 0x3c, 0xed, 0x21, 0x4c, 0x4e, 0x02, 0xf6, 0x26, 0x08, 0x0e, 0x96, 0xbf, 0xdb, 0x16, 0x18, 0xa5, 0xdf, 0xde, 0x20, 0xb8, 0x12, 0x25, 0xdb, 0xcf, 0x7d, 0x43, 0x0c, 0xd1, 0xb6, 0x19, 0x1a, 0xf1, 0xdd, 0x42, 0xad, 0xba, 0xb6, 0x01, 0xd3, 0x13, 0x4a, 0xf2, 0xe3, 0xae, 0x4b, 0x25, 0x37, 0x60, 0xff, 0xd0, 0xe2, 0xba, 0xea, 0x54, 0xfa, 0x0f, 0x4a, 0xeb, 0x64, 0x5a, 0x22, 0x35, 0x53, 0x74, 0xc2, 0x5e, 0xb2, 0x47, 0x2c, 0x17, 0xaf, 0x48, 0xea, 0x1d, 0x19, 0x9c, 0xb4, 0x9d, 0x95, 0xa4, 0xa4, 0xb7, 0x45, 0xa7, 0x98, 0x52, 0x5e, 0xd0, 0xf6, 0x55, 0x64, 0x4f, 0xcd, 0x24, 0x3f, 0x06, 0x14, 0x28, 0x37, 0xd7, 0x5c, 0xd0, 0x01, 0xaf, 0x6a, 0xbb, 0x25, 0x21, 0x4e, 0x18, 0x17, 0xbc, 0xc1, 0x2a, 0x1a, 0xb6, 0x6f, 0x64, 0x19, 0xd0, 0xa5, 0xfc, 0x94, 0x19, 0x44, 0xb1, 0x8b, 0xd1, 0x90, 0x2e, 0x36, 0xf6, 0x3c, 0x23, 0x56, 0xc0, 0xd6, 0x01, 0x21, 0xfc, 0x74, 0x0a, 0xa9, 0x50, 0xb6, 0xd1, 0x01, 0x65, 0x1d, 0xb0, 0x5d, 0x3e, 0x4e, 0xcf, 0x37, 0x2c, 0x5b, 0xe7, 0xce, 0x55, 0x23, 0x49, 0x35, 0x32, 0xc9, 0x64, 0xcb, 0x2a, 0xd1, 0xa3, 0x31, 0x37, 0x85, 0xa5, 0x1a, 0xfb, 0xc5, 0xe7, 0xe2, 0x9d, 0xb4, 0x08, 0x49, 0xa1, 0xdc, 0x9f, 0x2e, 0x1f, 0x3e, 0xea, 0x1a, 0xde, 0x27, 0x24, 0x59, 0x32, 0xa3, 0x04, 0xe8, 0xa4, 0x69, 0xd9, 0x05, 0x7f, 0x63, 0x09, 0xf8, 0x9a, 0x00, 0xf7, 0x44, 0x7b, 0x64, 0x34, 0xcd, 0x23, 0x44, 0x29, 0x03, 0xa7, 0xb9, 0xa2, 0xf0, 0x91, 0xee, 0xac, 0x59, 0x23, 0x45, 0x2c, 0x55, 0xab, 0xbe, 0xa6, 0xa5, 0x52, 0x2c, 0x31, 0x07, 0xd0, 0x90, 0x02, 0x1d, 0xe0, 0x63, 0xca, 0xe1, 0x06, 0x2a, 0x56, 0x19, 0x62, 0xca, 0x3a, 0xcc, 0xc1, 0xf3, 0xd6, 0x22, 0x29, 0x4a, 0x38, 0x43, 0xf2, 0x52, 0xcc, 0x33, 0x23, 0xfa, 0x29, 0xe1, 0xdc, 0x1f, 0x3e, 0x60, 0xc0, 0xa2, 0xf5, 0x0e, 0xb3, 0x4c, 0x91, 0x0f, 0xd6, 0x35, 0xf8, 0x5c, 0x18, 0x4f, 0x5a, 0xf9, 0xb3, 0xee, 0x2a, 0xed, 0xfb, 0x42, 0xe1, 0x97, 0xbb, 0xb8, 0xe7, 0xc8, 0x1b, 0x10, 0x32, 0x18, 0x58, 0x69, 0x37, 0x59, 0xdd, 0x39, 0x32, 0x62, 0x61, 0xe1, 0xc6, 0xce, 0x30, 0xc1, 0xd4, 0x54, 0xbc, 0xe4, 0xa9, 0x43, 0x55, 0x1a, 0x90, 0x3e, 0xa2, 0x14, 0xc4, 0x27, 0x0a, 0xc4, 0xcd, 0x29, 0xdd, 0xa6, 0x3c, 0x29, 0xf1, 0xfe, 0x44, 0xbf, 0xa3, 0xda, 0x02, 0xc5, 0x30, 0x69, 0x14, 0xfe, 0x49, 0xdd, 0x26, 0x5c, 0xdf, 0xe1, 0x04, 0xdb, 0xf2, 0xfe, 0x72, 0xf8, 0xf3, 0x2c, 0x0d, 0x17, 0xcf, 0xca, 0xf6, 0xa6, 0x31, 0xb3, 0x5b, 0xb0, 0xe2, 0xaf, 0x4a, 0x0c, 0xc4, 0xfa, 0x2c, 0xf7, 0x93, 0xb3, 0xcd, 0xed, 0x18, 0x23, 0x64, 0xcc, 0x0a, 0xec, 0xeb, 0xf8, 0xc9, 0x72, 0xf9, 0x0e, 0xbe, 0x9d, 0xe7, 0xcd, 0x1c, 0x03, 0x07, 0xb2, 0x6b, 0xe5, 0xce, 0xbe, 0x03, 0x33, 0xf4, 0xca, 0x53, 0x0b, 0xa0, 0x1b, 0x1e, 0xa9, 0x73, 0x49, 0xf9, 0x09, 0x3d, 0xa0, 0x3d, 0x3d, 0x14, 0x3e, 0x3c, 0x1e, 0x72, 0xe6, 0x88, 0xee, 0x55, 0xba, 0xb8, 0x64, 0xf5, 0x11, 0x34, 0x42, 0x68, 0x14, 0x2c, 0x48, 0x5a, 0x13, 0x20, 0x45, 0xa4, 0x10, 0x32, 0x01, 0x6c, 0x98, 0xcf, 0xec, 0xc6, 0x29, 0xea, 0x3d, 0x45, 0x1d, 0x81, 0x05, 0x4b, 0xf8, 0xf8, 0x45, 0xd7, 0xb1, 0xb1, 0x30, 0x4e, 0x35, 0xd9, 0x07, 0x68, 0x39, 0x45, 0x9f, 0x19, 0xc4, 0x93, 0xe3, 0x59, 0xc2, 0x27, 0xac, 0x40, 0x73, 0xda, 0xc8, 0xa2, 0x58, 0x35, 0x98, 0x21, 0xcf, 0xf0, 0xf3, 0xd6, 0x2e, 0xb9, 0xb6, 0x9d, 0xf2, 0xfc, 0x31, 0xff, 0x1d, 0xa0, 0x15, 0x54, 0x2a, 0x1e, 0x71, 0x23, 0x91, 0xd4, 0xaf, 0xe1, 0xf8, 0x6f, 0x00, 0x86, 0xd4, 0xfa, 0x89, 0xd7, 0x54, 0x1a, 0xfe, 0x6b, 0x2c, 0xe8, 0x69, 0x64, 0x90, 0x0d, 0x68, 0x45, 0xcc, 0xdc, 0xa7, 0xa5, 0x71, 0x76, 0x00, 0x4a, 0x6c, 0x8e, 0xb3, 0xd4, 0x03, 0xf2, 0x2a, 0x9c, 0x2f, 0x8a, 0x11, 0xd8, 0x3e, 0xf2, 0xae, 0x8f, 0xac, 0x0f, 0xa8, 0x96, 0xef, 0xd0, 0x0e, 0xba, 0xbc, 0xf6, 0x51, 0x1c, 0xdc, 0x4b, 0xe7, 0xe6, 0xf2, 0xbf, 0xc2, 0x0e, 0xd3, 0x31, 0x42, 0x6a, 0x71, 0x8c, 0x1d, 0xb8, 0x91, 0x1c, 0x04, 0x2d, 0x64, 0xd6, 0xaf, 0xe1, 0xcc, 0x18, 0x3c, 0x71, 0x99, 0x90, 0x0c, 0x53, 0x17, 0x8b, 0xb7, 0xce, 0x64, 0xeb, 0xab, 0x8f, 0x31, 0x98, 0x0f, 0x48, 0x0d, 0x44, 0xa0, 0xec, 0xcf, 0xe4, 0x52, 0xbb, 0x13, 0x48, 0x11, 0xa9, 0xf7, 0x6a, 0xc2, 0x5f, 0x8e, 0x56, 0xf2, 0x5e, 0x58, 0xc6, 0xb2, 0x8f, 0x56, 0x45, 0x2b, 0x53, 0x0a, 0x64, 0xd9, 0x28, 0x8c, 0x4f, 0xca, 0xe9, 0x05, 0x98, 0x52, 0xc6, 0xe3, 0x2e, 0x0b, 0xc4, 0xf9, 0x8d, 0x60, 0x22, 0x05, 0x6b, 0x56, 0x04, 0x60, 0x82, 0x45, 0x28, 0xf8, 0x12, 0x46, 0xf2, 0x60, 0x9a, 0x4b, 0xbb, 0xea, 0x93, 0x4e, 0x39, 0x22, 0xc7, 0xce, 0x5b, 0x9f, 0x3e, 0xaa, 0xfd, 0xcb, 0x03, 0x0b, 0x15, 0x99, 0x4c, 0x1d, 0xea, 0xbb, 0xc4, 0xc1, 0x2b, 0x6c, 0x21, 0x94, 0xea, 0xe4, 0xee, 0xa2, 0xfb, 0xd4, 0xd5, 0x9d, 0x4f, 0x19, 0xd8, 0x0d, 0xb4, 0x5c, 0x34, 0xce, 0xf8, 0x4b, 0xc7, 0xdf, 0xa3, 0xc3, 0xf3, 0x98, 0x6b, 0x8c, 0x72, 0xfb, 0xc7, 0x5c, 0xcd, 0xbc, 0x73, 0xb3, 0x21, 0xd2, 0x74, 0x1d, 0x7e, 0x5e, 0xcf, 0xf6, 0x7a, 0x08, 0x44, 0xbf, 0xa1, 0xb0, 0x99, 0x37, 0xfe, 0x58, 0x18, 0x19, 0x91, 0xdf, 0x9a, 0xca, 0x08, 0x04, 0xef, 0xc8, 0x36, 0x21, 0x04, 0x0c, 0xbe, 0x17, 0x49, 0x4a, 0x03, 0x4d, 0x4c, 0xe3, 0x30, 0xf1, 0x66, 0xdc, 0x88, 0xbb, 0xc6, 0x2f, 0x9d, 0x65, 0x9a, 0x66, 0x6b, 0x91, 0x6b, 0x54, 0xed, 0x0f, 0xd9, 0x9d, 0x96, 0xc6, 0x91, 0xe9, 0xeb, 0x5f, 0x0b, 0xfc, 0x48, 0x19, 0xa9, 0xe5, 0x6d, 0x28, 0x2d, 0xc8, 0x8e, 0xaf, 0x70, 0x05, 0xd4, 0x62, 0xca, 0x5c, 0xea, 0x13, 0x0c, 0xfe, 0x41, 0x2c, 0xc3, 0xa7, 0x70, 0x06, 0xa1, 0x6d, 0xef, 0x61, 0xa1, 0x98, 0x10, 0xf1, 0xee, 0x95, 0x2a, 0x86, 0xbc, 0x0a, 0x3a, 0xd3, 0xf8, 0x37, 0xd7, 0xbf, 0x96, 0x8f, 0x0d, 0xbe, 0xfb, 0x90, 0xd1, 0x2d, 0xa7, 0x17, 0x40, 0xac, 0x67, 0x8c, 0xad, 0x11, 0x2f, 0x1b, 0xfc, 0x89, 0xed, 0x34, 0x5a, 0x3a, 0x07, 0x4d, 0x44, 0x6a, 0x68, 0x3a, 0xfd, 0x34, 0x51, 0x48, 0x4e, 0x55, 0x75, 0xe5, 0xc5, 0xb5, 0xb7, 0x2b, 0x1d, 0x8d, 0xef, 0xa4, 0x6a, 0x06, 0x3f, 0xfe, 0xb1, 0x55, 0xb3, 0xb2, 0xc5, 0x59, 0x1e, 0x01, 0xb9, 0x62, 0xb0, 0xdf, 0xe4, 0x35, 0x4e, 0x62, 0x07, 0xb2, 0x0c, 0xee, 0xdf, 0x33, 0x6b, 0x90, 0x2f, 0x4d, 0x4c, 0xf6, 0x6d, 0x18, 0x2b, 0x50, 0xf1, 0x4c, 0x9d, 0x41, 0x5c, 0x92, 0x8d, 0x90, 0xbc, 0x3c, 0xfe, 0x90, 0x97, 0x01, 0x5c, 0xdc, 0x9e, 0xcb, 0xc7, 0xa8, 0x97, 0x1b, 0xff, 0x9b, 0x8e, 0x0c, 0xab, 0x8f, 0x0a, 0xa0, 0x83, 0x3e, 0xf3, 0x8c, 0x72, 0x70, 0x81, 0x06, 0xce, 0xe3, 0xa9, 0xb1, 0x54, 0x5c, 0xa7, 0x90, 0x74, 0x1c, 0x65, 0x96, 0xf3, 0xec, 0x10, 0xa0, 0x0b, 0xf5, 0xd1, 0xf2, 0xda, 0xbb, 0x31, 0x8a, 0x07, 0x51, 0xff, 0x01, 0x63, 0x41, 0x76, 0xf5, 0xa4, 0x11, 0xe6, 0xe7, 0xbe, 0x13, 0xff, 0x95, 0x4f, 0xb6, 0x79, 0x59, 0xe8, 0x69, 0xe3, 0x51, 0xaf, 0xcf, 0x39, 0xdf, 0xce, 0xd2, 0xbc, 0xbd, 0xb3, 0xec, 0x18, 0x2c, 0x87, 0xcc, 0x5e, 0xea, 0xbb, 0x22, 0x22, 0xd9, 0x18, 0xb6, 0xa0, 0xbf, 0x12, 0xf3, 0xd2, 0x29, 0x14, 0x6a, 0xbb, 0x50, 0x0f, 0xb5, 0xd0, 0x83, 0xe8, 0x2c, 0x45, 0xef, 0x5a, 0xf7, 0x5a, 0xa7, 0x14, 0xac, 0xb3, 0xe2, 0x44, 0x24, 0xa0, 0xd2, 0x8f, 0x9d, 0x51, 0x38, 0x4d, 0xe0, 0xa8, 0xb0, 0x0a, 0x62, 0x35, 0x53, 0x40, 0x54, 0xe1, 0x53, 0x28, 0x44, 0x5c, 0x8d, 0x08, 0x93, 0x09, 0x4e, 0x85, 0x9d, 0xa2, 0xbd, 0xca, 0xe2, 0x4a, 0xb9, 0x9a, 0x1b, 0xb4, 0x54, 0xde, 0xc6, 0x25, 0xf9, 0xaa, 0xe0, 0xa7, 0x6a, 0xb9, 0x9e, 0xde, 0x00, 0x4f, 0x64, 0x15, 0xef, 0xd5, 0x12, 0x44, 0xbc, 0x94, 0xe4, 0xad, 0x40, 0xac, 0x8c, 0x68, 0x5a, 0x93, 0x3d, 0x58, 0xad, 0xe9, 0xe7, 0xe8, 0xfc, 0x96, 0x30, 0x47, 0x99, 0xc8, 0xa1, 0x66, 0xd2, 0x23, 0xeb, 0xe0, 0x4d, 0x48, 0x23, 0x40, 0xf1, 0x86, 0xbf, 0x5b, 0x41, 0x14, 0x42, 0x00, 0xd1, 0xf9, 0xf0, 0x5e, 0xbd, 0x99, 0x46, 0x4d, 0x37, 0x28, 0x19, 0xe7, 0x43, 0x02, 0x9d, 0x36, 0xe1, 0xe9, 0x33, 0xa7, 0x58, 0x20, 0xc3, 0x5e, 0xb5, 0x93, 0xa3, 0x87, 0x84, 0x25, 0xc4, 0x15, 0x1d, 0xf6, 0x36, 0xe1, 0x48, 0xcf, 0x1b, 0x8d, 0xf5, 0x20, 0x44, 0x03, 0x55, 0xce, 0x27, 0xf2, 0xd5, 0x6c, 0x2a, 0x07, 0xff, 0xd8, 0xc6, 0x4c, 0x2a, 0x83, 0x70, 0x25, 0xed, 0x9f, 0xfd, 0x4e, 0x8b, 0xc7, 0xd3, 0x2c, 0xb9, 0xa6, 0x5b, 0xe0, 0x1a, 0x46, 0xd6, 0xb1, 0xa2, 0xfa, 0x6f, 0xf2, 0x8e, 0x66, 0x22, 0xea, 0xfa, 0x39, 0x6b, 0x43, 0x8e, 0xa7, 0x43, 0x70, 0x5b, 0x6e, 0x35, 0xb1, 0xa8, 0xbc, 0xeb, 0xca, 0xc8, 0x20, 0xeb, 0x9b, 0xa0, 0xf2, 0xc6, 0x53, 0x1b, 0x62, 0x32, 0x17, 0x19, 0x6a, 0x64, 0xdb, 0x38, 0xa3, 0x13, 0xae, 0x64, 0xb1, 0xc2, 0xe4, 0x46, 0x57, 0xa9, 0xfd, 0x6c, 0x0b, 0x67, 0x86, 0x55, 0x61, 0xa0, 0xc9, 0xcf, 0x8b, 0x0f, 0x31, 0x1d, 0x97, 0xc6, 0x53, 0xd7, 0xfb, 0xbb, 0xba, 0x60, 0xe7, 0x0c, 0x0f, 0x3a, 0x41, 0x9f, 0x31, 0xad, 0xe2, 0x13, 0xb9, 0x22, 0xeb, 0x17, 0x2f, 0xf9, 0xea, 0xaf, 0x62, 0xd6, 0xcf, 0x69, 0x0e, 0x22, 0x1b, 0xaa, 0x69, 0xd8, 0x07, 0x42, 0x4e, 0xf2, 0x62, 0xd2, 0xcc, 0xfb, 0x09, 0x35, 0x22, 0x21, 0x99, 0x60, 0x9a, 0xbf, 0xcb, 0xeb, 0x81, 0x9e, 0x16, 0xbc, 0x6e, 0x04, 0xd4, 0xe9, 0x75, 0x0d, 0x22, 0x86, 0xbb, 0x08, 0x22, 0x60, 0x1f, 0xf1, 0xe2, 0xd5, 0x5d, 0xef, 0x95, 0x10, 0xb6, 0x43, 0xa6, 0xf0, 0xba, 0xa4, 0xc4, 0xb4, 0x3b, 0xa0, 0x90, 0x22, 0xfb, 0x86, 0x08, 0x6a, 0x67, 0x66, 0x9b, 0x60, 0xef, 0xfe, 0xa4, 0x73, 0x65, 0x83, 0xfa, 0xbd, 0x0c, 0x92, 0x66, 0x64, 0x91, 0x69, 0xd4, 0x93, 0xc0, 0x97, 0x5c, 0x49, 0xbf, 0x35, 0x99, 0xc5, 0xf3, 0x36, 0x0c, 0xef, 0x9e, 0xae, 0x86, 0x8a, 0xa9, 0x20, 0x1a, 0x03, 0x02, 0xdc, 0xa2, 0x96, 0x0c, 0x37, 0x6f, 0x01, 0x01, 0xfb, 0x59, 0x18, 0xf5, 0xbd, 0x35, 0xd1, 0xe6, 0x40, 0x67, 0xd0, 0x38, 0xbd, 0x23, 0x23, 0xd9, 0xec, 0x4e, 0x33, 0x10, 0x27, 0x0a, 0xa9, 0xb6, 0x3d, 0xe5, 0x6b, 0xac, 0x99, 0x34, 0xc0, 0x01, 0x1b, 0x52, 0x66, 0xcf, 0xe2, 0xab, 0xc0, 0xf0, 0x44, 0x87, 0xaa, 0x5c, 0x3e, 0x3a, 0xf2, 0xac, 0xd1, 0xaa, 0xd6, 0xee, 0xb6, 0xa2, 0xe8, 0xbb, 0x4a, 0xa7, 0x8b, 0xe3, 0xf6, 0x60, 0x2d, 0x8a, 0x81, 0x6c, 0x03, 0x6b, 0x1b, 0x0b, 0x1e, 0x04, 0x8c, 0xc9, 0xb8, 0xf2, 0xe0, 0x1f, 0xfd, 0x93, 0x9e, 0x0c, 0x6c, 0x03, 0xd7, 0xef, 0xae, 0xef, 0x93, 0x54, 0x03, 0xe6, 0x44, 0x9f, 0xb1, 0x1d, 0x87, 0xa6, 0xde, 0x52, 0xb3, 0x48, 0xdc, 0xe1, 0xd1, 0xfd, 0x69, 0x00, 0x73, 0x1a, 0xb4, 0xb6, 0x81, 0x48, 0x58, 0xcf, 0x8c, 0x11, 0xb0, 0x45, 0xc4, 0xd7, 0xc6, 0xc3, 0x9f, 0x1b, 0xd4, 0xb1, 0xc4, 0x74, 0x8d, 0xfd, 0x01, 0xba, 0x5e, 0x31, 0x48, 0xb1, 0xc9, 0x2d, 0xfd, 0xc6, 0x49, 0x6c, 0xc5, 0xcc, 0x98, 0x21, 0x1e, 0x32, 0x65, 0x74, 0x89, 0x9f, 0xe6, 0xa1, 0x15, 0x09, 0x3a, 0x30, 0x6f, 0xc5, 0xe2, 0x6f, 0x0f, 0x48, 0x0c, 0x18, 0xf5, 0x40, 0xe7, 0x25, 0x2e, 0xd2, 0xc2, 0x49, 0x87, 0x90, 0x0b, 0xe0, 0x66, 0x06, 0x43, 0xb5, 0x90, 0x57, 0x34, 0xe8, 0xd6, 0x99, 0x95, 0x13, 0x12, 0x56, 0xaa, 0x4b, 0xba, 0xe2, 0xd3, 0xe8, 0x3e, 0x85, 0x25, 0xe1, 0x6d, 0x85, 0xc3, 0xa8, 0x21, 0xcb, 0xc8, 0x91, 0xdf, 0x0b, 0xcb, 0xdd, 0x50, 0x69, 0x89, 0x99, 0xae, 0x0d, 0xd4, 0x8e, 0xa9, 0xa3, 0x60, 0x19, 0xf3, 0xc9, 0xb6, 0xf0, 0xaa, 0xfa, 0x45, 0x05, 0xd7, 0xbc, 0xba, 0x54, 0xf0, 0x4d, 0x9f, 0x8b, 0x5d, 0x92, 0x06, 0x2d, 0xc8, 0xd8, 0x44, 0x9c, 0x66, 0x31, 0xa9, 0xd1, 0x52, 0x00, 0x8b, 0xa9, 0xda, 0xed, 0x6d, 0x70, 0x39, 0xc6, 0x5e, 0x22, 0x07, 0x50, 0xc8, 0xd1, 0x54, 0xc7, 0xce, 0xad, 0x15, 0xc9, 0xdf, 0x39, 0x6d, 0x2f, 0x70, 0x65, 0x5c, 0x1b, 0x38, 0x64, 0x03, 0x92, 0xc1, 0xd0, 0xef, 0x36, 0xa9, 0x03, 0x38, 0x13, 0xb6, 0x33, 0xe2, 0x5c, 0x62, 0x1b, 0x6b, 0x6c, 0x30, 0x30, 0x74, 0xe5, 0x92, 0xb1, 0x62, 0x62, 0x39, 0x5c, 0x19, 0x0e, 0x5d, 0x13, 0xeb, 0xac, 0xa0, 0xf7, 0xa2, 0x70, 0x1a, 0x94, 0x12, 0x38, 0x20, 0x3f, 0xd4, 0x95, 0x37, 0xf0, 0xea, 0x9d, 0xce, 0x3d, 0x93, 0x12, 0xd7, 0x17, 0xc0, 0x6c, 0xb4, 0x30, 0xce, 0xfa, 0x2b, 0x07, 0xae, 0x56, 0x68, 0xb0, 0x2b, 0xc8, 0x96, 0x0a, 0xa7, 0x92, 0xf0, 0x83, 0x13, 0xd9, 0xe1, 0x1f, 0x89, 0x83, 0x13, 0x4d, 0xa3, 0xad, 0xf6, 0xa0, 0x01, 0x31, 0xbc, 0xb1, 0xba, 0x16, 0xb5, 0xa7, 0x6a, 0xcc, 0x91, 0xbd, 0x4e, 0xe8, 0x9c, 0xbf, 0x77, 0x00, 0x4d, 0xdc, 0xbd, 0x49, 0x4a, 0xac, 0x25, 0x61, 0xfc, 0x9c, 0x62, 0x9c, 0x00, 0x43, 0xb3, 0xee, 0x63, 0x9e, 0x5c, 0x92, 0xc2, 0x44, 0xb7, 0xef, 0x3e, 0x99, 0xfc, 0x67, 0x75, 0x31, 0x0f, 0xab, 0x35, 0xe7, 0xed, 0x94, 0x3a, 0x42, 0x43, 0xc4, 0x11, 0x29, 0x56, 0xd1, 0x08, 0xa4, 0x4e, 0x19, 0x3d, 0x52, 0xf2, 0x4e, 0xcd, 0x63, 0x26, 0x17, 0x34, 0x61, 0xf1, 0x93, 0x48, 0x26, 0x0b, 0xbc, 0xf3, 0xc1, 0x0e, 0xc2, 0xb8, 0x21, 0xf2, 0xff, 0xd4, 0x15, 0x37, 0x20, 0x3d, 0xee, 0xd5, 0x3b, 0xec, 0x11, 0xbf, 0xe5, 0x37, 0x02, 0xd7, 0xe4, 0xf5, 0x48, 0x31, 0xeb, 0xfd, 0x21, 0x13, 0x44, 0xb7, 0x2e, 0xcc, 0xcf, 0x3d, 0x14, 0xcd, 0x40, 0x2d, 0x35, 0xf2, 0xed, 0x0f, 0xcd, 0xca, 0xc7, 0x07, 0xce, 0xd8, 0x16, 0xd6, 0x1b, 0xdc, 0x33, 0xae, 0xed, 0x21, 0xba, 0x35, 0xe5, 0xc3, 0xf7, 0xbb, 0x14, 0xc6, 0xf5, 0x46, 0xe9, 0xe3, 0x06, 0x19, 0x02, 0xc2, 0xf6, 0xc6, 0xf1, 0x59, 0xd8, 0xf4, 0xb1, 0x1b, 0x29, 0xe8, 0xea, 0xdd, 0xed, 0x42, 0xb3, 0xf7, 0x1d, 0x17, 0xfd, 0x2e, 0x46, 0x3c, 0x11, 0xd6, 0xe7, 0x22, 0xa6, 0xc3, 0x30, 0xe0, 0xd2, 0xb7, 0xbd, 0x13, 0xbb, 0x19, 0xfc, 0x47, 0x45, 0x0a, 0x03, 0x27, 0xb7, 0xd0, 0x1d, 0xd9, 0xd6, 0xd4, 0x51, 0xf6, 0x23, 0x23, 0xd8, 0x12, 0xc8, 0xdf, 0x72, 0xfa, 0xdd, 0xe3, 0xe2, 0xbe, 0x11, 0x47, 0xe9, 0xd1, 0x36, 0xd7, 0xd2, 0xdf, 0x33, 0x13, 0x10, 0x3a, 0x1e, 0x03, 0xe7, 0x25, 0xf7, 0xaf, 0xb8, 0x47, 0xf2, 0x27, 0xb0, 0x2b, 0x11, 0x24, 0x20, 0x2a, 0x27, 0xff, 0xae, 0x2a, 0xdb, 0x6a, 0x22, 0x42, 0x55, 0xf5, 0x16, 0xc7, 0xd7, 0x50, 0x60, 0x31, 0xfb, 0xe6, 0x0a, 0x2c, 0x1c, 0x38, 0x60, 0x4c, 0x2a, 0xb2, 0x3e, 0xd8, 0x16, 0xc5, 0xa9, 0xdf, 0xee, 0x35, 0xd8, 0xc4, 0x05, 0x06, 0x2b, 0x04, 0x21, 0xe8, 0x2a, 0x01, 0xf6, 0xe7, 0x46, 0x37, 0x53, 0x37, 0xe3, 0x15, 0x1b, 0xd9, 0x5c, 0xc2, 0xf3, 0xd4, 0xe2, 0xcf, 0x20, 0x00, 0x39, 0x08, 0x2b, 0x41, 0x40, 0xe1, 0xd7, 0x18, 0x56, 0x31, 0x15, 0xf2, 0x1e, 0x01, 0x40, 0xc0, 0x0b, 0xfc, 0x02, 0x43, 0x3c, 0x38, 0x37, 0x04, 0xeb, 0x16, 0xd4, 0x9d, 0x0a, 0xbe, 0x55, 0xe4, 0x3a, 0x04, 0x0c, 0x22, 0xe4, 0xe1, 0x0e, 0x06, 0x40, 0x38, 0x34, 0x29, 0x0f, 0xed, 0xbc, 0xf1, 0x1b, 0xd5, 0xef, 0x07, 0x1b, 0xa5, 0xe6, 0x21, 0x01, 0x1a, 0x33, 0xbf, 0x32, 0xf4, 0xda, 0x7f, 0xe2, 0xcf, 0x51, 0x38, 0x1d, 0xe9, 0xc1, 0xc3, 0x46, 0xdd, 0x05, 0x26, 0x0a, 0xf6, 0xd8, 0xfb, 0x0f, 0xe8, 0x05, 0xfe, 0xac, 0x1b, 0xe8, 0xd7, 0x40, 0x24, 0xdd, 0xe4, 0x2e, 0xf4, 0x29, 0x06, 0x0d, 0xde, 0x40, 0xc9, 0x0c, 0xa7, 0xc0, 0xd5, 0x46, 0xcf, 0x09, 0x3f, 0xf7, 0xbd, 0x1e, 0x29, 0xc4, 0x0d, 0x41, 0x08, 0x3e, 0x28, 0xe8, 0xdb, 0xb4, 0xd7, 0x12, 0x36, 0xb2, 0x1a, 0xca, 0xf2, 0xe9, 0x46, 0xc6, 0x04, 0xdc, 0xb3, 0x3d, 0xb7, 0xca, 0x24, 0xed, 0x29, 0xdc, 0xe5, 0x03, 0xe4, 0x36, 0xeb, 0xca, 0x2c, 0xc6, 0x0a, 0x44, 0x13, 0x2a, 0x08, 0x04, 0x45, 0x24, 0xc9, 0x16, 0x01, 0x41, 0x91, 0x90, 0x24, 0xf0, 0x19, 0xfc, 0x0b, 0xba, 0xe0, 0x48, 0xe3, 0x9e, 0xc9, 0x16, 0x16, 0xd4, 0xe9, 0x3b, 0x06, 0xa3, 0x11, 0x9f, 0x3c, 0x9f, 0x8c, 0x26, 0x6e, 0xde, 0x59, 0x8e, 0x54, 0xf3, 0x5b, 0x66, 0xcf, 0x8a, 0x3d, 0x6a, 0x57, 0x1e, 0xfa, 0x4f, 0xb8, 0x53, 0x17, 0xa4, 0xa9, 0xf5, 0xc1, 0x0d, 0x1c, 0x75, 0xcd, 0x9d, 0x04, 0xaf, 0xfa, 0xd6, 0x56, 0xe8, 0xf8, 0x39, 0xa4, 0x45, 0xfa, 0x0f, 0xde, 0xef, 0x25, 0x4c, 0xde, 0x1a, 0xc2, 0x19, 0xc4, 0x01, 0xbe, 0xf1, 0x98, 0x2b, 0xde, 0x19, 0xdd, 0x66, 0x5a, 0x5c, 0xaf, 0x3b, 0xd1, 0x68, 0x97, 0x85, 0x54, 0x1c, 0x24, 0x71, 0xdf, 0xd4, 0x09, 0xf3, 0xc1, 0xc7, 0x0d, 0x9a, 0x9b, 0x62, 0x99, 0xc9, 0x04, 0x97, 0xb1, 0xcb, 0xc3, 0x42, 0x89, 0x86, 0x3f, 0x3d, 0xa0, 0x50, 0x77, 0xb5, 0x6d, 0xa6, 0x5d, 0x90, 0x57, 0x02, 0x93, 0x6e, 0xb5, 0x25, 0xd5, 0x4e, 0xdc, 0xed, 0x64, 0x21, 0x62, 0x5d, 0xe9, 0xa5, 0x31, 0x71, 0xbd, 0x46, 0x34, 0x71, 0x4b, 0x4a, 0xb9, 0x05, 0xbe, 0xf9, 0xb6, 0x11, 0xf5, 0x12, 0x8d, 0x13, 0x3a, 0x47, 0xe0, 0xa2, 0x44, 0xed, 0x27, 0xb1, 0x24, 0x41, 0xdb, 0xbf, 0x37, 0xe7, 0xe4, 0xdf, 0x38, 0x32, 0xa0, 0x44, 0x56, 0x3f, 0x81, 0xae, 0xe4, 0xa7, 0xa5, 0x25, 0xd4, 0xd0, 0xbe, 0xca, 0xe4, 0x3d, 0x0d, 0xbe, 0xe4, 0x5e, 0x21, 0x12, 0xd2, 0x63, 0x8e, 0xad, 0xf5, 0x53, 0xad, 0x63, 0xf4, 0xd7, 0xa8, 0x06, 0xf8, 0x9d, 0x16, 0x3e, 0x3c, 0x0d, 0xc2, 0xdc, 0xc3, 0x0e, 0x1c, 0xaa, 0xd4, 0x59, 0x49, 0x8e, 0x47, 0x1d, 0x61, 0xd2, 0xef, 0x27, 0xc7, 0xab, 0x30, 0xd9, 0x3e, 0x40, 0x49, 0x02, 0x3e, 0xfe, 0xd7, 0x52, 0x70, 0x00, 0x05, 0x4f, 0x0a, 0x15, 0xbb, 0x76, 0xf5, 0xd0, 0x89, 0xe9, 0xe8, 0x99, 0xed, 0xbb, 0x6f, 0x40, 0xfd, 0xb7, 0x8f, 0x08, 0x53, 0xb5, 0x50, 0x38, 0x9e, 0xd4, 0x74, 0x86, 0x52, 0x3c, 0x9e, 0xa5, 0xf2, 0xed, 0x55, 0x6d, 0x03, 0x2e, 0xea, 0x0e, 0xbb, 0x2a, 0xf9, 0x1e, 0x1a, 0x45, 0xe7, 0xfd, 0x1f, 0xaf, 0xc8, 0xbe, 0x91, 0x05, 0xbe, 0x5a, 0x05, 0xa3, 0xd1, 0xbd, 0xfd, 0xc3, 0x0d, 0x6b, 0x6d, 0x61, 0xa3, 0xe1, 0xfc, 0x77, 0x9c, 0x97, 0xde, 0xcd, 0x6e, 0xc8, 0xcf, 0x74, 0x59, 0xc7, 0xe6, 0xc2, 0x2c, 0xe7, 0x54, 0x3c, 0xb1, 0xc1, 0x8c, 0x96, 0x5c, 0x27, 0x4b, 0x38, 0x18, 0xd7, 0x5a, 0x58, 0xc3, 0x8f, 0xd5, 0xac, 0x12, 0x9c, 0xce, 0xe7, 0xee, 0xa0, 0x87, 0xec, 0xaf, 0x6f, 0x06, 0x6a, 0xb9, 0xa8, 0x0f, 0x06, 0x4d, 0x0f, 0xe2, 0xb5, 0x42, 0xd8, 0x45, 0x20, 0xae, 0x14, 0x53, 0x35, 0x4f, 0x22, 0xd4, 0x28, 0xd8, 0x23, 0x06, 0x3e, 0x5b, 0x16, 0x5d, 0xd1, 0xbc, 0x2d, 0xb6, 0x46, 0x07, 0x2d, 0xce, 0x55, 0x42, 0xff, 0xcb, 0xfa, 0xc4, 0x0d, 0x1d, 0x46, 0x61, 0x00, 0x01, 0xe4, 0x3f, 0x12, 0xda, 0x2b, 0x60, 0x52, 0xad, 0x32, 0x27, 0x11, 0x34, 0xfe, 0xf1, 0xee, 0x46, 0x19, 0xa8, 0x27, 0x1b, 0x35, 0x07, 0x01, 0x07, 0xa4, 0x6a, 0x20, 0xfb, 0x42, 0xb3, 0x49, 0x3d, 0x7f, 0x47, 0x02, 0x41, 0xdb, 0x27, 0x42, 0xfc, 0x78, 0x66, 0xe3, 0xf2, 0x14, 0xdc, 0xb4, 0x39, 0xd4, 0x5e, 0xad, 0x01, 0x03, 0x24, 0xe0, 0xeb, 0xcb, 0xac, 0x10, 0x62, 0x3d, 0x5a, 0x0a, 0x05, 0x0a, 0x46, 0xcc, 0xd5, 0x3e, 0xca, 0x2a, 0x24, 0x84, 0xb4, 0x37, 0xd5, 0x22, 0x14, 0xa8, 0x35, 0x7e, 0x18, 0xaa, 0xf6, 0xf0, 0x44, 0x28, 0x27, 0x1c, 0x38, 0xf3, 0x3a, 0x4a, 0xbe, 0x4f, 0xcc, 0x34, 0x2b, 0xff, 0xc8, 0xfc, 0x24, 0x5a, 0x0f, 0x06, 0xc7, 0xff, 0x33, 0xac, 0x4c, 0x2d, 0x54, 0xc7, 0x38, 0xe8, 0xb9, 0x4d, 0xb4, 0xf1, 0x42, 0xe4, 0x9f, 0x89, 0x59, 0xcb, 0x35, 0x27, 0xaf, 0xf5, 0x37, 0xd7, 0xfb, 0x90, 0x60, 0x1f, 0xbb, 0xb8, 0x19, 0x15, 0x0d, 0xba, 0xff, 0xbc, 0xc5, 0x44, 0x55, 0xaa, 0xb4, 0xf8, 0xf2, 0x22, 0x4d, 0xa8, 0xd9, 0xdb, 0x22, 0xc3, 0x67, 0xb6, 0x23, 0x3e, 0xc1, 0xfa, 0x32, 0x24, 0x25, 0xa1, 0xa2, 0xe2, 0xa7, 0xfd, 0x4e, 0xf2, 0x50, 0xc3, 0x54, 0x38, 0xff, 0xb7, 0x2a, 0x26, 0xe1, 0xb5, 0x01, 0xfc, 0x06, 0x64, 0x9b, 0x07, 0xfd, 0xc7, 0x3d, 0x40, 0xdc, 0x16, 0x4e, 0x30, 0xa0, 0xa1, 0xd9, 0x3b, 0x16, 0xfb, 0xac, 0xb4, 0xfb, 0x64, 0x3e, 0xd3, 0xea, 0xae, 0xf7, 0xd1, 0x05, 0xe5, 0x27, 0x20, 0xbf, 0xaa, 0xc1, 0xb8, 0x55, 0xb7, 0xe2, 0xd1, 0x2a, 0x04, 0xc6, 0xaa, 0xf4, 0xc2, 0xd5, 0xfb, 0xda, 0x17, 0xf7, 0x37, 0xf8, 0x03, 0xc0, 0xc2, 0x55, 0x3c, 0xe1, 0x23, 0x13, 0x01, 0x51, 0xbf, 0xa1, 0xde, 0x5c, 0xdf, 0x1e, 0xf6, 0xbe, 0x33, 0xc8, 0xaa, 0xb9, 0x59, 0x43, 0x1c, 0x9d, 0xfe, 0xb5, 0x57, 0xa0, 0xb0, 0x28, 0xe9, 0xcb, 0x0c, 0x3a, 0xed, 0x3f, 0x0d, 0xe8, 0x9d, 0x5f, 0xa0, 0x19, 0xb9, 0x54, 0x64, 0x12, 0x9f, 0xe2, 0x18, 0x3c, 0x2c, 0xa7, 0x8b, 0x08, 0x27, 0x49, 0x2b, 0x5c, 0x2f, 0xcf, 0xc4, 0x23, 0xc1, 0xff, 0xb3, 0x12, 0x07, 0x1f, 0x62, 0x1e, 0xb1, 0xd0, 0x3d, 0x32, 0xd2, 0xab, 0x14, 0x28, 0x5a, 0xec, 0x09, 0x91, 0xf8, 0x9c, 0x00, 0xb8, 0xcc, 0x26, 0xe9, 0xaa, 0x09, 0x61, 0x41, 0x95, 0x34, 0xcf, 0x06, 0x4d, 0x50, 0xbe, 0x41, 0x4b, 0x0f, 0xe1, 0x9a, 0xd7, 0xd4, 0x1f, 0x0e, 0x24, 0x3d, 0xbc, 0x88, 0xbc, 0x2f, 0xc1, 0xe2, 0x8f, 0x79, 0xd5, 0x48, 0xeb, 0xff, 0x0a, 0x34, 0x96, 0xdc, 0x1b, 0x3b, 0xcf, 0x5e, 0x87, 0xf0, 0x69, 0xd7, 0xfb, 0xb9, 0xc7, 0xa9, 0xf8, 0xf8, 0x2b, 0xd1, 0x81, 0xc4, 0xcd, 0x9e, 0x6b, 0x02, 0xa4, 0x72, 0x44, 0x3d, 0x18, 0xd7, 0xed, 0xcc, 0xae, 0x04, 0x68, 0x26, 0x2d, 0x9b, 0x4a, 0xac, 0x90, 0x94, 0x3f, 0x93, 0x0a, 0x0c, 0x71, 0xd2, 0xdc, 0x2c, 0x58, 0xf8, 0xe6, 0x76, 0x43, 0xbc, 0x07, 0x30, 0x73, 0xcb, 0xf0, 0x08, 0x4b, 0xa4, 0x18, 0x85, 0xa8, 0xf8, 0xa7, 0x6d, 0xab, 0xd7, 0x55, 0x0e, 0x2c, 0x37, 0xcb, 0xb8, 0x13, 0x0d, 0x8a, 0xa0, 0x43, 0xf1, 0x2a, 0x06, 0xb9, 0x89, 0xe1, 0x9e, 0xaf, 0x67, 0x9b, 0x2d, 0x81, 0x3e, 0xd3, 0xd0, 0x5a, 0x00, 0x4b, 0x61, 0x1b, 0x38, 0x78, 0x7d, 0x28, 0xb6, 0x9f, 0x41, 0x43, 0x91, 0x2d, 0xb6, 0x41, 0x8d, 0xc8, 0x34, 0xaf, 0xf4, 0xfc, 0xb0, 0x4f, 0x1b, 0x28, 0xf5, 0xdf, 0x47, 0x97, 0x35, 0x34, 0xaf, 0xa6, 0x01, 0xe1, 0xcc, 0xa7, 0x35, 0x0b, 0x1a, 0x9a, 0xf3, 0x0f, 0xc4, 0x93, 0x38, 0xb8, 0x49, 0xe2, 0xe3, 0x5c, 0x40, 0x54, 0xaa, 0x8f, 0x28, 0xce, 0x93, 0x4d, 0xf2, 0x73, 0x85, 0x3b, 0xbd, 0x3b, 0x71, 0xa8, 0x0c, 0xf7, 0x68, 0x6f, 0xc6, 0x64, 0xa8, 0x69, 0x9f, 0x06, 0xd3, 0x32, 0x20, 0xa8, 0x36, 0xa4, 0x30, 0xea, 0xc3, 0x0b, 0x4d, 0xfa, 0x07, 0xde, 0xdf, 0xbc, 0x76, 0xb1, 0xea, 0x06, 0x09, 0xe4, 0xd2, 0xc2, 0x26, 0x0c, 0x5e, 0xa7, 0x21, 0x2c, 0xf7, 0x31, 0xe2, 0x8c, 0xba, 0xfb, 0xbb, 0x02, 0x5c, 0x1d, 0x36, 0xdf, 0xf6, 0x94, 0x9e, 0x4b, 0x0d, 0x56, 0x1f, 0x68, 0xbe, 0x7a, 0xf3, 0xcc, 0xfa, 0xa8, 0xc1, 0xf1, 0x10, 0x1a, 0xdd, 0x38, 0xaf, 0xe2, 0x69, 0x7e, 0xd7, 0x51, 0x67, 0xb6, 0x54, 0x2f, 0x07, 0x9f, 0x18, 0x18, 0xbf, 0xdc, 0x07, 0x2d, 0x47, 0x3c, 0x0c, 0x50, 0x9b, 0x61, 0xe5, 0xb7, 0x7e, 0xc1, 0x3c, 0x58, 0x0f, 0xe8, 0x6a, 0xc5, 0xc1, 0x46, 0xf6, 0xd4, 0xaa, 0x53, 0xb3, 0x59, 0xde, 0x3c, 0x6f, 0x5a, 0xb2, 0x6a, 0xc6, 0x93, 0x23, 0x4e, 0x22, 0x74, 0xf3, 0x84, 0xaa, 0xc6, 0x75, 0xed, 0x30, 0x5c, 0x64, 0x81, 0x73, 0x78, 0x93, 0xd3, 0x9a, 0x08, 0xe6, 0xe2, 0x79, 0x10, 0x52, 0x81, 0x77, 0x94, 0xb7, 0x2f, 0xe6, 0xc0, 0xca, 0xb6, 0xb5, 0x8a, 0xeb, 0x41, 0xb2, 0xcb, 0xb3, 0xf0, 0x0d, 0xd7, 0x1e, 0x29, 0xe5, 0x35, 0xd5, 0xed, 0xd9, 0xd0, 0x7b, 0xdd, 0xd8, 0xee, 0xe1, 0x27, 0xc8, 0x51, 0x72, 0xbe, 0xf0, 0x70, 0x27, 0x83, 0xf3, 0xce, 0x46, 0x31, 0x31, 0x2b, 0x5c, 0xf6, 0x3d, 0xb5, 0x50, 0x4d, 0x17, 0x98, 0xe0, 0xd4, 0xf9, 0x4f, 0x4e, 0x3a, 0xf5, 0x18, 0xce, 0x33, 0x04, 0xce, 0xc5, 0xfd, 0x49, 0xee, 0xbe, 0xc1, 0x41, 0x13, 0xe7, 0xec, 0x06, 0x45, 0xef, 0x12, 0xf7, 0x0d, 0x22, 0xa1, 0x2f, 0x2e, 0x45, 0xc5, 0x05, 0xf5, 0xcd, 0x43, 0x39, 0xda, 0xbd, 0xc1, 0x17, 0x47, 0x19, 0xd8, 0xc1, 0x35, 0x42, 0x3b, 0x01, 0xc3, 0xbf, 0x29, 0xca, 0xc5, 0xe4, 0x40, 0xeb, 0xea, 0x33, 0xd3, 0x0a, 0xea, 0xed, 0x31, 0x7d, 0x4b, 0x0a, 0xc6, 0xd1, 0x2c, 0x17, 0x32, 0x18, 0x1d, 0x10, 0x52, 0xe2, 0x0c, 0x0a, 0xdb, 0x0b, 0xdf, 0xc2, 0xe7, 0xc4, 0x91, 0x96, 0x57, 0x37, 0x29, 0xe4, 0xe0, 0xdf, 0x19, 0xd9, 0xc1, 0x05, 0x11, 0x51, 0xb5, 0x04, 0x08, 0xb3, 0xde, 0x4a, 0xfe, 0xe7, 0x46, 0xce, 0x0b, 0x19, 0xf8, 0x17, 0x3b, 0x27, 0x48, 0x02, 0x02, 0xed, 0x1c, 0x4c, 0x1a, 0xd2, 0xf0, 0x4c, 0x45, 0xcb, 0xcc, 0xb9, 0xfb, 0x22, 0xce, 0x58, 0x42, 0xb6, 0xb0, 0x42, 0x3d, 0xab, 0xb7, 0x46, 0xd6, 0x08, 0xad, 0xcf, 0x40, 0x04, 0x49, 0xc6, 0x3b, 0xdc, 0xe5, 0xee, 0x0b, 0x4c, 0xec, 0x0f, 0x39, 0x29, 0x1f, 0x04, 0x11, 0x1b, 0x4f, 0xf5, 0x01, 0xb0, 0xad, 0x49, 0x3f, 0xb6, 0x22, 0xd4, 0xc5, 0x9c, 0xd5, 0x0f, 0x41, 0x49, 0x50, 0x14, 0xb3, 0x14, 0xbf, 0xe6, 0x38, 0x2c, 0xc6, 0xf9, 0xd0, 0x1d, 0x36, 0xdd, 0x1d, 0xec, 0x2b, 0x09, 0x9d, 0x26, 0xef, 0xbb, 0xe4, 0x20, 0xc7, 0xb6, 0xe7, 0x05, 0xce, 0xe1, 0x37, 0xae, 0xfd, 0xbb, 0xd3, 0xe4, 0xf5, 0x3d, 0xf4, 0xfd, 0x37, 0xd2, 0x57, 0x41, 0x0e, 0xfe, 0xd3, 0xbf, 0xe9, 0x23, 0xc1, 0xbf, 0xe5, 0xb6, 0xb1, 0xf9, 0xd3, 0xd3, 0xcd, 0xe4, 0xad, 0x38, 0xe4, 0x9e, 0x1a, 0x1c, 0x45, 0xae, 0x3d, 0xf7, 0x1d, 0xdd, 0xba, 0x29, 0xdc, 0x23, 0x3d, 0x17, 0xb7, 0xde, 0x1f, 0x96, 0x39, 0x3d, 0x4c, 0x0f, 0xf1, 0x37, 0x1e, 0xef, 0x0d, 0xf9, 0x37, 0x1d, 0xf1, 0x34, 0xff, 0xeb, 0xcc, 0xbe, 0xf3, 0xd5, 0x13, 0x30, 0x36, 0x3d, 0x2e, 0x0b, 0x09, 0xf7, 0x42, 0xb4, 0xe9, 0xc8, 0xce, 0xe8, 0xeb, 0xf4, 0xa8, 0xaa, 0xd4, 0xe4, 0x26, 0x20, 0xe0, 0xd9, 0xca, 0xd8, 0xb6, 0x81, 0x35, 0xb8, 0x1a, 0x11, 0x11, 0x19, 0x09, 0x30, 0x6b, 0xee, 0x08, 0xb9, 0xeb, 0xc2, 0xb3, 0xf0, 0xb1, 0xd2, 0xfc, 0x19, 0xce, 0x29, 0xe9, 0x4b, 0x17, 0x1e, 0xdd, 0xd0, 0x2d, 0x08, 0x19, 0x26, 0x2a, 0x05, 0xc9, 0xd1, 0xb6, 0x2f, 0x10, 0x0f, 0x30, 0x23, 0x0c, 0x17, 0xde, 0xd2, 0x21, 0x65, 0xfc, 0x38, 0xd1, 0xd4, 0xef, 0x5f, 0x17, 0x00, 0x08, 0x47, 0x1a, 0x48, 0x10, 0x08, 0xee, 0xfe, 0xf9, 0xc7, 0xd6, 0x19, 0xba, 0xc7, 0x35, 0x1c, 0x3c, 0xee, 0x66, 0xfe, 0x0a, 0xc1, 0x04, 0xb4, 0xa3, 0xe0, 0x6e, 0xd5, 0x67, 0xdb, 0x14, 0x03, 0xe0, 0xb1, 0x99, 0xe2, 0x9c, 0x89, 0xfd, 0x7f, 0x9c, 0x70, 0x49, 0x4d, 0x9a, 0x10, 0x47, 0xaa, 0x53, 0xde, 0xc0, 0x96, 0x2e, 0xe8, 0x98, 0x57, 0xba, 0x2c, 0xa9, 0x55, 0x13, 0x14, 0xf0, 0x2c, 0x67, 0x51, 0x14, 0x5a, 0x8b, 0x6e, 0x39, 0x62, 0x76, 0xdf, 0x6c, 0x34, 0xe0, 0xd5, 0x9c, 0x1d, 0x48, 0xe1, 0x9f, 0xcb, 0xdb, 0xe1, 0x3c, 0x1d, 0x77, 0xad, 0x26, 0x05, 0x57, 0x15, 0x23, 0x42, 0x2d, 0x04, 0xb2, 0xc2, 0x66, 0xac, 0x4e, 0x92, 0x2c, 0x04, 0xe2, 0x2f, 0xcd, 0xec, 0x20, 0xc3, 0x58, 0x1a, 0xeb, 0x40, 0x03, 0x14, 0x30, 0x28, 0xcf, 0xc2, 0x99, 0xd7, 0xe8, 0xf1, 0x5e, 0xf3, 0xb3, 0xae, 0xf9, 0x61, 0x5e, 0x16, 0xf6, 0x52, 0xcf, 0x00, 0xbe, 0x28, 0x95, 0x71, 0x76, 0x9b, 0x20, 0x16, 0xf9, 0xcc, 0xbb, 0xaf, 0x6f, 0xa3, 0xff, 0xc1, 0x03, 0x42, 0x3a, 0x81, 0x44, 0x48, 0x44, 0x46, 0x6d, 0xfb, 0x1a, 0x86, 0xe3, 0x08, 0x5a, 0x16, 0x09, 0x31, 0xcc, 0x6c, 0x89, 0xe1, 0x0c, 0x8b, 0x49, 0x3d, 0x5a, 0x17, 0x41, 0xf9, 0x9c, 0xee, 0xcf, 0x54, 0xc2, 0x9f, 0x38, 0x38, 0x50, 0xd1, 0x00, 0xad, 0x2a, 0x5a, 0x2e, 0xe5, 0xd9, 0x88, 0xf3, 0x9b, 0x25, 0xf6, 0x39, 0x12, 0xba, 0x6d, 0x06, 0xf4, 0x2b, 0x36, 0x88, 0x40, 0xf2, 0x30, 0x12, 0xa1, 0xe3, 0x0c, 0x41, 0x0f, 0x6d, 0xdd, 0x4d, 0xc3, 0x8c, 0xd9, 0x93, 0x15, 0xc8, 0xa7, 0xbe, 0x8d, 0x1b, 0xc9, 0x92, 0x12, 0xd0, 0xd7, 0x39, 0xba, 0x34, 0xf4, 0x53, 0x46, 0xf3, 0x20, 0xb9, 0x67, 0xfa, 0x34, 0xa2, 0x34, 0x91, 0x1f, 0xbf, 0x2d, 0x2f, 0x11, 0x8e, 0xb0, 0xb2, 0x9a, 0x5a, 0x90, 0xd3, 0x6f, 0x9c, 0x06, 0xe1, 0x4f, 0x17, 0x09, 0x51, 0x25, 0xb4, 0x43, 0xa1, 0xe3, 0xac, 0x54, 0x71, 0xb4, 0xb7, 0x0e, 0x1e, 0xde, 0x0d, 0xd7, 0xda, 0x9f, 0x41, 0xcc, 0x00, 0x4e, 0xf2, 0xc2, 0x71, 0x58, 0x3a, 0xc0, 0x52, 0x84, 0xaa, 0x6b, 0xec, 0x32, 0xe6, 0xe1, 0xb5, 0xee, 0x95, 0xa8, 0x2c, 0x29, 0x68, 0xc2, 0x3e, 0xf5, 0xbc, 0xf2, 0x55, 0xa5, 0x37, 0xe1, 0x65, 0xd3, 0xb0, 0xdf, 0xf3, 0xe7, 0xd4, 0x5d, 0xcf, 0x25, 0x97, 0x49, 0x5b, 0xb6, 0xfc, 0x90, 0xda, 0x5c, 0x72, 0x0b, 0x0f, 0x9a, 0x4e, 0xd2, 0x02, 0xee, 0x20, 0x38, 0x10, 0xec, 0xc6, 0xe3, 0x2b, 0xa5, 0x1d, 0xf6, 0xa5, 0xcd, 0x54, 0xfa, 0x2a, 0x0c, 0x70, 0x97, 0xea, 0xcd, 0xf3, 0xac, 0xe3, 0xfa, 0x22, 0x0c, 0xd2, 0x55, 0x36, 0xce, 0x5c, 0xf8, 0xf4, 0x89, 0xbd, 0x8b, 0x87, 0xb8, 0xdb, 0x48, 0xbf, 0x97, 0x3b, 0xf8, 0x2b, 0x27, 0xb7, 0x9d, 0xa6, 0xa3, 0xd3, 0x93, 0x13, 0xef, 0x77, 0x0a, 0xcb, 0x09, 0xa6, 0xae, 0xad, 0xde, 0x47, 0xa0, 0x47, 0x08, 0xa5, 0xe0, 0x51, 0xb3, 0x3c, 0x54, 0x0c, 0x32, 0x98, 0xb3, 0x43, 0x5a, 0xe3, 0xb4, 0xc9, 0xad, 0xf7, 0x2f, 0x06, 0xd5, 0x67, 0x4e, 0xbb, 0x45, 0x47, 0xc6, 0x52, 0xed, 0xea, 0xb5, 0xf1, 0xc9, 0x16, 0x23, 0xb0, 0xc1, 0x4a, 0x4d, 0xf5, 0x11, 0xf8, 0xbe, 0x4c, 0x31, 0x9a, 0xfe, 0x25, 0x4b, 0xa8, 0x54, 0xaa, 0x32, 0xd4, 0x09, 0x35, 0x48, 0xf9, 0x49, 0x06, 0x18, 0xae, 0x8f, 0x3c, 0x9c, 0x54, 0x8f, 0xa7, 0x07, 0x71, 0x54, 0x00, 0xef, 0xc5, 0xed, 0xa1, 0xf8, 0xd3, 0x1b, 0x01, 0x43, 0xcc, 0xdc, 0xb8, 0x37, 0xfe, 0xe8, 0x5d, 0x77, 0x94, 0x04, 0x35, 0xc1, 0xd7, 0xef, 0xda, 0xd0, 0xe9, 0x7a, 0xf8, 0x81, 0x17, 0xd1, 0x98, 0x11, 0x8b, 0x3d, 0x97, 0x93, 0x4d, 0x12, 0x97, 0x95, 0xe9, 0x2d, 0x2a, 0x5c, 0x00, 0x93, 0x5a, 0x47, 0x1f, 0x97, 0xeb, 0xdf, 0xa7, 0xc7, 0x1f, 0x04, 0x67, 0xf1, 0x4d, 0xa7, 0x45, 0xf6, 0x3e, 0x52, 0x09, 0x3e, 0x0d, 0x5f, 0x65, 0xdd, 0xec, 0x2b, 0x26, 0xc7, 0x8b, 0xbe, 0x53, 0x94, 0x9d, 0x3e, 0x10, 0xa5, 0x86, 0x00, 0xbf, 0xe1, 0x5c, 0x56, 0x21, 0x37, 0x3e, 0x41, 0x75, 0x98, 0x12, 0x08, 0xe3, 0x3a, 0x43, 0x1b, 0x0f, 0xac, 0xf2, 0x06, 0x30, 0xe1, 0x0b, 0x31, 0xb6, 0x04, 0x11, 0x75, 0x6b, 0xc1, 0xe5, 0x56, 0xab, 0xcc, 0xf1, 0x91, 0xe0, 0xa7, 0xf3, 0x64, 0x54, 0xa5, 0xc1, 0xe4, 0xf4, 0x28, 0x42, 0x63, 0x41, 0x8c, 0xf8, 0xb3, 0x1a, 0x69, 0xbf, 0x0b, 0x10, 0xcf, 0xb7, 0x8d, 0x59, 0x61, 0xc7, 0x79, 0xb8, 0x96, 0xa8, 0xe2, 0x98, 0xb8, 0x65, 0x31, 0x92, 0xa2, 0xf6, 0x9b, 0xdf, 0x2f, 0x66, 0x63, 0xb6, 0x5a, 0x0c, 0x48, 0xc7, 0xf9, 0x67, 0xf0, 0x91, 0x61, 0xfb, 0x32, 0xf3, 0x4f, 0xe3, 0x67, 0xcb, 0x09, 0xb9, 0x41, 0xeb, 0x21, 0x92, 0x2c, 0x52, 0x95, 0xcc, 0x9a, 0xc7, 0x3c, 0xc2, 0x64, 0xf6, 0x36, 0xd2, 0xa7, 0x24, 0x9e, 0x5f, 0x65, 0xf0, 0xb0, 0x00, 0x5e, 0x62, 0xf2, 0x2b, 0x56, 0x64, 0x18, 0x3a, 0x4d, 0xed, 0xdc, 0x15, 0xe5, 0xf8, 0xd3, 0x25, 0x66, 0x5e, 0x27, 0x05, 0x52, 0xba, 0x4b, 0x11, 0x11, 0x8f, 0x0f, 0xe8, 0xff, 0x58, 0x7e, 0x6b, 0x90, 0xe6, 0xc0, 0xc0, 0x49, 0x0d, 0x64, 0xde, 0xde, 0x56, 0x45, 0x85, 0x5a, 0xf4, 0xa3, 0x23, 0xa0, 0x58, 0xcf, 0x27, 0x16, 0x89, 0xb7, 0x83, 0x60, 0x5f, 0xc3, 0xbb, 0x59, 0xe4, 0x67, 0x35, 0xdb, 0x19, 0x6d, 0x4b, 0x13, 0xcb, 0x0a, 0x45, 0x66, 0xf3, 0x99, 0x05, 0xf3, 0x20, 0x38, 0xb0, 0xca, 0x99, 0x13, 0xa8, 0x45, 0xd8, 0x5d, 0x83, 0x49, 0x0e, 0xed, 0xd2, 0x29, 0xa9, 0x2a, 0x07, 0x9d, 0x4c, 0x2b, 0x4a, 0x38, 0x0e, 0x21, 0x3c, 0xfd, 0xcc, 0xac, 0x42, 0x65, 0x6e, 0x17, 0xc7, 0x88, 0x36, 0x36, 0xfe, 0x45, 0x2b, 0x9b, 0x8a, 0x8e, 0x35, 0xc7, 0x27, 0xcb, 0xfb, 0xd6, 0x8f, 0x0f, 0xff, 0x65, 0x2f, 0x90, 0xe4, 0xb3, 0x57, 0xd7, 0x83, 0x98, 0x0b, 0x5b, 0xa2, 0x93, 0x83, 0x85, 0x65, 0x2f, 0x01, 0x15, 0x9f, 0x31, 0x2d, 0x22, 0x56, 0xf9, 0x9f, 0xb9, 0x37, 0xe8, 0xf3, 0x98, 0x93, 0xcc, 0x3b, 0xf3, 0x90, 0x20, 0xf2, 0xf2, 0x92, 0xb4, 0x8a, 0xe8, 0x8e, 0x53, 0x00, 0xcd, 0x54, 0xd9, 0x05, 0xf7, 0x31, 0x0a, 0xf7, 0x05, 0x4a, 0x8e, 0x67, 0xa9, 0x12, 0xcf, 0x02, 0xaa, 0xce, 0xb5, 0x9a, 0x28, 0x45, 0x9e, 0xb5, 0x24, 0xfb, 0xaf, 0x64, 0xab, 0x37, 0xba, 0x38, 0xc7, 0x0e, 0x53, 0x1a, 0xff, 0xc3, 0x62, 0x54, 0x28, 0xaf, 0x28, 0xfd, 0x83, 0x70, 0x28, 0x63, 0xcc, 0x98, 0xb2, 0xca, 0x38, 0xa0, 0x07, 0x40, 0x89, 0x48, 0x97, 0x1f, 0xfc, 0xbe, 0x49, 0xb1, 0x8b, 0x94, 0x03, 0x10, 0x96, 0xde, 0xb8, 0x50, 0x0c, 0x47, 0xa8, 0x5d, 0xbf, 0x9f, 0x6a, 0xa2, 0x1f, 0x46, 0xe2, 0xc6, 0xd1, 0xb7, 0xdb, 0x14, 0x0c, 0x5c, 0x13, 0xc1, 0x2d, 0xe3, 0x0f, 0xfd, 0x31, 0x27, 0x29, 0x51, 0x04, 0x42, 0x23, 0x25, 0x82, 0x45, 0x9d, 0xa6, 0x73, 0xf3, 0x41, 0xd3, 0xd8, 0x88, 0xda, 0x3f, 0x3e, 0xf9, 0x71, 0x78, 0xb7, 0x6e, 0x24, 0xcd, 0x69, 0x62, 0xfb, 0x30, 0x59, 0xa4, 0x2b, 0x25, 0xa2, 0x4c, 0x6e, 0x5b, 0xc5, 0xf5, 0xd6, 0xd3, 0x1c, 0xa5, 0xb9, 0xd3, 0x05, 0xfc, 0xea, 0xf3, 0x59, 0x17, 0x2b, 0xcc, 0xbc, 0x9f, 0xa5, 0xdc, 0xf9, 0x03, 0xa7, 0x4d, 0x42, 0x38, 0x03, 0xcd, 0xfe, 0x04, 0x84, 0x50, 0xf0, 0x3e, 0x75, 0xb1, 0x3c, 0xe6, 0x47, 0x39, 0x89, 0x71, 0x81, 0xcf, 0x5a, 0xb6, 0xec, 0xb3, 0xe1, 0xf9, 0xf0, 0xd2, 0xf8, 0xbf, 0xe6, 0xb6, 0x54, 0xe3, 0x6c, 0x1c, 0xc8, 0x5e, 0x83, 0x38, 0x14, 0x91, 0x9c, 0xa4, 0xf9, 0xc3, 0x70, 0xda, 0x0d, 0x1f, 0x6e, 0x08, 0x22, 0xa1, 0xfc, 0xc8, 0x48, 0xeb, 0x66, 0xab, 0xdc, 0x65, 0xde, 0x5c, 0x8d, 0xa2, 0x9b, 0xdd, 0x05, 0x24, 0xf5, 0x9a, 0x69, 0x09, 0x22, 0x66, 0x4d, 0x4a, 0x95, 0xa1, 0x0d, 0x16, 0x8f, 0x1a, 0x05, 0x0d, 0x57, 0xba, 0xd1, 0x49, 0x1b, 0x5c, 0xd0, 0xbc, 0x0a, 0xcc, 0x3b, 0x0f, 0xc3, 0x95, 0x4e, 0x9c, 0xb0, 0xb4, 0x10, 0x78, 0x89, 0xb3, 0x65, 0x32, 0x76, 0x67, 0xa5, 0x46, 0x9b, 0xaa, 0x0f, 0xd7, 0x02, 0x9f, 0xc4, 0x53, 0x67, 0x66, 0xfe, 0x3b, 0x68, 0x16, 0xbb, 0x32, 0x9b, 0xa5, 0x9b, 0x76, 0x4c, 0xdc, 0xfa, 0x52, 0x28, 0x83, 0x86, 0x52, 0xc1, 0x0c, 0xfa, 0xbe, 0x93, 0x07, 0x5b, 0x42, 0x98, 0xe1, 0xa8, 0x8d, 0xc0, 0xda, 0x92, 0x92, 0x46, 0x3b, 0xe2, 0xe9, 0xa7, 0xcc, 0xfb, 0x91, 0xaa, 0x9e, 0x2c, 0xd9, 0xaf, 0x2a, 0x22, 0x2c, 0xe8, 0x9f, 0xc4, 0xe2, 0x0f, 0xbb, 0x0d, 0xe7, 0xa8, 0x2f, 0x91, 0x2e, 0x0e, 0x12, 0x1a, 0xfb, 0x70, 0x99, 0xf9, 0x07, 0x0c, 0xcd, 0x96, 0xcb, 0x1b, 0x2b, 0x37, 0x8e, 0xe8, 0x5e, 0x56, 0xc7, 0x06, 0x91, 0xd5, 0x57, 0xb2, 0xb0, 0xfc, 0x50, 0x1c, 0x5f, 0x28, 0x48, 0x38, 0x60, 0xda, 0x70, 0x0d, 0x5e, 0x1b, 0xbb, 0x94, 0xa2, 0xa8, 0x00, 0xe5, 0x62, 0xdc, 0x4d, 0xce, 0xda, 0x64, 0x07, 0x1e, 0xc8, 0x4b, 0xc4, 0xdd, 0x16, 0xc4, 0x51, 0x47, 0x3c, 0xe5, 0xfd, 0xf3, 0xa0, 0x15, 0xa9, 0x4c, 0x3c, 0xb7, 0xcd, 0xee, 0x95, 0x15, 0x4b, 0x9c, 0x23, 0xaa, 0xcf, 0x5d, 0x8e, 0x94, 0x33, 0x67, 0x1b, 0xe7, 0xb0, 0xdc, 0xab, 0x23, 0x73, 0xa4, 0x38, 0xbc, 0x6f, 0x37, 0xaf, 0x9b, 0xfd, 0x2a, 0x54, 0x96, 0x09, 0xc7, 0xe7, 0xd1, 0x1c, 0x54, 0xb4, 0x9c, 0xb4, 0xe8, 0x39, 0xdd, 0x92, 0x07, 0xa9, 0x5b, 0x6a, 0xb5, 0xb9, 0x51, 0x2d, 0xaf, 0x81, 0xa3, 0x46, 0x34, 0x10, 0xcf, 0x97, 0x2c, 0xab, 0x46, 0xd5, 0x0f, 0x48, 0x48, 0x12, 0x20, 0xa5, 0xd9, 0x2b, 0x4e, 0xa7, 0x98, 0xc2, 0x4d, 0x3a, 0xe0, 0x18, 0x58, 0x84, 0xef, 0xbf, 0x97, 0x06, 0xf9, 0x82, 0xbf, 0xae, 0x02, 0xfe, 0x8b, 0xf6, 0xf7, 0x2e, 0xe7, 0x64, 0xe1, 0x36, 0x4f, 0x94, 0x6c, 0xa5, 0xb6, 0x1d, 0x5d, 0x00, 0xe3, 0x66, 0xf5, 0xd5, 0x6f, 0x0e, 0x39, 0x65, 0xc4, 0xda, 0x06, 0xce, 0xcc, 0x3a, 0x35, 0x2e, 0xf0, 0x24, 0x0d, 0xe7, 0x38, 0x39, 0x63, 0x1c, 0x68, 0xe5, 0xde, 0xff, 0xce, 0x13, 0x1f, 0x64, 0x04, 0x46, 0xf1, 0x9d, 0xe2, 0x07, 0xce, 0x28, 0xcc, 0x5b, 0x8d, 0xbe, 0x02, 0x15, 0xbb, 0x26, 0x70, 0x8d, 0x21, 0x5a, 0x9c, 0x25, 0x5f, 0xbe, 0x9c, 0x96, 0x17, 0xac, 0x40, 0x42, 0xfe, 0xbe, 0xac, 0x5d, 0x25, 0xc7, 0xe4, 0x35, 0x5d, 0x66, 0x2c, 0x91, 0x49, 0x95, 0x40, 0xca, 0x03, 0x6d, 0xfa, 0x82, 0x86, 0x67, 0x29, 0x33, 0x02, 0xa1, 0xbb, 0x12, 0x5e, 0x1d, 0x99, 0x36, 0xe9, 0x8a, 0xa0, 0xdd, 0x9f, 0x6b, 0x0c, 0x0a, 0x93, 0x15, 0xce, 0x6c, 0xfb, 0x5e, 0x9e, 0xcd, 0x32, 0x98, 0x11, 0x47, 0x53, 0xe9, 0x67, 0x26, 0x07, 0x36, 0x8d, 0x1b, 0xea, 0x83, 0xee, 0xc0, 0x94, 0x10, 0xfd, 0x9f, 0xfb, 0x42, 0xae, 0xfc, 0x2b, 0x37, 0xd3, 0xcf, 0x8d, 0x1b, 0x4a, 0xd4, 0x54, 0x61, 0xe6, 0xaa, 0xeb, 0x2a, 0x39, 0xcf, 0xe9, 0xe3, 0xc6, 0xb6, 0xfe, 0xff, 0xff, 0x04, 0x00, 0x00, 0x00, 0x40, 0x00, 0x00, 0x00, 0xfd, 0xff, 0xff, 0xff, 0xff, 0xff, 0xff, 0xff, 0x05, 0x00, 0x00, 0x00, 0xf9, 0xff, 0xff, 0xff, 0xf6, 0xff, 0xff, 0xff, 0xf1, 0xff, 0xff, 0xff, 0xf4, 0xff, 0xff, 0xff, 0xf9, 0xff, 0xff, 0xff, 0xf8, 0xff, 0xff, 0xff, 0xf7, 0xff, 0xff, 0xff, 0x00, 0x00, 0x00, 0x00, 0xfd, 0xff, 0xff, 0xff, 0xf3, 0xff, 0xff, 0xff, 0xf5, 0xff, 0xff, 0xff, 0xf3, 0xff, 0xff, 0xff, 0xee, 0xff, 0xff, 0xff, 0x02, 0xff, 0xff, 0xff, 0x04, 0x00, 0x00, 0x00, 0x30, 0x00, 0x00, 0x00, 0x49, 0x17, 0x65, 0x6e, 0x15, 0x9d, 0x29, 0x9b, 0x64, 0x91, 0x08, 0x5d, 0x37, 0x7e, 0x81, 0xaf, 0xe3, 0xba, 0x88, 0x36, 0x4b, 0xb6, 0x2a, 0xd1, 0x62, 0x74, 0x52, 0x6c, 0x57, 0xae, 0xc6, 0x7f, 0xa4, 0x29, 0x25, 0x95, 0x65, 0x26, 0xd2, 0x12, 0x33, 0x09, 0xab, 0xe2, 0x4d, 0x7f, 0x0f, 0x77, 0x3e, 0xff, 0xff, 0xff, 0x04, 0x00, 0x00, 0x00, 0x0c, 0x00, 0x00, 0x00, 0x05, 0x00, 0x00, 0x00, 0x23, 0x00, 0x00, 0x00, 0xdd, 0xff, 0xff, 0xff, 0x56, 0xff, 0xff, 0xff, 0x04, 0x00, 0x00, 0x00, 0x08, 0x00, 0x00, 0x00, 0xff, 0xff, 0xff, 0xff, 0x80, 0x01, 0x00, 0x00, 0xf8, 0xf0, 0xff, 0xff, 0xfc, 0xf0, 0xff, 0xff, 0x0f, 0x00, 0x00, 0x00, 0x4d, 0x4c, 0x49, 0x52, 0x20, 0x43, 0x6f, 0x6e, 0x76, 0x65, 0x72, 0x74, 0x65, 0x64, 0x2e, 0x00, 0x01, 0x00, 0x00, 0x00, 0x14, 0x00, 0x00, 0x00, 0x00, 0x00, 0x0e, 0x00, 0x18, 0x00, 0x14, 0x00, 0x10, 0x00, 0x0c, 0x00, 0x08, 0x00, 0x04, 0x00, 0x0e, 0x00, 0x00, 0x00, 0x14, 0x00, 0x00, 0x00, 0x1c, 0x00, 0x00, 0x00, 0x4c, 0x02, 0x00, 0x00, 0x50, 0x02, 0x00, 0x00, 0x54, 0x02, 0x00, 0x00, 0x04, 0x00, 0x00, 0x00, 0x6d, 0x61, 0x69, 0x6e, 0x00, 0x00, 0x00, 0x00, 0x08, 0x00, 0x00, 0x00, 0xe8, 0x01, 0x00, 0x00, 0x84, 0x01, 0x00, 0x00, 0x34, 0x01, 0x00, 0x00, 0xf0, 0x00, 0x00, 0x00, 0xc8, 0x00, 0x00, 0x00, 0x78, 0x00, 0x00, 0x00, 0x40, 0x00, 0x00, 0x00, 0x04, 0x00, 0x00, 0x00, 0xa6, 0xfe, 0xff, 0xff, 0x1c, 0x00, 0x00, 0x00, 0x00, 0x00, 0x00, 0x09, 0x1c, 0x00, 0x00, 0x00, 0x20, 0x00, 0x00, 0x00, 0x04, 0x00, 0x00, 0x00, 0x00, 0x00, 0x06, 0x00, 0x08, 0x00, 0x04, 0x00, 0x06, 0x00, 0x00, 0x00, 0x00, 0x00, 0x80, 0x3f, 0x01, 0x00, 0x00, 0x00, 0x11, 0x00, 0x00, 0x00, 0x01, 0x00, 0x00, 0x00, 0x10, 0x00, 0x00, 0x00, 0xde, 0xfe, 0xff, 0xff, 0x14, 0x00, 0x00, 0x00, 0x00, 0x00, 0x00, 0x08, 0x10, 0x00, 0x00, 0x00, 0x14, 0x00, 0x00, 0x00, 0x03, 0x00, 0x00, 0x00, 0xc4, 0xf1, 0xff, 0xff, 0x01, 0x00, 0x00, 0x00, 0x10, 0x00, 0x00, 0x00, 0x03, 0x00, 0x00, 0x00, 0x0f, 0x00, 0x00, 0x00, 0x03, 0x00, 0x00, 0x00, 0x02, 0x00, 0x00, 0x00, 0x12, 0xff, 0xff, 0xff, 0x1c, 0x00, 0x00, 0x00, 0x00, 0x00, 0x00, 0x08, 0x1c, 0x00, 0x00, 0x00, 0x20, 0x00, 0x00, 0x00, 0x03, 0x00, 0x00, 0x00, 0x00, 0x00, 0x06, 0x00, 0x08, 0x00, 0x07, 0x00, 0x06, 0x00, 0x00, 0x00, 0x00, 0x00, 0x00, 0x01, 0x01, 0x00, 0x00, 0x00, 0x0f, 0x00, 0x00, 0x00, 0x03, 0x00, 0x00, 0x00, 0x0e, 0x00, 0x00, 0x00, 0x05, 0x00, 0x00, 0x00, 0x04, 0x00, 0x00, 0x00, 0x00, 0x00, 0x0a, 0x00, 0x10, 0x00, 0x0c, 0x00, 0x08, 0x00, 0x04, 0x00, 0x0a, 0x00, 0x00, 0x00, 0x0c, 0x00, 0x00, 0x00, 0x10, 0x00, 0x00, 0x00, 0x02, 0x00, 0x00, 0x00, 0x01, 0x00, 0x00, 0x00, 0x0e, 0x00, 0x00, 0x00, 0x02, 0x00, 0x00, 0x00, 0x0d, 0x00, 0x00, 0x00, 0x01, 0x00, 0x00, 0x00, 0x82, 0xff, 0xff, 0xff, 0x14, 0x00, 0x00, 0x00, 0x00, 0x00, 0x00, 0x05, 0x24, 0x00, 0x00, 0x00, 0x28, 0x00, 0x00, 0x00, 0x01, 0x00, 0x00, 0x00, 0x72, 0xff, 0xff, 0xff, 0x02, 0x00, 0x00, 0x00, 0x02, 0x00, 0x00, 0x00, 0x02, 0x00, 0x00, 0x00, 0x02, 0x00, 0x00, 0x00, 0x00, 0x00, 0x00, 0x01, 0x01, 0x00, 0x00, 0x00, 0x0d, 0x00, 0x00, 0x00, 0x01, 0x00, 0x00, 0x00, 0x0c, 0x00, 0x00, 0x00, 0x62, 0xff, 0xff, 0xff, 0x10, 0x00, 0x00, 0x00, 0x00, 0x00, 0x00, 0x01, 0x18, 0x00, 0x00, 0x00, 0x1c, 0x00, 0x00, 0x00, 0x54, 0xff, 0xff, 0xff, 0x00, 0x00, 0x00, 0x01, 0x01, 0x00, 0x00, 0x00, 0x01, 0x00, 0x00, 0x00, 0x01, 0x00, 0x00, 0x00, 0x0c, 0x00, 0x00, 0x00, 0x03, 0x00, 0x00, 0x00, 0x0b, 0x00, 0x00, 0x00, 0x07, 0x00, 0x00, 0x00, 0x06, 0x00, 0x00, 0x00, 0x00, 0x00, 0x0e, 0x00, 0x1a, 0x00, 0x14, 0x00, 0x10, 0x00, 0x0c, 0x00, 0x0b, 0x00, 0x04, 0x00, 0x0e, 0x00, 0x00, 0x00, 0x24, 0x00, 0x00, 0x00, 0x00, 0x00, 0x00, 0x05, 0x34, 0x00, 0x00, 0x00, 0x38, 0x00, 0x00, 0x00, 0x01, 0x00, 0x00, 0x00, 0x00, 0x00, 0x0e, 0x00, 0x18, 0x00, 0x17, 0x00, 0x10, 0x00, 0x0c, 0x00, 0x08, 0x00, 0x04, 0x00, 0x0e, 0x00, 0x00, 0x00, 0x02, 0x00, 0x00, 0x00, 0x02, 0x00, 0x00, 0x00, 0x02, 0x00, 0x00, 0x00, 0x02, 0x00, 0x00, 0x00, 0x00, 0x00, 0x00, 0x01, 0x01, 0x00, 0x00, 0x00, 0x0b, 0x00, 0x00, 0x00, 0x01, 0x00, 0x00, 0x00, 0x0a, 0x00, 0x00, 0x00, 0x00, 0x00, 0x0e, 0x00, 0x14, 0x00, 0x00, 0x00, 0x10, 0x00, 0x0c, 0x00, 0x0b, 0x00, 0x04, 0x00, 0x0e, 0x00, 0x00, 0x00, 0x1c, 0x00, 0x00, 0x00, 0x00, 0x00, 0x00, 0x01, 0x24, 0x00, 0x00, 0x00, 0x28, 0x00, 0x00, 0x00, 0x0c, 0x00, 0x10, 0x00, 0x00, 0x00, 0x0c, 0x00, 0x08, 0x00, 0x07, 0x00, 0x0c, 0x00, 0x00, 0x00, 0x00, 0x00, 0x00, 0x01, 0x01, 0x00, 0x00, 0x00, 0x01, 0x00, 0x00, 0x00, 0x01, 0x00, 0x00, 0x00, 0x0a, 0x00, 0x00, 0x00, 0x03, 0x00, 0x00, 0x00, 0x00, 0x00, 0x00, 0x00, 0x09, 0x00, 0x00, 0x00, 0x08, 0x00, 0x00, 0x00, 0x01, 0x00, 0x00, 0x00, 0x11, 0x00, 0x00, 0x00, 0x01, 0x00, 0x00, 0x00, 0x00, 0x00, 0x00, 0x00, 0x12, 0x00, 0x00, 0x00, 0xa4, 0x0c, 0x00, 0x00, 0x48, 0x0c, 0x00, 0x00, 0xb8, 0x0b, 0x00, 0x00, 0x3c, 0x0b, 0x00, 0x00, 0x28, 0x0a, 0x00, 0x00, 0x0c, 0x09, 0x00, 0x00, 0xf8, 0x07, 0x00, 0x00, 0xd4, 0x06, 0x00, 0x00, 0x20, 0x06, 0x00, 0x00, 0x5c, 0x05, 0x00, 0x00, 0x88, 0x04, 0x00, 0x00, 0xec, 0x03, 0x00, 0x00, 0xf8, 0x02, 0x00, 0x00, 0x5c, 0x02, 0x00, 0x00, 0xd8, 0x01, 0x00, 0x00, 0x24, 0x01, 0x00, 0x00, 0x80, 0x00, 0x00, 0x00, 0x04, 0x00, 0x00, 0x00, 0xba, 0xf3, 0xff, 0xff, 0x00, 0x00, 0x00, 0x01, 0x18, 0x00, 0x00, 0x00, 0x20, 0x00, 0x00, 0x00, 0x3c, 0x00, 0x00, 0x00, 0x12, 0x00, 0x00, 0x00, 0x00, 0x00, 0x00, 0x09, 0x50, 0x00, 0x00, 0x00, 0x02, 0x00, 0x00, 0x00, 0xff, 0xff, 0xff, 0xff, 0x03, 0x00, 0x00, 0x00, 0x9c, 0xf3, 0xff, 0xff, 0x08, 0x00, 0x00, 0x00, 0x10, 0x00, 0x00, 0x00, 0x01, 0x00, 0x00, 0x00, 0x80, 0xff, 0xff, 0xff, 0xff, 0xff, 0xff, 0xff, 0x01, 0x00, 0x00, 0x00, 0x00, 0x00, 0x80, 0x3b, 0x1b, 0x00, 0x00, 0x00, 0x53, 0x74, 0x61, 0x74, 0x65, 0x66, 0x75, 0x6c, 0x50, 0x61, 0x72, 0x74, 0x69, 0x74, 0x69, 0x6f, 0x6e, 0x65, 0x64, 0x43, 0x61, 0x6c, 0x6c, 0x5f, 0x31, 0x3a, 0x30, 0x00, 0x02, 0x00, 0x00, 0x00, 0x01, 0x00, 0x00, 0x00, 0x03, 0x00, 0x00, 0x00, 0x32, 0xf4, 0xff, 0xff, 0x00, 0x00, 0x00, 0x01, 0x18, 0x00, 0x00, 0x00, 0x20, 0x00, 0x00, 0x00, 0x40, 0x00, 0x00, 0x00, 0x11, 0x00, 0x00, 0x00, 0x00, 0x00, 0x00, 0x09, 0x78, 0x00, 0x00, 0x00, 0x02, 0x00, 0x00, 0x00, 0xff, 0xff, 0xff, 0xff, 0x03, 0x00, 0x00, 0x00, 0x14, 0xf4, 0xff, 0xff, 0x08, 0x00, 0x00, 0x00, 0x14, 0x00, 0x00, 0x00, 0x01, 0x00, 0x00, 0x00, 0xee, 0xff, 0xff, 0xff, 0xff, 0xff, 0xff, 0xff, 0x00, 0x00, 0x00, 0x00, 0x01, 0x00, 0x00, 0x00, 0x01, 0x06, 0x5a, 0x3e, 0x3c, 0x00, 0x00, 0x00, 0x73, 0x65, 0x71, 0x75, 0x65, 0x6e, 0x74, 0x69, 0x61, 0x6c, 0x5f, 0x31, 0x2f, 0x64, 0x65, 0x6e, 0x73, 0x65, 0x5f, 0x31, 0x5f, 0x32, 0x2f, 0x4d, 0x61, 0x74, 0x4d, 0x75, 0x6c, 0x3b, 0x73, 0x65, 0x71, 0x75, 0x65, 0x6e, 0x74, 0x69, 0x61, 0x6c, 0x5f, 0x31, 0x2f, 0x64, 0x65, 0x6e, 0x73, 0x65, 0x5f, 0x31, 0x5f, 0x32, 0x2f, 0x42, 0x69, 0x61, 0x73, 0x41, 0x64, 0x64, 0x00, 0x00, 0x00, 0x00, 0x02, 0x00, 0x00, 0x00, 0x01, 0x00, 0x00, 0x00, 0x03, 0x00, 0x00, 0x00, 0xd2, 0xf4, 0xff, 0xff, 0x00, 0x00, 0x00, 0x01, 0x18, 0x00, 0x00, 0x00, 0x20, 0x00, 0x00, 0x00, 0x3c, 0x00, 0x00, 0x00, 0x10, 0x00, 0x00, 0x00, 0x00, 0x00, 0x00, 0x09, 0x88, 0x00, 0x00, 0x00, 0x02, 0x00, 0x00, 0x00, 0xff, 0xff, 0xff, 0xff, 0x10, 0x00, 0x00, 0x00, 0xb4, 0xf4, 0xff, 0xff, 0x08, 0x00, 0x00, 0x00, 0x10, 0x00, 0x00, 0x00, 0x01, 0x00, 0x00, 0x00, 0x80, 0xff, 0xff, 0xff, 0xff, 0xff, 0xff, 0xff, 0x01, 0x00, 0x00, 0x00, 0x2b, 0x2d, 0x31, 0x3e, 0x52, 0x00, 0x00, 0x00, 0x73, 0x65, 0x71, 0x75, 0x65, 0x6e, 0x74, 0x69, 0x61, 0x6c, 0x5f, 0x31, 0x2f, 0x64, 0x65, 0x6e, 0x73, 0x65, 0x5f, 0x31, 0x2f, 0x4d, 0x61, 0x74, 0x4d, 0x75, 0x6c, 0x3b, 0x73, 0x65, 0x71, 0x75, 0x65, 0x6e, 0x74, 0x69, 0x61, 0x6c, 0x5f, 0x31, 0x2f, 0x64, 0x65, 0x6e, 0x73, 0x65, 0x5f, 0x31, 0x2f, 0x52, 0x65, 0x6c, 0x75, 0x3b, 0x73, 0x65, 0x71, 0x75, 0x65, 0x6e, 0x74, 0x69, 0x61, 0x6c, 0x5f, 0x31, 0x2f, 0x64, 0x65, 0x6e, 0x73, 0x65, 0x5f, 0x31, 0x2f, 0x42, 0x69, 0x61, 0x73, 0x41, 0x64, 0x64, 0x00, 0x00, 0x02, 0x00, 0x00, 0x00, 0x01, 0x00, 0x00, 0x00, 0x10, 0x00, 0x00, 0x00, 0x82, 0xf5, 0xff, 0xff, 0x00, 0x00, 0x00, 0x01, 0x18, 0x00, 0x00, 0x00, 0x20, 0x00, 0x00, 0x00, 0x40, 0x00, 0x00, 0x00, 0x0f, 0x00, 0x00, 0x00, 0x00, 0x00, 0x00, 0x09, 0x58, 0x00, 0x00, 0x00, 0x02, 0x00, 0x00, 0x00, 0xff, 0xff, 0xff, 0xff, 0x80, 0x01, 0x00, 0x00, 0x64, 0xf5, 0xff, 0xff, 0x08, 0x00, 0x00, 0x00, 0x14, 0x00, 0x00, 0x00, 0x01, 0x00, 0x00, 0x00, 0x80, 0xff, 0xff, 0xff, 0xff, 0xff, 0xff, 0xff, 0x00, 0x00, 0x00, 0x00, 0x01, 0x00, 0x00, 0x00, 0xff, 0xfd, 0xff, 0x3e, 0x1e, 0x00, 0x00, 0x00, 0x73, 0x65, 0x71, 0x75, 0x65, 0x6e, 0x74, 0x69, 0x61, 0x6c, 0x5f, 0x31, 0x2f, 0x66, 0x6c, 0x61, 0x74, 0x74, 0x65, 0x6e, 0x5f, 0x31, 0x2f, 0x52, 0x65, 0x73, 0x68, 0x61, 0x70, 0x65, 0x00, 0x00, 0x02, 0x00, 0x00, 0x00, 0x01, 0x00, 0x00, 0x00, 0x80, 0x01, 0x00, 0x00, 0x02, 0xf6, 0xff, 0xff, 0x00, 0x00, 0x00, 0x01, 0x18, 0x00, 0x00, 0x00, 0x28, 0x00, 0x00, 0x00, 0x44, 0x00, 0x00, 0x00, 0x0e, 0x00, 0x00, 0x00, 0x00, 0x00, 0x00, 0x09, 0x68, 0x00, 0x00, 0x00, 0x04, 0x00, 0x00, 0x00, 0xff, 0xff, 0xff, 0xff, 0x08, 0x00, 0x00, 0x00, 0x03, 0x00, 0x00, 0x00, 0x10, 0x00, 0x00, 0x00, 0xec, 0xf5, 0xff, 0xff, 0x08, 0x00, 0x00, 0x00, 0x10, 0x00, 0x00, 0x00, 0x01, 0x00, 0x00, 0x00, 0x80, 0xff, 0xff, 0xff, 0xff, 0xff, 0xff, 0xff, 0x01, 0x00, 0x00, 0x00, 0xff, 0xfd, 0xff, 0x3e, 0x28, 0x00, 0x00, 0x00, 0x73, 0x65, 0x71, 0x75, 0x65, 0x6e, 0x74, 0x69, 0x61, 0x6c, 0x5f, 0x31, 0x2f, 0x6d, 0x61, 0x78, 0x5f, 0x70, 0x6f, 0x6f, 0x6c, 0x69, 0x6e, 0x67, 0x32, 0x64, 0x5f, 0x31, 0x5f, 0x32, 0x2f, 0x4d, 0x61, 0x78, 0x50, 0x6f, 0x6f, 0x6c, 0x32, 0x64, 0x00, 0x00, 0x00, 0x00, 0x04, 0x00, 0x00, 0x00, 0x01, 0x00, 0x00, 0x00, 0x08, 0x00, 0x00, 0x00, 0x03, 0x00, 0x00, 0x00, 0x10, 0x00, 0x00, 0x00, 0x9a, 0xf6, 0xff, 0xff, 0x00, 0x00, 0x00, 0x01, 0x18, 0x00, 0x00, 0x00, 0x28, 0x00, 0x00, 0x00, 0x44, 0x00, 0x00, 0x00, 0x0d, 0x00, 0x00, 0x00, 0x00, 0x00, 0x00, 0x09, 0xc0, 0x00, 0x00, 0x00, 0x04, 0x00, 0x00, 0x00, 0xff, 0xff, 0xff, 0xff, 0x10, 0x00, 0x00, 0x00, 0x06, 0x00, 0x00, 0x00, 0x10, 0x00, 0x00, 0x00, 0x84, 0xf6, 0xff, 0xff, 0x08, 0x00, 0x00, 0x00, 0x10, 0x00, 0x00, 0x00, 0x01, 0x00, 0x00, 0x00, 0x80, 0xff, 0xff, 0xff, 0xff, 0xff, 0xff, 0xff, 0x01, 0x00, 0x00, 0x00, 0xff, 0xfd, 0xff, 0x3e, 0x80, 0x00, 0x00, 0x00, 0x73, 0x65, 0x71, 0x75, 0x65, 0x6e, 0x74, 0x69, 0x61, 0x6c, 0x5f, 0x31, 0x2f, 0x63, 0x6f, 0x6e, 0x76, 0x32, 0x64, 0x5f, 0x31, 0x5f, 0x32, 0x2f, 0x52, 0x65, 0x6c, 0x75, 0x3b, 0x73, 0x65, 0x71, 0x75, 0x65, 0x6e, 0x74, 0x69, 0x61, 0x6c, 0x5f, 0x31, 0x2f, 0x63, 0x6f, 0x6e, 0x76, 0x32, 0x64, 0x5f, 0x31, 0x5f, 0x32, 0x2f, 0x42, 0x69, 0x61, 0x73, 0x41, 0x64, 0x64, 0x3b, 0x73, 0x65, 0x71, 0x75, 0x65, 0x6e, 0x74, 0x69, 0x61, 0x6c, 0x5f, 0x31, 0x2f, 0x63, 0x6f, 0x6e, 0x76, 0x32, 0x64, 0x5f, 0x31, 0x5f, 0x32, 0x2f, 0x63, 0x6f, 0x6e, 0x76, 0x6f, 0x6c, 0x75, 0x74, 0x69, 0x6f, 0x6e, 0x3b, 0x73, 0x65, 0x71, 0x75, 0x65, 0x6e, 0x74, 0x69, 0x61, 0x6c, 0x5f, 0x31, 0x2f, 0x63, 0x6f, 0x6e, 0x76, 0x32, 0x64, 0x5f, 0x31, 0x5f, 0x32, 0x2f, 0x53, 0x71, 0x75, 0x65, 0x65, 0x7a, 0x65, 0x00, 0x00, 0x00, 0x00, 0x04, 0x00, 0x00, 0x00, 0x01, 0x00, 0x00, 0x00, 0x10, 0x00, 0x00, 0x00, 0x06, 0x00, 0x00, 0x00, 0x10, 0x00, 0x00, 0x00, 0x8a, 0xf7, 0xff, 0xff, 0x00, 0x00, 0x00, 0x01, 0x18, 0x00, 0x00, 0x00, 0x28, 0x00, 0x00, 0x00, 0x48, 0x00, 0x00, 0x00, 0x0c, 0x00, 0x00, 0x00, 0x00, 0x00, 0x00, 0x09, 0x68, 0x00, 0x00, 0x00, 0x04, 0x00, 0x00, 0x00, 0xff, 0xff, 0xff, 0xff, 0x10, 0x00, 0x00, 0x00, 0x06, 0x00, 0x00, 0x00, 0x08, 0x00, 0x00, 0x00, 0x74, 0xf7, 0xff, 0xff, 0x08, 0x00, 0x00, 0x00, 0x14, 0x00, 0x00, 0x00, 0x01, 0x00, 0x00, 0x00, 0x80, 0xff, 0xff, 0xff, 0xff, 0xff, 0xff, 0xff, 0x00, 0x00, 0x00, 0x00, 0x01, 0x00, 0x00, 0x00, 0xb8, 0xac, 0x50, 0x3f, 0x26, 0x00, 0x00, 0x00, 0x73, 0x65, 0x71, 0x75, 0x65, 0x6e, 0x74, 0x69, 0x61, 0x6c, 0x5f, 0x31, 0x2f, 0x6d, 0x61, 0x78, 0x5f, 0x70, 0x6f, 0x6f, 0x6c, 0x69, 0x6e, 0x67, 0x32, 0x64, 0x5f, 0x31, 0x2f, 0x4d, 0x61, 0x78, 0x50, 0x6f, 0x6f, 0x6c, 0x32, 0x64, 0x00, 0x00, 0x04, 0x00, 0x00, 0x00, 0x01, 0x00, 0x00, 0x00, 0x10, 0x00, 0x00, 0x00, 0x06, 0x00, 0x00, 0x00, 0x08, 0x00, 0x00, 0x00, 0x22, 0xf8, 0xff, 0xff, 0x00, 0x00, 0x00, 0x01, 0x18, 0x00, 0x00, 0x00, 0x28, 0x00, 0x00, 0x00, 0x48, 0x00, 0x00, 0x00, 0x0b, 0x00, 0x00, 0x00, 0x00, 0x00, 0x00, 0x09, 0xa0, 0x00, 0x00, 0x00, 0x04, 0x00, 0x00, 0x00, 0xff, 0xff, 0xff, 0xff, 0x20, 0x00, 0x00, 0x00, 0x0d, 0x00, 0x00, 0x00, 0x08, 0x00, 0x00, 0x00, 0x0c, 0xf8, 0xff, 0xff, 0x08, 0x00, 0x00, 0x00, 0x14, 0x00, 0x00, 0x00, 0x01, 0x00, 0x00, 0x00, 0x80, 0xff, 0xff, 0xff, 0xff, 0xff, 0xff, 0xff, 0x00, 0x00, 0x00, 0x00, 0x01, 0x00, 0x00, 0x00, 0xb8, 0xac, 0x50, 0x3f, 0x5c, 0x00, 0x00, 0x00, 0x73, 0x65, 0x71, 0x75, 0x65, 0x6e, 0x74, 0x69, 0x61, 0x6c, 0x5f, 0x31, 0x2f, 0x63, 0x6f, 0x6e, 0x76, 0x32, 0x64, 0x5f, 0x31, 0x2f, 0x52, 0x65, 0x6c, 0x75, 0x3b, 0x73, 0x65, 0x71, 0x75, 0x65, 0x6e, 0x74, 0x69, 0x61, 0x6c, 0x5f, 0x31, 0x2f, 0x63, 0x6f, 0x6e, 0x76, 0x32, 0x64, 0x5f, 0x31, 0x2f, 0x42, 0x69, 0x61, 0x73, 0x41, 0x64, 0x64, 0x3b, 0x73, 0x65, 0x71, 0x75, 0x65, 0x6e, 0x74, 0x69, 0x61, 0x6c, 0x5f, 0x31, 0x2f, 0x63, 0x6f, 0x6e, 0x76, 0x32, 0x64, 0x5f, 0x31, 0x2f, 0x63, 0x6f, 0x6e, 0x76, 0x6f, 0x6c, 0x75, 0x74, 0x69, 0x6f, 0x6e, 0x3b, 0x31, 0x00, 0x00, 0x00, 0x00, 0x04, 0x00, 0x00, 0x00, 0x01, 0x00, 0x00, 0x00, 0x20, 0x00, 0x00, 0x00, 0x0d, 0x00, 0x00, 0x00, 0x08, 0x00, 0x00, 0x00, 0x4a, 0xf9, 0xff, 0xff, 0x00, 0x00, 0x00, 0x01, 0x14, 0x00, 0x00, 0x00, 0x88, 0x00, 0x00, 0x00, 0x0a, 0x00, 0x00, 0x00, 0x00, 0x00, 0x00, 0x09, 0x94, 0x00, 0x00, 0x00, 0xc4, 0xf8, 0xff, 0xff, 0x08, 0x00, 0x00, 0x00, 0x4c, 0x00, 0x00, 0x00, 0x08, 0x00, 0x00, 0x00, 0x00, 0x00, 0x00, 0x00, 0x00, 0x00, 0x00, 0x00, 0x00, 0x00, 0x00, 0x00, 0x00, 0x00, 0x00, 0x00, 0x00, 0x00, 0x00, 0x00, 0x00, 0x00, 0x00, 0x00, 0x00, 0x00, 0x00, 0x00, 0x00, 0x00, 0x00, 0x00, 0x00, 0x00, 0x00, 0x00, 0x00, 0x00, 0x00, 0x00, 0x00, 0x00, 0x00, 0x00, 0x00, 0x00, 0x00, 0x00, 0x00, 0x00, 0x00, 0x00, 0x00, 0x00, 0x00, 0x00, 0x00, 0x00, 0x00, 0x00, 0x00, 0x00, 0x00, 0x00, 0x00, 0x00, 0x00, 0x00, 0x08, 0x00, 0x00, 0x00, 0x89, 0x84, 0x06, 0x3b, 0xda, 0x0a, 0xff, 0x3a, 0x49, 0x6a, 0x02, 0x3b, 0xe8, 0x0c, 0x01, 0x3b, 0x50, 0x25, 0x06, 0x3b, 0x21, 0x3e, 0x07, 0x3b, 0x98, 0x90, 0xfe, 0x3a, 0xee, 0xe8, 0x0a, 0x3b, 0x12, 0x00, 0x00, 0x00, 0x74, 0x66, 0x6c, 0x2e, 0x70, 0x73, 0x65, 0x75, 0x64, 0x6f, 0x5f, 0x71, 0x63, 0x6f, 0x6e, 0x73, 0x74, 0x37, 0x00, 0x00, 0x04, 0x00, 0x00, 0x00, 0x08, 0x00, 0x00, 0x00, 0x03, 0x00, 0x00, 0x00, 0x03, 0x00, 0x00, 0x00, 0x01, 0x00, 0x00, 0x00, 0x0a, 0xfa, 0xff, 0xff, 0x00, 0x00, 0x00, 0x01, 0x14, 0x00, 0x00, 0x00, 0x84, 0x00, 0x00, 0x00, 0x09, 0x00, 0x00, 0x00, 0x00, 0x00, 0x00, 0x02, 0x90, 0x00, 0x00, 0x00, 0x84, 0xf9, 0xff, 0xff, 0x08, 0x00, 0x00, 0x00, 0x48, 0x00, 0x00, 0x00, 0x08, 0x00, 0x00, 0x00, 0x00, 0x00, 0x00, 0x00, 0x00, 0x00, 0x00, 0x00, 0x00, 0x00, 0x00, 0x00, 0x00, 0x00, 0x00, 0x00, 0x00, 0x00, 0x00, 0x00, 0x00, 0x00, 0x00, 0x00, 0x00, 0x00, 0x00, 0x00, 0x00, 0x00, 0x00, 0x00, 0x00, 0x00, 0x00, 0x00, 0x00, 0x00, 0x00, 0x00, 0x00, 0x00, 0x00, 0x00, 0x00, 0x00, 0x00, 0x00, 0x00, 0x00, 0x00, 0x00, 0x00, 0x00, 0x00, 0x00, 0x00, 0x00, 0x00, 0x00, 0x00, 0x00, 0x00, 0x00, 0x08, 0x00, 0x00, 0x00, 0x25, 0x29, 0xca, 0x3b, 0x5e, 0xa5, 0xbf, 0x3b, 0xc6, 0xfe, 0xc3, 0x3b, 0xb5, 0xf1, 0xc1, 0x3b, 0x0a, 0x9a, 0xc9, 0x3b, 0x11, 0x40, 0xcb, 0x3b, 0x80, 0x49, 0xbf, 0x3b, 0xf3, 0xc2, 0xd0, 0x3b, 0x12, 0x00, 0x00, 0x00, 0x74, 0x66, 0x6c, 0x2e, 0x70, 0x73, 0x65, 0x75, 0x64, 0x6f, 0x5f, 0x71, 0x63, 0x6f, 0x6e, 0x73, 0x74, 0x36, 0x00, 0x00, 0x01, 0x00, 0x00, 0x00, 0x08, 0x00, 0x00, 0x00, 0xba, 0xfa, 0xff, 0xff, 0x00, 0x00, 0x00, 0x01, 0x14, 0x00, 0x00, 0x00, 0xe8, 0x00, 0x00, 0x00, 0x08, 0x00, 0x00, 0x00, 0x00, 0x00, 0x00, 0x09, 0xf4, 0x00, 0x00, 0x00, 0x34, 0xfa, 0xff, 0xff, 0x08, 0x00, 0x00, 0x00, 0x8c, 0x00, 0x00, 0x00, 0x10, 0x00, 0x00, 0x00, 0x00, 0x00, 0x00, 0x00, 0x00, 0x00, 0x00, 0x00, 0x00, 0x00, 0x00, 0x00, 0x00, 0x00, 0x00, 0x00, 0x00, 0x00, 0x00, 0x00, 0x00, 0x00, 0x00, 0x00, 0x00, 0x00, 0x00, 0x00, 0x00, 0x00, 0x00, 0x00, 0x00, 0x00, 0x00, 0x00, 0x00, 0x00, 0x00, 0x00, 0x00, 0x00, 0x00, 0x00, 0x00, 0x00, 0x00, 0x00, 0x00, 0x00, 0x00, 0x00, 0x00, 0x00, 0x00, 0x00, 0x00, 0x00, 0x00, 0x00, 0x00, 0x00, 0x00, 0x00, 0x00, 0x00, 0x00, 0x00, 0x00, 0x00, 0x00, 0x00, 0x00, 0x00, 0x00, 0x00, 0x00, 0x00, 0x00, 0x00, 0x00, 0x00, 0x00, 0x00, 0x00, 0x00, 0x00, 0x00, 0x00, 0x00, 0x00, 0x00, 0x00, 0x00, 0x00, 0x00, 0x00, 0x00, 0x00, 0x00, 0x00, 0x00, 0x00, 0x00, 0x00, 0x00, 0x00, 0x00, 0x00, 0x00, 0x00, 0x00, 0x00, 0x00, 0x00, 0x00, 0x00, 0x00, 0x00, 0x00, 0x00, 0x00, 0x00, 0x00, 0x00, 0x00, 0x00, 0x00, 0x00, 0x00, 0x00, 0x00, 0x10, 0x00, 0x00, 0x00, 0x52, 0x8b, 0xb8, 0x3a, 0x9d, 0x75, 0xd0, 0x3a, 0x27, 0xae, 0xbe, 0x3a, 0xb9, 0x8e, 0xaf, 0x3a, 0xe8, 0x40, 0xb4, 0x3a, 0x4a, 0x88, 0xb2, 0x3a, 0x7d, 0x97, 0xe9, 0x3a, 0x04, 0x35, 0xca, 0x3a, 0xd2, 0x16, 0xac, 0x3a, 0x65, 0x97, 0xb9, 0x3a, 0x77, 0x58, 0xc4, 0x3a, 0x1e, 0x21, 0xb3, 0x3a, 0x1d, 0x0c, 0xaf, 0x3a, 0x0a, 0x9a, 0xb0, 0x3a, 0xec, 0x4b, 0xb1, 0x3a, 0xdf, 0xb2, 0xc1, 0x3a, 0x12, 0x00, 0x00, 0x00, 0x74, 0x66, 0x6c, 0x2e, 0x70, 0x73, 0x65, 0x75, 0x64, 0x6f, 0x5f, 0x71, 0x63, 0x6f, 0x6e, 0x73, 0x74, 0x35, 0x00, 0x00, 0x04, 0x00, 0x00, 0x00, 0x10, 0x00, 0x00, 0x00, 0x03, 0x00, 0x00, 0x00, 0x03, 0x00, 0x00, 0x00, 0x08, 0x00, 0x00, 0x00, 0xda, 0xfb, 0xff, 0xff, 0x00, 0x00, 0x00, 0x01, 0x14, 0x00, 0x00, 0x00, 0xe4, 0x00, 0x00, 0x00, 0x07, 0x00, 0x00, 0x00, 0x00, 0x00, 0x00, 0x02, 0xf0, 0x00, 0x00, 0x00, 0x54, 0xfb, 0xff, 0xff, 0x08, 0x00, 0x00, 0x00, 0x88, 0x00, 0x00, 0x00, 0x10, 0x00, 0x00, 0x00, 0x00, 0x00, 0x00, 0x00, 0x00, 0x00, 0x00, 0x00, 0x00, 0x00, 0x00, 0x00, 0x00, 0x00, 0x00, 0x00, 0x00, 0x00, 0x00, 0x00, 0x00, 0x00, 0x00, 0x00, 0x00, 0x00, 0x00, 0x00, 0x00, 0x00, 0x00, 0x00, 0x00, 0x00, 0x00, 0x00, 0x00, 0x00, 0x00, 0x00, 0x00, 0x00, 0x00, 0x00, 0x00, 0x00, 0x00, 0x00, 0x00, 0x00, 0x00, 0x00, 0x00, 0x00, 0x00, 0x00, 0x00, 0x00, 0x00, 0x00, 0x00, 0x00, 0x00, 0x00, 0x00, 0x00, 0x00, 0x00, 0x00, 0x00, 0x00, 0x00, 0x00, 0x00, 0x00, 0x00, 0x00, 0x00, 0x00, 0x00, 0x00, 0x00, 0x00, 0x00, 0x00, 0x00, 0x00, 0x00, 0x00, 0x00, 0x00, 0x00, 0x00, 0x00, 0x00, 0x00, 0x00, 0x00, 0x00, 0x00, 0x00, 0x00, 0x00, 0x00, 0x00, 0x00, 0x00, 0x00, 0x00, 0x00, 0x00, 0x00, 0x00, 0x00, 0x00, 0x00, 0x00, 0x00, 0x00, 0x00, 0x00, 0x00, 0x00, 0x00, 0x00, 0x00, 0x00, 0x00, 0x10, 0x00, 0x00, 0x00, 0xb5, 0x6d, 0x96, 0x3a, 0x34, 0xec, 0xa9, 0x3a, 0x26, 0x6e, 0x9b, 0x3a, 0x68, 0x1a, 0x8f, 0x3a, 0x5a, 0xee, 0x92, 0x3a, 0x30, 0x87, 0x91, 0x3a, 0xaf, 0x68, 0xbe, 0x3a, 0x80, 0xd3, 0xa4, 0x3a, 0xa6, 0x46, 0x8c, 0x3a, 0x39, 0x48, 0x97, 0x3a, 0x59, 0x0c, 0xa0, 0x3a, 0xc3, 0x03, 0x92, 0x3a, 0xf2, 0xaf, 0x8e, 0x3a, 0x4f, 0xf4, 0x8f, 0x3a, 0x4e, 0x85, 0x90, 0x3a, 0x05, 0xe4, 0x9d, 0x3a, 0x12, 0x00, 0x00, 0x00, 0x74, 0x66, 0x6c, 0x2e, 0x70, 0x73, 0x65, 0x75, 0x64, 0x6f, 0x5f, 0x71, 0x63, 0x6f, 0x6e, 0x73, 0x74, 0x34, 0x00, 0x00, 0x01, 0x00, 0x00, 0x00, 0x10, 0x00, 0x00, 0x00, 0xea, 0xfc, 0xff, 0xff, 0x00, 0x00, 0x00, 0x01, 0x14, 0x00, 0x00, 0x00, 0xe8, 0x00, 0x00, 0x00, 0x06, 0x00, 0x00, 0x00, 0x00, 0x00, 0x00, 0x09, 0xf4, 0x00, 0x00, 0x00, 0x64, 0xfc, 0xff, 0xff, 0x08, 0x00, 0x00, 0x00, 0x8c, 0x00, 0x00, 0x00, 0x10, 0x00, 0x00, 0x00, 0x00, 0x00, 0x00, 0x00, 0x00, 0x00, 0x00, 0x00, 0x00, 0x00, 0x00, 0x00, 0x00, 0x00, 0x00, 0x00, 0x00, 0x00, 0x00, 0x00, 0x00, 0x00, 0x00, 0x00, 0x00, 0x00, 0x00, 0x00, 0x00, 0x00, 0x00, 0x00, 0x00, 0x00, 0x00, 0x00, 0x00, 0x00, 0x00, 0x00, 0x00, 0x00, 0x00, 0x00, 0x00, 0x00, 0x00, 0x00, 0x00, 0x00, 0x00, 0x00, 0x00, 0x00, 0x00, 0x00, 0x00, 0x00, 0x00, 0x00, 0x00, 0x00, 0x00, 0x00, 0x00, 0x00, 0x00, 0x00, 0x00, 0x00, 0x00, 0x00, 0x00, 0x00, 0x00, 0x00, 0x00, 0x00, 0x00, 0x00, 0x00, 0x00, 0x00, 0x00, 0x00, 0x00, 0x00, 0x00, 0x00, 0x00, 0x00, 0x00, 0x00, 0x00, 0x00, 0x00, 0x00, 0x00, 0x00, 0x00, 0x00, 0x00, 0x00, 0x00, 0x00, 0x00, 0x00, 0x00, 0x00, 0x00, 0x00, 0x00, 0x00, 0x00, 0x00, 0x00, 0x00, 0x00, 0x00, 0x00, 0x00, 0x00, 0x00, 0x00, 0x00, 0x00, 0x00, 0x00, 0x00, 0x00, 0x00, 0x00, 0x10, 0x00, 0x00, 0x00, 0xd3, 0x43, 0x17, 0x3b, 0xce, 0x07, 0xe4, 0x3a, 0x6f, 0xc0, 0x97, 0x3a, 0xbc, 0xc7, 0x85, 0x3a, 0xde, 0x65, 0x83, 0x3a, 0x1e, 0xe1, 0x84, 0x3a, 0x29, 0x2f, 0x84, 0x3a, 0x7a, 0xf7, 0xce, 0x3a, 0xe6, 0xe5, 0x86, 0x3a, 0x59, 0x01, 0x9d, 0x3a, 0xef, 0xbb, 0x7c, 0x3a, 0xf2, 0x49, 0xb4, 0x3a, 0xa4, 0x42, 0x85, 0x3a, 0x87, 0x36, 0x8c, 0x3a, 0x83, 0x52, 0x84, 0x3a, 0x4e, 0xda, 0x88, 0x3a, 0x12, 0x00, 0x00, 0x00, 0x74, 0x66, 0x6c, 0x2e, 0x70, 0x73, 0x65, 0x75, 0x64, 0x6f, 0x5f, 0x71, 0x63, 0x6f, 0x6e, 0x73, 0x74, 0x33, 0x00, 0x00, 0x02, 0x00, 0x00, 0x00, 0x10, 0x00, 0x00, 0x00, 0x80, 0x01, 0x00, 0x00, 0x02, 0xfe, 0xff, 0xff, 0x00, 0x00, 0x00, 0x01, 0x14, 0x00, 0x00, 0x00, 0xe4, 0x00, 0x00, 0x00, 0x05, 0x00, 0x00, 0x00, 0x00, 0x00, 0x00, 0x02, 0xf0, 0x00, 0x00, 0x00, 0x7c, 0xfd, 0xff, 0xff, 0x08, 0x00, 0x00, 0x00, 0x88, 0x00, 0x00, 0x00, 0x10, 0x00, 0x00, 0x00, 0x00, 0x00, 0x00, 0x00, 0x00, 0x00, 0x00, 0x00, 0x00, 0x00, 0x00, 0x00, 0x00, 0x00, 0x00, 0x00, 0x00, 0x00, 0x00, 0x00, 0x00, 0x00, 0x00, 0x00, 0x00, 0x00, 0x00, 0x00, 0x00, 0x00, 0x00, 0x00, 0x00, 0x00, 0x00, 0x00, 0x00, 0x00, 0x00, 0x00, 0x00, 0x00, 0x00, 0x00, 0x00, 0x00, 0x00, 0x00, 0x00, 0x00, 0x00, 0x00, 0x00, 0x00, 0x00, 0x00, 0x00, 0x00, 0x00, 0x00, 0x00, 0x00, 0x00, 0x00, 0x00, 0x00, 0x00, 0x00, 0x00, 0x00, 0x00, 0x00, 0x00, 0x00, 0x00, 0x00, 0x00, 0x00, 0x00, 0x00, 0x00, 0x00, 0x00, 0x00, 0x00, 0x00, 0x00, 0x00, 0x00, 0x00, 0x00, 0x00, 0x00, 0x00, 0x00, 0x00, 0x00, 0x00, 0x00, 0x00, 0x00, 0x00, 0x00, 0x00, 0x00, 0x00, 0x00, 0x00, 0x00, 0x00, 0x00, 0x00, 0x00, 0x00, 0x00, 0x00, 0x00, 0x00, 0x00, 0x00, 0x00, 0x00, 0x00, 0x00, 0x00, 0x00, 0x00, 0x00, 0x10, 0x00, 0x00, 0x00, 0xa4, 0x42, 0x97, 0x3a, 0x05, 0x06, 0x64, 0x3a, 0x3f, 0xbf, 0x17, 0x3a, 0xb0, 0xc6, 0x05, 0x3a, 0xd7, 0x64, 0x03, 0x3a, 0x14, 0xe0, 0x04, 0x3a, 0x20, 0x2e, 0x04, 0x3a, 0xdb, 0xf5, 0x4e, 0x3a, 0xd8, 0xe4, 0x06, 0x3a, 0x1e, 0x00, 0x1d, 0x3a, 0xf5, 0xb9, 0xfc, 0x39, 0x89, 0x48, 0x34, 0x3a, 0x99, 0x41, 0x05, 0x3a, 0x6e, 0x35, 0x0c, 0x3a, 0x7a, 0x51, 0x04, 0x3a, 0x3c, 0xd9, 0x08, 0x3a, 0x12, 0x00, 0x00, 0x00, 0x74, 0x66, 0x6c, 0x2e, 0x70, 0x73, 0x65, 0x75, 0x64, 0x6f, 0x5f, 0x71, 0x63, 0x6f, 0x6e, 0x73, 0x74, 0x32, 0x00, 0x00, 0x01, 0x00, 0x00, 0x00, 0x10, 0x00, 0x00, 0x00, 0x12, 0xff, 0xff, 0xff, 0x00, 0x00, 0x00, 0x01, 0x14, 0x00, 0x00, 0x00, 0x48, 0x00, 0x00, 0x00, 0x04, 0x00, 0x00, 0x00, 0x00, 0x00, 0x00, 0x09, 0x54, 0x00, 0x00, 0x00, 0x8c, 0xfe, 0xff, 0xff, 0x08, 0x00, 0x00, 0x00, 0x20, 0x00, 0x00, 0x00, 0x03, 0x00, 0x00, 0x00, 0x00, 0x00, 0x00, 0x00, 0x00, 0x00, 0x00, 0x00, 0x00, 0x00, 0x00, 0x00, 0x00, 0x00, 0x00, 0x00, 0x00, 0x00, 0x00, 0x00, 0x00, 0x00, 0x00, 0x00, 0x03, 0x00, 0x00, 0x00, 0xa8, 0x26, 0x78, 0x3b, 0x4a, 0x2e, 0x82, 0x3b, 0xbd, 0xb3, 0x8b, 0x3b, 0x12, 0x00, 0x00, 0x00, 0x74, 0x66, 0x6c, 0x2e, 0x70, 0x73, 0x65, 0x75, 0x64, 0x6f, 0x5f, 0x71, 0x63, 0x6f, 0x6e, 0x73, 0x74, 0x31, 0x00, 0x00, 0x02, 0x00, 0x00, 0x00, 0x03, 0x00, 0x00, 0x00, 0x10, 0x00, 0x00, 0x00, 0x8a, 0xff, 0xff, 0xff, 0x00, 0x00, 0x00, 0x01, 0x14, 0x00, 0x00, 0x00, 0x48, 0x00, 0x00, 0x00, 0x03, 0x00, 0x00, 0x00, 0x00, 0x00, 0x00, 0x02, 0x54, 0x00, 0x00, 0x00, 0x04, 0xff, 0xff, 0xff, 0x08, 0x00, 0x00, 0x00, 0x20, 0x00, 0x00, 0x00, 0x03, 0x00, 0x00, 0x00, 0x00, 0x00, 0x00, 0x00, 0x00, 0x00, 0x00, 0x00, 0x00, 0x00, 0x00, 0x00, 0x00, 0x00, 0x00, 0x00, 0x00, 0x00, 0x00, 0x00, 0x00, 0x00, 0x00, 0x00, 0x03, 0x00, 0x00, 0x00, 0x83, 0xbe, 0x2b, 0x3a, 0xf2, 0x31, 0x34, 0x3a, 0xd7, 0x5f, 0x41, 0x3a, 0x11, 0x00, 0x00, 0x00, 0x74, 0x66, 0x6c, 0x2e, 0x70, 0x73, 0x65, 0x75, 0x64, 0x6f, 0x5f, 0x71, 0x63, 0x6f, 0x6e, 0x73, 0x74, 0x00, 0x00, 0x00, 0x01, 0x00, 0x00, 0x00, 0x03, 0x00, 0x00, 0x00, 0x00, 0x00, 0x16, 0x00, 0x1c, 0x00, 0x18, 0x00, 0x17, 0x00, 0x10, 0x00, 0x0c, 0x00, 0x08, 0x00, 0x00, 0x00, 0x00, 0x00, 0x00, 0x00, 0x07, 0x00, 0x16, 0x00, 0x00, 0x00, 0x00, 0x00, 0x00, 0x01, 0x18, 0x00, 0x00, 0x00, 0x18, 0x00, 0x00, 0x00, 0x02, 0x00, 0x00, 0x00, 0x00, 0x00, 0x00, 0x02, 0x20, 0x00, 0x00, 0x00, 0x04, 0x00, 0x04, 0x00, 0x04, 0x00, 0x00, 0x00, 0x0e, 0x00, 0x00, 0x00, 0x61, 0x72, 0x69, 0x74, 0x68, 0x2e, 0x63, 0x6f, 0x6e, 0x73, 0x74, 0x61, 0x6e, 0x74, 0x00, 0x00, 0x01, 0x00, 0x00, 0x00, 0x02, 0x00, 0x00, 0x00, 0x00, 0x00, 0x16, 0x00, 0x20, 0x00, 0x1c, 0x00, 0x1b, 0x00, 0x14, 0x00, 0x10, 0x00, 0x0c, 0x00, 0x00, 0x00, 0x00, 0x00, 0x08, 0x00, 0x07, 0x00, 0x16, 0x00, 0x00, 0x00, 0x00, 0x00, 0x00, 0x01, 0x18, 0x00, 0x00, 0x00, 0x34, 0x00, 0x00, 0x00, 0x54, 0x00, 0x00, 0x00, 0x01, 0x00, 0x00, 0x00, 0x00, 0x00, 0x00, 0x09, 0x6c, 0x00, 0x00, 0x00, 0x04, 0x00, 0x00, 0x00, 0xff, 0xff, 0xff, 0xff, 0x20, 0x00, 0x00, 0x00, 0x0d, 0x00, 0x00, 0x00, 0x01, 0x00, 0x00, 0x00, 0x0c, 0x00, 0x0c, 0x00, 0x00, 0x00, 0x00, 0x00, 0x08, 0x00, 0x04, 0x00, 0x0c, 0x00, 0x00, 0x00, 0x08, 0x00, 0x00, 0x00, 0x14, 0x00, 0x00, 0x00, 0x01, 0x00, 0x00, 0x00, 0x38, 0x00, 0x00, 0x00, 0x00, 0x00, 0x00, 0x00, 0x00, 0x00, 0x00, 0x00, 0x01, 0x00, 0x00, 0x00, 0x94, 0x5d, 0x40, 0x40, 0x1e, 0x00, 0x00, 0x00, 0x73, 0x65, 0x72, 0x76, 0x69, 0x6e, 0x67, 0x5f, 0x64, 0x65, 0x66, 0x61, 0x75, 0x6c, 0x74, 0x5f, 0x6b, 0x65, 0x72, 0x61, 0x73, 0x5f, 0x74, 0x65, 0x6e, 0x73, 0x6f, 0x72, 0x3a, 0x30, 0x00, 0x00, 0x04, 0x00, 0x00, 0x00, 0x01, 0x00, 0x00, 0x00, 0x20, 0x00, 0x00, 0x00, 0x0d, 0x00, 0x00, 0x00, 0x01, 0x00, 0x00, 0x00, 0x05, 0x00, 0x00, 0x00, 0x68, 0x00, 0x00, 0x00, 0x48, 0x00, 0x00, 0x00, 0x38, 0x00, 0x00, 0x00, 0x18, 0x00, 0x00, 0x00, 0x04, 0x00, 0x00, 0x00, 0xb8, 0xff, 0xff, 0xff, 0x19, 0x00, 0x00, 0x00, 0x02, 0x00, 0x00, 0x00, 0x00, 0x00, 0x00, 0x19, 0xc8, 0xff, 0xff, 0xff, 0x09, 0x00, 0x00, 0x00, 0x04, 0x00, 0x00, 0x00, 0x00, 0x00, 0x00, 0x09, 0x0c, 0x00, 0x0c, 0x00, 0x0b, 0x00, 0x00, 0x00, 0x00, 0x00, 0x04, 0x00, 0x0c, 0x00, 0x00, 0x00, 0x16, 0x00, 0x00, 0x00, 0x00, 0x00, 0x00, 0x16, 0xf0, 0xff, 0xff, 0xff, 0x11, 0x00, 0x00, 0x00, 0x02, 0x00, 0x00, 0x00, 0x00, 0x00, 0x00, 0x11, 0x0c, 0x00, 0x10, 0x00, 0x0f, 0x00, 0x00, 0x00, 0x08, 0x00, 0x04, 0x00, 0x0c, 0x00, 0x00, 0x00, 0x03, 0x00, 0x00, 0x00, 0x03, 0x00, 0x00, 0x00, 0x00, 0x00, 0x00, 0x03
};
const unsigned int audio_model_len = 12488;
