// Auto-generated by pipeline
#include <stdint.h>

const unsigned char audio_model[] = {
0x1c, 0x00, 0x00, 0x00, 0x54, 0x46, 0x4c, 0x33, 0x14, 0x00, 0x20, 0x00, 0x1c, 0x00, 0x18, 0x00, 0x14, 0x00, 0x10, 0x00, 0x0c, 0x00, 0x00, 0x00, 0x08, 0x00, 0x04, 0x00, 0x14, 0x00, 0x00, 0x00, 0x1c, 0x00, 0x00, 0x00, 0x8c, 0x00, 0x00, 0x00, 0x0c, 0x01, 0x00, 0x00, 0x48, 0x20, 0x00, 0x00, 0x58, 0x20, 0x00, 0x00, 0x18, 0x30, 0x00, 0x00, 0x03, 0x00, 0x00, 0x00, 0x01, 0x00, 0x00, 0x00, 0x04, 0x00, 0x00, 0x00, 0xae, 0xde, 0xff, 0xff, 0x0c, 0x00, 0x00, 0x00, 0x1c, 0x00, 0x00, 0x00, 0x3c, 0x00, 0x00, 0x00, 0x0f, 0x00, 0x00, 0x00, 0x73, 0x65, 0x72, 0x76, 0x69, 0x6e, 0x67, 0x5f, 0x64, 0x65, 0x66, 0x61, 0x75, 0x6c, 0x74, 0x00, 0x01, 0x00, 0x00, 0x00, 0x04, 0x00, 0x00, 0x00, 0x68, 0xff, 0xff, 0xff, 0x11, 0x00, 0x00, 0x00, 0x04, 0x00, 0x00, 0x00, 0x08, 0x00, 0x00, 0x00, 0x6f, 0x75, 0x74, 0x70, 0x75, 0x74, 0x5f, 0x30, 0x00, 0x00, 0x00, 0x00, 0x01, 0x00, 0x00, 0x00, 0x04, 0x00, 0x00, 0x00, 0x92, 0xdf, 0xff, 0xff, 0x04, 0x00, 0x00, 0x00, 0x0c, 0x00, 0x00, 0x00, 0x6b, 0x65, 0x72, 0x61, 0x73, 0x5f, 0x74, 0x65, 0x6e, 0x73, 0x6f, 0x72, 0x00, 0x00, 0x00, 0x00, 0x03, 0x00, 0x00, 0x00, 0x5c, 0x00, 0x00, 0x00, 0x2c, 0x00, 0x00, 0x00, 0x04, 0x00, 0x00, 0x00, 0xb8, 0xff, 0xff, 0xff, 0x15, 0x00, 0x00, 0x00, 0x04, 0x00, 0x00, 0x00, 0x13, 0x00, 0x00, 0x00, 0x43, 0x4f, 0x4e, 0x56, 0x45, 0x52, 0x53, 0x49, 0x4f, 0x4e, 0x5f, 0x4d, 0x45, 0x54, 0x41, 0x44, 0x41, 0x54, 0x41, 0x00, 0xdc, 0xff, 0xff, 0xff, 0x14, 0x00, 0x00, 0x00, 0x04, 0x00, 0x00, 0x00, 0x13, 0x00, 0x00, 0x00, 0x6d, 0x69, 0x6e, 0x5f, 0x72, 0x75, 0x6e, 0x74, 0x69, 0x6d, 0x65, 0x5f, 0x76, 0x65, 0x72, 0x73, 0x69, 0x6f, 0x6e, 0x00, 0x08, 0x00, 0x0c, 0x00, 0x08, 0x00, 0x04, 0x00, 0x08, 0x00, 0x00, 0x00, 0x13, 0x00, 0x00, 0x00, 0x04, 0x00, 0x00, 0x00, 0x13, 0x00, 0x00, 0x00, 0x6d, 0x69, 0x6e, 0x5f, 0x72, 0x75, 0x6e, 0x74, 0x69, 0x6d, 0x65, 0x5f, 0x76, 0x65, 0x72, 0x73, 0x69, 0x6f, 0x6e, 0x00, 0x16, 0x00, 0x00, 0x00, 0x38, 0x1f, 0x00, 0x00, 0x30, 0x1f, 0x00, 0x00, 0x18, 0x1f, 0x00, 0x00, 0xfc, 0x1e, 0x00, 0x00, 0xbc, 0x1e, 0x00, 0x00, 0x6c, 0x1e, 0x00, 0x00, 0x5c, 0x06, 0x00, 0x00, 0x0c, 0x06, 0x00, 0x00, 0x7c, 0x01, 0x00, 0x00, 0x4c, 0x01, 0x00, 0x00, 0xf4, 0x00, 0x00, 0x00, 0xec, 0x00, 0x00, 0x00, 0xe4, 0x00, 0x00, 0x00, 0xdc, 0x00, 0x00, 0x00, 0xd4, 0x00, 0x00, 0x00, 0xcc, 0x00, 0x00, 0x00, 0xc4, 0x00, 0x00, 0x00, 0xbc, 0x00, 0x00, 0x00, 0xb4, 0x00, 0x00, 0x00, 0x94, 0x00, 0x00, 0x00, 0x74, 0x00, 0x00, 0x00, 0x04, 0x00, 0x00, 0x00, 0x8e, 0xe0, 0xff, 0xff, 0x04, 0x00, 0x00, 0x00, 0x60, 0x00, 0x00, 0x00, 0x0c, 0x00, 0x00, 0x00, 0x08, 0x00, 0x0e, 0x00, 0x08, 0x00, 0x04, 0x00, 0x08, 0x00, 0x00, 0x00, 0x10, 0x00, 0x00, 0x00, 0x28, 0x00, 0x00, 0x00, 0x00, 0x00, 0x06, 0x00, 0x08, 0x00, 0x04, 0x00, 0x06, 0x00, 0x00, 0x00, 0x04, 0x00, 0x00, 0x00, 0x01, 0x00, 0x00, 0x00, 0xeb, 0x03, 0x00, 0x00, 0x0c, 0x00, 0x18, 0x00, 0x14, 0x00, 0x10, 0x00, 0x0c, 0x00, 0x04, 0x00, 0x0c, 0x00, 0x00, 0x00, 0xbb, 0x46, 0x89, 0xff, 0xc6, 0x44, 0x1d, 0x13, 0x02, 0x00, 0x00, 0x00, 0x02, 0x00, 0x00, 0x00, 0x04, 0x00, 0x00, 0x00, 0x06, 0x00, 0x00, 0x00, 0x32, 0x2e, 0x31, 0x39, 0x2e, 0x30, 0x00, 0x00, 0xfa, 0xe0, 0xff, 0xff, 0x04, 0x00, 0x00, 0x00, 0x10, 0x00, 0x00, 0x00, 0x00, 0x00, 0x00, 0x00, 0x00, 0x00, 0x00, 0x00, 0x00, 0x00, 0x00, 0x00, 0x00, 0x00, 0x00, 0x00, 0x16, 0xe1, 0xff, 0xff, 0x04, 0x00, 0x00, 0x00, 0x10, 0x00, 0x00, 0x00, 0x31, 0x2e, 0x31, 0x34, 0x2e, 0x30, 0x00, 0x00, 0x00, 0x00, 0x00, 0x00, 0x00, 0x00, 0x00, 0x00, 0xc0, 0xd2, 0xff, 0xff, 0xc4, 0xd2, 0xff, 0xff, 0xc8, 0xd2, 0xff, 0xff, 0xcc, 0xd2, 0xff, 0xff, 0xd0, 0xd2, 0xff, 0xff, 0xd4, 0xd2, 0xff, 0xff, 0xd8, 0xd2, 0xff, 0xff, 0xdc, 0xd2, 0xff, 0xff, 0x52, 0xe1, 0xff, 0xff, 0x04, 0x00, 0x00, 0x00, 0x48, 0x00, 0x00, 0x00, 0x83, 0x70, 0xc6, 0xe4, 0x7f, 0x2b, 0x31, 0xa7, 0xfd, 0xc5, 0x06, 0x81, 0x9c, 0xbc, 0xab, 0xef, 0x0a, 0x5e, 0xdc, 0x7f, 0xb4, 0x1d, 0x21, 0x70, 0xd0, 0x83, 0xe1, 0x7f, 0x53, 0xda, 0xb9, 0x6e, 0x6e, 0x0f, 0x68, 0x03, 0x79, 0xbd, 0x7f, 0xec, 0xf5, 0xa2, 0x5a, 0x45, 0x28, 0x7f, 0x24, 0xa2, 0x00, 0x93, 0x9f, 0x88, 0xba, 0xc9, 0x32, 0xc7, 0x7f, 0x6a, 0xd7, 0xab, 0x6e, 0x9d, 0x4e, 0xb2, 0x60, 0xf6, 0x7f, 0xa5, 0x90, 0xfb, 0x4d, 0xda, 0xa6, 0xe1, 0xff, 0xff, 0x04, 0x00, 0x00, 0x00, 0x20, 0x00, 0x00, 0x00, 0xff, 0xff, 0xff, 0xff, 0xff, 0xff, 0xff, 0xff, 0xfc, 0xff, 0xff, 0xff, 0xff, 0xff, 0xff, 0xff, 0xfd, 0xff, 0xff, 0xff, 0x07, 0x00, 0x00, 0x00, 0xff, 0xff, 0xff, 0xff, 0xfd, 0xff, 0xff, 0xff, 0xd2, 0xe1, 0xff, 0xff, 0x04, 0x00, 0x00, 0x00, 0x80, 0x04, 0x00, 0x00, 0x68, 0xd8, 0x1f, 0x76, 0xde, 0xcb, 0xe1, 0x11, 0x96, 0xda, 0x33, 0xe6, 0xdb, 0x50, 0x94, 0x7f, 0xbb, 0x24, 0x41, 0xf9, 0xa1, 0x2a, 0x15, 0x2b, 0x4a, 0xcb, 0xd5, 0xcd, 0xc7, 0xc0, 0x37, 0xaf, 0x58, 0x39, 0x28, 0xde, 0xf4, 0x13, 0x2f, 0x7e, 0x67, 0x49, 0x50, 0x16, 0xb7, 0x69, 0xa0, 0x59, 0x38, 0xc7, 0xe1, 0xe0, 0xfd, 0x1e, 0x1b, 0x13, 0x11, 0xdf, 0xab, 0x45, 0xbb, 0x1e, 0xca, 0x20, 0x52, 0x53, 0x02, 0x92, 0xdc, 0xce, 0x47, 0x03, 0x77, 0x95, 0x0d, 0x51, 0xf8, 0xa4, 0xd6, 0xf6, 0x94, 0xe1, 0xc0, 0xd7, 0xd3, 0xef, 0x3f, 0xb8, 0xf6, 0xdc, 0x7f, 0x3a, 0x98, 0xbc, 0x48, 0x98, 0x9f, 0x6c, 0x12, 0x03, 0x69, 0x44, 0x4f, 0xb1, 0x9c, 0x5f, 0xfa, 0x7d, 0x75, 0x22, 0x9b, 0x4f, 0x41, 0xe9, 0x77, 0xce, 0x2c, 0x51, 0xfb, 0xc9, 0x95, 0x38, 0x8d, 0xef, 0xce, 0xef, 0x26, 0x9f, 0x4a, 0x3c, 0x73, 0xe1, 0x1d, 0x6d, 0xe2, 0x45, 0xcb, 0x99, 0x9b, 0xa7, 0x9b, 0xf8, 0x9f, 0xfd, 0x6a, 0xad, 0xb4, 0xb5, 0xec, 0xbd, 0x78, 0x5e, 0x19, 0x15, 0x25, 0xfa, 0x05, 0x01, 0x23, 0xa2, 0x6f, 0x45, 0x5a, 0xb2, 0xd0, 0x48, 0x72, 0x0b, 0xbd, 0xae, 0xe2, 0xc7, 0x91, 0x4b, 0x5d, 0x51, 0xe1, 0x1a, 0xdd, 0x4b, 0x4c, 0xd6, 0x5d, 0x61, 0xf6, 0x7f, 0xb1, 0xea, 0x05, 0xcc, 0x71, 0xd2, 0xdf, 0xfc, 0xbb, 0x50, 0x4b, 0x51, 0x11, 0xfd, 0xcf, 0x38, 0xf8, 0x91, 0x0d, 0x22, 0xd8, 0x0b, 0xe6, 0x59, 0x45, 0x03, 0xad, 0xe1, 0xf8, 0x14, 0xcd, 0x67, 0x86, 0xf8, 0xbf, 0x8f, 0x66, 0x81, 0xcf, 0x2e, 0x21, 0x29, 0xea, 0xc6, 0x0d, 0x65, 0x93, 0x1c, 0x5e, 0xd2, 0xe5, 0x2e, 0x2d, 0x97, 0x64, 0x48, 0xf3, 0xe9, 0xd0, 0x01, 0xb8, 0x62, 0x70, 0x62, 0x2a, 0xec, 0x0a, 0x46, 0xfb, 0xc5, 0x5b, 0x16, 0x32, 0x11, 0x89, 0x0b, 0x18, 0xc6, 0x2d, 0x1f, 0x59, 0xa5, 0x0a, 0x8a, 0x25, 0xf0, 0xff, 0xad, 0xd0, 0x9f, 0xde, 0x67, 0x07, 0x0b, 0x92, 0xf7, 0x33, 0x66, 0x83, 0x7b, 0x56, 0x4a, 0x16, 0x1d, 0x45, 0x8d, 0xa2, 0xf7, 0x3c, 0xd7, 0x15, 0x2b, 0xa3, 0x9c, 0xc1, 0xd0, 0x2f, 0xbf, 0x3f, 0x55, 0x26, 0x03, 0xdf, 0x09, 0x60, 0xdf, 0xce, 0x8e, 0x81, 0x10, 0x41, 0x4d, 0xf6, 0x49, 0x35, 0x41, 0xb4, 0xa1, 0x9e, 0xe5, 0xd5, 0xed, 0xfa, 0x41, 0xa5, 0x0a, 0xf6, 0x55, 0x25, 0x53, 0xa1, 0x60, 0x35, 0x3a, 0x92, 0xcb, 0x63, 0xb4, 0xb7, 0xaf, 0x4a, 0x1d, 0x1f, 0x35, 0x50, 0x2e, 0xcf, 0xe9, 0x1f, 0x75, 0x5a, 0x19, 0x1f, 0x70, 0x12, 0x6d, 0xdc, 0x14, 0xc5, 0x5e, 0xb0, 0x64, 0x26, 0xab, 0x3d, 0x22, 0xc3, 0x4f, 0xd9, 0x89, 0x26, 0x43, 0x49, 0x44, 0x5b, 0xde, 0x54, 0x8c, 0x08, 0x9d, 0xc3, 0xd0, 0x43, 0xf2, 0xf2, 0x8b, 0x75, 0xdf, 0x1b, 0xb6, 0x20, 0x3c, 0x6a, 0xce, 0x5f, 0x5b, 0x28, 0xe7, 0x1b, 0xf6, 0x86, 0x4c, 0xb5, 0xa8, 0x02, 0xc1, 0x3d, 0x75, 0xc9, 0x63, 0xc7, 0x3e, 0xbb, 0x20, 0x57, 0xbc, 0xd9, 0x6d, 0xb2, 0x2a, 0x81, 0xe3, 0xb5, 0xd8, 0x2a, 0x97, 0xcc, 0xa6, 0x6e, 0xdd, 0x40, 0x86, 0x34, 0x1b, 0x06, 0xec, 0xa0, 0x44, 0x6e, 0xb2, 0xa0, 0x4f, 0x54, 0x44, 0x3f, 0xf6, 0x07, 0x11, 0x0d, 0xbe, 0x09, 0xb2, 0x74, 0xd9, 0x6d, 0x0c, 0xe2, 0x1b, 0xaf, 0x0e, 0x05, 0x6d, 0xf7, 0x3a, 0xef, 0x81, 0x6f, 0xea, 0x70, 0xc5, 0x22, 0x15, 0x24, 0xad, 0x4a, 0x5b, 0xbc, 0x50, 0x5f, 0x53, 0x1e, 0x7b, 0xb2, 0xc5, 0x9a, 0xcf, 0x0d, 0xb6, 0xe0, 0x03, 0x76, 0x17, 0xae, 0x6c, 0xf6, 0xfb, 0x2e, 0x45, 0x68, 0x81, 0x05, 0xb3, 0x91, 0x54, 0x68, 0xd6, 0xf2, 0x8e, 0xc5, 0xdd, 0x66, 0xb2, 0x4c, 0x6b, 0x52, 0xe5, 0x58, 0x26, 0xad, 0x7c, 0x34, 0x70, 0xc2, 0x55, 0xca, 0x3b, 0x13, 0xac, 0x76, 0x25, 0xf4, 0xd9, 0xc7, 0xca, 0xa9, 0x71, 0x66, 0xa3, 0xe8, 0xe7, 0x78, 0x9f, 0xd7, 0x73, 0x2a, 0x06, 0x3c, 0xd7, 0x6f, 0x07, 0xca, 0xd0, 0xc4, 0x8e, 0xd1, 0x3a, 0x65, 0x71, 0x75, 0x95, 0x3f, 0x11, 0xdf, 0x0a, 0xd7, 0xad, 0xf4, 0x3d, 0x3f, 0xaf, 0x0b, 0x64, 0x8c, 0xe2, 0x2a, 0xab, 0xcc, 0x5e, 0x4a, 0xe7, 0xf1, 0x10, 0xdb, 0x8b, 0x76, 0xe2, 0x9b, 0xe3, 0xb7, 0xfd, 0x0d, 0x2e, 0x6d, 0x6a, 0xb3, 0xf8, 0xa8, 0xf4, 0xda, 0x5c, 0xe7, 0x19, 0x9d, 0xbe, 0x92, 0x60, 0x90, 0x5a, 0x78, 0x68, 0xa2, 0xa8, 0xce, 0x7e, 0xe1, 0x2b, 0xb5, 0x3a, 0xb5, 0x6b, 0x4b, 0x19, 0x03, 0xf0, 0xb6, 0x4e, 0xa3, 0x99, 0xd5, 0x3e, 0xaf, 0xb1, 0xe8, 0x1a, 0x0b, 0x5b, 0xf3, 0xff, 0x2c, 0x81, 0x73, 0xc0, 0xb7, 0xca, 0x43, 0x64, 0x46, 0x1a, 0xf0, 0xfe, 0xd3, 0xf3, 0x38, 0xe7, 0xd2, 0xe0, 0xcf, 0x5a, 0xb4, 0x50, 0x03, 0x0d, 0x13, 0x7f, 0xff, 0xdb, 0x1f, 0x59, 0xe5, 0x45, 0xfd, 0x3b, 0xbe, 0x0c, 0x34, 0x3a, 0x5e, 0x48, 0xb1, 0xfe, 0xf7, 0x05, 0xa4, 0x26, 0x22, 0x06, 0x5e, 0x44, 0x27, 0x72, 0x62, 0x4e, 0xa1, 0xf2, 0x57, 0xce, 0xd7, 0xb7, 0x12, 0xd2, 0xce, 0x58, 0x50, 0x32, 0xad, 0xfb, 0x2b, 0x0b, 0x4e, 0xe7, 0x9d, 0x06, 0xa3, 0xb9, 0xee, 0x85, 0x1f, 0x2c, 0xf8, 0x38, 0x81, 0x18, 0x8e, 0x53, 0x48, 0x4f, 0xd6, 0xec, 0xa8, 0xda, 0x51, 0xe0, 0x99, 0x9e, 0xc5, 0xab, 0xb8, 0xe4, 0x9c, 0xcc, 0x40, 0x81, 0x0e, 0x02, 0x26, 0x44, 0x2c, 0xdb, 0x2a, 0xe7, 0x3d, 0x8b, 0x04, 0xc1, 0x2c, 0x3f, 0x57, 0xa2, 0xeb, 0x44, 0x1a, 0x55, 0x57, 0x23, 0x57, 0x69, 0x09, 0x45, 0x06, 0xfd, 0x98, 0xbe, 0x5e, 0xb4, 0x57, 0xcf, 0x85, 0xe4, 0x4a, 0xae, 0x56, 0x75, 0xef, 0x28, 0xb6, 0xa0, 0x86, 0xaa, 0x3f, 0x74, 0x91, 0x9c, 0x53, 0x3f, 0x97, 0x32, 0xb2, 0xe0, 0xe6, 0x11, 0xa9, 0x12, 0x60, 0xff, 0x28, 0xfd, 0xd8, 0xf0, 0x33, 0x86, 0x4c, 0x64, 0x03, 0xb7, 0x5c, 0x5b, 0xa1, 0xa6, 0xda, 0x3e, 0xc9, 0xb7, 0xc3, 0x30, 0x54, 0x95, 0xd5, 0x62, 0xe2, 0xc4, 0x69, 0x07, 0x49, 0x93, 0xd3, 0x73, 0x98, 0x3c, 0x41, 0x29, 0xa9, 0xa1, 0x40, 0x5f, 0x3a, 0x60, 0x40, 0xa4, 0x02, 0x7a, 0x58, 0xe1, 0x81, 0x0e, 0x4a, 0x87, 0xfd, 0x61, 0x2f, 0xab, 0x44, 0xb4, 0x3f, 0x9b, 0x4b, 0xb1, 0xfc, 0xd5, 0x9b, 0x6d, 0x1d, 0x6b, 0x94, 0xa4, 0x47, 0xa8, 0xb2, 0x0e, 0xe4, 0x7f, 0xb5, 0xcb, 0x1d, 0x32, 0x2b, 0x96, 0x67, 0xc0, 0x99, 0x65, 0x93, 0xb1, 0xb9, 0x50, 0x19, 0x8f, 0x8c, 0x95, 0x5a, 0x16, 0xc7, 0xee, 0xe0, 0x11, 0xd2, 0x6c, 0xb3, 0x64, 0x1d, 0x9b, 0xd6, 0x67, 0x6e, 0x5c, 0x9a, 0xb2, 0x23, 0xa9, 0x22, 0xb1, 0x12, 0x0c, 0xa8, 0xf1, 0xbf, 0xac, 0x91, 0x45, 0xe1, 0x3d, 0xf7, 0xe0, 0x24, 0xc3, 0xb4, 0x9f, 0xb0, 0xb7, 0x9d, 0x9b, 0x0b, 0xce, 0x70, 0x5e, 0x77, 0x75, 0xc4, 0x36, 0x51, 0x31, 0x15, 0xaf, 0x6d, 0x97, 0xf7, 0xbf, 0x62, 0xf9, 0x16, 0xbd, 0x17, 0xe6, 0x1d, 0x73, 0x50, 0x45, 0x53, 0x38, 0x56, 0xad, 0x56, 0x55, 0x4a, 0x50, 0xb4, 0x42, 0xff, 0x67, 0xd9, 0xa6, 0x7f, 0x03, 0x4f, 0x92, 0xc4, 0x52, 0x90, 0xd8, 0xfb, 0x17, 0xd7, 0x1b, 0xab, 0xfe, 0x55, 0x13, 0x8a, 0xa4, 0xba, 0x8b, 0xfe, 0xab, 0xd8, 0x3d, 0x58, 0xed, 0xc1, 0x41, 0xc4, 0x19, 0xaa, 0x69, 0xfd, 0x02, 0x49, 0xed, 0x03, 0x27, 0xdc, 0x21, 0xdc, 0x95, 0xb6, 0xf9, 0x54, 0x01, 0x45, 0x2d, 0x05, 0x64, 0x5f, 0xcd, 0xcc, 0x45, 0x21, 0xfd, 0xe1, 0xb3, 0x4b, 0x11, 0x2c, 0xf3, 0xbd, 0x7f, 0xbc, 0xad, 0xb2, 0x45, 0x4e, 0xf4, 0x1c, 0xb1, 0xf7, 0x60, 0xd0, 0xb6, 0xaf, 0x11, 0xcd, 0x56, 0x9d, 0x8d, 0xa3, 0xec, 0x3b, 0x48, 0x25, 0xea, 0xa2, 0x35, 0x0d, 0xce, 0x62, 0xaa, 0x6d, 0x78, 0xb4, 0xd5, 0x66, 0x9d, 0xac, 0x77, 0xf5, 0xd3, 0x24, 0x50, 0xdd, 0x92, 0x2e, 0xce, 0x81, 0x19, 0x40, 0x5c, 0xa6, 0x0d, 0xbf, 0xd6, 0x45, 0xf8, 0x1c, 0xf4, 0xb0, 0x9d, 0x5f, 0x7a, 0x57, 0x40, 0x63, 0xec, 0xc6, 0x04, 0x41, 0x68, 0x8a, 0xae, 0xd2, 0xd4, 0x99, 0x92, 0x59, 0xd8, 0x65, 0x3f, 0x49, 0xc6, 0x1b, 0x21, 0x10, 0x1a, 0x56, 0x2a, 0xb4, 0xfd, 0x02, 0xea, 0xd6, 0x9b, 0x96, 0x05, 0x13, 0x51, 0xc9, 0x4c, 0x2a, 0x30, 0x5e, 0xe6, 0xff, 0xff, 0x04, 0x00, 0x00, 0x00, 0x40, 0x00, 0x00, 0x00, 0x0e, 0x00, 0x00, 0x00, 0x23, 0x00, 0x00, 0x00, 0x04, 0x00, 0x00, 0x00, 0xf8, 0xff, 0xff, 0xff, 0xf6, 0xff, 0xff, 0xff, 0xf9, 0xff, 0xff, 0xff, 0xfb, 0xff, 0xff, 0xff, 0xfb, 0xff, 0xff, 0xff, 0x04, 0x00, 0x00, 0x00, 0xf5, 0xff, 0xff, 0xff, 0xf4, 0xff, 0xff, 0xff, 0xe9, 0xff, 0xff, 0xff, 0x10, 0x00, 0x00, 0x00, 0x15, 0x00, 0x00, 0x00, 0xff, 0xff, 0xff, 0xff, 0xfb, 0xff, 0xff, 0xff, 0xaa, 0xe6, 0xff, 0xff, 0x04, 0x00, 0x00, 0x00, 0x00, 0x18, 0x00, 0x00, 0x94, 0x3b, 0x31, 0x99, 0xce, 0xf9, 0x8f, 0x5a, 0xdb, 0x9e, 0x81, 0xa1, 0x25, 0xac, 0xd7, 0x8c, 0x88, 0x01, 0xcb, 0x54, 0x17, 0x56, 0x57, 0x30, 0xd1, 0x6b, 0x97, 0x85, 0x17, 0xf5, 0xd6, 0x3d, 0xab, 0x0e, 0x4d, 0x47, 0x11, 0x82, 0xd8, 0x9b, 0x39, 0xb8, 0x66, 0xc1, 0xa4, 0x8f, 0x0d, 0xd7, 0xfb, 0x3a, 0x47, 0xc9, 0xeb, 0xb1, 0x47, 0xb8, 0x23, 0xd1, 0x9d, 0x17, 0x41, 0x1c, 0xe4, 0x6b, 0x1f, 0x1e, 0xae, 0xfb, 0xaa, 0x84, 0x44, 0x2d, 0x02, 0x15, 0x6a, 0x6b, 0x0f, 0xa2, 0x6d, 0x98, 0xea, 0x8b, 0x51, 0xc8, 0x71, 0x02, 0xcc, 0x28, 0xb7, 0xb0, 0xfc, 0x35, 0x07, 0x44, 0xff, 0x55, 0x21, 0xaf, 0x0e, 0xa6, 0x54, 0x15, 0xdf, 0x47, 0x5e, 0xeb, 0xfa, 0xf0, 0x0e, 0x56, 0x09, 0x26, 0x3f, 0x94, 0xc4, 0x4a, 0x9c, 0xee, 0x96, 0xb5, 0xbd, 0x01, 0x02, 0x8f, 0xc4, 0x3a, 0x61, 0x99, 0xd2, 0x6e, 0xdd, 0x83, 0xd9, 0x07, 0x23, 0x82, 0x5a, 0x11, 0x01, 0xe3, 0x3f, 0xd3, 0x03, 0x50, 0x39, 0xbb, 0xdf, 0xc2, 0x87, 0x57, 0x05, 0xc5, 0x98, 0xce, 0xc1, 0x36, 0xb5, 0x10, 0x73, 0x8a, 0x94, 0xca, 0x06, 0x95, 0x72, 0x9b, 0xd5, 0x6b, 0x48, 0x96, 0x10, 0x2f, 0x22, 0x2d, 0xb7, 0xb7, 0xe2, 0xcc, 0xbc, 0x92, 0xdf, 0xd0, 0x4e, 0x6b, 0xbb, 0x8c, 0x6d, 0x49, 0x69, 0x90, 0xab, 0xac, 0x4e, 0xf1, 0x11, 0x94, 0xa6, 0x69, 0x70, 0x3c, 0x2a, 0xff, 0x37, 0xbd, 0x73, 0xf3, 0x5b, 0x0c, 0x3c, 0xfb, 0xba, 0x8f, 0x87, 0x07, 0xfc, 0x23, 0xad, 0x68, 0x47, 0xa4, 0x6a, 0x5d, 0x37, 0x83, 0xd5, 0x1f, 0x6b, 0xfc, 0x5b, 0x72, 0x6c, 0x87, 0xec, 0xc9, 0x83, 0x95, 0x8b, 0xfc, 0x57, 0x65, 0xae, 0x3f, 0x02, 0x90, 0xd7, 0x82, 0xfb, 0x22, 0x63, 0xd4, 0xf1, 0xaa, 0xce, 0x9c, 0xbe, 0x46, 0x21, 0x78, 0xa8, 0x62, 0xd3, 0xf5, 0x98, 0xdf, 0x05, 0x92, 0x18, 0x53, 0xc2, 0x11, 0x1f, 0x54, 0xdb, 0x25, 0xce, 0xab, 0x81, 0x61, 0x32, 0x2b, 0x17, 0x9c, 0xf3, 0x2a, 0x50, 0x67, 0x8b, 0x98, 0x00, 0xc9, 0x89, 0x01, 0xcb, 0xe7, 0x3d, 0x96, 0xde, 0x28, 0x3c, 0xa8, 0xb8, 0x92, 0xfe, 0x52, 0xa0, 0xf7, 0x53, 0x8e, 0x42, 0x43, 0x29, 0xf8, 0x8f, 0xc6, 0x09, 0xea, 0x25, 0x0c, 0xdf, 0xdf, 0xda, 0xf9, 0x3e, 0x26, 0x85, 0x03, 0xe7, 0x6f, 0x9d, 0x8d, 0xe9, 0x0c, 0x3b, 0x92, 0x51, 0xea, 0x3a, 0xa1, 0xb0, 0x55, 0x5d, 0x44, 0xd8, 0x4c, 0x6f, 0x09, 0x9a, 0x58, 0xc0, 0x3d, 0x49, 0xed, 0xd1, 0x93, 0xce, 0x3f, 0x41, 0xe1, 0xd6, 0xc2, 0x40, 0x1c, 0x26, 0x3b, 0xca, 0x8c, 0xc8, 0xe0, 0xd3, 0x5c, 0x18, 0xe3, 0x9c, 0x43, 0x8c, 0x48, 0xe9, 0x10, 0xc7, 0xa8, 0x34, 0xa2, 0x72, 0x66, 0xb3, 0x2c, 0x10, 0x32, 0xf8, 0x2c, 0x32, 0xce, 0x1d, 0xdf, 0xda, 0xd4, 0xb6, 0xc7, 0x44, 0x20, 0x6c, 0xd0, 0x1c, 0xbb, 0xf1, 0xc5, 0x31, 0x13, 0xc1, 0xe0, 0xda, 0x2d, 0x17, 0xc2, 0xde, 0xd4, 0x36, 0xeb, 0xe6, 0xc4, 0x15, 0x2f, 0x1e, 0x15, 0x53, 0x11, 0xf0, 0x3d, 0xf6, 0xe4, 0x05, 0x42, 0x1f, 0x20, 0x1a, 0xcb, 0xd3, 0x09, 0x37, 0x2e, 0xf2, 0x05, 0x48, 0x27, 0xca, 0x01, 0x09, 0x25, 0x68, 0xd1, 0xe4, 0x43, 0xdd, 0xce, 0xd4, 0x39, 0xda, 0xb7, 0x01, 0x38, 0x2b, 0x26, 0x0e, 0x4e, 0xcb, 0xd7, 0x4a, 0xcc, 0x4b, 0xe0, 0x2f, 0xb0, 0xfd, 0x22, 0x35, 0x18, 0xf8, 0x01, 0x14, 0xcb, 0xbc, 0x08, 0x43, 0x28, 0xb1, 0xb3, 0xff, 0xc9, 0x3c, 0x18, 0x18, 0x2d, 0x10, 0xac, 0xa7, 0xd5, 0x05, 0x6a, 0x07, 0x30, 0xb4, 0xee, 0xf2, 0xd7, 0xad, 0xc2, 0x33, 0x05, 0xbc, 0xf7, 0x96, 0xc3, 0x1c, 0xe5, 0x5f, 0x2b, 0x09, 0x0e, 0xca, 0xb7, 0x1b, 0xb1, 0x37, 0x11, 0xa9, 0xa7, 0xa2, 0x49, 0x44, 0x1c, 0xaf, 0x3c, 0xd2, 0x12, 0xcb, 0x43, 0x0e, 0xed, 0xdd, 0x29, 0x28, 0xe9, 0x27, 0x39, 0x73, 0xd6, 0x22, 0x2f, 0x03, 0x3f, 0x02, 0x28, 0x0e, 0x45, 0xf0, 0x2b, 0xb9, 0xee, 0x3e, 0xc5, 0x03, 0x02, 0x12, 0x12, 0xe5, 0x46, 0x49, 0xfe, 0x16, 0xf5, 0xb0, 0xd7, 0xfc, 0x18, 0xe4, 0xd2, 0x41, 0x36, 0xbf, 0x39, 0xdb, 0x13, 0x27, 0x0e, 0xb9, 0x48, 0x26, 0x44, 0x31, 0xeb, 0x0e, 0xbc, 0x51, 0xf4, 0x13, 0x15, 0x47, 0x0a, 0x4a, 0x18, 0xeb, 0xcc, 0xdc, 0xef, 0xde, 0x34, 0x5b, 0xd3, 0x3d, 0x11, 0xee, 0x3f, 0xe2, 0x3a, 0x18, 0x10, 0x9a, 0x19, 0x3d, 0x2c, 0xc7, 0xf8, 0x5e, 0x05, 0x14, 0x4a, 0xca, 0x27, 0x3e, 0xc4, 0xd0, 0xad, 0xe7, 0x50, 0x00, 0xbd, 0xb6, 0xce, 0xa3, 0xc7, 0xf4, 0x81, 0x09, 0xed, 0x34, 0x54, 0xcd, 0x1c, 0x37, 0xf8, 0x0c, 0x27, 0x03, 0x4b, 0x3c, 0xf3, 0x56, 0xed, 0xd6, 0xf5, 0x30, 0xd9, 0x1f, 0x0b, 0x27, 0xe1, 0x3a, 0x23, 0xec, 0x9e, 0xfd, 0x01, 0x21, 0x54, 0xfe, 0x20, 0xf3, 0xf7, 0x38, 0xf5, 0x41, 0x2f, 0x19, 0x18, 0x0a, 0x41, 0x12, 0x39, 0x95, 0x1d, 0xb7, 0xd6, 0xd7, 0xe6, 0x1c, 0x09, 0xc2, 0x44, 0x43, 0x39, 0xdc, 0x46, 0xed, 0x29, 0x1b, 0xf0, 0x1d, 0x38, 0x19, 0xe8, 0xba, 0xff, 0x28, 0xef, 0x06, 0x32, 0xec, 0xdf, 0x58, 0x20, 0x05, 0xca, 0xe4, 0xed, 0x2c, 0xfb, 0xae, 0x2c, 0xeb, 0x1b, 0x3e, 0xd7, 0x21, 0x01, 0xc3, 0xde, 0xc8, 0x10, 0xb9, 0xff, 0x11, 0xf6, 0xbe, 0xe9, 0x0c, 0xef, 0x32, 0xc4, 0xf6, 0xea, 0x34, 0x36, 0x0c, 0x2b, 0xe0, 0x0b, 0x4d, 0x1d, 0xb7, 0xf7, 0x21, 0x1d, 0xf1, 0xff, 0x47, 0xa7, 0x17, 0x3c, 0xc7, 0xba, 0xbe, 0x23, 0xfd, 0xfe, 0xfc, 0x02, 0xc1, 0x38, 0xc3, 0xbb, 0xdc, 0x37, 0x30, 0xbe, 0xc9, 0xee, 0x01, 0x2e, 0xfc, 0x1b, 0x0e, 0x26, 0x00, 0x2c, 0xf7, 0x0b, 0xe2, 0x1d, 0x2c, 0x1c, 0x0f, 0xc1, 0xe4, 0x38, 0xee, 0x32, 0xda, 0xd1, 0xeb, 0x1c, 0x12, 0x05, 0xc3, 0xf6, 0x0e, 0x3f, 0xaa, 0xdf, 0xc7, 0x0b, 0xec, 0xe3, 0xe3, 0x10, 0x03, 0x2f, 0xe5, 0x02, 0xbb, 0x05, 0xfa, 0xe8, 0x3e, 0xf9, 0xfb, 0xe9, 0x20, 0xd7, 0xde, 0xef, 0x14, 0xf4, 0xf3, 0xe2, 0xea, 0xcb, 0x06, 0xfb, 0xae, 0x28, 0x46, 0xe0, 0x0f, 0x09, 0xc7, 0xca, 0x1a, 0xfc, 0x39, 0x26, 0xd5, 0x0b, 0xc1, 0x2b, 0xc1, 0xc8, 0xec, 0x39, 0xfe, 0xd9, 0xec, 0xd0, 0xfd, 0xdc, 0x1c, 0xd6, 0x13, 0x0d, 0xdc, 0xee, 0xe2, 0x10, 0x3b, 0xe1, 0x1a, 0xfd, 0x38, 0xe1, 0xfe, 0xd6, 0xd7, 0xdf, 0xd5, 0xfe, 0x9d, 0x25, 0x31, 0xf7, 0x06, 0xe6, 0x36, 0x43, 0xe7, 0xbc, 0x1d, 0xbf, 0xe8, 0x3e, 0xe1, 0xbe, 0xf6, 0x08, 0x53, 0x17, 0x28, 0x27, 0x35, 0x26, 0xc1, 0x38, 0xf7, 0xcf, 0x22, 0x19, 0x2a, 0x00, 0xf6, 0x35, 0x4b, 0xf9, 0x0c, 0x29, 0xda, 0x2f, 0x28, 0xd1, 0xce, 0xda, 0x2b, 0xdf, 0x20, 0xe1, 0x32, 0xf8, 0x3f, 0x32, 0x33, 0x29, 0x06, 0xd9, 0xf1, 0xff, 0x05, 0x1f, 0xcb, 0x0a, 0x21, 0xde, 0x08, 0xe7, 0x7f, 0x3c, 0xf0, 0xc1, 0x2f, 0x2e, 0xf8, 0x28, 0xf9, 0xe2, 0xee, 0x06, 0x15, 0xeb, 0x02, 0xe0, 0x47, 0xc4, 0x27, 0x01, 0xed, 0x0f, 0x35, 0xc8, 0xde, 0x31, 0xd2, 0x45, 0xc2, 0xfd, 0x14, 0x18, 0xba, 0xf9, 0xf1, 0x39, 0x1e, 0x3a, 0x1c, 0x3d, 0xff, 0x00, 0xc2, 0xd3, 0x07, 0xc0, 0x3c, 0x17, 0xdf, 0x35, 0xd1, 0xfc, 0xd6, 0x2a, 0x26, 0xd8, 0x07, 0xdf, 0xfe, 0x39, 0xfb, 0x41, 0xd6, 0x16, 0x2d, 0xb6, 0x39, 0xf6, 0xe3, 0xde, 0x34, 0xe9, 0x23, 0x3e, 0x03, 0xcc, 0xc2, 0x35, 0x4d, 0xe4, 0x44, 0xe8, 0xdd, 0xfc, 0x01, 0x1b, 0xf7, 0xf1, 0xd3, 0xfa, 0xe1, 0x29, 0x0e, 0xd2, 0xe2, 0x39, 0x1a, 0x12, 0x1e, 0x2f, 0xd4, 0xe0, 0xfb, 0xda, 0xe3, 0xea, 0xf1, 0xf6, 0xc9, 0x18, 0xf6, 0x02, 0xe8, 0xb7, 0xc5, 0x15, 0xea, 0x08, 0x3d, 0x34, 0x2a, 0x33, 0x14, 0x3b, 0xc9, 0x17, 0x26, 0x23, 0xf2, 0x1d, 0x3b, 0xda, 0x0a, 0x30, 0x07, 0x25, 0x1f, 0x2b, 0x18, 0xca, 0x15, 0x04, 0xc2, 0xf1, 0xe7, 0xe7, 0x04, 0x17, 0x2f, 0xd6, 0xdd, 0xf4, 0x0d, 0xeb, 0xf5, 0x03, 0x30, 0x28, 0xbd, 0xde, 0xe4, 0x30, 0xda, 0xdb, 0xc4, 0xdd, 0xcd, 0xd5, 0xd6, 0xe1, 0xfc, 0xdd, 0xd8, 0xfa, 0xe7, 0xfe, 0x19, 0x04, 0xdb, 0xbc, 0x21, 0x0a, 0x04, 0xd2, 0xdb, 0xd7, 0x1d, 0x17, 0x24, 0xd0, 0x10, 0xc1, 0x88, 0xbe, 0x8f, 0x3d, 0xca, 0x6f, 0xbd, 0x97, 0xdc, 0xce, 0x55, 0xb5, 0x6c, 0xa1, 0x34, 0x5e, 0xd4, 0xf4, 0x41, 0x82, 0xf8, 0x42, 0xc5, 0x96, 0xca, 0x32, 0xf0, 0xeb, 0xd9, 0xef, 0x86, 0x96, 0x48, 0xfc, 0x14, 0xa8, 0x42, 0x6a, 0xc6, 0xf8, 0xda, 0x1b, 0xff, 0x3c, 0xf5, 0xb9, 0x21, 0xb7, 0xf4, 0x2e, 0x3c, 0x1a, 0x2c, 0xc9, 0x8f, 0xc9, 0xd3, 0xa5, 0x9e, 0xbb, 0x94, 0xe0, 0xe1, 0xb6, 0xec, 0x6b, 0xe5, 0x92, 0xff, 0x9d, 0x58, 0x3e, 0x1c, 0x95, 0x1b, 0x48, 0xa0, 0x35, 0x21, 0xec, 0x04, 0x8c, 0xe5, 0xa6, 0x8a, 0x07, 0x6f, 0xee, 0xcd, 0xa1, 0x88, 0xcf, 0x67, 0xda, 0xff, 0xc7, 0xa0, 0xb9, 0x62, 0x3d, 0xda, 0xbc, 0x84, 0x58, 0x05, 0x13, 0xe4, 0x85, 0xd0, 0x83, 0xd1, 0x39, 0x8c, 0x76, 0xbb, 0x53, 0x27, 0xac, 0x39, 0x93, 0x08, 0xcf, 0x4f, 0x2b, 0xe5, 0xd2, 0x31, 0x6c, 0xc7, 0x6b, 0xdc, 0x4a, 0x81, 0x10, 0xf1, 0x05, 0x4c, 0xa4, 0x2f, 0x63, 0x01, 0x82, 0x34, 0xd4, 0xf3, 0x6b, 0x05, 0x0f, 0x39, 0xd4, 0xf2, 0x04, 0x16, 0x10, 0xab, 0x51, 0xc6, 0xd2, 0x48, 0xe8, 0x1a, 0xaf, 0x9c, 0x0c, 0xd7, 0x91, 0xff, 0x00, 0x31, 0x87, 0x56, 0x13, 0x0a, 0x97, 0xd4, 0xc6, 0xff, 0x3c, 0x0e, 0xed, 0x19, 0x0d, 0x55, 0x17, 0xa2, 0x00, 0x1d, 0x3e, 0x36, 0xaa, 0x3e, 0xbf, 0xef, 0xa3, 0x2b, 0xb0, 0x50, 0xf9, 0x21, 0x30, 0x4c, 0x1a, 0x2f, 0x66, 0xd0, 0x0f, 0xdb, 0x9e, 0x3e, 0x97, 0x3d, 0x35, 0x6f, 0x0c, 0xba, 0x8b, 0xc8, 0xc1, 0x4e, 0x8e, 0x8c, 0x96, 0x21, 0xb4, 0xee, 0xdf, 0x27, 0xfc, 0xe3, 0x6c, 0xfa, 0x33, 0x6f, 0xf0, 0x01, 0x5f, 0x4a, 0xac, 0x3d, 0x68, 0x58, 0x03, 0xee, 0xa3, 0x87, 0xd4, 0x86, 0x9e, 0x41, 0x5b, 0x38, 0x6f, 0xe1, 0xde, 0xc1, 0x06, 0xb1, 0x27, 0xb8, 0x38, 0x17, 0xc7, 0xb8, 0x68, 0x78, 0x03, 0xc6, 0x01, 0x84, 0xaa, 0xbb, 0x0c, 0xd9, 0xae, 0x1f, 0x5d, 0xf6, 0x3a, 0x16, 0xb0, 0x2f, 0x91, 0xdb, 0xd5, 0xfd, 0x17, 0xaa, 0x57, 0xe2, 0x39, 0x37, 0x33, 0x2a, 0xb4, 0x3e, 0x33, 0xe1, 0xd8, 0x3a, 0xed, 0xa4, 0x57, 0x64, 0x4e, 0x02, 0x2b, 0x1d, 0xab, 0xe6, 0x99, 0xc7, 0x53, 0xf9, 0x8c, 0x5c, 0xf2, 0x5f, 0xf4, 0x1d, 0xf7, 0x2e, 0xcc, 0x6b, 0x94, 0x48, 0x45, 0xd0, 0x6f, 0xd3, 0xe6, 0x30, 0x0d, 0x53, 0xf9, 0x18, 0xd8, 0x82, 0x54, 0xf1, 0xc0, 0x03, 0xa9, 0xa3, 0x88, 0x3d, 0x50, 0xb0, 0x4f, 0x90, 0x5e, 0xf7, 0x82, 0x8b, 0x2c, 0x66, 0x6b, 0xe0, 0x1a, 0x0c, 0xa3, 0xc6, 0xbe, 0x16, 0xa2, 0x05, 0xed, 0x29, 0xa9, 0xb0, 0xea, 0xa5, 0x52, 0xbc, 0xdf, 0x2e, 0x6f, 0x30, 0x70, 0xea, 0xe3, 0x4f, 0xbb, 0xd7, 0xcb, 0xda, 0xe0, 0xe9, 0x97, 0xe3, 0x91, 0x1d, 0xef, 0x58, 0x5b, 0xdc, 0x9e, 0x30, 0x93, 0x32, 0xe2, 0x19, 0x6a, 0xe6, 0xd6, 0xa0, 0x71, 0x47, 0x29, 0x59, 0x73, 0x85, 0x9d, 0xf0, 0xf9, 0x9b, 0xab, 0x09, 0xd0, 0x6f, 0x16, 0x9e, 0x8c, 0x19, 0x15, 0xfe, 0x0d, 0x69, 0x3a, 0x6c, 0x0e, 0xa1, 0x64, 0x78, 0x98, 0x28, 0x10, 0xad, 0x4b, 0xc1, 0xa0, 0xd8, 0xb4, 0xcd, 0xec, 0x36, 0x2c, 0x02, 0xc6, 0x6a, 0x8d, 0xa9, 0x6c, 0x72, 0xfa, 0xd4, 0xbe, 0x14, 0xa2, 0x20, 0x9c, 0xf0, 0x4a, 0xb5, 0xc1, 0x23, 0x50, 0x52, 0xab, 0xe6, 0xfc, 0x5b, 0x60, 0xbe, 0x21, 0xa9, 0xae, 0x16, 0xec, 0xb9, 0xc1, 0x06, 0x3f, 0x5c, 0xc2, 0xb8, 0x01, 0x60, 0xd0, 0x7a, 0xb6, 0xa3, 0xa7, 0xd4, 0x1d, 0x82, 0x2e, 0x98, 0xae, 0x88, 0xfc, 0xa6, 0x55, 0x8d, 0xb3, 0x52, 0x6a, 0x8d, 0x59, 0x76, 0xbd, 0x33, 0x99, 0x2a, 0xe4, 0xe7, 0xbe, 0xb4, 0xa9, 0x29, 0xa5, 0xf1, 0x59, 0x08, 0xc9, 0x8a, 0x27, 0xe7, 0x12, 0xed, 0x76, 0x51, 0xde, 0x72, 0x49, 0x16, 0xf8, 0xa2, 0x8c, 0x9f, 0x4f, 0x0f, 0x5f, 0xf9, 0x4b, 0x94, 0xb3, 0x32, 0xcf, 0x9a, 0xca, 0x21, 0x16, 0x59, 0xb6, 0x11, 0x8b, 0x17, 0x1c, 0x6d, 0x0c, 0x60, 0xa9, 0x10, 0x65, 0x29, 0x62, 0x5e, 0x92, 0x67, 0x3b, 0x12, 0x54, 0xba, 0x9f, 0xae, 0x2f, 0x29, 0x74, 0xe8, 0xd9, 0x75, 0x61, 0x05, 0x86, 0x44, 0xc0, 0x21, 0xe0, 0xf1, 0x73, 0x52, 0xbe, 0x32, 0x66, 0xcd, 0xbc, 0xf9, 0x59, 0xa7, 0x56, 0x97, 0x6c, 0x4b, 0xc6, 0xd6, 0x6e, 0x9b, 0x15, 0x63, 0x2c, 0x28, 0x88, 0x8e, 0xe4, 0xfd, 0x11, 0x11, 0x37, 0x6e, 0x12, 0xde, 0xd9, 0xbe, 0x43, 0xe9, 0xfa, 0xb7, 0x64, 0x5c, 0x05, 0x0a, 0xb4, 0x63, 0xf9, 0xd7, 0x41, 0x5b, 0x14, 0x1f, 0x25, 0xb6, 0xae, 0x65, 0xc4, 0x94, 0x19, 0x57, 0x24, 0x4b, 0x81, 0x64, 0x06, 0x46, 0x8d, 0x53, 0x56, 0xa1, 0x04, 0x88, 0x95, 0x59, 0xb2, 0xdd, 0xa6, 0xb7, 0xd9, 0x45, 0xd3, 0x47, 0x1c, 0x19, 0xe0, 0xa9, 0x55, 0x8b, 0x49, 0x96, 0xf9, 0xc7, 0xe9, 0x05, 0x0c, 0x26, 0x5a, 0xb7, 0xfd, 0x08, 0x8f, 0xc1, 0x66, 0xa0, 0x14, 0x86, 0xe1, 0xb0, 0x0c, 0xd9, 0x15, 0x66, 0x1f, 0xa9, 0xc9, 0xcc, 0x51, 0xa4, 0x22, 0x12, 0x77, 0xa5, 0xca, 0x5d, 0xb2, 0xfe, 0x87, 0xd1, 0x30, 0x21, 0xd4, 0xf7, 0xcd, 0xce, 0x1c, 0x2e, 0x82, 0x98, 0x09, 0x0d, 0xed, 0x92, 0xc3, 0x04, 0xba, 0x66, 0x09, 0x4d, 0x8a, 0xe9, 0x39, 0x3f, 0xa8, 0xc9, 0xb0, 0x89, 0x9d, 0xbc, 0x3b, 0x3e, 0x48, 0x63, 0x6e, 0xda, 0x31, 0xe6, 0x2e, 0xf7, 0x58, 0x44, 0xd9, 0xaa, 0xd7, 0x3e, 0x85, 0x72, 0xe0, 0x91, 0x69, 0xa5, 0xc0, 0xc0, 0x5a, 0x98, 0xe9, 0x0f, 0xf4, 0xa5, 0x3a, 0xe8, 0xd8, 0x23, 0x0a, 0x16, 0xe9, 0x56, 0x16, 0xb6, 0xb1, 0xb5, 0xef, 0xc7, 0x4a, 0x07, 0x23, 0xd8, 0xf1, 0x31, 0xd6, 0xd7, 0x45, 0xfe, 0xdd, 0x37, 0x1c, 0x5a, 0x30, 0xbf, 0x8f, 0x1b, 0x11, 0x44, 0x9d, 0xa9, 0xa5, 0xb0, 0x4c, 0x2f, 0xcd, 0x08, 0x51, 0x06, 0x31, 0x1b, 0xf6, 0xef, 0xa1, 0xeb, 0x5b, 0xa2, 0xed, 0xf1, 0x88, 0x94, 0x11, 0x52, 0x1c, 0xb9, 0xaf, 0x02, 0x02, 0x5c, 0xce, 0xb3, 0xe9, 0x2d, 0xe6, 0x55, 0xd7, 0x48, 0xae, 0x8c, 0x15, 0x56, 0xaa, 0xde, 0x51, 0x26, 0x4b, 0x93, 0x2d, 0x38, 0x8f, 0xd3, 0xe5, 0x57, 0x30, 0xb1, 0x8b, 0xa9, 0x2b, 0xe4, 0xb9, 0xdb, 0xa1, 0xec, 0xf1, 0x42, 0x53, 0xd7, 0x55, 0x4f, 0xee, 0x9f, 0x31, 0xc1, 0x31, 0xa7, 0xc4, 0xbe, 0xe7, 0xf4, 0xb7, 0x22, 0xc6, 0xa7, 0xfa, 0x49, 0xda, 0xb4, 0x28, 0x97, 0xc4, 0x13, 0xa8, 0xb9, 0x54, 0xcf, 0x18, 0x09, 0xff, 0x56, 0x36, 0x11, 0x41, 0x29, 0x31, 0x2d, 0x2f, 0xaf, 0xaf, 0x02, 0x1a, 0x65, 0xef, 0x64, 0xd8, 0xcb, 0xe7, 0x34, 0x2e, 0xfc, 0x39, 0xf2, 0x16, 0x60, 0x34, 0x9d, 0xab, 0xdb, 0x93, 0x40, 0x11, 0xa6, 0x37, 0x3e, 0x8d, 0xbc, 0x3d, 0xc9, 0xb8, 0x36, 0x1d, 0x04, 0xf2, 0x2e, 0x0a, 0x9d, 0x94, 0xf4, 0x8a, 0x2d, 0xf9, 0x0d, 0x06, 0x4b, 0xc2, 0x56, 0xcd, 0xb3, 0x09, 0xe0, 0xf0, 0xda, 0xdb, 0xfb, 0x0f, 0xd7, 0xde, 0xe8, 0xa7, 0xa4, 0xe8, 0xfb, 0x45, 0xa7, 0xdf, 0x26, 0xcb, 0xa3, 0x32, 0x0c, 0xa1, 0xff, 0x20, 0xa4, 0xd3, 0x90, 0xaf, 0xcb, 0x4a, 0x04, 0x95, 0x15, 0x53, 0x37, 0x48, 0xc7, 0xb7, 0x4f, 0x96, 0x3a, 0x9d, 0x89, 0x26, 0xbb, 0xbc, 0x35, 0x43, 0x90, 0xa5, 0x54, 0xc9, 0x9d, 0x20, 0x20, 0x33, 0xd2, 0xd0, 0xd9, 0x14, 0xd9, 0x4e, 0x27, 0xf7, 0x49, 0x16, 0x41, 0x3a, 0x4a, 0x55, 0x92, 0x13, 0x24, 0xb2, 0xe4, 0xb6, 0x8e, 0x3b, 0xa7, 0xdd, 0x2b, 0xe3, 0x94, 0xa4, 0x53, 0x1d, 0x08, 0x42, 0xdb, 0x1e, 0xae, 0xbe, 0x16, 0xac, 0xde, 0x0d, 0xbf, 0xc1, 0xf6, 0x28, 0x99, 0xcb, 0x54, 0xa8, 0xba, 0xee, 0x8f, 0x41, 0x8e, 0x91, 0x36, 0x5c, 0x2c, 0x26, 0x09, 0xa8, 0x39, 0xef, 0x81, 0xad, 0x58, 0xd0, 0xd1, 0xd5, 0x60, 0x9a, 0x22, 0x61, 0xf8, 0x2a, 0x9e, 0x4f, 0xde, 0x37, 0x54, 0xd8, 0x2b, 0x0f, 0xf4, 0x5e, 0xe3, 0xec, 0xa2, 0x0e, 0x5b, 0xf3, 0x9d, 0x5d, 0xa4, 0x58, 0x00, 0x57, 0x32, 0xa0, 0xa2, 0x4f, 0x62, 0x1c, 0x27, 0x63, 0x44, 0x39, 0x09, 0x5d, 0xb1, 0xf7, 0xc2, 0x8f, 0x21, 0xd5, 0xa2, 0xcb, 0x42, 0x2c, 0x36, 0x97, 0x1f, 0x31, 0x28, 0x52, 0xb6, 0x60, 0xdf, 0xcd, 0xed, 0x03, 0x39, 0x22, 0xda, 0xba, 0xda, 0x41, 0x0a, 0xff, 0xd0, 0x41, 0x39, 0x3b, 0x10, 0x40, 0xf1, 0xd6, 0xeb, 0xec, 0x2b, 0x21, 0xd9, 0xaf, 0x18, 0x08, 0xe6, 0xd8, 0xe4, 0x2d, 0x01, 0xcc, 0x23, 0x06, 0x2f, 0xd5, 0x04, 0xb2, 0x08, 0xd4, 0xd7, 0x3a, 0x0d, 0xd5, 0x05, 0x0a, 0x36, 0x04, 0x7e, 0x39, 0xf6, 0xe6, 0x1b, 0xc4, 0xee, 0x33, 0x03, 0x2e, 0xea, 0xf2, 0x0d, 0xaf, 0xc7, 0x24, 0x13, 0xcc, 0xcd, 0x2c, 0xfd, 0x2d, 0x07, 0x10, 0xd9, 0x24, 0x78, 0xfb, 0xc7, 0x10, 0x2b, 0xda, 0x2e, 0x0c, 0x30, 0xeb, 0x1a, 0x17, 0x01, 0x1e, 0x35, 0xbf, 0x19, 0x31, 0xee, 0x23, 0xec, 0x4f, 0x7f, 0x2a, 0x36, 0x08, 0x3d, 0xd9, 0x13, 0xd9, 0xf7, 0x0f, 0x43, 0xd2, 0xf0, 0xfa, 0xb6, 0x27, 0x16, 0xed, 0xf4, 0x4c, 0xd5, 0x1f, 0x28, 0x27, 0x00, 0x45, 0xff, 0x36, 0x18, 0xfa, 0x7a, 0xc5, 0xcb, 0xce, 0x2d, 0x62, 0x34, 0x41, 0xe6, 0xcb, 0xba, 0x3d, 0x2c, 0x07, 0xce, 0x0b, 0x4c, 0x4f, 0x52, 0xec, 0xf9, 0xd7, 0x08, 0xcc, 0x4c, 0xb9, 0xea, 0x34, 0x28, 0xdc, 0xd5, 0xdf, 0x1b, 0xbd, 0x44, 0x55, 0x21, 0x06, 0x26, 0x30, 0x01, 0x07, 0x8f, 0x0d, 0x43, 0xed, 0xef, 0xf8, 0x66, 0xff, 0xa0, 0x01, 0xff, 0x3c, 0x51, 0x19, 0xee, 0xe4, 0xf9, 0x09, 0xba, 0xcb, 0xfe, 0xfc, 0x53, 0x37, 0xc0, 0xa8, 0xf1, 0x12, 0xb2, 0x24, 0x38, 0xcd, 0x27, 0x1e, 0x18, 0xf5, 0xe6, 0x1b, 0x98, 0x42, 0x3e, 0x13, 0x1d, 0xb1, 0x39, 0x3b, 0x29, 0x05, 0x01, 0xcf, 0x37, 0xd9, 0xe6, 0x00, 0xc2, 0xfb, 0x05, 0xd6, 0x3d, 0xed, 0x37, 0x66, 0xb7, 0x36, 0x1e, 0xfa, 0x99, 0xb7, 0xd9, 0x0e, 0xee, 0x21, 0xd4, 0xf9, 0x18, 0xb2, 0xd5, 0xe4, 0xc2, 0xc9, 0x10, 0x0d, 0xc7, 0xcb, 0x21, 0xb7, 0x14, 0xe7, 0xd4, 0xf4, 0x14, 0x1d, 0x1c, 0xfc, 0xbf, 0x45, 0x0a, 0xd5, 0x48, 0x28, 0x01, 0xab, 0xef, 0xd9, 0xd1, 0xe6, 0xb4, 0x15, 0xe5, 0xcb, 0x0e, 0xec, 0xe9, 0xe4, 0x3d, 0xbc, 0xf1, 0xd7, 0xeb, 0x23, 0xf5, 0xe0, 0x22, 0xdd, 0x45, 0x42, 0x23, 0xe8, 0xa7, 0xe6, 0x05, 0x35, 0x16, 0x38, 0xfc, 0x08, 0x29, 0xbd, 0x34, 0xee, 0x16, 0x3b, 0xfd, 0x0e, 0xed, 0x2a, 0xd9, 0x28, 0xec, 0xee, 0x35, 0x2d, 0xff, 0xb2, 0xfc, 0xff, 0xec, 0xde, 0x32, 0xdd, 0xc8, 0x33, 0x2d, 0x07, 0x2a, 0xc8, 0xdd, 0xbf, 0xd8, 0xbc, 0x39, 0xdd, 0xb6, 0x1f, 0xea, 0x14, 0xab, 0x2c, 0xc7, 0x27, 0x10, 0xf8, 0xf6, 0xda, 0x2f, 0x41, 0xed, 0x32, 0xaf, 0xeb, 0x15, 0xab, 0xe1, 0x08, 0xaf, 0xde, 0xa8, 0x36, 0x36, 0x36, 0x9b, 0xc7, 0x26, 0x34, 0x30, 0x22, 0xde, 0x21, 0x07, 0xf8, 0x22, 0x0f, 0x1f, 0xd0, 0x33, 0xda, 0xfd, 0xec, 0xcd, 0x42, 0x3c, 0x0c, 0xed, 0x4b, 0x1c, 0xc2, 0x0e, 0x38, 0xd9, 0xdf, 0x4b, 0xad, 0xac, 0xba, 0xeb, 0x46, 0x25, 0xb5, 0x15, 0x3a, 0x3b, 0xe0, 0xfa, 0x47, 0xfd, 0xd2, 0xec, 0xd6, 0x0c, 0xc0, 0x41, 0xc4, 0x50, 0xa9, 0xb0, 0x46, 0xce, 0x37, 0x9f, 0x2e, 0x5a, 0x06, 0xe9, 0xfc, 0x61, 0xf2, 0xa9, 0x1f, 0x10, 0x2c, 0x4a, 0x3d, 0xda, 0xdd, 0xe1, 0x54, 0xeb, 0x15, 0x45, 0x09, 0x85, 0x14, 0x36, 0xc6, 0xf9, 0x3f, 0x09, 0x33, 0x4d, 0x22, 0x3b, 0xcf, 0xc7, 0x3a, 0xdc, 0xc6, 0x5b, 0xe3, 0xce, 0xf3, 0xa5, 0xa3, 0xf0, 0x58, 0xf2, 0xf6, 0x27, 0x03, 0x01, 0x38, 0xb6, 0xe5, 0xbc, 0xf1, 0x0c, 0x28, 0x33, 0x22, 0x37, 0xce, 0xeb, 0xd6, 0x02, 0xeb, 0x47, 0x33, 0x3c, 0xd1, 0xf7, 0xce, 0x40, 0xb4, 0xaa, 0xef, 0x0d, 0xcd, 0x76, 0xa2, 0x3c, 0x05, 0xc3, 0xdd, 0xe6, 0x43, 0x7c, 0xaf, 0xaf, 0x3f, 0x40, 0x23, 0xce, 0x37, 0xa6, 0xc4, 0xcb, 0x2f, 0x40, 0x7f, 0x4a, 0xdd, 0x07, 0x15, 0x53, 0x0a, 0xd4, 0x0d, 0xe4, 0x3b, 0xd8, 0xe6, 0x5b, 0xfd, 0xd2, 0x2c, 0x36, 0xca, 0x97, 0x16, 0x27, 0x3c, 0xbe, 0x0d, 0x1c, 0x17, 0x03, 0xe0, 0x27, 0x3b, 0xc3, 0xec, 0x95, 0xfb, 0xb7, 0xa4, 0xc1, 0xcc, 0x50, 0x30, 0x63, 0x3d, 0x34, 0xd8, 0x30, 0xd9, 0x66, 0xf0, 0xbf, 0x3d, 0x5b, 0x14, 0x42, 0x2c, 0xc6, 0xcd, 0xe8, 0xce, 0xc5, 0x50, 0x32, 0xfb, 0x16, 0x3f, 0x69, 0x19, 0x97, 0x22, 0xba, 0x0f, 0x4b, 0x27, 0xbc, 0xa7, 0xef, 0xca, 0x57, 0x11, 0xa4, 0xc0, 0xad, 0x12, 0xfd, 0x32, 0xb5, 0x25, 0xb1, 0xc0, 0xcc, 0xcf, 0x61, 0xf1, 0xbc, 0x14, 0x4e, 0xda, 0xe1, 0xf4, 0x01, 0x11, 0xbd, 0xaa, 0x23, 0xcf, 0xe0, 0x0a, 0x15, 0xe3, 0xe7, 0x17, 0xfb, 0x33, 0x0f, 0x42, 0xf6, 0x2b, 0x46, 0xde, 0xeb, 0xb7, 0x52, 0x40, 0x4d, 0xe8, 0x11, 0x13, 0x36, 0xbe, 0xb2, 0xc4, 0x1b, 0xdc, 0xb1, 0xab, 0x18, 0x19, 0x42, 0xb5, 0xe7, 0xed, 0x3e, 0x09, 0x69, 0x76, 0xc1, 0x19, 0x4e, 0xb4, 0xf4, 0x46, 0xf4, 0xe3, 0xcc, 0xe6, 0xf5, 0xdd, 0x52, 0xd8, 0xb1, 0x25, 0x10, 0xdd, 0x03, 0xd9, 0xbc, 0x28, 0xd6, 0x22, 0x15, 0xf9, 0xd7, 0x34, 0xcc, 0x25, 0x1a, 0x57, 0xaf, 0x12, 0x08, 0x00, 0x0b, 0xc3, 0x03, 0x31, 0xd6, 0x2e, 0x39, 0x18, 0xd9, 0xcf, 0x3d, 0x26, 0xc6, 0xad, 0x1f, 0x4c, 0x06, 0xf3, 0x40, 0xba, 0xf0, 0x2d, 0x3d, 0x36, 0xea, 0x3b, 0xb4, 0x22, 0x08, 0x1b, 0xd8, 0xe8, 0xe7, 0xfd, 0x0b, 0x16, 0x2e, 0xb7, 0xd3, 0x31, 0xea, 0xb8, 0xd2, 0xab, 0x90, 0xab, 0x51, 0x0f, 0xd7, 0xcb, 0xa7, 0x56, 0x04, 0x4f, 0x3e, 0x11, 0x0a, 0xa9, 0x3a, 0x4c, 0xeb, 0xd5, 0xe7, 0x23, 0xee, 0xe6, 0xf2, 0x04, 0xf5, 0x09, 0xe4, 0xde, 0x20, 0x06, 0xe5, 0x07, 0x10, 0x10, 0xe4, 0xf5, 0x08, 0xdc, 0x36, 0x2d, 0x2a, 0x3f, 0xf7, 0xec, 0xdb, 0xdf, 0x3e, 0xbe, 0xec, 0x28, 0x2f, 0x2b, 0xf6, 0xe8, 0xd6, 0xeb, 0x14, 0x05, 0xe8, 0xd6, 0x08, 0xf5, 0x34, 0x06, 0x28, 0x09, 0x11, 0x28, 0xf8, 0xdc, 0xd6, 0xee, 0xd5, 0xf7, 0xd0, 0xe2, 0xfe, 0x18, 0x23, 0xdd, 0x04, 0xf4, 0x20, 0xf7, 0xdb, 0xd5, 0xd1, 0xaa, 0x31, 0x25, 0x2b, 0xc7, 0xea, 0xb7, 0xf5, 0x34, 0xab, 0x09, 0x49, 0xf9, 0xda, 0xd0, 0xfe, 0xeb, 0x40, 0x0a, 0xf3, 0xf9, 0x3b, 0x0f, 0x1f, 0x1a, 0x15, 0x15, 0xfa, 0x22, 0x0c, 0x24, 0x24, 0xd7, 0x16, 0xd9, 0xe0, 0xbf, 0x07, 0x02, 0x18, 0xfa, 0x3f, 0x21, 0xc5, 0xfd, 0x1b, 0xd7, 0xfb, 0xf6, 0xd7, 0x28, 0x7f, 0xdb, 0x1a, 0x10, 0x24, 0x1d, 0xe3, 0x1b, 0x34, 0x13, 0xbb, 0xfd, 0x13, 0x10, 0xeb, 0x29, 0xe4, 0xf0, 0x48, 0xb4, 0x64, 0x03, 0x14, 0x05, 0x2b, 0x55, 0x2c, 0x1f, 0xe9, 0x00, 0xea, 0xee, 0xcb, 0xe4, 0x3e, 0x3c, 0x6f, 0x08, 0x26, 0xed, 0xa9, 0xdf, 0x0d, 0x0b, 0xe5, 0xc3, 0x1c, 0xb4, 0x57, 0xe8, 0x02, 0x12, 0xf6, 0x03, 0xc1, 0xd6, 0x23, 0x39, 0xc7, 0xbd, 0xbd, 0xe3, 0x39, 0xf4, 0x18, 0xef, 0x25, 0xca, 0x70, 0x0d, 0xd8, 0xfa, 0x04, 0x3c, 0xec, 0x09, 0xf6, 0x30, 0x2f, 0xe4, 0x06, 0x1a, 0x01, 0xf6, 0x51, 0xef, 0x5a, 0x2c, 0xa3, 0x07, 0xcf, 0x32, 0x34, 0xf7, 0xd7, 0xd7, 0x5d, 0xe8, 0xd8, 0xfd, 0xe0, 0x45, 0x0f, 0x37, 0x1a, 0xff, 0xe5, 0xe6, 0xd8, 0x96, 0x33, 0x30, 0x18, 0x02, 0xfd, 0xdd, 0x46, 0x57, 0x05, 0xed, 0x1a, 0x0a, 0x0c, 0xeb, 0xf1, 0x2b, 0x0f, 0xdc, 0x2e, 0xe0, 0xc4, 0xfd, 0xfe, 0x36, 0xfc, 0x31, 0xa6, 0xf9, 0x10, 0x31, 0xfb, 0xcb, 0xf9, 0xd2, 0x16, 0xf1, 0x27, 0x2e, 0xda, 0x66, 0x41, 0x16, 0x38, 0x1b, 0x17, 0x11, 0x07, 0xdc, 0x08, 0x01, 0x13, 0xd9, 0x05, 0xfd, 0x66, 0x5e, 0x16, 0x0a, 0xeb, 0x05, 0x33, 0xf1, 0x2b, 0x24, 0x0b, 0xf8, 0x17, 0x06, 0x00, 0x29, 0xde, 0x1c, 0xf4, 0xe7, 0xed, 0xd8, 0xee, 0xdc, 0xee, 0x4b, 0xf9, 0xfb, 0x35, 0xe9, 0xf7, 0xcb, 0x4c, 0x27, 0x0f, 0x2d, 0xd8, 0xdd, 0xfa, 0x26, 0xc9, 0xdf, 0x05, 0xf6, 0xf7, 0x29, 0x40, 0xfb, 0x23, 0x38, 0xb6, 0xfd, 0x07, 0xea, 0x15, 0xde, 0xf0, 0x12, 0xce, 0x3a, 0x29, 0xe8, 0xfe, 0x1b, 0xe8, 0xfa, 0x09, 0xf3, 0x18, 0x24, 0x08, 0x2c, 0x0a, 0x28, 0x04, 0x3b, 0x1d, 0xf4, 0x52, 0xbd, 0x53, 0x35, 0xcc, 0x1d, 0x30, 0x37, 0x16, 0x05, 0xc0, 0xef, 0xf3, 0x26, 0xff, 0x05, 0x36, 0x04, 0x34, 0x06, 0x03, 0xea, 0x8d, 0x56, 0xd0, 0x69, 0x0c, 0x0b, 0x4c, 0xd8, 0xc8, 0xf2, 0xaa, 0x33, 0xc9, 0x33, 0x98, 0x69, 0xa3, 0xc0, 0xe5, 0x0b, 0x84, 0x79, 0xbf, 0xcb, 0x1d, 0x92, 0xe3, 0xee, 0x2d, 0x1e, 0x6a, 0xc6, 0x8e, 0xb1, 0x6e, 0xe3, 0xec, 0x29, 0x3a, 0xc2, 0x1f, 0x64, 0x6c, 0xfc, 0x24, 0x10, 0xf5, 0x97, 0x1b, 0x47, 0xad, 0x4c, 0xd2, 0x24, 0x60, 0x0d, 0xd8, 0x88, 0x02, 0xa9, 0x62, 0x0e, 0x66, 0x1f, 0x82, 0xbb, 0x60, 0x9a, 0xc9, 0x8b, 0x19, 0xea, 0x51, 0xcc, 0x71, 0xb0, 0xc1, 0xa4, 0xd5, 0xa2, 0xaa, 0x19, 0x83, 0x1b, 0x23, 0xa6, 0x94, 0xd3, 0x18, 0x4d, 0xfa, 0xc9, 0x47, 0x5a, 0x2f, 0x59, 0x9d, 0x99, 0xcb, 0x18, 0x11, 0x93, 0x31, 0xe8, 0x16, 0xab, 0xed, 0xf2, 0xc8, 0xf7, 0x05, 0xb8, 0x3c, 0x18, 0x42, 0x95, 0x4f, 0x87, 0xde, 0x08, 0xbb, 0xe3, 0xf8, 0xc2, 0xbd, 0x49, 0xe3, 0x2d, 0x49, 0xcf, 0xee, 0x39, 0x5c, 0x4b, 0x1b, 0x6f, 0x8d, 0x2b, 0x88, 0xe0, 0xea, 0xd2, 0x00, 0x41, 0xfb, 0xe9, 0x14, 0xa2, 0xa6, 0xd0, 0x82, 0x0e, 0x68, 0x3c, 0xd7, 0x05, 0x87, 0x4f, 0xe9, 0xe7, 0x0e, 0x5c, 0x41, 0xd2, 0x63, 0xcd, 0xa6, 0x73, 0x21, 0xa3, 0xc4, 0xfd, 0x14, 0x02, 0x27, 0xbf, 0x55, 0x21, 0xb6, 0xdd, 0x4a, 0x00, 0x59, 0xb2, 0x8b, 0x42, 0xb8, 0x6f, 0xf1, 0x73, 0xe1, 0x4b, 0x53, 0x61, 0x71, 0xd0, 0x99, 0x65, 0x6c, 0x29, 0xd5, 0x24, 0x11, 0x21, 0xd6, 0xd5, 0xbf, 0x97, 0x8c, 0x3e, 0x2f, 0xce, 0x02, 0xd8, 0x2c, 0x73, 0x6b, 0xdf, 0xa7, 0x37, 0x4b, 0x67, 0x13, 0xaa, 0x86, 0xdc, 0xc1, 0xb3, 0x5e, 0x7a, 0x63, 0x81, 0xb4, 0xe5, 0xa7, 0x53, 0xbc, 0x01, 0x21, 0x96, 0x14, 0x03, 0xfc, 0xee, 0x10, 0x89, 0xba, 0xd9, 0x04, 0xa4, 0x51, 0xd5, 0x2e, 0xfc, 0x6c, 0x05, 0xd3, 0x44, 0x18, 0x23, 0x52, 0xae, 0x20, 0x3b, 0x5f, 0xe6, 0xc5, 0x45, 0xf6, 0x9e, 0x00, 0xeb, 0x1e, 0xe4, 0x63, 0x38, 0xdb, 0xed, 0xcd, 0x4f, 0x8f, 0xb2, 0x33, 0xd6, 0x9a, 0xa7, 0x4c, 0x62, 0xf9, 0x23, 0xb3, 0x71, 0x96, 0xcb, 0x05, 0x01, 0x43, 0x5b, 0x46, 0x9b, 0x53, 0xae, 0x98, 0xbc, 0xf6, 0xca, 0xbf, 0x44, 0xdd, 0x54, 0xf6, 0x14, 0xa8, 0x45, 0xae, 0xb0, 0xd0, 0xe1, 0x69, 0x60, 0xc1, 0x07, 0x73, 0xdf, 0x55, 0xdb, 0x33, 0x28, 0xb9, 0x5f, 0x9f, 0xce, 0x08, 0xa2, 0x36, 0xca, 0x1b, 0xcc, 0x1a, 0x94, 0x06, 0xd6, 0xb8, 0x8c, 0x4c, 0x94, 0x2f, 0x58, 0x30, 0xd9, 0x31, 0xf2, 0x97, 0xd8, 0x31, 0x11, 0x0d, 0x0e, 0xc3, 0xce, 0x65, 0xb5, 0x41, 0x74, 0x66, 0xf4, 0x61, 0xa0, 0xc9, 0x90, 0x25, 0x57, 0x59, 0x10, 0x9d, 0xf1, 0xe0, 0x2b, 0xd2, 0xa2, 0x46, 0xa0, 0x4f, 0xb9, 0x6f, 0xa6, 0x92, 0xbc, 0x0b, 0x54, 0xc4, 0xa0, 0x30, 0xf3, 0x0e, 0x97, 0x84, 0x64, 0xeb, 0xc7, 0x5e, 0x6b, 0x03, 0x9b, 0x98, 0x88, 0xb4, 0x99, 0xc6, 0xe9, 0xc5, 0xd4, 0x34, 0x5a, 0x61, 0x0e, 0x4b, 0xcc, 0xad, 0x42, 0x52, 0x5a, 0xb3, 0xad, 0xc7, 0x81, 0x5c, 0x25, 0x82, 0x55, 0xd1, 0xf1, 0xcb, 0xb9, 0x93, 0x97, 0x5d, 0xd3, 0x1a, 0x85, 0x21, 0x4d, 0x5f, 0x44, 0x2a, 0x8e, 0xb2, 0x83, 0x97, 0x71, 0xeb, 0x11, 0xf2, 0x40, 0x4f, 0xe4, 0xe3, 0x36, 0xc0, 0x82, 0x9a, 0x43, 0xf6, 0xa4, 0x6a, 0xe8, 0x71, 0xb4, 0x4c, 0xb3, 0xfb, 0x62, 0x60, 0xf8, 0x6a, 0x14, 0xdf, 0x8d, 0x22, 0x34, 0xb1, 0x2b, 0x64, 0x07, 0xf6, 0x61, 0x44, 0xc8, 0xb0, 0x0b, 0xab, 0x3c, 0xa1, 0xd5, 0xf8, 0xe5, 0x60, 0x92, 0xd5, 0xa8, 0x8c, 0x9f, 0x04, 0x34, 0x14, 0x56, 0xc3, 0xf5, 0xc6, 0xa5, 0xaf, 0x49, 0x5e, 0x4c, 0xf9, 0xac, 0x2c, 0x8d, 0xd4, 0xf3, 0x29, 0x07, 0x29, 0xda, 0xad, 0x96, 0xc3, 0x29, 0x53, 0x1e, 0x2d, 0x72, 0xa4, 0x08, 0x1a, 0x5b, 0x33, 0x16, 0xb1, 0xca, 0x24, 0xeb, 0x9d, 0x4c, 0x23, 0x3b, 0x3c, 0xf5, 0x53, 0x96, 0xc1, 0x51, 0xc4, 0xc8, 0x35, 0x29, 0x4b, 0xbc, 0x23, 0xef, 0xec, 0x3d, 0xa2, 0xa0, 0xbb, 0x99, 0x98, 0xe7, 0x59, 0xe3, 0xd8, 0x18, 0xeb, 0x74, 0x83, 0x4e, 0x1c, 0x35, 0xfc, 0x99, 0x52, 0x38, 0x16, 0xfc, 0xc0, 0x37, 0xa5, 0x56, 0x15, 0xf3, 0xa0, 0xd5, 0x88, 0x35, 0xf3, 0xa9, 0x12, 0xe1, 0x26, 0x15, 0x59, 0x0a, 0x9f, 0x6e, 0xff, 0x8f, 0x0c, 0xf9, 0x5a, 0x5f, 0xb1, 0x29, 0x4a, 0x44, 0xde, 0x50, 0x39, 0x85, 0x8f, 0xa6, 0xbe, 0xe0, 0x3b, 0xbd, 0xad, 0xb3, 0x5c, 0x6e, 0x93, 0x11, 0x39, 0xe8, 0x50, 0x2a, 0xed, 0xb7, 0x1a, 0xde, 0x5b, 0xa9, 0x34, 0x54, 0x37, 0x71, 0x31, 0xee, 0xf2, 0x23, 0x9b, 0x3b, 0xa4, 0x50, 0xe0, 0xf9, 0x5b, 0x37, 0x72, 0xca, 0xf9, 0x1d, 0xcb, 0x2e, 0x9b, 0x03, 0x8c, 0x26, 0x61, 0xe3, 0xfe, 0x9c, 0x82, 0x5f, 0x9c, 0xa3, 0x17, 0xd8, 0x95, 0xc3, 0x91, 0x3a, 0x47, 0xd7, 0xcf, 0xfc, 0xbc, 0x91, 0xa4, 0x63, 0xcd, 0xfb, 0x96, 0x13, 0x21, 0x62, 0x24, 0xd5, 0xf2, 0x37, 0x17, 0xdc, 0x0f, 0x36, 0x38, 0xca, 0x7a, 0x76, 0x9a, 0x16, 0x4f, 0x25, 0x4c, 0x4c, 0x83, 0x9e, 0xd0, 0x8d, 0xc9, 0xdf, 0xf9, 0x43, 0x02, 0x00, 0x13, 0x83, 0x58, 0x48, 0xed, 0x17, 0x3d, 0xd3, 0x5e, 0x5d, 0xd6, 0xa3, 0xaa, 0xdc, 0xcf, 0x54, 0x89, 0x72, 0x2a, 0x37, 0xbe, 0x27, 0x08, 0x4a, 0x20, 0x70, 0x5e, 0xbe, 0xd7, 0xd4, 0xbc, 0xfb, 0x25, 0x2c, 0xdf, 0x2d, 0x96, 0x23, 0x6b, 0xae, 0x28, 0xde, 0xad, 0xd4, 0x67, 0xbb, 0x94, 0xa0, 0x9a, 0x1a, 0x55, 0x34, 0x53, 0xff, 0xa7, 0xab, 0xe2, 0xe2, 0xa2, 0xf8, 0x5b, 0x31, 0x14, 0xfc, 0x52, 0x05, 0x48, 0xcd, 0x04, 0x4f, 0xeb, 0xf6, 0xa2, 0x5d, 0x45, 0xeb, 0x4d, 0x51, 0xf4, 0xd4, 0x68, 0x48, 0x6c, 0x43, 0x61, 0x97, 0xb1, 0x65, 0x6c, 0x9c, 0x56, 0x85, 0xa3, 0xc5, 0xdd, 0xff, 0xa9, 0x01, 0xf6, 0x0c, 0x72, 0x1e, 0x43, 0x97, 0xb8, 0xf8, 0xb0, 0xde, 0x62, 0x9d, 0x8e, 0xb1, 0xbb, 0xb9, 0xf4, 0xa8, 0xeb, 0x19, 0xa2, 0x53, 0x72, 0xa4, 0xf5, 0x65, 0xc4, 0x20, 0xbf, 0x56, 0x39, 0xc9, 0xc2, 0x68, 0x8e, 0x61, 0xe1, 0x6a, 0x0d, 0x94, 0x25, 0xf6, 0x33, 0xa2, 0xe9, 0xa1, 0xa9, 0xf6, 0x0e, 0x8e, 0x41, 0xec, 0x1d, 0x40, 0x0c, 0x88, 0x95, 0xff, 0x0d, 0xd7, 0x46, 0xb6, 0x69, 0x6a, 0xb0, 0xb6, 0xd4, 0x25, 0x4a, 0x4f, 0x3d, 0xa7, 0x21, 0xd8, 0x53, 0xed, 0xd6, 0xa6, 0x46, 0x21, 0x73, 0x37, 0xa2, 0x33, 0x22, 0x99, 0xf4, 0x9f, 0xec, 0xa8, 0x67, 0xcf, 0x45, 0xf4, 0xb1, 0x04, 0x97, 0xdc, 0xe2, 0xf2, 0x6b, 0xdf, 0xef, 0xa0, 0x5a, 0x68, 0xeb, 0x62, 0x54, 0x1f, 0xd1, 0xf3, 0x4d, 0xa9, 0x67, 0x2f, 0xdc, 0x08, 0x0c, 0x8a, 0xc7, 0xd2, 0x3c, 0xde, 0x68, 0x84, 0xa9, 0x5e, 0xe0, 0xf7, 0x17, 0x38, 0x26, 0xb9, 0xe0, 0xa7, 0xf0, 0x00, 0xba, 0xcb, 0xbe, 0xe1, 0x47, 0x8e, 0x16, 0x11, 0x59, 0x9d, 0xb2, 0x8f, 0x2b, 0x46, 0x58, 0x81, 0xd9, 0xca, 0x11, 0x35, 0x32, 0x93, 0xb9, 0xf4, 0x30, 0x10, 0x5b, 0x52, 0xd2, 0x43, 0xbe, 0x23, 0x16, 0x54, 0x64, 0x42, 0x3c, 0x5d, 0x61, 0xdd, 0xbf, 0x9d, 0xf9, 0x8a, 0x89, 0x6c, 0x2a, 0x3d, 0x68, 0x48, 0x37, 0x8d, 0xc1, 0x08, 0x6d, 0xc2, 0xda, 0xaf, 0x5e, 0x56, 0x0a, 0xe7, 0xaa, 0x86, 0xe3, 0x60, 0x5f, 0x11, 0xe6, 0x18, 0xff, 0x1f, 0x72, 0x87, 0xba, 0x98, 0xd1, 0xb1, 0xbb, 0xaf, 0x5a, 0x9e, 0x94, 0xf8, 0xc7, 0x0f, 0xa6, 0x95, 0x34, 0x04, 0xf7, 0x84, 0xce, 0x1d, 0x35, 0xec, 0xe3, 0x35, 0xec, 0xf4, 0x17, 0xc0, 0x82, 0x5f, 0x0c, 0x08, 0x0b, 0x92, 0xaa, 0x99, 0xbd, 0x1d, 0x8d, 0xcf, 0xd2, 0x76, 0xe2, 0x01, 0xbd, 0x5c, 0x15, 0x32, 0x13, 0x25, 0x1e, 0x72, 0xbb, 0x98, 0x9d, 0xd0, 0x8f, 0x74, 0xc8, 0x61, 0xdb, 0xaa, 0xfb, 0xd2, 0x1c, 0xa0, 0x20, 0x4b, 0xd6, 0x69, 0xa7, 0x1e, 0xb3, 0x3a, 0x1d, 0xbd, 0xb7, 0x08, 0xe9, 0xc4, 0x31, 0x14, 0x71, 0x4e, 0x73, 0x74, 0x90, 0x8f, 0xcb, 0x21, 0x8c, 0xd4, 0x4e, 0x94, 0xf0, 0xe0, 0x92, 0xe3, 0x56, 0x31, 0x63, 0x92, 0x50, 0xa4, 0x16, 0x1a, 0x99, 0xb7, 0xe8, 0x6c, 0x21, 0xa5, 0x3f, 0xfe, 0xef, 0xa9, 0xda, 0x02, 0x17, 0x15, 0xc8, 0xc8, 0x31, 0xe6, 0x07, 0x3d, 0xc9, 0x37, 0x0e, 0x2a, 0xe9, 0xd4, 0x3b, 0x05, 0x2f, 0xcd, 0x0a, 0xce, 0xc1, 0x26, 0x39, 0x31, 0xe8, 0xaf, 0x08, 0xf9, 0xe6, 0xe6, 0x36, 0xf4, 0xbd, 0x37, 0xfb, 0x4b, 0x09, 0x33, 0x1c, 0x27, 0x0d, 0xcc, 0xc1, 0x2a, 0x19, 0xe0, 0xcc, 0x07, 0xf5, 0x2a, 0x2d, 0x2e, 0xf7, 0x3a, 0xc7, 0x2b, 0xe5, 0xe5, 0xb1, 0xff, 0x51, 0x07, 0x45, 0xde, 0xf7, 0x05, 0x28, 0xdf, 0x03, 0x24, 0x41, 0x40, 0xd2, 0x0c, 0xca, 0xb1, 0xe4, 0xea, 0x56, 0x10, 0xd8, 0x1d, 0xfe, 0xd9, 0xe8, 0x27, 0x00, 0x3e, 0x25, 0x3e, 0x31, 0xe2, 0x31, 0xbe, 0x46, 0xd6, 0x06, 0xb6, 0x0f, 0xd8, 0xc3, 0xc3, 0x0b, 0xfb, 0x39, 0x14, 0xb4, 0x17, 0x3c, 0xf8, 0xad, 0xb3, 0xd8, 0x03, 0x48, 0x2e, 0x19, 0x46, 0xbc, 0x43, 0xb7, 0x3d, 0x25, 0xed, 0x43, 0xae, 0xcb, 0xce, 0xd0, 0x0a, 0xfa, 0x04, 0xaf, 0x2a, 0x38, 0x1a, 0x12, 0x0f, 0x2d, 0x35, 0xd2, 0x0b, 0xc1, 0x17, 0xc4, 0xe2, 0x32, 0x2e, 0xf5, 0x26, 0x21, 0xfb, 0xff, 0xc3, 0x2c, 0xc7, 0xcf, 0x42, 0x0f, 0xb2, 0xf2, 0x39, 0x41, 0xc1, 0x06, 0xfc, 0x3c, 0xc1, 0x03, 0xec, 0x60, 0xc1, 0x2d, 0xc8, 0xf2, 0x16, 0x0f, 0xd0, 0xc0, 0xb3, 0xfe, 0x06, 0xa8, 0xff, 0x0d, 0xc4, 0x04, 0x3b, 0xe2, 0x3f, 0x2c, 0xba, 0x2f, 0xb3, 0x7f, 0x56, 0xb4, 0xf3, 0x43, 0xc3, 0xc3, 0xe6, 0x45, 0xf4, 0x43, 0xcb, 0x3a, 0x0c, 0x1d, 0xc5, 0x16, 0x23, 0x01, 0xca, 0x0c, 0xc5, 0xe1, 0x12, 0x5f, 0xd1, 0x1f, 0x40, 0xcb, 0x23, 0x1d, 0xef, 0x0e, 0x47, 0xb1, 0xd4, 0x0d, 0x14, 0xd5, 0xc9, 0x35, 0xbc, 0xe8, 0xd9, 0x49, 0xbc, 0x2f, 0xc9, 0x07, 0xcd, 0x1e, 0x40, 0xeb, 0x34, 0x1c, 0x24, 0xc4, 0xf2, 0x02, 0xfb, 0x13, 0xf7, 0x44, 0x29, 0x01, 0x27, 0xef, 0x08, 0x3c, 0x11, 0xe4, 0x0d, 0xb9, 0x29, 0x01, 0x3f, 0x1d, 0x0e, 0xf4, 0x1d, 0xcf, 0x27, 0xbe, 0xaf, 0xe8, 0xd3, 0xdd, 0x43, 0x12, 0xb3, 0x41, 0xaf, 0xbb, 0x23, 0x36, 0xfb, 0xce, 0xf9, 0xf4, 0xfa, 0x29, 0x45, 0xe5, 0x2f, 0x52, 0xbd, 0x0e, 0x09, 0x17, 0x04, 0xef, 0x2e, 0x07, 0x15, 0x35, 0xd4, 0x24, 0x41, 0x41, 0xbb, 0xbe, 0xf4, 0x43, 0x43, 0xe7, 0xe1, 0x61, 0xdd, 0x51, 0x33, 0x00, 0xc9, 0x00, 0x38, 0xfe, 0x3c, 0xd3, 0x18, 0xfe, 0xcf, 0xd8, 0xbd, 0xf0, 0x24, 0x2e, 0xc7, 0xe2, 0x18, 0xd4, 0x20, 0x3f, 0x16, 0x03, 0x12, 0x40, 0x0a, 0x27, 0xc2, 0x2b, 0xd2, 0x7e, 0xb8, 0x48, 0x11, 0xc6, 0x39, 0x3f, 0xcb, 0x4f, 0x18, 0x39, 0x10, 0x0c, 0x14, 0x06, 0xe0, 0xcf, 0x16, 0x35, 0xd9, 0xce, 0x23, 0xea, 0xb6, 0x38, 0xca, 0xb2, 0xe7, 0xeb, 0xcd, 0x27, 0xe1, 0x37, 0x35, 0xde, 0xd9, 0xf8, 0x05, 0x00, 0x25, 0x25, 0x28, 0x38, 0x06, 0xf4, 0xd7, 0x23, 0xd5, 0xe5, 0xf1, 0x3c, 0xf4, 0x2c, 0xea, 0x12, 0x03, 0x19, 0xfc, 0xe3, 0x0b, 0x03, 0xe4, 0x3c, 0xd2, 0xe7, 0xfd, 0xc9, 0x32, 0xd7, 0x26, 0x33, 0x09, 0xe2, 0xf6, 0xcc, 0xdf, 0x1e, 0xcc, 0xcc, 0x1f, 0x1c, 0xe2, 0x27, 0x05, 0x13, 0xc3, 0x0f, 0x0e, 0x33, 0x18, 0xf9, 0xe2, 0x23, 0x22, 0xd2, 0xc4, 0x3a, 0xea, 0x11, 0xe7, 0x0e, 0xe2, 0x15, 0xfe, 0x07, 0x2a, 0x3b, 0x45, 0x04, 0xda, 0xf7, 0xdf, 0x0a, 0xc6, 0x2c, 0xfe, 0xea, 0xe0, 0x31, 0x06, 0x13, 0xd0, 0x0b, 0xeb, 0xcf, 0xf1, 0x3f, 0xf3, 0x7f, 0xfa, 0x14, 0x15, 0x22, 0xd2, 0x35, 0xe9, 0x3d, 0xf8, 0x1d, 0xc9, 0x05, 0x13, 0xc4, 0x2c, 0xe8, 0x2a, 0xed, 0xce, 0x39, 0x46, 0xf0, 0x07, 0x0a, 0x01, 0xd4, 0x3f, 0x18, 0x09, 0x3c, 0xea, 0xbc, 0xd9, 0x01, 0x06, 0xdf, 0xe7, 0xbe, 0xd8, 0x1a, 0xd5, 0xde, 0xf2, 0xfb, 0xdd, 0xda, 0x05, 0xd2, 0x0a, 0xec, 0x20, 0x22, 0xd5, 0xf0, 0xd8, 0xdd, 0xe4, 0x2c, 0x10, 0xde, 0x24, 0xe3, 0xd4, 0x3a, 0x2f, 0x21, 0xd2, 0x10, 0x3f, 0x16, 0xf5, 0x0f, 0xef, 0x0d, 0x08, 0xf9, 0x32, 0xdf, 0x21, 0xb9, 0xb3, 0xd4, 0x2f, 0xec, 0xf9, 0x04, 0xe7, 0xf2, 0x1e, 0xce, 0x30, 0xd5, 0xcf, 0x32, 0xff, 0xc9, 0x28, 0x03, 0x2b, 0x12, 0x33, 0x2d, 0xd5, 0x00, 0xf0, 0x1c, 0x10, 0x00, 0xc0, 0xc9, 0x00, 0x12, 0xc9, 0xed, 0x17, 0x38, 0xea, 0x1b, 0x32, 0xe0, 0xeb, 0xf8, 0x29, 0xd2, 0xc3, 0x0c, 0x15, 0xf6, 0x1a, 0x11, 0x36, 0x34, 0xee, 0xc1, 0x29, 0x17, 0xf5, 0xcf, 0x0a, 0x29, 0xdc, 0x30, 0x1a, 0x03, 0x28, 0xc4, 0x31, 0xf5, 0x19, 0x1b, 0x19, 0x02, 0xcf, 0x05, 0xd8, 0xf8, 0x2a, 0x1e, 0x1a, 0x0f, 0x30, 0x0b, 0xfb, 0xe3, 0x26, 0xec, 0x0e, 0xcd, 0x25, 0xe0, 0x10, 0xef, 0x2c, 0xd0, 0xc9, 0xf7, 0xe9, 0xd9, 0xe6, 0xd0, 0xfd, 0x15, 0xe8, 0xca, 0xe4, 0x1d, 0x18, 0xc8, 0x1b, 0xdb, 0x33, 0xc5, 0x21, 0xf0, 0xe2, 0x2d, 0x0f, 0x03, 0x28, 0x17, 0xea, 0x06, 0xc4, 0x0d, 0xe7, 0xd9, 0x15, 0xda, 0xdb, 0xfd, 0xbf, 0x14, 0xf0, 0xe8, 0x2c, 0x28, 0x2d, 0x38, 0xf3, 0x17, 0x0d, 0x0a, 0xef, 0x05, 0xe5, 0xc3, 0xc3, 0x04, 0xce, 0xf0, 0x2f, 0x2b, 0xdd, 0x2c, 0x06, 0xe9, 0x28, 0x22, 0xd6, 0x12, 0xdd, 0xe5, 0x02, 0xdc, 0xcb, 0xe8, 0xde, 0x15, 0xe1, 0xea, 0x1b, 0xd1, 0xda, 0xe3, 0x2f, 0xbf, 0xcb, 0xdb, 0xc7, 0x2d, 0xd7, 0x24, 0xf7, 0xf1, 0xd1, 0xf5, 0xf6, 0x2f, 0x0e, 0xd2, 0xcd, 0x1c, 0xc1, 0xbc, 0x1b, 0x21, 0xff, 0x35, 0x31, 0xd4, 0x0e, 0xc7, 0xc7, 0x1d, 0xfa, 0xaf, 0x13, 0x4b, 0x91, 0x94, 0x9d, 0x66, 0x90, 0x3b, 0x25, 0x16, 0x99, 0x1a, 0x23, 0xeb, 0xac, 0x3c, 0x68, 0x9d, 0xa9, 0xb8, 0xe5, 0x2c, 0xe4, 0x4f, 0x5c, 0xd3, 0xbb, 0xf3, 0x38, 0xd1, 0xbd, 0x62, 0x27, 0xc4, 0xa9, 0xd3, 0xd3, 0x2c, 0xf3, 0x09, 0x55, 0xa8, 0x5d, 0x35, 0xd1, 0x52, 0x51, 0xac, 0x65, 0xb2, 0xee, 0x01, 0x32, 0x47, 0x95, 0xd7, 0xd4, 0xf8, 0x32, 0x3d, 0xfe, 0x35, 0xab, 0x1e, 0x84, 0x89, 0xa6, 0xf4, 0x59, 0xe2, 0x50, 0x93, 0x60, 0xa3, 0x36, 0x59, 0x08, 0x16, 0x4e, 0xdf, 0x6e, 0x2b, 0x9f, 0xbe, 0x9f, 0x22, 0x85, 0x95, 0xa2, 0xec, 0x31, 0xe8, 0x12, 0xbd, 0xb0, 0x19, 0xf8, 0x1a, 0xb1, 0x19, 0xe6, 0x5e, 0xc2, 0xac, 0xfa, 0x30, 0xcf, 0x64, 0xdc, 0x6f, 0xfa, 0x1a, 0xfd, 0x48, 0x21, 0xcb, 0xd4, 0x3e, 0xa8, 0x5a, 0x41, 0xc8, 0x8d, 0x5d, 0x51, 0x00, 0xd9, 0x4a, 0xb2, 0x88, 0x9b, 0x3f, 0x44, 0x71, 0x05, 0x5e, 0x33, 0x63, 0x65, 0x3b, 0x0c, 0x8f, 0xcc, 0x63, 0xc4, 0xed, 0x54, 0xdd, 0xc5, 0xbc, 0xbd, 0x90, 0x9b, 0xe4, 0xdb, 0xf0, 0x14, 0xb8, 0xf4, 0x8d, 0x19, 0x10, 0xc3, 0x93, 0x93, 0x12, 0x0e, 0x1c, 0xab, 0xed, 0x68, 0xe7, 0x08, 0x94, 0x29, 0xf5, 0x19, 0xd3, 0x19, 0x30, 0x96, 0xcf, 0xf2, 0xf6, 0x81, 0x00, 0x52, 0x31, 0x06, 0x93, 0x19, 0x0c, 0x96, 0xe3, 0x09, 0xfb, 0x83, 0x17, 0x7a, 0x34, 0xbc, 0xd3, 0xc3, 0x86, 0x42, 0x91, 0x41, 0x4b, 0xa2, 0x54, 0x58, 0xad, 0x99, 0x90, 0xcb, 0xe9, 0x4f, 0xf7, 0x56, 0x8a, 0x72, 0x4d, 0x7e, 0x9a, 0xc4, 0x47, 0x1e, 0xec, 0x9a, 0xd2, 0x00, 0xde, 0xd3, 0xe9, 0x2c, 0x20, 0x3b, 0x99, 0x23, 0x12, 0xc2, 0xb2, 0xbc, 0x28, 0x37, 0x18, 0x13, 0x9f, 0x96, 0x10, 0xa1, 0xd4, 0x6d, 0xfd, 0xbb, 0x3c, 0x45, 0x48, 0x3d, 0x86, 0xed, 0x1d, 0xc2, 0x4e, 0x5b, 0xf2, 0x35, 0x73, 0x59, 0x8c, 0xf0, 0x56, 0xb9, 0x91, 0xfe, 0xd7, 0xc7, 0x5b, 0x90, 0x94, 0x5b, 0x81, 0xab, 0x28, 0x14, 0xa8, 0xe7, 0x9e, 0xdd, 0x40, 0x67, 0x8e, 0xd8, 0x4a, 0x9a, 0xca, 0x9a, 0x0d, 0x8c, 0xf3, 0x55, 0xf0, 0x41, 0xd5, 0xad, 0x29, 0xbd, 0xad, 0xec, 0x71, 0xd6, 0xdb, 0x78, 0x7b, 0xcf, 0xf8, 0x76, 0x63, 0x4e, 0x11, 0xfc, 0x7f, 0x06, 0xd7, 0xc2, 0xb9, 0xa7, 0x5b, 0xa4, 0xbd, 0xef, 0xea, 0x13, 0x56, 0xba, 0x2c, 0xa4, 0x2f, 0x03, 0xb3, 0x99, 0xf6, 0xe1, 0x83, 0xd8, 0x22, 0x4d, 0xbf, 0x87, 0xc6, 0x5a, 0xef, 0xec, 0xcd, 0xc1, 0xee, 0x82, 0x26, 0xa5, 0x5b, 0x0a, 0xd2, 0xd0, 0xcb, 0x3f, 0xcb, 0x5e, 0x99, 0xb2, 0x79, 0x77, 0x5a, 0x76, 0x1c, 0xd2, 0xb0, 0x09, 0x90, 0xaa, 0x25, 0x8b, 0x3e, 0x1b, 0x2e, 0xe4, 0xba, 0x3d, 0x12, 0xa7, 0xe2, 0x02, 0x36, 0xd0, 0x26, 0x04, 0x2a, 0xde, 0xd4, 0x9f, 0xc6, 0x23, 0x41, 0x07, 0x03, 0x42, 0x18, 0xed, 0xef, 0xb2, 0x1e, 0x23, 0xcd, 0xe0, 0xde, 0xdc, 0xe3, 0x43, 0xe4, 0x26, 0x2c, 0xc7, 0x24, 0xfa, 0xb3, 0x22, 0xd7, 0x10, 0xa6, 0xbc, 0x2a, 0x1c, 0x33, 0xcb, 0x25, 0x29, 0x0d, 0xba, 0xd4, 0xde, 0x1a, 0xdd, 0x5e, 0x32, 0xd9, 0xd6, 0x03, 0x09, 0xdc, 0x1c, 0x44, 0xb0, 0xce, 0x42, 0x02, 0x29, 0xba, 0xf8, 0xd8, 0xf2, 0xda, 0x0c, 0xd1, 0xd0, 0xf8, 0xb7, 0x60, 0xf5, 0xf6, 0x40, 0x26, 0x03, 0x27, 0xd2, 0xd8, 0xad, 0x1a, 0xee, 0x4f, 0x22, 0xdd, 0xff, 0x19, 0x4a, 0x2c, 0xb5, 0x31, 0xb4, 0xc2, 0xac, 0x24, 0xfc, 0x38, 0xfd, 0x0c, 0x1b, 0x2b, 0xc7, 0x0b, 0xcd, 0x1f, 0x02, 0x28, 0x1f, 0xca, 0x25, 0x20, 0xc8, 0x49, 0x15, 0xdc, 0xb2, 0xe4, 0x00, 0x5b, 0xec, 0xd2, 0xae, 0x12, 0xd5, 0xe9, 0x2c, 0xe1, 0x18, 0x05, 0xc7, 0x56, 0x6e, 0x1d, 0xe9, 0x15, 0x1e, 0x48, 0x13, 0x2e, 0x24, 0xef, 0x26, 0x17, 0xe6, 0x2b, 0x20, 0x5c, 0x2b, 0x17, 0xd9, 0x08, 0xc1, 0x11, 0xe3, 0xfb, 0xe7, 0xd2, 0xf4, 0x47, 0x24, 0xe4, 0x1d, 0x1d, 0xd3, 0x28, 0xbf, 0xf2, 0x2c, 0xcb, 0x05, 0xf9, 0x1b, 0x3a, 0x44, 0xe5, 0x32, 0x33, 0x09, 0x39, 0x2c, 0x2b, 0xf0, 0x2b, 0xe4, 0xd6, 0x30, 0xed, 0xf2, 0xd6, 0xfc, 0x1d, 0xc3, 0x48, 0xda, 0xd5, 0x24, 0x1e, 0xd4, 0xe2, 0x58, 0x00, 0xc8, 0x20, 0xea, 0x2d, 0xba, 0x27, 0xaa, 0x51, 0x25, 0xcb, 0x30, 0x20, 0xe1, 0x18, 0xfd, 0x2b, 0xf9, 0xd1, 0x0b, 0xd2, 0xf6, 0xdb, 0x39, 0x02, 0x25, 0x3d, 0xf4, 0xdf, 0x04, 0x0c, 0x29, 0xf2, 0xe0, 0x3c, 0x12, 0xbd, 0x05, 0xb6, 0xba, 0x19, 0xc8, 0x3b, 0xbb, 0x0a, 0x05, 0xc2, 0xf3, 0x0a, 0xb2, 0xed, 0xcf, 0xab, 0xfb, 0x19, 0x0c, 0x43, 0x1b, 0x41, 0xf5, 0xd9, 0xd6, 0xd7, 0x32, 0xfe, 0xe0, 0xdd, 0x94, 0xf4, 0x2e, 0x20, 0xbb, 0xe0, 0x25, 0x69, 0x7f, 0xf5, 0x10, 0xa2, 0x16, 0x33, 0x39, 0x2c, 0x07, 0x0e, 0xd6, 0x3c, 0xc7, 0x08, 0xb5, 0xc9, 0xc2, 0x09, 0xb1, 0x48, 0x42, 0x38, 0xe2, 0xbc, 0x12, 0xfc, 0x37, 0x36, 0xee, 0x02, 0xfa, 0x1d, 0x12, 0xdb, 0xef, 0x2a, 0xe8, 0x30, 0xf3, 0xe6, 0x13, 0x2f, 0xba, 0x0c, 0xe1, 0x09, 0x12, 0x1a, 0xde, 0xe5, 0xa8, 0x28, 0xb4, 0x30, 0xb6, 0xf8, 0x31, 0x23, 0xe6, 0x45, 0x11, 0x3c, 0xae, 0xa4, 0xb9, 0x28, 0x1b, 0x48, 0xe1, 0x20, 0xf0, 0x42, 0x0c, 0xd2, 0xef, 0x16, 0xb8, 0x4e, 0x3c, 0x3e, 0x18, 0xed, 0x43, 0x19, 0x4e, 0xf5, 0x35, 0x18, 0x05, 0x06, 0x1e, 0x1c, 0x11, 0x3f, 0x2e, 0xec, 0xf3, 0xd6, 0x29, 0xb6, 0xfe, 0xff, 0xff, 0x04, 0x00, 0x00, 0x00, 0x40, 0x00, 0x00, 0x00, 0xee, 0xff, 0xff, 0xff, 0xf1, 0xff, 0xff, 0xff, 0xf7, 0xff, 0xff, 0xff, 0xe6, 0xff, 0xff, 0xff, 0xf1, 0xff, 0xff, 0xff, 0xe3, 0xff, 0xff, 0xff, 0xf5, 0xff, 0xff, 0xff, 0xf9, 0xff, 0xff, 0xff, 0x17, 0x00, 0x00, 0x00, 0xf0, 0xff, 0xff, 0xff, 0xec, 0xff, 0xff, 0xff, 0xef, 0xff, 0xff, 0xff, 0xee, 0xff, 0xff, 0xff, 0xf8, 0xff, 0xff, 0xff, 0x00, 0x00, 0x00, 0x00, 0xe0, 0xff, 0xff, 0xff, 0x02, 0xff, 0xff, 0xff, 0x04, 0x00, 0x00, 0x00, 0x30, 0x00, 0x00, 0x00, 0xdd, 0xb3, 0xdb, 0x0e, 0xe0, 0x3a, 0xf5, 0x0c, 0xbc, 0x31, 0x10, 0x99, 0x7f, 0x89, 0xa8, 0xe5, 0x40, 0xcb, 0x29, 0xab, 0xee, 0x98, 0x48, 0xe4, 0x81, 0x39, 0x8e, 0xdb, 0x9f, 0x25, 0xd0, 0xc8, 0x1e, 0x24, 0x7f, 0x57, 0xe9, 0x7a, 0x2a, 0xb6, 0xa5, 0x1b, 0xa1, 0xcf, 0x77, 0xdf, 0x86, 0xab, 0x3e, 0xff, 0xff, 0xff, 0x04, 0x00, 0x00, 0x00, 0x0c, 0x00, 0x00, 0x00, 0x1d, 0x00, 0x00, 0x00, 0x02, 0x00, 0x00, 0x00, 0xe1, 0xff, 0xff, 0xff, 0x56, 0xff, 0xff, 0xff, 0x04, 0x00, 0x00, 0x00, 0x08, 0x00, 0x00, 0x00, 0xff, 0xff, 0xff, 0xff, 0x80, 0x01, 0x00, 0x00, 0xf8, 0xf0, 0xff, 0xff, 0xfc, 0xf0, 0xff, 0xff, 0x0f, 0x00, 0x00, 0x00, 0x4d, 0x4c, 0x49, 0x52, 0x20, 0x43, 0x6f, 0x6e, 0x76, 0x65, 0x72, 0x74, 0x65, 0x64, 0x2e, 0x00, 0x01, 0x00, 0x00, 0x00, 0x14, 0x00, 0x00, 0x00, 0x00, 0x00, 0x0e, 0x00, 0x18, 0x00, 0x14, 0x00, 0x10, 0x00, 0x0c, 0x00, 0x08, 0x00, 0x04, 0x00, 0x0e, 0x00, 0x00, 0x00, 0x14, 0x00, 0x00, 0x00, 0x1c, 0x00, 0x00, 0x00, 0x4c, 0x02, 0x00, 0x00, 0x50, 0x02, 0x00, 0x00, 0x54, 0x02, 0x00, 0x00, 0x04, 0x00, 0x00, 0x00, 0x6d, 0x61, 0x69, 0x6e, 0x00, 0x00, 0x00, 0x00, 0x08, 0x00, 0x00, 0x00, 0xe8, 0x01, 0x00, 0x00, 0x84, 0x01, 0x00, 0x00, 0x34, 0x01, 0x00, 0x00, 0xf0, 0x00, 0x00, 0x00, 0xc8, 0x00, 0x00, 0x00, 0x78, 0x00, 0x00, 0x00, 0x40, 0x00, 0x00, 0x00, 0x04, 0x00, 0x00, 0x00, 0xa6, 0xfe, 0xff, 0xff, 0x1c, 0x00, 0x00, 0x00, 0x00, 0x00, 0x00, 0x09, 0x1c, 0x00, 0x00, 0x00, 0x20, 0x00, 0x00, 0x00, 0x04, 0x00, 0x00, 0x00, 0x00, 0x00, 0x06, 0x00, 0x08, 0x00, 0x04, 0x00, 0x06, 0x00, 0x00, 0x00, 0x00, 0x00, 0x80, 0x3f, 0x01, 0x00, 0x00, 0x00, 0x11, 0x00, 0x00, 0x00, 0x01, 0x00, 0x00, 0x00, 0x10, 0x00, 0x00, 0x00, 0xde, 0xfe, 0xff, 0xff, 0x14, 0x00, 0x00, 0x00, 0x00, 0x00, 0x00, 0x08, 0x10, 0x00, 0x00, 0x00, 0x14, 0x00, 0x00, 0x00, 0x03, 0x00, 0x00, 0x00, 0xc4, 0xf1, 0xff, 0xff, 0x01, 0x00, 0x00, 0x00, 0x10, 0x00, 0x00, 0x00, 0x03, 0x00, 0x00, 0x00, 0x0f, 0x00, 0x00, 0x00, 0x03, 0x00, 0x00, 0x00, 0x02, 0x00, 0x00, 0x00, 0x12, 0xff, 0xff, 0xff, 0x1c, 0x00, 0x00, 0x00, 0x00, 0x00, 0x00, 0x08, 0x1c, 0x00, 0x00, 0x00, 0x20, 0x00, 0x00, 0x00, 0x03, 0x00, 0x00, 0x00, 0x00, 0x00, 0x06, 0x00, 0x08, 0x00, 0x07, 0x00, 0x06, 0x00, 0x00, 0x00, 0x00, 0x00, 0x00, 0x01, 0x01, 0x00, 0x00, 0x00, 0x0f, 0x00, 0x00, 0x00, 0x03, 0x00, 0x00, 0x00, 0x0e, 0x00, 0x00, 0x00, 0x05, 0x00, 0x00, 0x00, 0x04, 0x00, 0x00, 0x00, 0x00, 0x00, 0x0a, 0x00, 0x10, 0x00, 0x0c, 0x00, 0x08, 0x00, 0x04, 0x00, 0x0a, 0x00, 0x00, 0x00, 0x0c, 0x00, 0x00, 0x00, 0x10, 0x00, 0x00, 0x00, 0x02, 0x00, 0x00, 0x00, 0x01, 0x00, 0x00, 0x00, 0x0e, 0x00, 0x00, 0x00, 0x02, 0x00, 0x00, 0x00, 0x0d, 0x00, 0x00, 0x00, 0x01, 0x00, 0x00, 0x00, 0x82, 0xff, 0xff, 0xff, 0x14, 0x00, 0x00, 0x00, 0x00, 0x00, 0x00, 0x05, 0x24, 0x00, 0x00, 0x00, 0x28, 0x00, 0x00, 0x00, 0x01, 0x00, 0x00, 0x00, 0x72, 0xff, 0xff, 0xff, 0x02, 0x00, 0x00, 0x00, 0x02, 0x00, 0x00, 0x00, 0x02, 0x00, 0x00, 0x00, 0x02, 0x00, 0x00, 0x00, 0x00, 0x00, 0x00, 0x01, 0x01, 0x00, 0x00, 0x00, 0x0d, 0x00, 0x00, 0x00, 0x01, 0x00, 0x00, 0x00, 0x0c, 0x00, 0x00, 0x00, 0x62, 0xff, 0xff, 0xff, 0x10, 0x00, 0x00, 0x00, 0x00, 0x00, 0x00, 0x01, 0x18, 0x00, 0x00, 0x00, 0x1c, 0x00, 0x00, 0x00, 0x54, 0xff, 0xff, 0xff, 0x00, 0x00, 0x00, 0x01, 0x01, 0x00, 0x00, 0x00, 0x01, 0x00, 0x00, 0x00, 0x01, 0x00, 0x00, 0x00, 0x0c, 0x00, 0x00, 0x00, 0x03, 0x00, 0x00, 0x00, 0x0b, 0x00, 0x00, 0x00, 0x07, 0x00, 0x00, 0x00, 0x06, 0x00, 0x00, 0x00, 0x00, 0x00, 0x0e, 0x00, 0x1a, 0x00, 0x14, 0x00, 0x10, 0x00, 0x0c, 0x00, 0x0b, 0x00, 0x04, 0x00, 0x0e, 0x00, 0x00, 0x00, 0x24, 0x00, 0x00, 0x00, 0x00, 0x00, 0x00, 0x05, 0x34, 0x00, 0x00, 0x00, 0x38, 0x00, 0x00, 0x00, 0x01, 0x00, 0x00, 0x00, 0x00, 0x00, 0x0e, 0x00, 0x18, 0x00, 0x17, 0x00, 0x10, 0x00, 0x0c, 0x00, 0x08, 0x00, 0x04, 0x00, 0x0e, 0x00, 0x00, 0x00, 0x02, 0x00, 0x00, 0x00, 0x02, 0x00, 0x00, 0x00, 0x02, 0x00, 0x00, 0x00, 0x02, 0x00, 0x00, 0x00, 0x00, 0x00, 0x00, 0x01, 0x01, 0x00, 0x00, 0x00, 0x0b, 0x00, 0x00, 0x00, 0x01, 0x00, 0x00, 0x00, 0x0a, 0x00, 0x00, 0x00, 0x00, 0x00, 0x0e, 0x00, 0x14, 0x00, 0x00, 0x00, 0x10, 0x00, 0x0c, 0x00, 0x0b, 0x00, 0x04, 0x00, 0x0e, 0x00, 0x00, 0x00, 0x1c, 0x00, 0x00, 0x00, 0x00, 0x00, 0x00, 0x01, 0x24, 0x00, 0x00, 0x00, 0x28, 0x00, 0x00, 0x00, 0x0c, 0x00, 0x10, 0x00, 0x00, 0x00, 0x0c, 0x00, 0x08, 0x00, 0x07, 0x00, 0x0c, 0x00, 0x00, 0x00, 0x00, 0x00, 0x00, 0x01, 0x01, 0x00, 0x00, 0x00, 0x01, 0x00, 0x00, 0x00, 0x01, 0x00, 0x00, 0x00, 0x0a, 0x00, 0x00, 0x00, 0x03, 0x00, 0x00, 0x00, 0x00, 0x00, 0x00, 0x00, 0x09, 0x00, 0x00, 0x00, 0x08, 0x00, 0x00, 0x00, 0x01, 0x00, 0x00, 0x00, 0x11, 0x00, 0x00, 0x00, 0x01, 0x00, 0x00, 0x00, 0x00, 0x00, 0x00, 0x00, 0x12, 0x00, 0x00, 0x00, 0xa4, 0x0c, 0x00, 0x00, 0x48, 0x0c, 0x00, 0x00, 0xb8, 0x0b, 0x00, 0x00, 0x3c, 0x0b, 0x00, 0x00, 0x28, 0x0a, 0x00, 0x00, 0x0c, 0x09, 0x00, 0x00, 0xf8, 0x07, 0x00, 0x00, 0xd4, 0x06, 0x00, 0x00, 0x20, 0x06, 0x00, 0x00, 0x5c, 0x05, 0x00, 0x00, 0x88, 0x04, 0x00, 0x00, 0xec, 0x03, 0x00, 0x00, 0xf8, 0x02, 0x00, 0x00, 0x5c, 0x02, 0x00, 0x00, 0xd8, 0x01, 0x00, 0x00, 0x24, 0x01, 0x00, 0x00, 0x80, 0x00, 0x00, 0x00, 0x04, 0x00, 0x00, 0x00, 0xba, 0xf3, 0xff, 0xff, 0x00, 0x00, 0x00, 0x01, 0x18, 0x00, 0x00, 0x00, 0x20, 0x00, 0x00, 0x00, 0x3c, 0x00, 0x00, 0x00, 0x12, 0x00, 0x00, 0x00, 0x00, 0x00, 0x00, 0x09, 0x50, 0x00, 0x00, 0x00, 0x02, 0x00, 0x00, 0x00, 0xff, 0xff, 0xff, 0xff, 0x03, 0x00, 0x00, 0x00, 0x9c, 0xf3, 0xff, 0xff, 0x08, 0x00, 0x00, 0x00, 0x10, 0x00, 0x00, 0x00, 0x01, 0x00, 0x00, 0x00, 0x80, 0xff, 0xff, 0xff, 0xff, 0xff, 0xff, 0xff, 0x01, 0x00, 0x00, 0x00, 0x00, 0x00, 0x80, 0x3b, 0x1b, 0x00, 0x00, 0x00, 0x53, 0x74, 0x61, 0x74, 0x65, 0x66, 0x75, 0x6c, 0x50, 0x61, 0x72, 0x74, 0x69, 0x74, 0x69, 0x6f, 0x6e, 0x65, 0x64, 0x43, 0x61, 0x6c, 0x6c, 0x5f, 0x31, 0x3a, 0x30, 0x00, 0x02, 0x00, 0x00, 0x00, 0x01, 0x00, 0x00, 0x00, 0x03, 0x00, 0x00, 0x00, 0x32, 0xf4, 0xff, 0xff, 0x00, 0x00, 0x00, 0x01, 0x18, 0x00, 0x00, 0x00, 0x20, 0x00, 0x00, 0x00, 0x40, 0x00, 0x00, 0x00, 0x11, 0x00, 0x00, 0x00, 0x00, 0x00, 0x00, 0x09, 0x78, 0x00, 0x00, 0x00, 0x02, 0x00, 0x00, 0x00, 0xff, 0xff, 0xff, 0xff, 0x03, 0x00, 0x00, 0x00, 0x14, 0xf4, 0xff, 0xff, 0x08, 0x00, 0x00, 0x00, 0x14, 0x00, 0x00, 0x00, 0x01, 0x00, 0x00, 0x00, 0x28, 0x00, 0x00, 0x00, 0x00, 0x00, 0x00, 0x00, 0x00, 0x00, 0x00, 0x00, 0x01, 0x00, 0x00, 0x00, 0x10, 0x89, 0x7d, 0x3e, 0x3c, 0x00, 0x00, 0x00, 0x73, 0x65, 0x71, 0x75, 0x65, 0x6e, 0x74, 0x69, 0x61, 0x6c, 0x5f, 0x31, 0x2f, 0x64, 0x65, 0x6e, 0x73, 0x65, 0x5f, 0x31, 0x5f, 0x32, 0x2f, 0x4d, 0x61, 0x74, 0x4d, 0x75, 0x6c, 0x3b, 0x73, 0x65, 0x71, 0x75, 0x65, 0x6e, 0x74, 0x69, 0x61, 0x6c, 0x5f, 0x31, 0x2f, 0x64, 0x65, 0x6e, 0x73, 0x65, 0x5f, 0x31, 0x5f, 0x32, 0x2f, 0x42, 0x69, 0x61, 0x73, 0x41, 0x64, 0x64, 0x00, 0x00, 0x00, 0x00, 0x02, 0x00, 0x00, 0x00, 0x01, 0x00, 0x00, 0x00, 0x03, 0x00, 0x00, 0x00, 0xd2, 0xf4, 0xff, 0xff, 0x00, 0x00, 0x00, 0x01, 0x18, 0x00, 0x00, 0x00, 0x20, 0x00, 0x00, 0x00, 0x3c, 0x00, 0x00, 0x00, 0x10, 0x00, 0x00, 0x00, 0x00, 0x00, 0x00, 0x09, 0x88, 0x00, 0x00, 0x00, 0x02, 0x00, 0x00, 0x00, 0xff, 0xff, 0xff, 0xff, 0x10, 0x00, 0x00, 0x00, 0xb4, 0xf4, 0xff, 0xff, 0x08, 0x00, 0x00, 0x00, 0x10, 0x00, 0x00, 0x00, 0x01, 0x00, 0x00, 0x00, 0x80, 0xff, 0xff, 0xff, 0xff, 0xff, 0xff, 0xff, 0x01, 0x00, 0x00, 0x00, 0xa2, 0xb0, 0x7d, 0x3e, 0x52, 0x00, 0x00, 0x00, 0x73, 0x65, 0x71, 0x75, 0x65, 0x6e, 0x74, 0x69, 0x61, 0x6c, 0x5f, 0x31, 0x2f, 0x64, 0x65, 0x6e, 0x73, 0x65, 0x5f, 0x31, 0x2f, 0x4d, 0x61, 0x74, 0x4d, 0x75, 0x6c, 0x3b, 0x73, 0x65, 0x71, 0x75, 0x65, 0x6e, 0x74, 0x69, 0x61, 0x6c, 0x5f, 0x31, 0x2f, 0x64, 0x65, 0x6e, 0x73, 0x65, 0x5f, 0x31, 0x2f, 0x52, 0x65, 0x6c, 0x75, 0x3b, 0x73, 0x65, 0x71, 0x75, 0x65, 0x6e, 0x74, 0x69, 0x61, 0x6c, 0x5f, 0x31, 0x2f, 0x64, 0x65, 0x6e, 0x73, 0x65, 0x5f, 0x31, 0x2f, 0x42, 0x69, 0x61, 0x73, 0x41, 0x64, 0x64, 0x00, 0x00, 0x02, 0x00, 0x00, 0x00, 0x01, 0x00, 0x00, 0x00, 0x10, 0x00, 0x00, 0x00, 0x82, 0xf5, 0xff, 0xff, 0x00, 0x00, 0x00, 0x01, 0x18, 0x00, 0x00, 0x00, 0x20, 0x00, 0x00, 0x00, 0x40, 0x00, 0x00, 0x00, 0x0f, 0x00, 0x00, 0x00, 0x00, 0x00, 0x00, 0x09, 0x58, 0x00, 0x00, 0x00, 0x02, 0x00, 0x00, 0x00, 0xff, 0xff, 0xff, 0xff, 0x80, 0x01, 0x00, 0x00, 0x64, 0xf5, 0xff, 0xff, 0x08, 0x00, 0x00, 0x00, 0x14, 0x00, 0x00, 0x00, 0x01, 0x00, 0x00, 0x00, 0x80, 0xff, 0xff, 0xff, 0xff, 0xff, 0xff, 0xff, 0x00, 0x00, 0x00, 0x00, 0x01, 0x00, 0x00, 0x00, 0xa1, 0xb9, 0xa6, 0x3e, 0x1e, 0x00, 0x00, 0x00, 0x73, 0x65, 0x71, 0x75, 0x65, 0x6e, 0x74, 0x69, 0x61, 0x6c, 0x5f, 0x31, 0x2f, 0x66, 0x6c, 0x61, 0x74, 0x74, 0x65, 0x6e, 0x5f, 0x31, 0x2f, 0x52, 0x65, 0x73, 0x68, 0x61, 0x70, 0x65, 0x00, 0x00, 0x02, 0x00, 0x00, 0x00, 0x01, 0x00, 0x00, 0x00, 0x80, 0x01, 0x00, 0x00, 0x02, 0xf6, 0xff, 0xff, 0x00, 0x00, 0x00, 0x01, 0x18, 0x00, 0x00, 0x00, 0x28, 0x00, 0x00, 0x00, 0x44, 0x00, 0x00, 0x00, 0x0e, 0x00, 0x00, 0x00, 0x00, 0x00, 0x00, 0x09, 0x68, 0x00, 0x00, 0x00, 0x04, 0x00, 0x00, 0x00, 0xff, 0xff, 0xff, 0xff, 0x08, 0x00, 0x00, 0x00, 0x03, 0x00, 0x00, 0x00, 0x10, 0x00, 0x00, 0x00, 0xec, 0xf5, 0xff, 0xff, 0x08, 0x00, 0x00, 0x00, 0x10, 0x00, 0x00, 0x00, 0x01, 0x00, 0x00, 0x00, 0x80, 0xff, 0xff, 0xff, 0xff, 0xff, 0xff, 0xff, 0x01, 0x00, 0x00, 0x00, 0xa1, 0xb9, 0xa6, 0x3e, 0x28, 0x00, 0x00, 0x00, 0x73, 0x65, 0x71, 0x75, 0x65, 0x6e, 0x74, 0x69, 0x61, 0x6c, 0x5f, 0x31, 0x2f, 0x6d, 0x61, 0x78, 0x5f, 0x70, 0x6f, 0x6f, 0x6c, 0x69, 0x6e, 0x67, 0x32, 0x64, 0x5f, 0x31, 0x5f, 0x32, 0x2f, 0x4d, 0x61, 0x78, 0x50, 0x6f, 0x6f, 0x6c, 0x32, 0x64, 0x00, 0x00, 0x00, 0x00, 0x04, 0x00, 0x00, 0x00, 0x01, 0x00, 0x00, 0x00, 0x08, 0x00, 0x00, 0x00, 0x03, 0x00, 0x00, 0x00, 0x10, 0x00, 0x00, 0x00, 0x9a, 0xf6, 0xff, 0xff, 0x00, 0x00, 0x00, 0x01, 0x18, 0x00, 0x00, 0x00, 0x28, 0x00, 0x00, 0x00, 0x44, 0x00, 0x00, 0x00, 0x0d, 0x00, 0x00, 0x00, 0x00, 0x00, 0x00, 0x09, 0xc0, 0x00, 0x00, 0x00, 0x04, 0x00, 0x00, 0x00, 0xff, 0xff, 0xff, 0xff, 0x10, 0x00, 0x00, 0x00, 0x06, 0x00, 0x00, 0x00, 0x10, 0x00, 0x00, 0x00, 0x84, 0xf6, 0xff, 0xff, 0x08, 0x00, 0x00, 0x00, 0x10, 0x00, 0x00, 0x00, 0x01, 0x00, 0x00, 0x00, 0x80, 0xff, 0xff, 0xff, 0xff, 0xff, 0xff, 0xff, 0x01, 0x00, 0x00, 0x00, 0xa1, 0xb9, 0xa6, 0x3e, 0x80, 0x00, 0x00, 0x00, 0x73, 0x65, 0x71, 0x75, 0x65, 0x6e, 0x74, 0x69, 0x61, 0x6c, 0x5f, 0x31, 0x2f, 0x63, 0x6f, 0x6e, 0x76, 0x32, 0x64, 0x5f, 0x31, 0x5f, 0x32, 0x2f, 0x52, 0x65, 0x6c, 0x75, 0x3b, 0x73, 0x65, 0x71, 0x75, 0x65, 0x6e, 0x74, 0x69, 0x61, 0x6c, 0x5f, 0x31, 0x2f, 0x63, 0x6f, 0x6e, 0x76, 0x32, 0x64, 0x5f, 0x31, 0x5f, 0x32, 0x2f, 0x42, 0x69, 0x61, 0x73, 0x41, 0x64, 0x64, 0x3b, 0x73, 0x65, 0x71, 0x75, 0x65, 0x6e, 0x74, 0x69, 0x61, 0x6c, 0x5f, 0x31, 0x2f, 0x63, 0x6f, 0x6e, 0x76, 0x32, 0x64, 0x5f, 0x31, 0x5f, 0x32, 0x2f, 0x63, 0x6f, 0x6e, 0x76, 0x6f, 0x6c, 0x75, 0x74, 0x69, 0x6f, 0x6e, 0x3b, 0x73, 0x65, 0x71, 0x75, 0x65, 0x6e, 0x74, 0x69, 0x61, 0x6c, 0x5f, 0x31, 0x2f, 0x63, 0x6f, 0x6e, 0x76, 0x32, 0x64, 0x5f, 0x31, 0x5f, 0x32, 0x2f, 0x53, 0x71, 0x75, 0x65, 0x65, 0x7a, 0x65, 0x00, 0x00, 0x00, 0x00, 0x04, 0x00, 0x00, 0x00, 0x01, 0x00, 0x00, 0x00, 0x10, 0x00, 0x00, 0x00, 0x06, 0x00, 0x00, 0x00, 0x10, 0x00, 0x00, 0x00, 0x8a, 0xf7, 0xff, 0xff, 0x00, 0x00, 0x00, 0x01, 0x18, 0x00, 0x00, 0x00, 0x28, 0x00, 0x00, 0x00, 0x48, 0x00, 0x00, 0x00, 0x0c, 0x00, 0x00, 0x00, 0x00, 0x00, 0x00, 0x09, 0x68, 0x00, 0x00, 0x00, 0x04, 0x00, 0x00, 0x00, 0xff, 0xff, 0xff, 0xff, 0x10, 0x00, 0x00, 0x00, 0x06, 0x00, 0x00, 0x00, 0x08, 0x00, 0x00, 0x00, 0x74, 0xf7, 0xff, 0xff, 0x08, 0x00, 0x00, 0x00, 0x14, 0x00, 0x00, 0x00, 0x01, 0x00, 0x00, 0x00, 0x80, 0xff, 0xff, 0xff, 0xff, 0xff, 0xff, 0xff, 0x00, 0x00, 0x00, 0x00, 0x01, 0x00, 0x00, 0x00, 0xb0, 0xd8, 0x30, 0x3f, 0x26, 0x00, 0x00, 0x00, 0x73, 0x65, 0x71, 0x75, 0x65, 0x6e, 0x74, 0x69, 0x61, 0x6c, 0x5f, 0x31, 0x2f, 0x6d, 0x61, 0x78, 0x5f, 0x70, 0x6f, 0x6f, 0x6c, 0x69, 0x6e, 0x67, 0x32, 0x64, 0x5f, 0x31, 0x2f, 0x4d, 0x61, 0x78, 0x50, 0x6f, 0x6f, 0x6c, 0x32, 0x64, 0x00, 0x00, 0x04, 0x00, 0x00, 0x00, 0x01, 0x00, 0x00, 0x00, 0x10, 0x00, 0x00, 0x00, 0x06, 0x00, 0x00, 0x00, 0x08, 0x00, 0x00, 0x00, 0x22, 0xf8, 0xff, 0xff, 0x00, 0x00, 0x00, 0x01, 0x18, 0x00, 0x00, 0x00, 0x28, 0x00, 0x00, 0x00, 0x48, 0x00, 0x00, 0x00, 0x0b, 0x00, 0x00, 0x00, 0x00, 0x00, 0x00, 0x09, 0xa0, 0x00, 0x00, 0x00, 0x04, 0x00, 0x00, 0x00, 0xff, 0xff, 0xff, 0xff, 0x20, 0x00, 0x00, 0x00, 0x0d, 0x00, 0x00, 0x00, 0x08, 0x00, 0x00, 0x00, 0x0c, 0xf8, 0xff, 0xff, 0x08, 0x00, 0x00, 0x00, 0x14, 0x00, 0x00, 0x00, 0x01, 0x00, 0x00, 0x00, 0x80, 0xff, 0xff, 0xff, 0xff, 0xff, 0xff, 0xff, 0x00, 0x00, 0x00, 0x00, 0x01, 0x00, 0x00, 0x00, 0xb0, 0xd8, 0x30, 0x3f, 0x5c, 0x00, 0x00, 0x00, 0x73, 0x65, 0x71, 0x75, 0x65, 0x6e, 0x74, 0x69, 0x61, 0x6c, 0x5f, 0x31, 0x2f, 0x63, 0x6f, 0x6e, 0x76, 0x32, 0x64, 0x5f, 0x31, 0x2f, 0x52, 0x65, 0x6c, 0x75, 0x3b, 0x73, 0x65, 0x71, 0x75, 0x65, 0x6e, 0x74, 0x69, 0x61, 0x6c, 0x5f, 0x31, 0x2f, 0x63, 0x6f, 0x6e, 0x76, 0x32, 0x64, 0x5f, 0x31, 0x2f, 0x42, 0x69, 0x61, 0x73, 0x41, 0x64, 0x64, 0x3b, 0x73, 0x65, 0x71, 0x75, 0x65, 0x6e, 0x74, 0x69, 0x61, 0x6c, 0x5f, 0x31, 0x2f, 0x63, 0x6f, 0x6e, 0x76, 0x32, 0x64, 0x5f, 0x31, 0x2f, 0x63, 0x6f, 0x6e, 0x76, 0x6f, 0x6c, 0x75, 0x74, 0x69, 0x6f, 0x6e, 0x3b, 0x31, 0x00, 0x00, 0x00, 0x00, 0x04, 0x00, 0x00, 0x00, 0x01, 0x00, 0x00, 0x00, 0x20, 0x00, 0x00, 0x00, 0x0d, 0x00, 0x00, 0x00, 0x08, 0x00, 0x00, 0x00, 0x4a, 0xf9, 0xff, 0xff, 0x00, 0x00, 0x00, 0x01, 0x14, 0x00, 0x00, 0x00, 0x88, 0x00, 0x00, 0x00, 0x0a, 0x00, 0x00, 0x00, 0x00, 0x00, 0x00, 0x09, 0x94, 0x00, 0x00, 0x00, 0xc4, 0xf8, 0xff, 0xff, 0x08, 0x00, 0x00, 0x00, 0x4c, 0x00, 0x00, 0x00, 0x08, 0x00, 0x00, 0x00, 0x00, 0x00, 0x00, 0x00, 0x00, 0x00, 0x00, 0x00, 0x00, 0x00, 0x00, 0x00, 0x00, 0x00, 0x00, 0x00, 0x00, 0x00, 0x00, 0x00, 0x00, 0x00, 0x00, 0x00, 0x00, 0x00, 0x00, 0x00, 0x00, 0x00, 0x00, 0x00, 0x00, 0x00, 0x00, 0x00, 0x00, 0x00, 0x00, 0x00, 0x00, 0x00, 0x00, 0x00, 0x00, 0x00, 0x00, 0x00, 0x00, 0x00, 0x00, 0x00, 0x00, 0x00, 0x00, 0x00, 0x00, 0x00, 0x00, 0x00, 0x00, 0x00, 0x00, 0x00, 0x00, 0x00, 0x00, 0x00, 0x08, 0x00, 0x00, 0x00, 0xae, 0xdc, 0xfc, 0x3a, 0x0e, 0x2d, 0x09, 0x3b, 0x4e, 0x4b, 0xe1, 0x3a, 0x30, 0xac, 0x00, 0x3b, 0x68, 0xac, 0xe0, 0x3a, 0x0d, 0x6d, 0xe1, 0x3a, 0x29, 0x48, 0xd3, 0x3a, 0xaf, 0x46, 0xfd, 0x3a, 0x12, 0x00, 0x00, 0x00, 0x74, 0x66, 0x6c, 0x2e, 0x70, 0x73, 0x65, 0x75, 0x64, 0x6f, 0x5f, 0x71, 0x63, 0x6f, 0x6e, 0x73, 0x74, 0x37, 0x00, 0x00, 0x04, 0x00, 0x00, 0x00, 0x08, 0x00, 0x00, 0x00, 0x03, 0x00, 0x00, 0x00, 0x03, 0x00, 0x00, 0x00, 0x01, 0x00, 0x00, 0x00, 0x0a, 0xfa, 0xff, 0xff, 0x00, 0x00, 0x00, 0x01, 0x14, 0x00, 0x00, 0x00, 0x84, 0x00, 0x00, 0x00, 0x09, 0x00, 0x00, 0x00, 0x00, 0x00, 0x00, 0x02, 0x90, 0x00, 0x00, 0x00, 0x84, 0xf9, 0xff, 0xff, 0x08, 0x00, 0x00, 0x00, 0x48, 0x00, 0x00, 0x00, 0x08, 0x00, 0x00, 0x00, 0x00, 0x00, 0x00, 0x00, 0x00, 0x00, 0x00, 0x00, 0x00, 0x00, 0x00, 0x00, 0x00, 0x00, 0x00, 0x00, 0x00, 0x00, 0x00, 0x00, 0x00, 0x00, 0x00, 0x00, 0x00, 0x00, 0x00, 0x00, 0x00, 0x00, 0x00, 0x00, 0x00, 0x00, 0x00, 0x00, 0x00, 0x00, 0x00, 0x00, 0x00, 0x00, 0x00, 0x00, 0x00, 0x00, 0x00, 0x00, 0x00, 0x00, 0x00, 0x00, 0x00, 0x00, 0x00, 0x00, 0x00, 0x00, 0x00, 0x00, 0x00, 0x00, 0x00, 0x00, 0x08, 0x00, 0x00, 0x00, 0xd9, 0x03, 0xb7, 0x3b, 0xa4, 0x91, 0xc6, 0x3b, 0xe7, 0x0f, 0xa3, 0x3b, 0x85, 0x42, 0xba, 0x3b, 0xe5, 0x9c, 0xa2, 0x3b, 0x53, 0x28, 0xa3, 0x3b, 0x9e, 0xeb, 0x98, 0x3b, 0x92, 0x50, 0xb7, 0x3b, 0x12, 0x00, 0x00, 0x00, 0x74, 0x66, 0x6c, 0x2e, 0x70, 0x73, 0x65, 0x75, 0x64, 0x6f, 0x5f, 0x71, 0x63, 0x6f, 0x6e, 0x73, 0x74, 0x36, 0x00, 0x00, 0x01, 0x00, 0x00, 0x00, 0x08, 0x00, 0x00, 0x00, 0xba, 0xfa, 0xff, 0xff, 0x00, 0x00, 0x00, 0x01, 0x14, 0x00, 0x00, 0x00, 0xe8, 0x00, 0x00, 0x00, 0x08, 0x00, 0x00, 0x00, 0x00, 0x00, 0x00, 0x09, 0xf4, 0x00, 0x00, 0x00, 0x34, 0xfa, 0xff, 0xff, 0x08, 0x00, 0x00, 0x00, 0x8c, 0x00, 0x00, 0x00, 0x10, 0x00, 0x00, 0x00, 0x00, 0x00, 0x00, 0x00, 0x00, 0x00, 0x00, 0x00, 0x00, 0x00, 0x00, 0x00, 0x00, 0x00, 0x00, 0x00, 0x00, 0x00, 0x00, 0x00, 0x00, 0x00, 0x00, 0x00, 0x00, 0x00, 0x00, 0x00, 0x00, 0x00, 0x00, 0x00, 0x00, 0x00, 0x00, 0x00, 0x00, 0x00, 0x00, 0x00, 0x00, 0x00, 0x00, 0x00, 0x00, 0x00, 0x00, 0x00, 0x00, 0x00, 0x00, 0x00, 0x00, 0x00, 0x00, 0x00, 0x00, 0x00, 0x00, 0x00, 0x00, 0x00, 0x00, 0x00, 0x00, 0x00, 0x00, 0x00, 0x00, 0x00, 0x00, 0x00, 0x00, 0x00, 0x00, 0x00, 0x00, 0x00, 0x00, 0x00, 0x00, 0x00, 0x00, 0x00, 0x00, 0x00, 0x00, 0x00, 0x00, 0x00, 0x00, 0x00, 0x00, 0x00, 0x00, 0x00, 0x00, 0x00, 0x00, 0x00, 0x00, 0x00, 0x00, 0x00, 0x00, 0x00, 0x00, 0x00, 0x00, 0x00, 0x00, 0x00, 0x00, 0x00, 0x00, 0x00, 0x00, 0x00, 0x00, 0x00, 0x00, 0x00, 0x00, 0x00, 0x00, 0x00, 0x00, 0x00, 0x00, 0x00, 0x00, 0x00, 0x10, 0x00, 0x00, 0x00, 0x5a, 0xd5, 0xcc, 0x3a, 0x4b, 0x63, 0xbe, 0x3a, 0x41, 0xfd, 0xb5, 0x3a, 0x5b, 0x3d, 0xb7, 0x3a, 0xcf, 0x02, 0xbc, 0x3a, 0x34, 0xf4, 0xac, 0x3a, 0x1f, 0xe1, 0xaa, 0x3a, 0xc3, 0x5e, 0xaf, 0x3a, 0x55, 0x34, 0xba, 0x3a, 0x4b, 0x89, 0xcc, 0x3a, 0x2f, 0x77, 0xab, 0x3a, 0x63, 0xbf, 0xb7, 0x3a, 0xcf, 0x38, 0xbb, 0x3a, 0xe1, 0x1b, 0xb7, 0x3a, 0x37, 0x4f, 0xcb, 0x3a, 0xc5, 0xe8, 0xb9, 0x3a, 0x12, 0x00, 0x00, 0x00, 0x74, 0x66, 0x6c, 0x2e, 0x70, 0x73, 0x65, 0x75, 0x64, 0x6f, 0x5f, 0x71, 0x63, 0x6f, 0x6e, 0x73, 0x74, 0x35, 0x00, 0x00, 0x04, 0x00, 0x00, 0x00, 0x10, 0x00, 0x00, 0x00, 0x03, 0x00, 0x00, 0x00, 0x03, 0x00, 0x00, 0x00, 0x08, 0x00, 0x00, 0x00, 0xda, 0xfb, 0xff, 0xff, 0x00, 0x00, 0x00, 0x01, 0x14, 0x00, 0x00, 0x00, 0xe4, 0x00, 0x00, 0x00, 0x07, 0x00, 0x00, 0x00, 0x00, 0x00, 0x00, 0x02, 0xf0, 0x00, 0x00, 0x00, 0x54, 0xfb, 0xff, 0xff, 0x08, 0x00, 0x00, 0x00, 0x88, 0x00, 0x00, 0x00, 0x10, 0x00, 0x00, 0x00, 0x00, 0x00, 0x00, 0x00, 0x00, 0x00, 0x00, 0x00, 0x00, 0x00, 0x00, 0x00, 0x00, 0x00, 0x00, 0x00, 0x00, 0x00, 0x00, 0x00, 0x00, 0x00, 0x00, 0x00, 0x00, 0x00, 0x00, 0x00, 0x00, 0x00, 0x00, 0x00, 0x00, 0x00, 0x00, 0x00, 0x00, 0x00, 0x00, 0x00, 0x00, 0x00, 0x00, 0x00, 0x00, 0x00, 0x00, 0x00, 0x00, 0x00, 0x00, 0x00, 0x00, 0x00, 0x00, 0x00, 0x00, 0x00, 0x00, 0x00, 0x00, 0x00, 0x00, 0x00, 0x00, 0x00, 0x00, 0x00, 0x00, 0x00, 0x00, 0x00, 0x00, 0x00, 0x00, 0x00, 0x00, 0x00, 0x00, 0x00, 0x00, 0x00, 0x00, 0x00, 0x00, 0x00, 0x00, 0x00, 0x00, 0x00, 0x00, 0x00, 0x00, 0x00, 0x00, 0x00, 0x00, 0x00, 0x00, 0x00, 0x00, 0x00, 0x00, 0x00, 0x00, 0x00, 0x00, 0x00, 0x00, 0x00, 0x00, 0x00, 0x00, 0x00, 0x00, 0x00, 0x00, 0x00, 0x00, 0x00, 0x00, 0x00, 0x00, 0x00, 0x00, 0x00, 0x00, 0x00, 0x10, 0x00, 0x00, 0x00, 0x0f, 0x80, 0x8d, 0x3a, 0x6a, 0x85, 0x83, 0x3a, 0x4f, 0x70, 0x7b, 0x3a, 0x91, 0x2a, 0x7d, 0x3a, 0x12, 0xe1, 0x81, 0x3a, 0x91, 0xf4, 0x6e, 0x3a, 0xd1, 0x16, 0x6c, 0x3a, 0x2d, 0x4b, 0x72, 0x3a, 0x97, 0xa1, 0x80, 0x3a, 0x84, 0x4b, 0x8d, 0x3a, 0x26, 0xe6, 0x6c, 0x3a, 0x38, 0xde, 0x7d, 0x3a, 0x87, 0x55, 0x81, 0x3a, 0x50, 0xfc, 0x7c, 0x3a, 0x8c, 0x72, 0x8c, 0x3a, 0x64, 0x6d, 0x80, 0x3a, 0x12, 0x00, 0x00, 0x00, 0x74, 0x66, 0x6c, 0x2e, 0x70, 0x73, 0x65, 0x75, 0x64, 0x6f, 0x5f, 0x71, 0x63, 0x6f, 0x6e, 0x73, 0x74, 0x34, 0x00, 0x00, 0x01, 0x00, 0x00, 0x00, 0x10, 0x00, 0x00, 0x00, 0xea, 0xfc, 0xff, 0xff, 0x00, 0x00, 0x00, 0x01, 0x14, 0x00, 0x00, 0x00, 0xe8, 0x00, 0x00, 0x00, 0x06, 0x00, 0x00, 0x00, 0x00, 0x00, 0x00, 0x09, 0xf4, 0x00, 0x00, 0x00, 0x64, 0xfc, 0xff, 0xff, 0x08, 0x00, 0x00, 0x00, 0x8c, 0x00, 0x00, 0x00, 0x10, 0x00, 0x00, 0x00, 0x00, 0x00, 0x00, 0x00, 0x00, 0x00, 0x00, 0x00, 0x00, 0x00, 0x00, 0x00, 0x00, 0x00, 0x00, 0x00, 0x00, 0x00, 0x00, 0x00, 0x00, 0x00, 0x00, 0x00, 0x00, 0x00, 0x00, 0x00, 0x00, 0x00, 0x00, 0x00, 0x00, 0x00, 0x00, 0x00, 0x00, 0x00, 0x00, 0x00, 0x00, 0x00, 0x00, 0x00, 0x00, 0x00, 0x00, 0x00, 0x00, 0x00, 0x00, 0x00, 0x00, 0x00, 0x00, 0x00, 0x00, 0x00, 0x00, 0x00, 0x00, 0x00, 0x00, 0x00, 0x00, 0x00, 0x00, 0x00, 0x00, 0x00, 0x00, 0x00, 0x00, 0x00, 0x00, 0x00, 0x00, 0x00, 0x00, 0x00, 0x00, 0x00, 0x00, 0x00, 0x00, 0x00, 0x00, 0x00, 0x00, 0x00, 0x00, 0x00, 0x00, 0x00, 0x00, 0x00, 0x00, 0x00, 0x00, 0x00, 0x00, 0x00, 0x00, 0x00, 0x00, 0x00, 0x00, 0x00, 0x00, 0x00, 0x00, 0x00, 0x00, 0x00, 0x00, 0x00, 0x00, 0x00, 0x00, 0x00, 0x00, 0x00, 0x00, 0x00, 0x00, 0x00, 0x00, 0x00, 0x00, 0x00, 0x00, 0x00, 0x10, 0x00, 0x00, 0x00, 0xe4, 0xeb, 0x83, 0x3a, 0x7b, 0xc1, 0xc8, 0x3a, 0x22, 0x91, 0xf4, 0x3a, 0x09, 0xf3, 0x84, 0x3a, 0xb8, 0xf6, 0x81, 0x3a, 0x86, 0xb5, 0x92, 0x3a, 0x62, 0x4b, 0xd5, 0x3a, 0x4b, 0x45, 0xb9, 0x3a, 0xc6, 0x97, 0x19, 0x3b, 0xf7, 0x90, 0x83, 0x3a, 0x51, 0xe9, 0x83, 0x3a, 0x6b, 0x7d, 0x83, 0x3a, 0x7b, 0xa0, 0xc6, 0x3a, 0xd5, 0x07, 0x06, 0x3b, 0x84, 0x67, 0x7c, 0x3a, 0xe9, 0x3a, 0xd3, 0x3a, 0x12, 0x00, 0x00, 0x00, 0x74, 0x66, 0x6c, 0x2e, 0x70, 0x73, 0x65, 0x75, 0x64, 0x6f, 0x5f, 0x71, 0x63, 0x6f, 0x6e, 0x73, 0x74, 0x33, 0x00, 0x00, 0x02, 0x00, 0x00, 0x00, 0x10, 0x00, 0x00, 0x00, 0x80, 0x01, 0x00, 0x00, 0x02, 0xfe, 0xff, 0xff, 0x00, 0x00, 0x00, 0x01, 0x14, 0x00, 0x00, 0x00, 0xe4, 0x00, 0x00, 0x00, 0x05, 0x00, 0x00, 0x00, 0x00, 0x00, 0x00, 0x02, 0xf0, 0x00, 0x00, 0x00, 0x7c, 0xfd, 0xff, 0xff, 0x08, 0x00, 0x00, 0x00, 0x88, 0x00, 0x00, 0x00, 0x10, 0x00, 0x00, 0x00, 0x00, 0x00, 0x00, 0x00, 0x00, 0x00, 0x00, 0x00, 0x00, 0x00, 0x00, 0x00, 0x00, 0x00, 0x00, 0x00, 0x00, 0x00, 0x00, 0x00, 0x00, 0x00, 0x00, 0x00, 0x00, 0x00, 0x00, 0x00, 0x00, 0x00, 0x00, 0x00, 0x00, 0x00, 0x00, 0x00, 0x00, 0x00, 0x00, 0x00, 0x00, 0x00, 0x00, 0x00, 0x00, 0x00, 0x00, 0x00, 0x00, 0x00, 0x00, 0x00, 0x00, 0x00, 0x00, 0x00, 0x00, 0x00, 0x00, 0x00, 0x00, 0x00, 0x00, 0x00, 0x00, 0x00, 0x00, 0x00, 0x00, 0x00, 0x00, 0x00, 0x00, 0x00, 0x00, 0x00, 0x00, 0x00, 0x00, 0x00, 0x00, 0x00, 0x00, 0x00, 0x00, 0x00, 0x00, 0x00, 0x00, 0x00, 0x00, 0x00, 0x00, 0x00, 0x00, 0x00, 0x00, 0x00, 0x00, 0x00, 0x00, 0x00, 0x00, 0x00, 0x00, 0x00, 0x00, 0x00, 0x00, 0x00, 0x00, 0x00, 0x00, 0x00, 0x00, 0x00, 0x00, 0x00, 0x00, 0x00, 0x00, 0x00, 0x00, 0x00, 0x00, 0x00, 0x00, 0x00, 0x10, 0x00, 0x00, 0x00, 0x3d, 0xd5, 0xab, 0x39, 0x08, 0xbf, 0x02, 0x3a, 0x73, 0x47, 0x1f, 0x3a, 0xfe, 0x2b, 0xad, 0x39, 0x71, 0x48, 0xa9, 0x39, 0x2d, 0x18, 0xbf, 0x39, 0x8b, 0xe9, 0x0a, 0x3a, 0x8c, 0x52, 0xf1, 0x39, 0x93, 0x0f, 0x48, 0x3a, 0xcd, 0x5e, 0xab, 0x39, 0xe2, 0xd1, 0xab, 0x39, 0x57, 0x45, 0xab, 0x39, 0x17, 0x5c, 0x01, 0x3a, 0x88, 0x94, 0x2e, 0x3a, 0x25, 0x62, 0xa4, 0x39, 0x5e, 0x91, 0x09, 0x3a, 0x12, 0x00, 0x00, 0x00, 0x74, 0x66, 0x6c, 0x2e, 0x70, 0x73, 0x65, 0x75, 0x64, 0x6f, 0x5f, 0x71, 0x63, 0x6f, 0x6e, 0x73, 0x74, 0x32, 0x00, 0x00, 0x01, 0x00, 0x00, 0x00, 0x10, 0x00, 0x00, 0x00, 0x12, 0xff, 0xff, 0xff, 0x00, 0x00, 0x00, 0x01, 0x14, 0x00, 0x00, 0x00, 0x48, 0x00, 0x00, 0x00, 0x04, 0x00, 0x00, 0x00, 0x00, 0x00, 0x00, 0x09, 0x54, 0x00, 0x00, 0x00, 0x8c, 0xfe, 0xff, 0xff, 0x08, 0x00, 0x00, 0x00, 0x20, 0x00, 0x00, 0x00, 0x03, 0x00, 0x00, 0x00, 0x00, 0x00, 0x00, 0x00, 0x00, 0x00, 0x00, 0x00, 0x00, 0x00, 0x00, 0x00, 0x00, 0x00, 0x00, 0x00, 0x00, 0x00, 0x00, 0x00, 0x00, 0x00, 0x00, 0x00, 0x03, 0x00, 0x00, 0x00, 0x0e, 0x49, 0x87, 0x3b, 0x87, 0xfc, 0x90, 0x3b, 0xe3, 0x7d, 0x82, 0x3b, 0x12, 0x00, 0x00, 0x00, 0x74, 0x66, 0x6c, 0x2e, 0x70, 0x73, 0x65, 0x75, 0x64, 0x6f, 0x5f, 0x71, 0x63, 0x6f, 0x6e, 0x73, 0x74, 0x31, 0x00, 0x00, 0x02, 0x00, 0x00, 0x00, 0x03, 0x00, 0x00, 0x00, 0x10, 0x00, 0x00, 0x00, 0x8a, 0xff, 0xff, 0xff, 0x00, 0x00, 0x00, 0x01, 0x14, 0x00, 0x00, 0x00, 0x48, 0x00, 0x00, 0x00, 0x03, 0x00, 0x00, 0x00, 0x00, 0x00, 0x00, 0x02, 0x54, 0x00, 0x00, 0x00, 0x04, 0xff, 0xff, 0xff, 0x08, 0x00, 0x00, 0x00, 0x20, 0x00, 0x00, 0x00, 0x03, 0x00, 0x00, 0x00, 0x00, 0x00, 0x00, 0x00, 0x00, 0x00, 0x00, 0x00, 0x00, 0x00, 0x00, 0x00, 0x00, 0x00, 0x00, 0x00, 0x00, 0x00, 0x00, 0x00, 0x00, 0x00, 0x00, 0x00, 0x03, 0x00, 0x00, 0x00, 0x8b, 0x10, 0x86, 0x3a, 0x9b, 0xad, 0x8f, 0x3a, 0x72, 0x50, 0x81, 0x3a, 0x11, 0x00, 0x00, 0x00, 0x74, 0x66, 0x6c, 0x2e, 0x70, 0x73, 0x65, 0x75, 0x64, 0x6f, 0x5f, 0x71, 0x63, 0x6f, 0x6e, 0x73, 0x74, 0x00, 0x00, 0x00, 0x01, 0x00, 0x00, 0x00, 0x03, 0x00, 0x00, 0x00, 0x00, 0x00, 0x16, 0x00, 0x1c, 0x00, 0x18, 0x00, 0x17, 0x00, 0x10, 0x00, 0x0c, 0x00, 0x08, 0x00, 0x00, 0x00, 0x00, 0x00, 0x00, 0x00, 0x07, 0x00, 0x16, 0x00, 0x00, 0x00, 0x00, 0x00, 0x00, 0x01, 0x18, 0x00, 0x00, 0x00, 0x18, 0x00, 0x00, 0x00, 0x02, 0x00, 0x00, 0x00, 0x00, 0x00, 0x00, 0x02, 0x20, 0x00, 0x00, 0x00, 0x04, 0x00, 0x04, 0x00, 0x04, 0x00, 0x00, 0x00, 0x0e, 0x00, 0x00, 0x00, 0x61, 0x72, 0x69, 0x74, 0x68, 0x2e, 0x63, 0x6f, 0x6e, 0x73, 0x74, 0x61, 0x6e, 0x74, 0x00, 0x00, 0x01, 0x00, 0x00, 0x00, 0x02, 0x00, 0x00, 0x00, 0x00, 0x00, 0x16, 0x00, 0x20, 0x00, 0x1c, 0x00, 0x1b, 0x00, 0x14, 0x00, 0x10, 0x00, 0x0c, 0x00, 0x00, 0x00, 0x00, 0x00, 0x08, 0x00, 0x07, 0x00, 0x16, 0x00, 0x00, 0x00, 0x00, 0x00, 0x00, 0x01, 0x18, 0x00, 0x00, 0x00, 0x34, 0x00, 0x00, 0x00, 0x54, 0x00, 0x00, 0x00, 0x01, 0x00, 0x00, 0x00, 0x00, 0x00, 0x00, 0x09, 0x6c, 0x00, 0x00, 0x00, 0x04, 0x00, 0x00, 0x00, 0xff, 0xff, 0xff, 0xff, 0x20, 0x00, 0x00, 0x00, 0x0d, 0x00, 0x00, 0x00, 0x01, 0x00, 0x00, 0x00, 0x0c, 0x00, 0x0c, 0x00, 0x00, 0x00, 0x00, 0x00, 0x08, 0x00, 0x04, 0x00, 0x0c, 0x00, 0x00, 0x00, 0x08, 0x00, 0x00, 0x00, 0x14, 0x00, 0x00, 0x00, 0x01, 0x00, 0x00, 0x00, 0x35, 0x00, 0x00, 0x00, 0x00, 0x00, 0x00, 0x00, 0x00, 0x00, 0x00, 0x00, 0x01, 0x00, 0x00, 0x00, 0x45, 0x49, 0x39, 0x40, 0x1e, 0x00, 0x00, 0x00, 0x73, 0x65, 0x72, 0x76, 0x69, 0x6e, 0x67, 0x5f, 0x64, 0x65, 0x66, 0x61, 0x75, 0x6c, 0x74, 0x5f, 0x6b, 0x65, 0x72, 0x61, 0x73, 0x5f, 0x74, 0x65, 0x6e, 0x73, 0x6f, 0x72, 0x3a, 0x30, 0x00, 0x00, 0x04, 0x00, 0x00, 0x00, 0x01, 0x00, 0x00, 0x00, 0x20, 0x00, 0x00, 0x00, 0x0d, 0x00, 0x00, 0x00, 0x01, 0x00, 0x00, 0x00, 0x05, 0x00, 0x00, 0x00, 0x68, 0x00, 0x00, 0x00, 0x48, 0x00, 0x00, 0x00, 0x38, 0x00, 0x00, 0x00, 0x18, 0x00, 0x00, 0x00, 0x04, 0x00, 0x00, 0x00, 0xb8, 0xff, 0xff, 0xff, 0x19, 0x00, 0x00, 0x00, 0x02, 0x00, 0x00, 0x00, 0x00, 0x00, 0x00, 0x19, 0xc8, 0xff, 0xff, 0xff, 0x09, 0x00, 0x00, 0x00, 0x04, 0x00, 0x00, 0x00, 0x00, 0x00, 0x00, 0x09, 0x0c, 0x00, 0x0c, 0x00, 0x0b, 0x00, 0x00, 0x00, 0x00, 0x00, 0x04, 0x00, 0x0c, 0x00, 0x00, 0x00, 0x16, 0x00, 0x00, 0x00, 0x00, 0x00, 0x00, 0x16, 0xf0, 0xff, 0xff, 0xff, 0x11, 0x00, 0x00, 0x00, 0x02, 0x00, 0x00, 0x00, 0x00, 0x00, 0x00, 0x11, 0x0c, 0x00, 0x10, 0x00, 0x0f, 0x00, 0x00, 0x00, 0x08, 0x00, 0x04, 0x00, 0x0c, 0x00, 0x00, 0x00, 0x03, 0x00, 0x00, 0x00, 0x03, 0x00, 0x00, 0x00, 0x00, 0x00, 0x00, 0x03
};
const unsigned int audio_model_len = 12488;
