// Auto-generated by pipeline
#include <stdint.h>

const unsigned char audio_model[] = {
0x1c, 0x00, 0x00, 0x00, 0x54, 0x46, 0x4c, 0x33, 0x14, 0x00, 0x20, 0x00, 0x1c, 0x00, 0x18, 0x00, 0x14, 0x00, 0x10, 0x00, 0x0c, 0x00, 0x00, 0x00, 0x08, 0x00, 0x04, 0x00, 0x14, 0x00, 0x00, 0x00, 0x1c, 0x00, 0x00, 0x00, 0x8c, 0x00, 0x00, 0x00, 0x0c, 0x01, 0x00, 0x00, 0x48, 0x20, 0x00, 0x00, 0x58, 0x20, 0x00, 0x00, 0x18, 0x30, 0x00, 0x00, 0x03, 0x00, 0x00, 0x00, 0x01, 0x00, 0x00, 0x00, 0x04, 0x00, 0x00, 0x00, 0xae, 0xde, 0xff, 0xff, 0x0c, 0x00, 0x00, 0x00, 0x1c, 0x00, 0x00, 0x00, 0x3c, 0x00, 0x00, 0x00, 0x0f, 0x00, 0x00, 0x00, 0x73, 0x65, 0x72, 0x76, 0x69, 0x6e, 0x67, 0x5f, 0x64, 0x65, 0x66, 0x61, 0x75, 0x6c, 0x74, 0x00, 0x01, 0x00, 0x00, 0x00, 0x04, 0x00, 0x00, 0x00, 0x68, 0xff, 0xff, 0xff, 0x11, 0x00, 0x00, 0x00, 0x04, 0x00, 0x00, 0x00, 0x08, 0x00, 0x00, 0x00, 0x6f, 0x75, 0x74, 0x70, 0x75, 0x74, 0x5f, 0x30, 0x00, 0x00, 0x00, 0x00, 0x01, 0x00, 0x00, 0x00, 0x04, 0x00, 0x00, 0x00, 0x92, 0xdf, 0xff, 0xff, 0x04, 0x00, 0x00, 0x00, 0x0c, 0x00, 0x00, 0x00, 0x6b, 0x65, 0x72, 0x61, 0x73, 0x5f, 0x74, 0x65, 0x6e, 0x73, 0x6f, 0x72, 0x00, 0x00, 0x00, 0x00, 0x03, 0x00, 0x00, 0x00, 0x5c, 0x00, 0x00, 0x00, 0x2c, 0x00, 0x00, 0x00, 0x04, 0x00, 0x00, 0x00, 0xb8, 0xff, 0xff, 0xff, 0x15, 0x00, 0x00, 0x00, 0x04, 0x00, 0x00, 0x00, 0x13, 0x00, 0x00, 0x00, 0x43, 0x4f, 0x4e, 0x56, 0x45, 0x52, 0x53, 0x49, 0x4f, 0x4e, 0x5f, 0x4d, 0x45, 0x54, 0x41, 0x44, 0x41, 0x54, 0x41, 0x00, 0xdc, 0xff, 0xff, 0xff, 0x14, 0x00, 0x00, 0x00, 0x04, 0x00, 0x00, 0x00, 0x13, 0x00, 0x00, 0x00, 0x6d, 0x69, 0x6e, 0x5f, 0x72, 0x75, 0x6e, 0x74, 0x69, 0x6d, 0x65, 0x5f, 0x76, 0x65, 0x72, 0x73, 0x69, 0x6f, 0x6e, 0x00, 0x08, 0x00, 0x0c, 0x00, 0x08, 0x00, 0x04, 0x00, 0x08, 0x00, 0x00, 0x00, 0x13, 0x00, 0x00, 0x00, 0x04, 0x00, 0x00, 0x00, 0x13, 0x00, 0x00, 0x00, 0x6d, 0x69, 0x6e, 0x5f, 0x72, 0x75, 0x6e, 0x74, 0x69, 0x6d, 0x65, 0x5f, 0x76, 0x65, 0x72, 0x73, 0x69, 0x6f, 0x6e, 0x00, 0x16, 0x00, 0x00, 0x00, 0x38, 0x1f, 0x00, 0x00, 0x30, 0x1f, 0x00, 0x00, 0x18, 0x1f, 0x00, 0x00, 0xfc, 0x1e, 0x00, 0x00, 0xbc, 0x1e, 0x00, 0x00, 0x6c, 0x1e, 0x00, 0x00, 0x5c, 0x06, 0x00, 0x00, 0x0c, 0x06, 0x00, 0x00, 0x7c, 0x01, 0x00, 0x00, 0x4c, 0x01, 0x00, 0x00, 0xf4, 0x00, 0x00, 0x00, 0xec, 0x00, 0x00, 0x00, 0xe4, 0x00, 0x00, 0x00, 0xdc, 0x00, 0x00, 0x00, 0xd4, 0x00, 0x00, 0x00, 0xcc, 0x00, 0x00, 0x00, 0xc4, 0x00, 0x00, 0x00, 0xbc, 0x00, 0x00, 0x00, 0xb4, 0x00, 0x00, 0x00, 0x94, 0x00, 0x00, 0x00, 0x74, 0x00, 0x00, 0x00, 0x04, 0x00, 0x00, 0x00, 0x8e, 0xe0, 0xff, 0xff, 0x04, 0x00, 0x00, 0x00, 0x60, 0x00, 0x00, 0x00, 0x0c, 0x00, 0x00, 0x00, 0x08, 0x00, 0x0e, 0x00, 0x08, 0x00, 0x04, 0x00, 0x08, 0x00, 0x00, 0x00, 0x10, 0x00, 0x00, 0x00, 0x28, 0x00, 0x00, 0x00, 0x00, 0x00, 0x06, 0x00, 0x08, 0x00, 0x04, 0x00, 0x06, 0x00, 0x00, 0x00, 0x04, 0x00, 0x00, 0x00, 0x01, 0x00, 0x00, 0x00, 0xeb, 0x03, 0x00, 0x00, 0x0c, 0x00, 0x18, 0x00, 0x14, 0x00, 0x10, 0x00, 0x0c, 0x00, 0x04, 0x00, 0x0c, 0x00, 0x00, 0x00, 0xbb, 0x46, 0x89, 0xff, 0xc6, 0x44, 0x1d, 0x13, 0x02, 0x00, 0x00, 0x00, 0x02, 0x00, 0x00, 0x00, 0x04, 0x00, 0x00, 0x00, 0x06, 0x00, 0x00, 0x00, 0x32, 0x2e, 0x31, 0x39, 0x2e, 0x30, 0x00, 0x00, 0xfa, 0xe0, 0xff, 0xff, 0x04, 0x00, 0x00, 0x00, 0x10, 0x00, 0x00, 0x00, 0x00, 0x00, 0x00, 0x00, 0x00, 0x00, 0x00, 0x00, 0x00, 0x00, 0x00, 0x00, 0x00, 0x00, 0x00, 0x00, 0x16, 0xe1, 0xff, 0xff, 0x04, 0x00, 0x00, 0x00, 0x10, 0x00, 0x00, 0x00, 0x31, 0x2e, 0x31, 0x34, 0x2e, 0x30, 0x00, 0x00, 0x00, 0x00, 0x00, 0x00, 0x00, 0x00, 0x00, 0x00, 0xc0, 0xd2, 0xff, 0xff, 0xc4, 0xd2, 0xff, 0xff, 0xc8, 0xd2, 0xff, 0xff, 0xcc, 0xd2, 0xff, 0xff, 0xd0, 0xd2, 0xff, 0xff, 0xd4, 0xd2, 0xff, 0xff, 0xd8, 0xd2, 0xff, 0xff, 0xdc, 0xd2, 0xff, 0xff, 0x52, 0xe1, 0xff, 0xff, 0x04, 0x00, 0x00, 0x00, 0x48, 0x00, 0x00, 0x00, 0x85, 0x39, 0x93, 0xf9, 0x07, 0x23, 0x7f, 0x36, 0x0c, 0xea, 0x09, 0x4c, 0x38, 0x68, 0x5b, 0x03, 0x81, 0xf2, 0x0b, 0x2b, 0x7f, 0x59, 0x22, 0x5d, 0xb8, 0x29, 0x7e, 0xb1, 0xc1, 0x37, 0x24, 0x06, 0x81, 0xa7, 0x6e, 0xbd, 0xff, 0x4b, 0x01, 0x60, 0x67, 0x77, 0x81, 0x10, 0x2e, 0x48, 0x99, 0xfd, 0x9d, 0xc9, 0x8b, 0x81, 0x95, 0x6b, 0x72, 0x4f, 0x6e, 0x37, 0xcf, 0xe3, 0x40, 0x6f, 0x81, 0xd6, 0x31, 0xf4, 0x71, 0x37, 0xa6, 0x56, 0x81, 0x30, 0xa6, 0xe1, 0xff, 0xff, 0x04, 0x00, 0x00, 0x00, 0x20, 0x00, 0x00, 0x00, 0x01, 0x00, 0x00, 0x00, 0xfd, 0xff, 0xff, 0xff, 0x02, 0x00, 0x00, 0x00, 0x05, 0x00, 0x00, 0x00, 0x01, 0x00, 0x00, 0x00, 0xff, 0xff, 0xff, 0xff, 0xfc, 0xff, 0xff, 0xff, 0x00, 0x00, 0x00, 0x00, 0xd2, 0xe1, 0xff, 0xff, 0x04, 0x00, 0x00, 0x00, 0x80, 0x04, 0x00, 0x00, 0xfb, 0xcd, 0xee, 0xdf, 0xc3, 0xde, 0x68, 0x1d, 0x52, 0xd9, 0xdd, 0x2b, 0x88, 0x59, 0x5c, 0xfd, 0xc4, 0x5b, 0x3b, 0x2a, 0xbe, 0x14, 0x04, 0xaf, 0x4a, 0xb2, 0xf1, 0x8a, 0xeb, 0x18, 0x14, 0x24, 0x00, 0x90, 0x40, 0xdc, 0xd3, 0xc5, 0xd9, 0x4a, 0x68, 0xd4, 0xce, 0xd8, 0xa9, 0xcb, 0xaa, 0x9d, 0x19, 0xb9, 0xbd, 0x82, 0x53, 0x1a, 0xa4, 0x99, 0xe3, 0x49, 0xa7, 0xa0, 0x81, 0xfb, 0xdb, 0xc3, 0xbf, 0x21, 0xc3, 0xb5, 0xf0, 0xf2, 0x25, 0x3a, 0x24, 0x3e, 0x34, 0x10, 0x48, 0xc1, 0x94, 0xc2, 0x47, 0x3e, 0x1d, 0xa3, 0x63, 0xc7, 0xc1, 0x93, 0xf8, 0x0a, 0xc8, 0x74, 0xab, 0x1d, 0x8d, 0xb7, 0xd8, 0x59, 0x0e, 0x05, 0x9c, 0x62, 0xde, 0x64, 0x24, 0xf4, 0xe1, 0x3c, 0x96, 0x2d, 0xd8, 0x39, 0xb1, 0x01, 0x1a, 0x18, 0xd1, 0xef, 0xac, 0x7f, 0x4e, 0xfe, 0x45, 0x1b, 0xc4, 0xa9, 0x0d, 0xe8, 0x96, 0xd5, 0x61, 0xe7, 0x05, 0x57, 0x28, 0xf8, 0xe6, 0x04, 0x34, 0x78, 0x9b, 0xd2, 0xf4, 0x2b, 0x07, 0xb0, 0x16, 0x1b, 0x46, 0xff, 0x5b, 0x54, 0xf8, 0x02, 0x12, 0x6f, 0x05, 0x30, 0xde, 0x9a, 0x2e, 0x06, 0x9c, 0x26, 0xc1, 0xb0, 0xd6, 0xf7, 0xb9, 0x1a, 0xc0, 0x8a, 0x72, 0x9f, 0xaf, 0x49, 0xe0, 0x39, 0xfd, 0x43, 0xad, 0xa0, 0xc6, 0xc0, 0x22, 0x10, 0x73, 0xa9, 0xb4, 0x4d, 0xa3, 0xeb, 0x34, 0xa8, 0x36, 0x63, 0xce, 0x10, 0x4e, 0xd0, 0x81, 0x98, 0x13, 0x67, 0xd3, 0x73, 0x35, 0x24, 0xf1, 0xd3, 0x6c, 0xe8, 0xe2, 0x7f, 0xf8, 0x17, 0xde, 0xc1, 0xa3, 0x25, 0x9e, 0x72, 0x5a, 0x40, 0xca, 0x2e, 0x09, 0xf0, 0x21, 0x30, 0x72, 0x5f, 0x4d, 0x2d, 0xb4, 0x9c, 0x51, 0x15, 0xfb, 0x23, 0x1a, 0xba, 0xa9, 0x1a, 0x47, 0xb5, 0xf2, 0x10, 0x95, 0xe2, 0xe4, 0x42, 0x93, 0xff, 0xd2, 0xaa, 0x2c, 0x54, 0x23, 0xd4, 0xbe, 0xeb, 0x4f, 0x32, 0x3f, 0x44, 0x1e, 0x5f, 0xee, 0x7f, 0xb4, 0x95, 0x3f, 0xe8, 0xda, 0x54, 0x5f, 0x5d, 0x4a, 0x9d, 0x6b, 0xf1, 0x9d, 0x9c, 0xb8, 0xbb, 0xcf, 0x29, 0x25, 0x52, 0xc8, 0x71, 0xca, 0x2a, 0x1c, 0x0e, 0x0b, 0xee, 0x9d, 0x30, 0xcf, 0xe6, 0x3d, 0xc0, 0xe6, 0xf7, 0xf1, 0xdd, 0xcc, 0x0f, 0x2b, 0xcc, 0x72, 0x90, 0xd5, 0x5e, 0xad, 0x31, 0x40, 0x33, 0xe9, 0x23, 0xd3, 0xd4, 0xe0, 0xc0, 0x2a, 0x2c, 0x07, 0x9e, 0xeb, 0xf6, 0x9a, 0x44, 0xaf, 0x64, 0x4a, 0x07, 0x6b, 0x91, 0x66, 0x3c, 0xfa, 0x06, 0x0b, 0xaa, 0x93, 0xd6, 0x00, 0x66, 0x7f, 0x71, 0xe7, 0x16, 0x43, 0x15, 0xcd, 0x54, 0xfe, 0x2a, 0x03, 0xc6, 0x60, 0x17, 0x72, 0x7c, 0x63, 0x7a, 0xa9, 0xdd, 0x07, 0x65, 0xf5, 0x1e, 0xf7, 0xfe, 0xcf, 0x6d, 0x14, 0xe3, 0xbb, 0xdc, 0x95, 0x2d, 0x38, 0xf9, 0xd3, 0xbe, 0x08, 0x81, 0x76, 0x64, 0x2a, 0xdb, 0xd8, 0x5a, 0x39, 0x6f, 0x5d, 0x71, 0x4f, 0x19, 0x52, 0xb5, 0xc0, 0x7e, 0x8b, 0xf9, 0x5b, 0x90, 0xb9, 0xf8, 0xd7, 0xad, 0xac, 0x04, 0xac, 0x1e, 0x0e, 0xa1, 0xd1, 0x9c, 0xf9, 0xe5, 0x4d, 0xe3, 0x01, 0x75, 0x19, 0x27, 0xa9, 0x6a, 0xa8, 0xdd, 0x1d, 0xdf, 0x2d, 0x03, 0x29, 0xc3, 0x56, 0x04, 0xfd, 0x4a, 0x22, 0xce, 0xc5, 0x44, 0x68, 0xe0, 0xe3, 0xb9, 0xbd, 0x0a, 0x36, 0x27, 0xdd, 0xc4, 0xdf, 0xc0, 0xa9, 0x9d, 0x4c, 0x9c, 0x06, 0xa4, 0x66, 0x8e, 0xe4, 0x96, 0x0e, 0x13, 0xcc, 0x1a, 0x81, 0xbc, 0xff, 0xdc, 0x0d, 0xa1, 0x02, 0x74, 0xb8, 0x56, 0x72, 0x24, 0xa3, 0x12, 0xdf, 0x68, 0x55, 0x9c, 0x3e, 0xc4, 0xf2, 0x53, 0xed, 0xdd, 0xea, 0xc5, 0x5a, 0xa6, 0x69, 0x6f, 0xb0, 0x72, 0x6f, 0x73, 0x1a, 0x76, 0x73, 0xd2, 0x29, 0x97, 0x42, 0x87, 0x6a, 0xad, 0xe5, 0x91, 0x2b, 0x47, 0xe7, 0x66, 0x1c, 0xc3, 0x0b, 0xe7, 0xc3, 0x0e, 0x4f, 0xc6, 0x2d, 0x93, 0x0b, 0xc5, 0xc6, 0x47, 0x17, 0x74, 0x7f, 0x05, 0xbb, 0x3a, 0x9c, 0xed, 0xa1, 0x6d, 0xd2, 0xfc, 0x47, 0x0d, 0xc3, 0x90, 0x56, 0x19, 0x33, 0x30, 0x4a, 0xa9, 0xac, 0xda, 0xa3, 0x40, 0xa3, 0x1e, 0x60, 0x82, 0xa6, 0x68, 0x73, 0xea, 0x8f, 0x21, 0x62, 0x8c, 0xe0, 0x53, 0x6f, 0x4e, 0x54, 0xa6, 0x19, 0x43, 0x6d, 0xf8, 0x72, 0xb7, 0xad, 0x44, 0x3d, 0xfc, 0x81, 0x3c, 0x5c, 0xaa, 0x93, 0xe1, 0x4c, 0x90, 0xd6, 0x71, 0x2e, 0xf4, 0xb9, 0xac, 0x9f, 0x40, 0x88, 0x04, 0xfc, 0x90, 0xa8, 0x0e, 0xba, 0x27, 0x2f, 0x37, 0xea, 0xc2, 0xeb, 0x65, 0x53, 0x4f, 0xe4, 0x0e, 0xe1, 0xe4, 0x15, 0x46, 0x18, 0xea, 0x49, 0x3f, 0xe2, 0xa5, 0xd5, 0xe8, 0x76, 0x66, 0x3b, 0xa3, 0x4c, 0x2c, 0x64, 0x03, 0xb0, 0x34, 0x54, 0xc3, 0x75, 0xdd, 0xf3, 0x84, 0x20, 0xfc, 0x9a, 0x18, 0xf0, 0x31, 0xee, 0xb6, 0x1f, 0x26, 0xf7, 0x91, 0x61, 0xe2, 0x29, 0x56, 0xa8, 0x26, 0xf7, 0xbb, 0xb4, 0xf4, 0x68, 0x11, 0xc5, 0x41, 0x44, 0xec, 0x65, 0x45, 0xa5, 0x68, 0xde, 0x53, 0x0f, 0xc9, 0x7d, 0x0d, 0x7e, 0x81, 0xf2, 0x91, 0x6f, 0x2e, 0xf1, 0x94, 0x38, 0x14, 0x89, 0xcb, 0xd4, 0x73, 0xf4, 0x6b, 0x9a, 0x4e, 0xff, 0xb2, 0xe6, 0xdb, 0x43, 0xac, 0x33, 0x23, 0xaf, 0x45, 0x56, 0xe3, 0x53, 0x2a, 0x0a, 0xb8, 0xac, 0x33, 0x02, 0x4b, 0xfb, 0xd5, 0x39, 0xbd, 0xd1, 0x6c, 0xe2, 0x40, 0xb5, 0x7f, 0x9c, 0x63, 0x32, 0xfd, 0x67, 0x01, 0x62, 0x9d, 0xcb, 0x0e, 0x12, 0xe0, 0xb5, 0xb4, 0x15, 0x00, 0x1b, 0x2f, 0x54, 0xaa, 0x46, 0xfd, 0xc5, 0x4f, 0x3b, 0x33, 0x2c, 0x08, 0x71, 0xc0, 0x42, 0x17, 0xab, 0x32, 0xd5, 0xa1, 0xf7, 0x2f, 0x1f, 0x0e, 0x5a, 0xd2, 0xfd, 0xaa, 0xa1, 0xac, 0x23, 0xa2, 0xae, 0xb5, 0x96, 0xeb, 0x98, 0x23, 0xb2, 0xc9, 0xd5, 0x76, 0x7f, 0xb2, 0x87, 0x1d, 0x3a, 0x31, 0x2b, 0x9b, 0x1e, 0xa3, 0x59, 0x55, 0x0f, 0xbe, 0x14, 0xe5, 0x07, 0xad, 0xab, 0x60, 0xa9, 0xa2, 0x5d, 0xa5, 0x51, 0x38, 0x4b, 0x53, 0x3e, 0xe0, 0x39, 0xbe, 0x13, 0x9d, 0x32, 0xfc, 0x6d, 0x81, 0xd9, 0xb3, 0x8d, 0xd1, 0x6f, 0xcb, 0xb4, 0x33, 0x50, 0x34, 0xc2, 0x24, 0x37, 0xe1, 0x0e, 0xc2, 0xf2, 0x0c, 0xa9, 0x43, 0x96, 0xe1, 0xe2, 0x0a, 0xab, 0x8a, 0xf9, 0x9b, 0x01, 0x11, 0x9d, 0x37, 0xe7, 0xab, 0x22, 0x8d, 0xad, 0xc0, 0xe9, 0xb0, 0x9f, 0x27, 0xc3, 0x59, 0x4a, 0x64, 0x15, 0x4a, 0x5b, 0x34, 0xd5, 0x55, 0x8d, 0x2d, 0x36, 0xf5, 0x81, 0x58, 0xaf, 0xd9, 0x68, 0xbf, 0xb8, 0xb9, 0x36, 0x47, 0xa4, 0xb4, 0xfb, 0x40, 0x44, 0xcd, 0xf3, 0xe4, 0x23, 0xfe, 0xb0, 0x28, 0x9c, 0x9a, 0x08, 0xd9, 0x50, 0x3d, 0xf9, 0xc8, 0x35, 0x66, 0xba, 0xb0, 0x5a, 0xb6, 0xab, 0xaf, 0x59, 0xb5, 0x60, 0x15, 0xf9, 0xfe, 0x68, 0x6c, 0xed, 0xcc, 0x4b, 0x2a, 0x17, 0x8d, 0xa3, 0x87, 0x1f, 0x79, 0x81, 0x30, 0xe5, 0x30, 0xf9, 0x67, 0x57, 0x05, 0x02, 0xfe, 0x0d, 0xe6, 0xc8, 0xcc, 0x25, 0x3c, 0xbd, 0x5d, 0x68, 0x65, 0x38, 0xf4, 0x22, 0xdc, 0xe3, 0x86, 0x59, 0xe9, 0x81, 0xf3, 0x38, 0xe8, 0xfe, 0x9b, 0x37, 0xab, 0x5c, 0xc6, 0xe0, 0x99, 0xb6, 0xca, 0x7c, 0x7f, 0x89, 0x08, 0x64, 0x0e, 0xa6, 0xb6, 0x6b, 0x63, 0x90, 0x0f, 0xe8, 0xe2, 0x1a, 0x36, 0x50, 0x92, 0x1e, 0x6b, 0x20, 0x0a, 0xa3, 0xfd, 0x81, 0xdf, 0x83, 0x5d, 0xa4, 0x4a, 0xca, 0x1d, 0x6d, 0x83, 0xff, 0x4e, 0xdb, 0x85, 0x0f, 0xdc, 0x54, 0x92, 0xea, 0x8c, 0xce, 0xbe, 0x0c, 0xa8, 0x4f, 0xb3, 0xf3, 0xb1, 0xbc, 0x9a, 0xa3, 0xfa, 0x28, 0xc6, 0x89, 0x0e, 0x1d, 0x60, 0x8c, 0x69, 0x8e, 0x4b, 0x9a, 0x59, 0x6f, 0x51, 0x54, 0x39, 0x9a, 0xe2, 0x6c, 0xc3, 0x25, 0x58, 0xa9, 0x66, 0x46, 0xfe, 0x83, 0x51, 0x1c, 0xe6, 0x91, 0x6a, 0x8a, 0xce, 0x18, 0x45, 0x15, 0xbf, 0x1c, 0xd8, 0x5c, 0x90, 0xbc, 0x15, 0x81, 0x46, 0xaf, 0xbb, 0x53, 0xeb, 0xf3, 0x56, 0x61, 0x2c, 0x32, 0xcb, 0x0c, 0xb2, 0xe5, 0xda, 0xd8, 0x9e, 0xf8, 0xa8, 0xad, 0xa3, 0xac, 0xfe, 0x20, 0x14, 0xbd, 0x34, 0xb7, 0xef, 0xbe, 0x18, 0x41, 0xa2, 0x06, 0x1d, 0x54, 0xf8, 0x18, 0xbb, 0x0f, 0xd8, 0x0a, 0xdf, 0x28, 0x50, 0xff, 0x50, 0xd5, 0x33, 0xbf, 0x16, 0x4e, 0xdb, 0x9e, 0x61, 0xdb, 0xb6, 0xad, 0xa5, 0xa6, 0xaf, 0x5e, 0xe6, 0xff, 0xff, 0x04, 0x00, 0x00, 0x00, 0x40, 0x00, 0x00, 0x00, 0xeb, 0xff, 0xff, 0xff, 0x01, 0x00, 0x00, 0x00, 0x05, 0x00, 0x00, 0x00, 0xfd, 0xff, 0xff, 0xff, 0x00, 0x00, 0x00, 0x00, 0xf9, 0xff, 0xff, 0xff, 0x0d, 0x00, 0x00, 0x00, 0xf8, 0xff, 0xff, 0xff, 0xfd, 0xff, 0xff, 0xff, 0x05, 0x00, 0x00, 0x00, 0x00, 0x00, 0x00, 0x00, 0x07, 0x00, 0x00, 0x00, 0x03, 0x00, 0x00, 0x00, 0x00, 0x00, 0x00, 0x00, 0xf9, 0xff, 0xff, 0xff, 0x03, 0x00, 0x00, 0x00, 0xaa, 0xe6, 0xff, 0xff, 0x04, 0x00, 0x00, 0x00, 0x00, 0x18, 0x00, 0x00, 0xd4, 0xd2, 0xf2, 0xd6, 0x2b, 0xe8, 0x39, 0x24, 0xd5, 0xeb, 0xc5, 0xee, 0x0d, 0xc9, 0x1b, 0x02, 0x13, 0xb9, 0x10, 0xb4, 0x25, 0xf6, 0x37, 0xd2, 0xd3, 0x1c, 0x19, 0xb9, 0x28, 0xc7, 0x38, 0xe6, 0x1e, 0xea, 0x4e, 0xfb, 0xc2, 0x55, 0x16, 0xd6, 0x31, 0xde, 0x00, 0x2e, 0xfe, 0x32, 0x39, 0xd9, 0xfb, 0xfb, 0x3b, 0x28, 0x07, 0x21, 0xf3, 0x28, 0x00, 0x17, 0x9c, 0xf2, 0x47, 0xbb, 0xf3, 0x2f, 0x25, 0x2b, 0xca, 0x9b, 0x15, 0x2a, 0x22, 0x29, 0x42, 0x20, 0x43, 0x19, 0x22, 0x1d, 0x54, 0xfe, 0x3b, 0x47, 0x40, 0xc9, 0xcb, 0x3a, 0x46, 0xef, 0x1a, 0x03, 0x1e, 0x56, 0x7f, 0x0f, 0x1d, 0x19, 0x30, 0xd5, 0xfc, 0x11, 0xe6, 0x1e, 0x29, 0xc2, 0x5b, 0x10, 0xb3, 0xef, 0xed, 0xea, 0x06, 0x8b, 0x09, 0x07, 0x2a, 0xb5, 0x09, 0xc6, 0xb3, 0xeb, 0xe6, 0xa6, 0xde, 0x3b, 0xd3, 0xcf, 0xf2, 0x2d, 0xe3, 0x0b, 0x26, 0x2b, 0x1b, 0x4b, 0xd9, 0x1c, 0xe6, 0x51, 0x25, 0xf1, 0x02, 0xf5, 0xa8, 0xf4, 0x49, 0xbf, 0xc3, 0xb4, 0x37, 0xd2, 0x9f, 0x34, 0x44, 0xb0, 0x28, 0x12, 0x10, 0xc3, 0xf1, 0xb8, 0xeb, 0x4e, 0x0e, 0x20, 0x03, 0x25, 0x17, 0x1b, 0xec, 0xf9, 0x0d, 0x67, 0xaf, 0xe8, 0x21, 0xa3, 0x43, 0xdc, 0x22, 0x2d, 0x3a, 0x5d, 0xef, 0x2d, 0xe5, 0xe9, 0x1a, 0xf3, 0x1b, 0x46, 0xc9, 0x28, 0x0a, 0xd8, 0x2f, 0xd3, 0x3f, 0x3b, 0xbc, 0xc4, 0xfa, 0xbf, 0xe3, 0xc7, 0x89, 0x24, 0x2b, 0xce, 0x28, 0x1a, 0x0f, 0x0f, 0x1a, 0xbf, 0x18, 0x2d, 0x2c, 0xeb, 0x45, 0x67, 0x34, 0x12, 0x2e, 0xdc, 0xc2, 0x2a, 0x28, 0x0d, 0x29, 0x35, 0x20, 0x28, 0x1c, 0xf5, 0x34, 0xe7, 0xce, 0x3d, 0x35, 0xe9, 0x41, 0x16, 0x29, 0xe4, 0xbe, 0xe3, 0x99, 0xf0, 0x01, 0xd2, 0x0e, 0x09, 0xf2, 0x12, 0x38, 0x9a, 0xcc, 0x5d, 0x51, 0xe3, 0xe0, 0xff, 0x21, 0x15, 0xde, 0x06, 0x56, 0x15, 0xdd, 0xb4, 0x48, 0xc9, 0xba, 0x1c, 0x0e, 0x16, 0xf3, 0x05, 0x58, 0x26, 0xd3, 0x19, 0x03, 0x31, 0x0a, 0x2d, 0xd2, 0x30, 0xcf, 0xf4, 0x2b, 0xc8, 0x24, 0xcb, 0xd9, 0x3f, 0x9f, 0x13, 0xd9, 0x11, 0x79, 0xc7, 0xd5, 0x18, 0x14, 0x50, 0xf7, 0xe8, 0xd9, 0xf2, 0x41, 0xe4, 0xd8, 0x21, 0x20, 0xce, 0xe3, 0x3e, 0xe8, 0xb9, 0x16, 0xcc, 0x1a, 0xba, 0xc7, 0xf9, 0x3a, 0xe2, 0x4d, 0xf5, 0x0c, 0x12, 0x0b, 0x10, 0xc3, 0xc7, 0x23, 0xee, 0x0d, 0x35, 0xee, 0x13, 0xf7, 0xda, 0xc0, 0x30, 0x15, 0xe0, 0xfc, 0x19, 0xd2, 0xe4, 0xb1, 0x16, 0x2b, 0x2e, 0x3a, 0xbb, 0x32, 0x13, 0x0e, 0x0c, 0x16, 0x2b, 0xbb, 0x49, 0xf6, 0xf9, 0xf3, 0x3a, 0xff, 0xcf, 0xcb, 0x33, 0xe1, 0x48, 0x51, 0x14, 0x0b, 0x09, 0x12, 0x06, 0x2e, 0x16, 0x3d, 0x0a, 0x41, 0xa5, 0xc5, 0x04, 0x20, 0xd0, 0xc4, 0x36, 0x48, 0x8e, 0x00, 0x2f, 0xe7, 0xe2, 0x37, 0xaa, 0xaf, 0xfa, 0xd3, 0xd1, 0x26, 0x9e, 0xd5, 0x0b, 0xa9, 0xc3, 0x73, 0xf5, 0xfa, 0xed, 0xbf, 0xf0, 0xb1, 0x97, 0xfe, 0xd0, 0xb1, 0x35, 0x3b, 0xa0, 0xa9, 0xf1, 0xca, 0xf5, 0x22, 0x4b, 0x1f, 0x05, 0x27, 0xd2, 0xc6, 0x0f, 0x12, 0x4a, 0x4e, 0x29, 0x38, 0xd9, 0x96, 0x45, 0xcf, 0xea, 0x28, 0xd7, 0xd8, 0x07, 0xf3, 0xfa, 0x34, 0x32, 0x9d, 0x54, 0xe9, 0x12, 0x1b, 0x12, 0x1c, 0x00, 0x3b, 0x02, 0x28, 0x11, 0xe3, 0xfb, 0x39, 0xb0, 0xc5, 0xf2, 0xab, 0xbf, 0x4e, 0x30, 0x22, 0xf8, 0x00, 0x67, 0x32, 0x50, 0xaf, 0xee, 0x5e, 0x0b, 0xdd, 0x0a, 0x17, 0xb0, 0x97, 0xda, 0x2d, 0x2b, 0x17, 0x2f, 0xe0, 0x10, 0xb9, 0xc6, 0x1c, 0x28, 0x32, 0x29, 0x02, 0x3a, 0x2b, 0x03, 0x51, 0xaa, 0xd2, 0x41, 0xc5, 0x08, 0x1e, 0x30, 0x7f, 0xf3, 0x14, 0xe8, 0xa0, 0x5e, 0xce, 0x4a, 0x20, 0xf8, 0xe7, 0xee, 0xdd, 0x4f, 0xca, 0x49, 0xf8, 0x0a, 0xa5, 0xf5, 0xbe, 0x4d, 0xd7, 0xf2, 0x3e, 0x03, 0x47, 0xff, 0x15, 0x1b, 0x00, 0x49, 0x50, 0xad, 0xa7, 0xbd, 0x0e, 0x20, 0xde, 0xff, 0x8f, 0x04, 0x05, 0x51, 0x0f, 0xe4, 0x05, 0x08, 0x1f, 0x5c, 0xc4, 0xae, 0xec, 0x67, 0x5d, 0x3c, 0xc8, 0x46, 0xdd, 0xc2, 0x2b, 0x45, 0xf9, 0x69, 0x1a, 0x57, 0xa9, 0x2e, 0x13, 0x07, 0xe8, 0x62, 0x3b, 0x65, 0x48, 0x0a, 0xef, 0x1b, 0xf8, 0x05, 0xc3, 0x2a, 0xde, 0x38, 0x0b, 0x05, 0xc3, 0xbe, 0x3b, 0x5b, 0xb4, 0x1b, 0x20, 0x39, 0xd7, 0x95, 0xbc, 0x51, 0x62, 0xc9, 0xd6, 0x38, 0xc5, 0x50, 0x19, 0x56, 0xf0, 0xa0, 0xde, 0xa8, 0x38, 0xc9, 0xac, 0xa9, 0xc0, 0xf6, 0x34, 0x11, 0x68, 0xf4, 0x32, 0xe2, 0xe4, 0xaf, 0x9f, 0x14, 0x3d, 0x2b, 0xb7, 0x58, 0xcb, 0x11, 0x49, 0x35, 0xb0, 0x04, 0xfa, 0x49, 0xc7, 0x2e, 0xc1, 0x3d, 0xb7, 0xc2, 0x02, 0x67, 0x50, 0x9c, 0x1c, 0xd0, 0xd2, 0xd2, 0x15, 0xe4, 0xb0, 0x62, 0x4e, 0xde, 0x36, 0x27, 0xf7, 0x1f, 0x22, 0x04, 0x4f, 0xbe, 0xde, 0x24, 0x15, 0xeb, 0xd1, 0x4c, 0xaa, 0xf9, 0x5a, 0x02, 0xfb, 0x2d, 0xe7, 0x0a, 0x41, 0x40, 0xdd, 0x56, 0x9c, 0x6e, 0xbc, 0x52, 0x06, 0x02, 0x10, 0xf3, 0x77, 0xc9, 0x33, 0x3a, 0xf4, 0xe2, 0xe1, 0xbb, 0x18, 0x2a, 0x57, 0xbb, 0x3b, 0xc0, 0x1f, 0x40, 0x4c, 0x2a, 0x69, 0xbe, 0x12, 0x4b, 0xb5, 0x36, 0xf9, 0xdd, 0x55, 0x1d, 0x02, 0x1d, 0xe0, 0xfd, 0xa0, 0x27, 0x11, 0x46, 0x41, 0x16, 0x5d, 0x0b, 0x58, 0x10, 0x52, 0x3f, 0xe7, 0x12, 0xcb, 0x61, 0x4d, 0xb8, 0x39, 0xd9, 0x3f, 0x25, 0x44, 0x26, 0x1c, 0xe0, 0xde, 0x9e, 0x45, 0x83, 0xb4, 0xe8, 0x17, 0xd5, 0x79, 0xe9, 0x7f, 0x37, 0xce, 0xb8, 0x1e, 0xbf, 0xdf, 0x71, 0x83, 0x37, 0x1e, 0x73, 0x15, 0xd9, 0x5b, 0x8a, 0xc8, 0x7f, 0x70, 0xb8, 0xa4, 0x2d, 0x08, 0x55, 0x08, 0x55, 0x02, 0xf6, 0x33, 0xb1, 0x54, 0x2d, 0xb4, 0x02, 0x4a, 0x99, 0x12, 0x54, 0x6b, 0x1d, 0x19, 0x37, 0xb1, 0x2d, 0x3c, 0xd5, 0xc7, 0x36, 0xb1, 0x9a, 0xc0, 0xd9, 0x63, 0xb4, 0x56, 0x0c, 0x0f, 0x70, 0x25, 0xc0, 0xf3, 0xa0, 0x8c, 0xbb, 0xe6, 0x30, 0x40, 0xbe, 0xea, 0x0f, 0x85, 0xd5, 0x5b, 0xad, 0x86, 0x66, 0x0c, 0x2c, 0x4c, 0x9a, 0xdf, 0xd2, 0x95, 0x73, 0x4d, 0xf9, 0x3e, 0xd2, 0x9d, 0xf1, 0xd4, 0xb5, 0xdb, 0x9b, 0x1a, 0x93, 0xed, 0xb1, 0x31, 0x58, 0x14, 0x2a, 0xb1, 0x29, 0xcb, 0x4e, 0xc3, 0x57, 0xc9, 0xef, 0x6c, 0xe1, 0x0e, 0x1a, 0x83, 0xd2, 0x44, 0xc1, 0x3d, 0x0d, 0x9b, 0x14, 0x4a, 0x98, 0x79, 0xeb, 0xae, 0x29, 0xca, 0xba, 0xf4, 0xe6, 0xf3, 0x37, 0x1a, 0xd2, 0x19, 0xaa, 0x97, 0x25, 0x5c, 0x74, 0xf4, 0xfc, 0x21, 0xd3, 0x18, 0x48, 0xdc, 0x32, 0xcd, 0x61, 0x6c, 0x4c, 0x1d, 0x2c, 0x3e, 0xd9, 0xf1, 0xb1, 0x84, 0xcd, 0xdf, 0xaf, 0xf8, 0x98, 0x83, 0xeb, 0xf3, 0xf0, 0x98, 0x90, 0xa4, 0x64, 0x49, 0xe0, 0xa2, 0xa1, 0xe7, 0x0e, 0x31, 0x12, 0x9f, 0xc6, 0x07, 0xf2, 0x55, 0x47, 0x96, 0x47, 0x38, 0x93, 0xd2, 0x3e, 0xdc, 0x47, 0x49, 0xa5, 0x45, 0x6d, 0x57, 0xaa, 0xed, 0x0e, 0x7e, 0xc4, 0x14, 0xe3, 0xe6, 0xff, 0x2b, 0x35, 0x88, 0xf3, 0x02, 0x49, 0xfa, 0xd5, 0x69, 0xed, 0x0d, 0x05, 0x11, 0x78, 0x57, 0xa2, 0x1e, 0xe0, 0xa2, 0x07, 0xe4, 0xa6, 0xd8, 0x83, 0xd2, 0x6d, 0xa0, 0x53, 0x10, 0x9a, 0x9b, 0xbd, 0x06, 0xf0, 0xd7, 0xe0, 0x5d, 0xda, 0x7c, 0x6d, 0xfe, 0x97, 0x6f, 0x10, 0x09, 0x41, 0xf8, 0xd7, 0xd1, 0x46, 0x0d, 0x9a, 0xbf, 0x5a, 0x3f, 0xee, 0x3c, 0x01, 0x4e, 0xba, 0x3f, 0xe2, 0xff, 0x8e, 0xb8, 0xa6, 0x51, 0x90, 0x7a, 0xde, 0x86, 0xbc, 0x6d, 0x5a, 0xb1, 0xd9, 0xc6, 0x2b, 0xbb, 0x19, 0x11, 0xae, 0xf2, 0x1e, 0xaa, 0x00, 0xec, 0x11, 0xc8, 0x7a, 0x35, 0x60, 0x0e, 0x60, 0x9c, 0xf0, 0x43, 0x2b, 0xe2, 0x20, 0xc4, 0xd4, 0xff, 0x42, 0xc8, 0x96, 0x5c, 0xd9, 0x71, 0x01, 0xee, 0x13, 0x35, 0x97, 0x64, 0x29, 0xe6, 0x79, 0x7e, 0x4a, 0x97, 0x54, 0x5b, 0x53, 0x33, 0x6f, 0xc2, 0x82, 0x4b, 0x1e, 0x34, 0x9a, 0xf2, 0x30, 0xe2, 0x7d, 0xf0, 0xc4, 0x7b, 0xf4, 0xd5, 0x1a, 0xad, 0x9d, 0x6e, 0xee, 0x3f, 0xe2, 0x06, 0x52, 0x06, 0x15, 0x7c, 0xe9, 0x73, 0x02, 0xe5, 0x7d, 0xde, 0x13, 0x46, 0x5f, 0x3f, 0xee, 0x97, 0x3f, 0xfd, 0x28, 0x2b, 0x43, 0xe7, 0x1c, 0x39, 0x86, 0x62, 0x9c, 0x0f, 0x89, 0xc9, 0x1c, 0x37, 0xbb, 0x6a, 0x8b, 0xe3, 0x85, 0x1c, 0x94, 0x2f, 0xff, 0xa5, 0xc3, 0x75, 0xba, 0xd8, 0x68, 0xcf, 0xd8, 0x34, 0xbc, 0xa1, 0x1a, 0xdc, 0xb1, 0xcb, 0x15, 0x56, 0x0b, 0x35, 0x66, 0x66, 0xdb, 0xd2, 0xf2, 0xca, 0x6b, 0xd2, 0xdc, 0x34, 0xa6, 0xe5, 0x3b, 0xd0, 0x21, 0x9a, 0x1d, 0xcb, 0x0d, 0x1f, 0x26, 0xc6, 0xee, 0x65, 0x6b, 0x14, 0x34, 0xec, 0x8a, 0x6b, 0xd2, 0xd1, 0xe7, 0x9c, 0x52, 0x91, 0x64, 0xc1, 0xc8, 0x28, 0x16, 0xb1, 0xbb, 0x1b, 0xbd, 0xcc, 0xa3, 0x52, 0x6d, 0x0d, 0x06, 0xe2, 0x9c, 0xf4, 0x85, 0xb7, 0x4e, 0x94, 0xdb, 0xde, 0xcf, 0xe7, 0x53, 0xb0, 0xc2, 0x0e, 0x54, 0xe0, 0x47, 0x40, 0x6b, 0xea, 0x51, 0x90, 0x04, 0x2f, 0xff, 0xe6, 0xc1, 0xd6, 0x2c, 0xd1, 0x91, 0x0a, 0x18, 0xb5, 0x43, 0xf2, 0x98, 0x0d, 0x0a, 0xce, 0x8c, 0xed, 0x49, 0x72, 0x54, 0xe1, 0x93, 0x03, 0x63, 0x54, 0xc2, 0x9f, 0xab, 0x25, 0x0b, 0x37, 0x9c, 0x36, 0x42, 0x25, 0x72, 0x59, 0x05, 0xd0, 0x70, 0x6e, 0x49, 0x2b, 0x40, 0x0a, 0xfe, 0xae, 0x49, 0xdd, 0x8a, 0x2d, 0x2c, 0x22, 0x66, 0xb6, 0x74, 0x47, 0xea, 0x28, 0x69, 0xb9, 0x0f, 0x89, 0xe4, 0xce, 0x58, 0xe0, 0x47, 0x48, 0xe5, 0xe0, 0xef, 0x24, 0x02, 0xf7, 0x1f, 0xd7, 0x81, 0xd7, 0x4d, 0xad, 0xc8, 0x68, 0xcc, 0xc8, 0x04, 0x54, 0x5a, 0x15, 0xfb, 0x11, 0xbe, 0xa9, 0xb4, 0x8c, 0x58, 0x12, 0xcf, 0xc6, 0xe4, 0xe5, 0x4e, 0x73, 0xd5, 0x86, 0x23, 0x99, 0x07, 0xf5, 0xd1, 0x6e, 0x40, 0x1d, 0x98, 0xc8, 0xa9, 0x86, 0x38, 0xb1, 0x94, 0x05, 0x0a, 0x83, 0x37, 0xb8, 0xed, 0xfa, 0xec, 0xff, 0x6c, 0x13, 0xfd, 0xe6, 0x6a, 0xa0, 0x6d, 0xae, 0x16, 0x86, 0x15, 0xbf, 0x51, 0x0c, 0xa2, 0x05, 0x94, 0xa9, 0x0d, 0x6c, 0x9e, 0xeb, 0x35, 0xb8, 0x2d, 0x8a, 0x23, 0x54, 0x3f, 0x83, 0x61, 0xd1, 0x46, 0xe4, 0x6f, 0x54, 0x8a, 0x3f, 0xd9, 0x05, 0x6f, 0x29, 0x57, 0x56, 0xf5, 0x9b, 0x0a, 0x0c, 0x22, 0x6a, 0x31, 0x24, 0xba, 0x62, 0xff, 0x88, 0x98, 0x69, 0x9f, 0xf2, 0x6b, 0xb0, 0x56, 0x70, 0x0e, 0x5c, 0x39, 0x61, 0xfc, 0xa6, 0x03, 0xa1, 0xef, 0xc9, 0xe9, 0x3b, 0x0d, 0x9e, 0xf2, 0xe4, 0x21, 0xb3, 0xc9, 0x38, 0xff, 0xc9, 0xea, 0xa4, 0xa9, 0xa6, 0xa5, 0xee, 0x41, 0x14, 0x0f, 0xc3, 0x72, 0xf2, 0xc9, 0x37, 0x19, 0x35, 0x38, 0xaf, 0x97, 0x3d, 0xcb, 0xcb, 0x70, 0x1b, 0xcd, 0x38, 0x0d, 0xa7, 0x12, 0x07, 0xea, 0xdc, 0xfa, 0x05, 0x0d, 0xd3, 0x49, 0x8a, 0xf7, 0xe9, 0xf0, 0xae, 0x53, 0xa8, 0xbb, 0x53, 0xbe, 0xee, 0xd0, 0x03, 0x06, 0x37, 0x0b, 0x0a, 0x1b, 0x20, 0x27, 0xd5, 0xe2, 0x9e, 0x20, 0x56, 0x04, 0x45, 0xed, 0x12, 0x51, 0x00, 0xf6, 0x01, 0x5c, 0xcc, 0xcb, 0xd1, 0x25, 0x11, 0x18, 0xd5, 0x25, 0xe9, 0x46, 0xe7, 0xef, 0xf7, 0x05, 0xad, 0xe4, 0xdc, 0xbe, 0xad, 0xe3, 0x1e, 0xa4, 0x42, 0xa3, 0x49, 0x1c, 0x2f, 0x14, 0xed, 0xb3, 0x18, 0x3b, 0xb8, 0x0a, 0xd6, 0xa5, 0xd9, 0x02, 0xb8, 0xe9, 0xf1, 0xd5, 0x48, 0xe6, 0x21, 0x03, 0xe0, 0xfe, 0x02, 0x18, 0xa8, 0xd2, 0x34, 0xb6, 0x14, 0x06, 0x1e, 0x4c, 0xb2, 0xd3, 0xe9, 0xc7, 0xfb, 0xd3, 0x1f, 0x35, 0x2d, 0xbb, 0xec, 0xf3, 0xe6, 0xd6, 0xf5, 0x20, 0xc2, 0xbe, 0x4b, 0x09, 0x44, 0x06, 0x32, 0x20, 0x1c, 0xd7, 0x09, 0xad, 0x14, 0xb5, 0x32, 0x3f, 0x21, 0x4e, 0x49, 0x59, 0xdf, 0xfa, 0x2f, 0xd1, 0x18, 0x0b, 0xfa, 0xc7, 0xef, 0x21, 0x13, 0xab, 0xdd, 0x2c, 0x23, 0x1c, 0xaa, 0xb3, 0xe4, 0xba, 0x41, 0xfa, 0x2b, 0xc9, 0x3b, 0xc0, 0x06, 0xf9, 0x0a, 0xed, 0xf8, 0xfd, 0x56, 0xdf, 0xcc, 0xe6, 0x29, 0x21, 0xd0, 0x38, 0xe8, 0xc0, 0x0f, 0xc5, 0xdf, 0xe2, 0x1f, 0xcd, 0x1b, 0x4b, 0x19, 0x5e, 0x14, 0x14, 0xda, 0xab, 0x2a, 0x64, 0xaf, 0x3a, 0xaa, 0xc7, 0xa2, 0x1f, 0x1c, 0xb5, 0x2b, 0x07, 0x5a, 0xbf, 0x47, 0xf2, 0xbd, 0xc4, 0x33, 0x0b, 0x31, 0xb6, 0xdb, 0xd0, 0x5b, 0x2d, 0xb6, 0xed, 0x1e, 0xbb, 0x14, 0xc4, 0xc1, 0xf7, 0xef, 0xdd, 0xbd, 0x17, 0x33, 0xb9, 0xce, 0x15, 0x56, 0xca, 0x2d, 0xdb, 0x59, 0xee, 0x0c, 0xf0, 0x29, 0xb6, 0x2c, 0x48, 0x9e, 0xb4, 0xd0, 0x52, 0x99, 0xae, 0xa2, 0xf4, 0x0d, 0xd1, 0x01, 0x0c, 0x1d, 0xff, 0xef, 0xfd, 0xb3, 0xfb, 0xea, 0x13, 0xeb, 0x09, 0x10, 0xb7, 0xb8, 0x05, 0xe8, 0x32, 0x35, 0xda, 0xb2, 0x40, 0x3a, 0x40, 0x89, 0x39, 0x35, 0x06, 0xc6, 0xe1, 0x1d, 0xd2, 0x21, 0x49, 0x49, 0x1c, 0x22, 0xc0, 0x35, 0xfb, 0x32, 0xa3, 0x2d, 0x13, 0x38, 0x1a, 0xd6, 0x9f, 0x0a, 0x81, 0x08, 0xed, 0xd0, 0xb4, 0x34, 0x28, 0x05, 0x19, 0x0a, 0xf0, 0x2e, 0x30, 0x18, 0x49, 0x13, 0xa6, 0x35, 0x0e, 0x06, 0x14, 0x26, 0x1f, 0x32, 0x01, 0xef, 0xb7, 0x05, 0x48, 0x3a, 0xe2, 0xb1, 0x29, 0x41, 0xbb, 0xba, 0xde, 0x1f, 0x18, 0xd6, 0x17, 0x22, 0xe6, 0xb7, 0x1e, 0xd6, 0xcb, 0xe5, 0x38, 0x2c, 0xa9, 0x04, 0x42, 0xe3, 0x4e, 0xd1, 0x1e, 0xbc, 0x57, 0xcc, 0xc4, 0x27, 0x47, 0x28, 0xbf, 0xc8, 0x40, 0x34, 0x0d, 0x9b, 0x48, 0xf7, 0x1c, 0xd6, 0xbc, 0x06, 0xbe, 0x37, 0x08, 0xb0, 0x21, 0x06, 0xec, 0xe2, 0xe0, 0xce, 0xec, 0xef, 0xc3, 0x21, 0x12, 0x3f, 0x42, 0x0e, 0x07, 0xb7, 0xa3, 0xaf, 0xe7, 0x84, 0x1f, 0x89, 0xee, 0x49, 0xb3, 0x8a, 0x0a, 0xa2, 0xf4, 0xf9, 0x5f, 0xce, 0x8d, 0x65, 0xa4, 0x08, 0xfd, 0xd3, 0xce, 0x5a, 0x2e, 0x30, 0x34, 0xfe, 0x6c, 0xd6, 0xf2, 0x0d, 0x20, 0x21, 0x92, 0x1b, 0xdd, 0x23, 0x04, 0xae, 0xa2, 0x60, 0x8c, 0x88, 0xb8, 0xc7, 0x1f, 0x94, 0x16, 0x5e, 0x37, 0x2a, 0xdd, 0x27, 0xa2, 0x99, 0xc2, 0x94, 0xb9, 0xe1, 0xb6, 0x29, 0x9a, 0x05, 0x0e, 0xd1, 0xb4, 0xdb, 0x8f, 0x20, 0xbf, 0x09, 0xb2, 0xfa, 0xe3, 0x36, 0x38, 0xce, 0x16, 0xc1, 0xbb, 0x45, 0x0b, 0xe9, 0x44, 0x9e, 0xce, 0xbb, 0x4c, 0x50, 0x00, 0x52, 0x55, 0xd3, 0xe6, 0x4a, 0xa4, 0x48, 0x52, 0x18, 0x2f, 0xe0, 0xe3, 0x44, 0xc4, 0xb7, 0x42, 0x40, 0x59, 0x8c, 0x31, 0x86, 0x09, 0x2d, 0x0c, 0x90, 0xdf, 0x70, 0x9d, 0x1f, 0xa4, 0xb0, 0x93, 0x29, 0xe3, 0x61, 0xc8, 0x6a, 0x35, 0x36, 0x62, 0x03, 0xa9, 0x9e, 0xd0, 0x2e, 0xe0, 0xb0, 0xc5, 0xf5, 0x4f, 0xc7, 0x84, 0xef, 0xfe, 0x23, 0x17, 0x5e, 0x60, 0x55, 0xf8, 0x51, 0xc7, 0xdd, 0x22, 0x71, 0xc5, 0x34, 0x99, 0xbf, 0x6b, 0xff, 0xa3, 0xfd, 0x2b, 0xc2, 0xd7, 0x11, 0x4a, 0x53, 0xff, 0x81, 0x48, 0xe5, 0x4d, 0x19, 0xf3, 0x90, 0x08, 0x0f, 0x02, 0xe8, 0x28, 0xc4, 0xb9, 0xf7, 0x91, 0x01, 0xdd, 0x08, 0x4e, 0xc7, 0x2f, 0x0d, 0x0e, 0x04, 0xcf, 0xb5, 0x00, 0x46, 0xa6, 0xeb, 0xe4, 0xdf, 0x35, 0xb8, 0x8c, 0xe3, 0xeb, 0x0f, 0x5b, 0xe4, 0x2b, 0x65, 0x37, 0xe2, 0xfc, 0x1f, 0x28, 0x10, 0xc1, 0x62, 0x58, 0xb2, 0xbf, 0x52, 0x04, 0x41, 0xe5, 0x92, 0x50, 0x85, 0x91, 0x27, 0x59, 0x41, 0xf8, 0x15, 0x85, 0xf0, 0x4b, 0xc3, 0xb9, 0xd4, 0x18, 0x84, 0xf3, 0x8a, 0xf3, 0x26, 0x91, 0x1e, 0x44, 0x08, 0xb6, 0xe0, 0x0f, 0x23, 0x16, 0x17, 0xc5, 0x5c, 0x35, 0xc8, 0x98, 0x40, 0x89, 0xd8, 0x64, 0x23, 0x35, 0x24, 0x24, 0x61, 0x84, 0x4a, 0xc8, 0x4d, 0x65, 0x1d, 0xf4, 0x33, 0xd3, 0x52, 0x12, 0x1c, 0xb8, 0xc7, 0x1c, 0xdf, 0x19, 0x95, 0x48, 0x4c, 0xfa, 0x3c, 0xe7, 0x3b, 0xab, 0xb2, 0xbe, 0x1a, 0x48, 0x3e, 0x0d, 0x08, 0x04, 0x57, 0x40, 0x86, 0x6f, 0xe4, 0x3f, 0x23, 0xd7, 0x9e, 0x67, 0x02, 0x1c, 0x63, 0x68, 0x2a, 0x03, 0xf5, 0xcc, 0xc0, 0xe6, 0xaa, 0x48, 0x0a, 0xf4, 0xb8, 0xd7, 0xa7, 0xc1, 0x01, 0x18, 0x12, 0x68, 0x3f, 0x0b, 0x55, 0xcd, 0xaa, 0xda, 0x3e, 0x42, 0x44, 0xaf, 0x68, 0x2c, 0xff, 0x54, 0x13, 0x90, 0xb3, 0xdb, 0x9a, 0x86, 0x4e, 0x5b, 0x43, 0x31, 0xe0, 0x1a, 0x6b, 0x0e, 0x55, 0x24, 0x2a, 0xbd, 0xaf, 0xdc, 0x4c, 0xf4, 0xcb, 0x4d, 0xa2, 0x4a, 0xc6, 0xb8, 0xcc, 0xd1, 0x94, 0x9e, 0x4a, 0xad, 0x2a, 0x26, 0x02, 0x39, 0x4d, 0x29, 0xd0, 0x46, 0x50, 0xcc, 0x1a, 0x1c, 0x15, 0xa8, 0xa9, 0xcd, 0x18, 0xd2, 0x08, 0xa6, 0x2b, 0x1e, 0xdb, 0x25, 0xbf, 0xf5, 0x25, 0xcd, 0x5a, 0x0b, 0x43, 0x5b, 0x5c, 0x09, 0x21, 0x21, 0x20, 0xcf, 0x1f, 0x58, 0xdd, 0xd4, 0x74, 0xb6, 0xd4, 0xda, 0x04, 0xe3, 0xcd, 0xb8, 0x02, 0x14, 0x05, 0x16, 0x0e, 0xf0, 0x28, 0xd5, 0x2f, 0x35, 0x2a, 0x39, 0x43, 0x04, 0x07, 0x5c, 0xbd, 0xc9, 0xaf, 0x2a, 0xae, 0x48, 0xaa, 0xe8, 0x39, 0xb3, 0xdc, 0xf9, 0xf0, 0x64, 0xb5, 0x4b, 0xc2, 0x41, 0x48, 0x40, 0x2e, 0xc3, 0x29, 0xb9, 0xd1, 0x48, 0xa6, 0x13, 0xf8, 0xea, 0x97, 0x39, 0xa7, 0xa2, 0xd0, 0x00, 0xea, 0xea, 0x15, 0xf7, 0x4a, 0x05, 0xf2, 0x35, 0xf6, 0x31, 0xda, 0xc1, 0xc4, 0xf1, 0x12, 0x12, 0x28, 0x01, 0x3b, 0xfd, 0x11, 0xa4, 0xc1, 0xf4, 0x46, 0x31, 0x30, 0x4c, 0xe9, 0x26, 0x84, 0x9a, 0x91, 0xd4, 0x2e, 0x9f, 0x14, 0x06, 0xf1, 0xb4, 0xb3, 0x11, 0x03, 0x41, 0xf5, 0x48, 0x3a, 0x13, 0x4c, 0xd5, 0x66, 0xce, 0xf3, 0x2e, 0xf2, 0x8b, 0x4c, 0xbe, 0x0c, 0xc6, 0x3e, 0x47, 0xbf, 0x40, 0xa2, 0xcc, 0x3e, 0xfa, 0x12, 0x50, 0x33, 0xe6, 0xf0, 0xaa, 0x38, 0x64, 0xea, 0xb3, 0x29, 0xd9, 0x2b, 0xd4, 0xb4, 0xfa, 0xd3, 0x3d, 0xba, 0x28, 0xd6, 0x3f, 0x21, 0x0d, 0x32, 0xe8, 0x0b, 0x35, 0x56, 0x23, 0xe3, 0xa8, 0x05, 0xf4, 0x43, 0xdd, 0xed, 0x65, 0x24, 0x1b, 0x37, 0x08, 0xfb, 0x33, 0x15, 0xd5, 0x21, 0xef, 0x17, 0x24, 0xc8, 0xba, 0xde, 0x10, 0xf3, 0x06, 0xdd, 0xf6, 0xec, 0xe2, 0x1a, 0xc1, 0xf8, 0x35, 0xfd, 0xda, 0x41, 0x28, 0x16, 0xf1, 0xc8, 0xdb, 0xae, 0xc6, 0xd5, 0x46, 0x0b, 0xe3, 0xda, 0xd5, 0xb2, 0xc3, 0x41, 0xcd, 0x1d, 0xf9, 0xcc, 0xa5, 0xad, 0x50, 0xb1, 0xcd, 0xe3, 0xcf, 0xdd, 0x81, 0xee, 0xe6, 0xa3, 0xa8, 0x5e, 0xf0, 0xb6, 0xd8, 0xcf, 0xf5, 0xf7, 0x09, 0xf2, 0xed, 0x46, 0xaf, 0xcb, 0x54, 0x02, 0xf7, 0x35, 0x28, 0x56, 0x50, 0x42, 0xca, 0xec, 0x3b, 0xe5, 0x4c, 0x0e, 0xed, 0xf4, 0xdc, 0x2c, 0xd0, 0x43, 0x38, 0x0b, 0xdf, 0xb5, 0xf7, 0x32, 0xe7, 0xae, 0x44, 0xfe, 0x94, 0x51, 0xa8, 0x08, 0x1c, 0xab, 0x36, 0x47, 0x4b, 0xbf, 0x4d, 0x9c, 0x20, 0xfb, 0xdb, 0xf4, 0x52, 0x47, 0xde, 0x30, 0xe7, 0x31, 0x13, 0x3f, 0xcb, 0xb0, 0xc7, 0x96, 0x26, 0x2b, 0xd6, 0x31, 0x42, 0x50, 0x2f, 0x18, 0xd2, 0xc4, 0x3c, 0xeb, 0x91, 0xfa, 0xbe, 0x16, 0x3b, 0xf3, 0xe6, 0xcc, 0xdc, 0x20, 0xec, 0x2a, 0xf2, 0x4b, 0xc7, 0x13, 0x23, 0xd7, 0x4f, 0x0a, 0x1f, 0x40, 0xf1, 0xac, 0x37, 0xf0, 0x1f, 0x9d, 0x20, 0xc8, 0x16, 0x4d, 0x65, 0x70, 0x70, 0xaa, 0x84, 0xaa, 0x59, 0xa8, 0x21, 0x0f, 0xbd, 0x03, 0xc0, 0xfc, 0xc7, 0xc9, 0xd0, 0x06, 0xbc, 0x37, 0x74, 0x07, 0xf7, 0xec, 0xf3, 0xb8, 0xc9, 0xbc, 0x90, 0x4d, 0xb8, 0x34, 0x97, 0x6c, 0x82, 0xef, 0x51, 0x21, 0x4d, 0x9b, 0x29, 0x72, 0x24, 0xa5, 0x44, 0xca, 0x4c, 0x66, 0xee, 0xab, 0xa1, 0x4d, 0x9a, 0xa1, 0x1c, 0x25, 0xac, 0x41, 0x89, 0x29, 0xf2, 0x5a, 0x60, 0xec, 0x81, 0x39, 0xb3, 0xa2, 0xe5, 0x45, 0xa4, 0x33, 0xc9, 0xf5, 0x91, 0x23, 0x98, 0xe6, 0x05, 0x22, 0x19, 0xb6, 0x92, 0x0d, 0x01, 0xf6, 0x0f, 0xca, 0xa4, 0x50, 0xfb, 0xb3, 0xe3, 0x9b, 0x5f, 0x2f, 0xa5, 0x2e, 0x33, 0xf0, 0xc3, 0xf5, 0x08, 0x2a, 0x1b, 0x21, 0x04, 0xd8, 0xe0, 0x8f, 0xf3, 0xb5, 0x1d, 0x2b, 0x68, 0x8b, 0xce, 0x2d, 0xdb, 0x18, 0xbc, 0x50, 0x43, 0xc3, 0xbb, 0xce, 0x82, 0x69, 0xda, 0x15, 0x5c, 0xe9, 0x6a, 0xc7, 0x19, 0x83, 0x3c, 0x5b, 0xb2, 0x74, 0x6f, 0x84, 0xd4, 0xe6, 0x2c, 0x27, 0x72, 0x38, 0xab, 0x45, 0xab, 0x53, 0xc1, 0x14, 0xeb, 0x0c, 0x55, 0x2a, 0x54, 0xa6, 0x56, 0xa8, 0xe0, 0x2b, 0x18, 0xc7, 0xcd, 0x89, 0xbb, 0x23, 0x11, 0xce, 0x9d, 0xd3, 0xe7, 0x44, 0x0c, 0x12, 0x75, 0x97, 0x6c, 0x69, 0x2e, 0x66, 0xf3, 0x1e, 0xa7, 0xe0, 0x3c, 0xf0, 0x82, 0x0b, 0xd8, 0xcb, 0x9b, 0x9e, 0x9a, 0x2d, 0x9a, 0x5d, 0x58, 0x29, 0xfc, 0x1c, 0xb7, 0x21, 0x8e, 0x0f, 0xb3, 0x1b, 0xb2, 0x0f, 0x06, 0xb7, 0x63, 0xb9, 0x5c, 0x57, 0xb0, 0xa0, 0xb6, 0xf0, 0x17, 0x99, 0x40, 0xd4, 0xf5, 0x4d, 0xd7, 0x83, 0x87, 0x06, 0x50, 0x1a, 0xac, 0xab, 0x70, 0xed, 0xa8, 0x9d, 0x68, 0xa3, 0x58, 0xc3, 0x00, 0x98, 0xdc, 0xcb, 0xe6, 0x07, 0xc8, 0xad, 0x00, 0x8c, 0x68, 0xc6, 0xb4, 0x8e, 0x95, 0x85, 0x72, 0x37, 0x08, 0xbe, 0x70, 0x61, 0x94, 0xc9, 0x55, 0x2f, 0x9d, 0x4d, 0x72, 0x6c, 0xaa, 0xf7, 0x0a, 0x26, 0xce, 0x48, 0xf2, 0xa7, 0x0a, 0xe2, 0xd7, 0xac, 0x4e, 0xba, 0x50, 0xdc, 0x86, 0x79, 0xd2, 0xe6, 0xf1, 0xdf, 0x04, 0xf2, 0x30, 0x6b, 0x0c, 0xcb, 0x69, 0x5e, 0xcb, 0x9e, 0xd4, 0x3b, 0x90, 0x4f, 0xff, 0x68, 0x11, 0x3f, 0x30, 0xd8, 0x01, 0x0c, 0x98, 0xb0, 0xbb, 0x2a, 0xf7, 0x61, 0x49, 0x4c, 0xbc, 0x64, 0xfa, 0x46, 0x04, 0xe6, 0xc0, 0x1e, 0xd8, 0x40, 0xd5, 0x36, 0x9e, 0xea, 0xd2, 0xa5, 0xf4, 0xe5, 0x31, 0x65, 0xb2, 0x2a, 0x00, 0x0c, 0xe6, 0x8e, 0xf2, 0x4e, 0x41, 0x13, 0x29, 0x6c, 0xc5, 0x3f, 0x07, 0x3b, 0x8c, 0x76, 0x8d, 0x3c, 0x22, 0xac, 0xa0, 0x98, 0x83, 0x09, 0xfb, 0xa4, 0x40, 0xd7, 0x49, 0x25, 0x2b, 0xd1, 0x46, 0xc4, 0xb9, 0x48, 0xd9, 0xe2, 0x58, 0x0e, 0xa1, 0x38, 0x57, 0x6a, 0x23, 0x4f, 0x12, 0x46, 0xaa, 0x32, 0x1d, 0xb0, 0xa5, 0xd0, 0xf2, 0x3c, 0xb0, 0x3a, 0x9e, 0xb8, 0x29, 0x31, 0x54, 0x14, 0x3c, 0x06, 0xee, 0xd4, 0x26, 0xd1, 0xf4, 0x27, 0x5f, 0x2c, 0x05, 0x45, 0x94, 0xee, 0x18, 0x15, 0x79, 0xfa, 0x30, 0x98, 0x52, 0x26, 0xda, 0x2b, 0xc2, 0xfb, 0x31, 0x6d, 0x3a, 0xe2, 0xf1, 0xc1, 0xdf, 0xde, 0x40, 0x08, 0xdf, 0x23, 0x60, 0xdd, 0x2f, 0xbd, 0xf6, 0xec, 0xb0, 0xfa, 0xd3, 0x54, 0x9f, 0xef, 0x9f, 0x3f, 0x1c, 0xea, 0xb0, 0x94, 0x9a, 0x2f, 0xd2, 0xec, 0x22, 0x3e, 0x0b, 0x11, 0x31, 0x33, 0x9d, 0x17, 0x61, 0x9c, 0x58, 0x59, 0x9f, 0xb6, 0x0e, 0x67, 0xde, 0x22, 0x40, 0xd8, 0xfe, 0xaa, 0x43, 0x57, 0xc3, 0xf9, 0xc7, 0x9f, 0x68, 0x00, 0x42, 0x12, 0x9d, 0xda, 0xa5, 0xf3, 0xc5, 0x31, 0xad, 0xbf, 0xc2, 0x08, 0xf4, 0x4f, 0x22, 0xa3, 0xaa, 0xfe, 0x24, 0x11, 0x50, 0x46, 0xb6, 0xd3, 0xb3, 0x11, 0xbd, 0xc9, 0x50, 0xa4, 0x96, 0x56, 0x1b, 0xa7, 0x3c, 0x45, 0x21, 0x1d, 0xe4, 0x28, 0x59, 0xc8, 0xf5, 0x9f, 0x17, 0xa8, 0x9a, 0xa2, 0xaa, 0xc7, 0x18, 0x7f, 0xc1, 0x0d, 0x64, 0x2e, 0xbe, 0x59, 0x16, 0xcd, 0x48, 0xe9, 0x08, 0x03, 0x48, 0xc6, 0x99, 0xdf, 0xd6, 0x1c, 0x6c, 0x6f, 0xe2, 0x13, 0x6b, 0x9c, 0xc1, 0xe0, 0x08, 0x2c, 0xbc, 0x0f, 0xc2, 0x2c, 0xb7, 0x75, 0x58, 0xdd, 0x52, 0x93, 0x2d, 0x55, 0xc5, 0xea, 0x94, 0x24, 0x5a, 0x52, 0xbc, 0xed, 0xc3, 0x04, 0x1b, 0x05, 0x94, 0xd3, 0x93, 0xe5, 0x5b, 0xe1, 0xb4, 0x60, 0x3b, 0x6c, 0x4a, 0x1b, 0x0b, 0x95, 0x73, 0x47, 0x68, 0x0a, 0x52, 0x40, 0xec, 0x60, 0x28, 0x95, 0x3c, 0x38, 0xeb, 0x15, 0x67, 0x4d, 0x1f, 0xe2, 0xc2, 0xec, 0x44, 0x4c, 0xfb, 0x64, 0xaf, 0x29, 0xe4, 0xb4, 0x08, 0x26, 0x01, 0x51, 0x19, 0xc0, 0xb6, 0xf4, 0x07, 0x11, 0xf6, 0xfc, 0x30, 0xf6, 0x4f, 0x25, 0x5a, 0xec, 0xb5, 0xea, 0x48, 0xe8, 0x64, 0xfd, 0xa7, 0x55, 0x0d, 0xbf, 0x95, 0x2b, 0x9c, 0x04, 0x5d, 0x24, 0x06, 0xd5, 0xc6, 0xc6, 0x0d, 0xe0, 0x35, 0x02, 0xb2, 0x0a, 0x0a, 0x00, 0xa8, 0xe7, 0x27, 0x6c, 0xc8, 0xcf, 0x0b, 0x28, 0xb8, 0x40, 0xb2, 0x87, 0xca, 0x1f, 0x17, 0x5a, 0xde, 0xf6, 0xc9, 0x17, 0xfc, 0x3e, 0x4b, 0x61, 0x02, 0x52, 0xce, 0x2c, 0xb1, 0x4a, 0x02, 0x35, 0x54, 0x08, 0xf3, 0x13, 0x9d, 0xbe, 0x60, 0x29, 0x9c, 0x12, 0xd2, 0x5e, 0x04, 0x27, 0x05, 0xa2, 0x3b, 0x4f, 0x1e, 0xf7, 0x2b, 0xb1, 0x3d, 0x0b, 0x25, 0xf6, 0x9f, 0xfd, 0xa8, 0x1b, 0xcf, 0xb9, 0xe2, 0x27, 0xb9, 0x41, 0x4c, 0x0d, 0x18, 0x2e, 0x2d, 0x53, 0xc0, 0x8b, 0x08, 0xe6, 0x35, 0x12, 0x3c, 0xfd, 0xf7, 0x31, 0xc8, 0x62, 0x0e, 0x2e, 0xcc, 0x2b, 0xa9, 0x0d, 0xc7, 0xfd, 0xe8, 0xa7, 0x2b, 0x05, 0x40, 0xbe, 0x54, 0x17, 0xa0, 0xde, 0xca, 0xd2, 0x6b, 0x43, 0x2a, 0x3b, 0x30, 0xde, 0xe5, 0xe5, 0xf5, 0x88, 0xcd, 0x68, 0xf1, 0xe9, 0xea, 0x2c, 0xfe, 0x05, 0x84, 0x14, 0x28, 0x76, 0x0a, 0x0f, 0x07, 0x3e, 0xcf, 0xab, 0x2a, 0xa5, 0x3a, 0xe1, 0xb8, 0xb0, 0xac, 0x8c, 0x18, 0xca, 0x29, 0x12, 0x59, 0x68, 0x13, 0xfb, 0xb6, 0x0f, 0x48, 0xcc, 0x04, 0xf7, 0x41, 0x61, 0x50, 0x8a, 0x21, 0xa2, 0xd5, 0x47, 0xf1, 0xd9, 0x4f, 0x52, 0xfa, 0x5e, 0x20, 0xf3, 0xcd, 0x1c, 0x38, 0xf6, 0x31, 0x3f, 0xb6, 0x90, 0xc0, 0xf8, 0x12, 0xa9, 0xe8, 0x62, 0x29, 0xf3, 0x5d, 0xd0, 0xc8, 0xb9, 0x13, 0x09, 0x3d, 0xf2, 0xb7, 0x8c, 0x4d, 0xc0, 0xaf, 0xaa, 0xe6, 0xa3, 0xc7, 0x5b, 0xba, 0x5a, 0xa1, 0x1d, 0x98, 0x45, 0x3e, 0x39, 0xd5, 0xd8, 0xb0, 0x13, 0x04, 0xbb, 0xb5, 0x88, 0xf9, 0x34, 0xa4, 0x32, 0x3d, 0x81, 0x1b, 0xd0, 0xd9, 0xbb, 0x32, 0x44, 0xa5, 0x37, 0x1c, 0x67, 0x25, 0x90, 0x30, 0x9f, 0x7c, 0x3e, 0xb0, 0xc2, 0xc0, 0x30, 0x0d, 0xfa, 0x51, 0x4d, 0xb4, 0x18, 0x5b, 0xb2, 0x3f, 0xd7, 0xbd, 0xa2, 0xeb, 0xce, 0x2e, 0x2d, 0x14, 0x02, 0xe8, 0x0a, 0x5d, 0x39, 0xe4, 0x54, 0xd9, 0xb2, 0x59, 0x12, 0x49, 0xd2, 0x68, 0x95, 0xa9, 0x37, 0x22, 0xec, 0x59, 0xb3, 0xe4, 0x31, 0xf9, 0x6c, 0xa6, 0x57, 0x5b, 0xf8, 0xe9, 0x0c, 0x24, 0xb9, 0xd4, 0x1e, 0xec, 0x53, 0xcd, 0xbe, 0xd8, 0x64, 0x4c, 0xc1, 0x85, 0xff, 0x4e, 0x02, 0xdc, 0x8c, 0x8b, 0xbf, 0x0e, 0x27, 0x11, 0x2a, 0xde, 0x3c, 0x02, 0x84, 0x9e, 0x63, 0xa4, 0x26, 0xde, 0x98, 0x02, 0xbd, 0x3f, 0xaa, 0xf7, 0x5f, 0x02, 0xc3, 0x56, 0x41, 0xea, 0x26, 0xa8, 0xee, 0x11, 0x1b, 0x90, 0x1c, 0x35, 0xc7, 0xe7, 0xbe, 0xfa, 0xe9, 0x4b, 0x50, 0xd3, 0x23, 0x79, 0xa2, 0x2e, 0x81, 0xb3, 0x8b, 0x25, 0xec, 0xe5, 0xd0, 0x9f, 0x12, 0x21, 0xc2, 0x2d, 0x0a, 0x4a, 0x56, 0xa3, 0x32, 0xe3, 0xd5, 0x01, 0xf7, 0x32, 0x4b, 0x83, 0x30, 0xeb, 0xb0, 0x07, 0x30, 0xdd, 0x67, 0xba, 0x94, 0x12, 0x4c, 0x29, 0x95, 0x59, 0x39, 0xac, 0x87, 0x19, 0xb6, 0xde, 0x96, 0x5e, 0xa1, 0x17, 0xac, 0x8a, 0xda, 0x03, 0xe2, 0x19, 0xa0, 0x9c, 0xd7, 0x3e, 0x3e, 0xd2, 0xcb, 0x4a, 0x62, 0xe1, 0xdf, 0x19, 0x24, 0x5b, 0xbc, 0xec, 0x25, 0x34, 0x11, 0xe6, 0x5f, 0xe8, 0x64, 0x63, 0xb6, 0x38, 0x9c, 0x4a, 0x3c, 0xe4, 0xac, 0xd7, 0x5b, 0x3e, 0xeb, 0xdb, 0x0a, 0x0a, 0x00, 0xa7, 0x46, 0xcf, 0x55, 0xce, 0xd5, 0x35, 0x12, 0x4a, 0xc7, 0x39, 0xac, 0xe4, 0xee, 0x41, 0x34, 0xae, 0xfc, 0x3a, 0xbe, 0x43, 0xec, 0xb7, 0xcb, 0x4b, 0xc2, 0x21, 0x16, 0xe3, 0xbd, 0xf8, 0xca, 0x46, 0x31, 0x4b, 0xb0, 0xeb, 0xbc, 0xce, 0x32, 0x0d, 0x23, 0xcf, 0x1c, 0xde, 0x45, 0x1a, 0xeb, 0x47, 0xbd, 0x39, 0x56, 0x12, 0xf9, 0xc0, 0xe3, 0xc5, 0x3d, 0x08, 0xdb, 0x42, 0x43, 0x21, 0xb5, 0x31, 0x25, 0xfa, 0x16, 0xd8, 0xd4, 0x44, 0x7d, 0xea, 0xdc, 0xb3, 0xe6, 0x51, 0x05, 0xf8, 0xd5, 0x9d, 0xee, 0xfb, 0x40, 0x07, 0x4b, 0x03, 0x3d, 0x37, 0xbb, 0xf7, 0xef, 0x48, 0x11, 0xe1, 0x00, 0xc9, 0x1b, 0x3a, 0x0f, 0x15, 0x1b, 0xfb, 0xdd, 0x2c, 0xb5, 0x41, 0x17, 0x5f, 0x92, 0xfa, 0xcb, 0xf1, 0xd8, 0xf3, 0xef, 0xe4, 0xf9, 0xca, 0x2b, 0x1f, 0x19, 0xe4, 0x4e, 0x3c, 0xd2, 0xea, 0xf6, 0x6a, 0xe9, 0xc2, 0xd0, 0x06, 0x2f, 0xeb, 0x1c, 0x43, 0xed, 0xe2, 0xe3, 0x3e, 0xb2, 0xdf, 0xae, 0x37, 0x57, 0x11, 0x43, 0xfd, 0x32, 0x2c, 0x95, 0x38, 0xae, 0xd8, 0xb8, 0x4b, 0xde, 0x2a, 0x65, 0xeb, 0xe4, 0xcc, 0x1b, 0xb6, 0xdb, 0x9f, 0x05, 0xe5, 0x3c, 0x11, 0x55, 0x40, 0x0c, 0x3a, 0x10, 0xf9, 0x44, 0x57, 0x27, 0xf9, 0x2c, 0xc4, 0x7f, 0xbe, 0xf6, 0x46, 0x03, 0xbf, 0xbe, 0xd7, 0x3d, 0x25, 0x3b, 0x0c, 0x60, 0xb1, 0x44, 0x50, 0x96, 0x15, 0xda, 0xe0, 0xe5, 0x12, 0x51, 0xad, 0x65, 0xc4, 0x09, 0x10, 0xac, 0x35, 0xbe, 0x21, 0x42, 0x3f, 0x48, 0x23, 0x59, 0xed, 0x25, 0xb7, 0x2a, 0x48, 0x40, 0x01, 0x0a, 0x16, 0x01, 0x59, 0xea, 0x0f, 0xce, 0xdd, 0x64, 0x05, 0xdc, 0xfd, 0xc5, 0x00, 0x2a, 0x00, 0x19, 0xe9, 0xf4, 0xf5, 0x9e, 0xef, 0x02, 0x1c, 0x33, 0x33, 0x5a, 0x41, 0xe7, 0xe2, 0x51, 0xc1, 0x29, 0x43, 0xeb, 0xde, 0xf7, 0x0d, 0x1c, 0x60, 0x28, 0x32, 0xd0, 0x47, 0xad, 0x3d, 0x17, 0xe8, 0x22, 0x40, 0x11, 0xf6, 0xf0, 0xd2, 0xce, 0xe9, 0xc5, 0x5e, 0xd2, 0x33, 0xd3, 0xcd, 0x01, 0xf1, 0xea, 0xf3, 0x25, 0xf9, 0x2e, 0xe4, 0xc4, 0x23, 0x3d, 0x35, 0x75, 0xb0, 0xd2, 0xd2, 0x06, 0xb4, 0x43, 0x44, 0xcb, 0x26, 0xe5, 0xb2, 0xee, 0x5d, 0x53, 0x36, 0x41, 0xaa, 0xce, 0xe1, 0xe8, 0x31, 0xe1, 0x33, 0xc8, 0x16, 0x06, 0x48, 0xf1, 0x46, 0xf2, 0x2b, 0x10, 0xfc, 0xbb, 0x4d, 0x0a, 0x2c, 0x2e, 0xec, 0xff, 0x45, 0xeb, 0x40, 0xf2, 0xff, 0xf2, 0xe8, 0xf4, 0xff, 0x09, 0x3a, 0x03, 0x0e, 0x15, 0xfe, 0x3f, 0x1a, 0xa9, 0x20, 0xda, 0xe5, 0xca, 0xd7, 0xb9, 0xcc, 0xea, 0x51, 0xd8, 0x07, 0xe0, 0x45, 0x2b, 0xf2, 0x30, 0x31, 0xd3, 0x2b, 0x41, 0xcc, 0x3f, 0xdc, 0x55, 0xee, 0x83, 0xe7, 0x50, 0x28, 0xe7, 0x16, 0x96, 0xdb, 0xb4, 0xde, 0x48, 0x11, 0xd3, 0x1a, 0xe1, 0xa4, 0x59, 0x5d, 0x59, 0xa1, 0xec, 0xd2, 0x2d, 0x4e, 0xdf, 0x62, 0x43, 0xf3, 0x1c, 0x58, 0x3d, 0x04, 0x46, 0xc5, 0x71, 0x0e, 0x95, 0x8a, 0x12, 0x53, 0x8f, 0x1f, 0x91, 0xa2, 0xc6, 0xcb, 0xdb, 0x13, 0x71, 0x02, 0xf1, 0x54, 0xfe, 0x16, 0xd0, 0x81, 0x89, 0x56, 0x0d, 0x05, 0x95, 0xf4, 0x3a, 0xbb, 0xb4, 0x09, 0xe8, 0xce, 0x5e, 0xfe, 0xf7, 0x03, 0x12, 0xfd, 0xe2, 0x8d, 0x74, 0x2a, 0x41, 0x91, 0x2b, 0x0e, 0x4d, 0xb1, 0x3f, 0xac, 0x68, 0xc4, 0xa3, 0xd4, 0x8d, 0x12, 0x1f, 0x19, 0x74, 0x85, 0x39, 0xad, 0x8c, 0xbe, 0xea, 0x17, 0xd7, 0xb5, 0xb8, 0xeb, 0x11, 0xd5, 0x3a, 0x43, 0xf8, 0x16, 0x10, 0x93, 0x08, 0x51, 0x51, 0x2b, 0x9b, 0x39, 0xdf, 0xc0, 0x8d, 0x95, 0xb1, 0x0d, 0x5f, 0xbb, 0xba, 0xda, 0xef, 0x60, 0x11, 0x4f, 0xb9, 0x86, 0xc7, 0xdb, 0x81, 0xd8, 0x54, 0x3f, 0xef, 0x36, 0x1c, 0x12, 0x59, 0x06, 0xcf, 0x92, 0xfd, 0x85, 0xe9, 0x73, 0x9c, 0xb8, 0x6e, 0x09, 0x2e, 0xa3, 0x71, 0xac, 0xa4, 0x12, 0x82, 0x3f, 0x43, 0xa5, 0x3e, 0xf5, 0xce, 0xff, 0xb8, 0x0d, 0x71, 0x8b, 0xe6, 0x4b, 0x2f, 0x83, 0x0b, 0xab, 0x1c, 0xff, 0x34, 0xcd, 0x3a, 0x65, 0xdc, 0x4c, 0x2d, 0x22, 0x90, 0x31, 0xf6, 0x30, 0x02, 0x91, 0xe1, 0x40, 0x15, 0xc8, 0xaa, 0xa9, 0x03, 0xbc, 0x05, 0x03, 0x5a, 0x6b, 0xcb, 0x48, 0x02, 0xdc, 0xfa, 0xea, 0x02, 0x94, 0xbe, 0x5d, 0x25, 0x30, 0xe2, 0x37, 0x34, 0xe1, 0xe4, 0xd9, 0xa5, 0x03, 0xc4, 0xa2, 0xe6, 0x8d, 0x42, 0x4c, 0xe0, 0x50, 0x4c, 0x64, 0xe7, 0x18, 0xaa, 0x2e, 0x12, 0xc3, 0xec, 0x92, 0x66, 0x5c, 0x69, 0xb0, 0xd9, 0xb7, 0xa1, 0xd5, 0xe4, 0x9e, 0x39, 0x5d, 0x5e, 0x30, 0xa7, 0x6f, 0xcb, 0xa6, 0xec, 0x27, 0x75, 0x9e, 0x5d, 0x09, 0x15, 0xbd, 0x47, 0xb3, 0xb8, 0xaf, 0xd7, 0x35, 0xf1, 0x88, 0x55, 0x3b, 0x01, 0x4a, 0xad, 0x2a, 0x23, 0x53, 0xcb, 0xa2, 0x33, 0x89, 0x0f, 0x23, 0xd4, 0xfb, 0x28, 0xe6, 0x4c, 0x9d, 0x24, 0xdb, 0x5e, 0x02, 0xcb, 0x3a, 0xba, 0x6d, 0xe5, 0xd0, 0xf4, 0x53, 0x8d, 0x0e, 0xdd, 0xbd, 0xdf, 0x6b, 0x74, 0x26, 0xd4, 0x1d, 0x66, 0xe1, 0xfe, 0x00, 0x6a, 0xe0, 0xfd, 0xbd, 0x51, 0x1d, 0x6d, 0x1b, 0xd1, 0xcb, 0x2a, 0x15, 0x84, 0x1f, 0xb0, 0x57, 0xb9, 0xbe, 0x9a, 0x04, 0x66, 0xd6, 0xc6, 0xc3, 0xbf, 0x9a, 0x13, 0x30, 0x63, 0x9f, 0x19, 0x68, 0xd3, 0x18, 0x75, 0x54, 0x8d, 0x99, 0x66, 0x62, 0x0e, 0xc4, 0x0a, 0xaf, 0xaf, 0xc4, 0x94, 0x13, 0xa8, 0x09, 0x17, 0xe9, 0x2b, 0x35, 0x6c, 0x28, 0x19, 0x4a, 0x88, 0x7b, 0x33, 0x46, 0x8a, 0xc1, 0xe0, 0x85, 0xdb, 0x9b, 0xc3, 0x08, 0xa5, 0xa8, 0x68, 0xe6, 0x49, 0xa8, 0xa1, 0x5c, 0x6a, 0xc6, 0x36, 0x02, 0x1b, 0x22, 0xf3, 0xb9, 0x32, 0x30, 0x38, 0xd0, 0xc0, 0xc6, 0xf7, 0x37, 0x97, 0x25, 0x86, 0xdf, 0xdc, 0xe5, 0xbf, 0xb1, 0x9a, 0xf0, 0x0e, 0xca, 0x44, 0x07, 0xcd, 0xdc, 0xde, 0x1c, 0x36, 0x8c, 0xad, 0xb2, 0x38, 0x86, 0x72, 0x9a, 0x66, 0xf5, 0x17, 0xcb, 0x8d, 0xaa, 0xb5, 0x10, 0x1a, 0x7d, 0xf8, 0x30, 0xe3, 0xbc, 0x8c, 0xc2, 0x47, 0xce, 0xa1, 0x76, 0x88, 0xac, 0x1b, 0x91, 0x2a, 0xa3, 0xf8, 0x9b, 0x62, 0x69, 0x54, 0xb6, 0x49, 0xad, 0x13, 0xf5, 0xdf, 0xe7, 0x7c, 0x54, 0x01, 0xdb, 0x6f, 0x1e, 0xc2, 0xa4, 0x5c, 0xd4, 0x79, 0x66, 0xd1, 0x98, 0x33, 0x21, 0x9b, 0xa8, 0xf2, 0xdd, 0xee, 0x38, 0x13, 0x58, 0x55, 0x25, 0x8e, 0x99, 0xf1, 0x29, 0xdc, 0xa0, 0xf8, 0xec, 0x02, 0x7d, 0x11, 0x0d, 0x1d, 0xc4, 0x0f, 0x52, 0x64, 0x61, 0x40, 0xa6, 0xa3, 0x43, 0xd0, 0x22, 0x67, 0x1c, 0x95, 0x7e, 0x77, 0x4a, 0x2c, 0x69, 0xa6, 0x39, 0xb6, 0x05, 0x9c, 0xcc, 0x96, 0x4e, 0x5c, 0x1c, 0x8a, 0xf3, 0x2f, 0x89, 0x3e, 0xe9, 0x9e, 0x4d, 0xcf, 0x93, 0xe1, 0xfc, 0x52, 0xcd, 0x8e, 0x54, 0xb1, 0x9b, 0x26, 0x8a, 0x5f, 0x28, 0x05, 0xeb, 0x31, 0xf0, 0x85, 0x38, 0x4f, 0x46, 0xc6, 0xa6, 0x01, 0x1a, 0xb9, 0x97, 0x88, 0x2f, 0x1e, 0x0f, 0x41, 0x9d, 0xf4, 0x21, 0xed, 0x0f, 0x58, 0xf4, 0x60, 0xa9, 0x7b, 0xd3, 0x0f, 0x98, 0xae, 0xd4, 0xbb, 0x68, 0x92, 0xa2, 0x5e, 0xa2, 0x6d, 0xad, 0xed, 0x05, 0x3b, 0xfc, 0x75, 0x61, 0x44, 0x0f, 0xdc, 0xdd, 0x88, 0xf4, 0x73, 0x9d, 0xd7, 0xe0, 0x46, 0xfe, 0xbb, 0xe2, 0xf8, 0xfd, 0xde, 0xf5, 0x99, 0xfd, 0xb4, 0x30, 0xbe, 0x31, 0x1d, 0xc4, 0x0c, 0x21, 0x16, 0x1f, 0xb6, 0x69, 0xdf, 0x04, 0x8d, 0xba, 0x4c, 0xe6, 0x14, 0x7b, 0x00, 0x9b, 0x30, 0xaa, 0x8c, 0x91, 0xe5, 0xc5, 0x46, 0xeb, 0x5b, 0x3e, 0x44, 0x5e, 0xad, 0x73, 0x05, 0xe2, 0x30, 0x86, 0x83, 0x0c, 0x65, 0x51, 0xf7, 0xec, 0xc5, 0x37, 0x23, 0x6e, 0xa2, 0x0d, 0x5e, 0xcc, 0x02, 0x1c, 0xbf, 0xf4, 0x2f, 0x6d, 0x1f, 0xb8, 0x77, 0xe7, 0xa4, 0x9f, 0x64, 0x0d, 0xb5, 0xa7, 0x9d, 0x73, 0x78, 0xd5, 0x6e, 0x96, 0xdd, 0xed, 0x66, 0x2f, 0x98, 0xc7, 0x54, 0x3c, 0xb4, 0x0a, 0xd9, 0xcb, 0xa8, 0xfc, 0xd6, 0x28, 0x28, 0xb5, 0xc2, 0xf5, 0xd8, 0xc0, 0x0d, 0x28, 0x45, 0x3d, 0x5e, 0xce, 0x0e, 0xfb, 0x55, 0xd0, 0x15, 0x2d, 0x28, 0xc7, 0xa8, 0x7f, 0x43, 0x35, 0xdf, 0x7d, 0x81, 0x08, 0xbd, 0xf5, 0x28, 0x78, 0x08, 0x23, 0x20, 0x37, 0x51, 0xf4, 0xe2, 0xe3, 0x35, 0x47, 0xf4, 0xb9, 0xc0, 0xd8, 0xd9, 0xcd, 0xed, 0xfa, 0x2c, 0x44, 0xf7, 0xdf, 0xbc, 0xbd, 0xb9, 0x06, 0xbf, 0xc2, 0x14, 0xda, 0x1e, 0xbd, 0xf1, 0xd8, 0xf5, 0xa1, 0x35, 0xa7, 0xeb, 0x37, 0xdc, 0xdd, 0x29, 0x01, 0xd4, 0x42, 0xba, 0xe7, 0x33, 0xc9, 0xf1, 0x45, 0xdd, 0x0e, 0x01, 0x38, 0x18, 0xb6, 0x01, 0x14, 0x1b, 0x4e, 0xf2, 0xf3, 0xc8, 0xa3, 0xae, 0x22, 0xdb, 0xf4, 0x0c, 0xb2, 0x2b, 0xad, 0xc0, 0x2c, 0xf8, 0x0d, 0xf9, 0xdd, 0xaa, 0x1a, 0xbc, 0xd3, 0xb4, 0x3b, 0x13, 0x3d, 0xe8, 0x9a, 0xea, 0x04, 0xea, 0xcb, 0xfd, 0x2a, 0xf7, 0x15, 0x4d, 0xe6, 0xf4, 0x34, 0xc8, 0x05, 0xa4, 0x28, 0x0b, 0x36, 0xab, 0x0a, 0xd5, 0x1b, 0x06, 0xf6, 0xc8, 0x2d, 0xbb, 0x36, 0x1c, 0xb7, 0xe5, 0x01, 0x2d, 0x0c, 0x47, 0x2d, 0x04, 0xea, 0xec, 0x16, 0xed, 0xbc, 0xf1, 0x28, 0xf2, 0xc5, 0x0d, 0xf5, 0xcf, 0x35, 0x9c, 0xc1, 0xfe, 0x7a, 0x2d, 0xe3, 0x29, 0x24, 0x0d, 0x23, 0xf0, 0xb8, 0xf5, 0x02, 0xa8, 0x2c, 0x2b, 0x3b, 0xde, 0xf3, 0x0f, 0x2c, 0xa3, 0xd7, 0xe9, 0xa2, 0x1d, 0x45, 0x06, 0x2c, 0xbd, 0x58, 0x1e, 0xdf, 0xb7, 0xc5, 0xf4, 0x03, 0xe9, 0xa7, 0x07, 0x9c, 0x25, 0x3c, 0x26, 0xcb, 0x0e, 0xb2, 0xe9, 0x4d, 0xcd, 0xee, 0x43, 0x21, 0x58, 0x39, 0x18, 0xea, 0x2e, 0x0a, 0x30, 0xc0, 0x09, 0x5a, 0x7f, 0xf7, 0x06, 0x3c, 0xf2, 0xc3, 0x2b, 0x25, 0x2c, 0xb0, 0xc5, 0xb0, 0xfd, 0x5d, 0xab, 0xce, 0x4f, 0xb2, 0x01, 0x52, 0xb9, 0xb7, 0xb5, 0x08, 0xe4, 0xa5, 0x13, 0xd7, 0xd4, 0x1c, 0xf1, 0x11, 0xd9, 0x3f, 0xc9, 0x13, 0xdc, 0xbc, 0xe3, 0xec, 0xf9, 0x16, 0xd1, 0xe2, 0x3a, 0x2e, 0x19, 0x35, 0x5f, 0xeb, 0xd1, 0x24, 0x13, 0xc3, 0xb7, 0x3a, 0xac, 0x2b, 0x0d, 0xab, 0x0a, 0xf8, 0xcb, 0x59, 0xff, 0xd1, 0x21, 0xdb, 0xa9, 0x26, 0x0d, 0x9c, 0x02, 0x36, 0x28, 0x4a, 0xfd, 0x21, 0x25, 0xe0, 0x07, 0xd4, 0x21, 0x12, 0xd8, 0x34, 0x36, 0xdb, 0x40, 0xc7, 0xb6, 0xee, 0x03, 0xb6, 0x13, 0xb6, 0x3f, 0x41, 0x3c, 0xee, 0x3d, 0x27, 0x0f, 0x2a, 0x26, 0x3c, 0x2d, 0xc4, 0xcd, 0x3f, 0xc3, 0x30, 0x3e, 0xbd, 0x47, 0x59, 0x30, 0xd5, 0xad, 0x18, 0xf2, 0x28, 0x04, 0xbd, 0xb1, 0x0b, 0xb4, 0x18, 0xb7, 0xf8, 0xe6, 0x13, 0x3f, 0x43, 0x2c, 0x37, 0x40, 0x37, 0x0b, 0xc8, 0xca, 0x08, 0x18, 0x3f, 0x2e, 0xf9, 0x20, 0xda, 0x5a, 0xf2, 0x1e, 0x15, 0xfd, 0xec, 0xea, 0xe0, 0x09, 0x41, 0xc6, 0x25, 0xbc, 0xee, 0x2c, 0x2a, 0x1f, 0x36, 0x0f, 0xea, 0xf6, 0x25, 0xba, 0x3d, 0xe0, 0xf6, 0xd7, 0x3e, 0xaf, 0xbb, 0x2f, 0x30, 0xe3, 0x18, 0x55, 0xd6, 0xcb, 0xdd, 0x90, 0x48, 0xe4, 0x37, 0xea, 0x02, 0x5f, 0xa8, 0xb9, 0x33, 0x1c, 0xa9, 0x9e, 0x3f, 0x91, 0x49, 0xe3, 0x9f, 0x27, 0xf7, 0x5e, 0xd3, 0x9a, 0x10, 0x6d, 0x62, 0xcf, 0xe6, 0xae, 0xa3, 0xf4, 0x64, 0x57, 0xd4, 0x47, 0x0a, 0x31, 0x98, 0xcb, 0x05, 0xca, 0xbb, 0x42, 0xf5, 0x33, 0x5f, 0x52, 0x31, 0xd9, 0x15, 0x2e, 0xea, 0xcf, 0x32, 0x58, 0x41, 0xc4, 0x09, 0xd7, 0x05, 0xc0, 0xce, 0x67, 0x6b, 0xc8, 0x14, 0xeb, 0x5b, 0x17, 0x35, 0x2f, 0x34, 0x8b, 0x9f, 0xff, 0x4c, 0x05, 0xca, 0xb2, 0x84, 0xf7, 0x4e, 0xbe, 0x3a, 0xbf, 0x16, 0x69, 0x85, 0x47, 0xb8, 0x21, 0x16, 0x39, 0x50, 0x97, 0xa6, 0x1b, 0x02, 0xcf, 0xf4, 0xa4, 0x43, 0xd4, 0xda, 0x53, 0xd1, 0xf1, 0xe5, 0xa6, 0x90, 0xbd, 0xf6, 0xe6, 0x0f, 0xbb, 0x6b, 0xd5, 0x14, 0x08, 0xd7, 0xfa, 0x07, 0xc4, 0xf0, 0xd6, 0xad, 0x35, 0x62, 0xbb, 0x44, 0xb3, 0x47, 0xf1, 0x69, 0x58, 0x67, 0x07, 0x8c, 0xea, 0xea, 0xba, 0x23, 0x08, 0xb1, 0x6b, 0xc6, 0xe8, 0x81, 0x05, 0x60, 0x65, 0xe5, 0x39, 0xa0, 0xe8, 0x63, 0xab, 0x03, 0x96, 0xac, 0x91, 0x5b, 0xe1, 0x94, 0xe8, 0xa2, 0x39, 0x63, 0x13, 0xee, 0x19, 0xba, 0x57, 0xbc, 0x6e, 0xa4, 0x98, 0xf1, 0x27, 0xe8, 0x4f, 0xb6, 0x0d, 0xf7, 0xab, 0x0e, 0xf5, 0x86, 0x5a, 0xeb, 0x8e, 0x6c, 0x0d, 0x1c, 0x6e, 0xe7, 0x8b, 0xca, 0x4f, 0x22, 0xa9, 0x98, 0x74, 0xfb, 0xac, 0x65, 0x25, 0x83, 0x34, 0xce, 0x27, 0xce, 0xce, 0xcf, 0xa7, 0xcd, 0xe7, 0x4a, 0xbd, 0x96, 0x35, 0xb4, 0x5f, 0x28, 0xd4, 0x2f, 0x00, 0xc9, 0xd8, 0xd2, 0x32, 0x84, 0xba, 0x9d, 0x1c, 0xb0, 0xf4, 0x04, 0x86, 0xef, 0xcd, 0x4c, 0x5f, 0x22, 0x17, 0x40, 0x9f, 0xa8, 0x49, 0xef, 0xb0, 0x8d, 0xb9, 0x93, 0x0a, 0x1b, 0x18, 0x86, 0xf4, 0x41, 0x2d, 0x27, 0x07, 0x20, 0xec, 0x1c, 0x63, 0xce, 0x33, 0x04, 0xfa, 0x49, 0x69, 0xfc, 0x90, 0xb0, 0x4b, 0xb1, 0x9e, 0xc2, 0x94, 0x9c, 0xcd, 0xbf, 0x21, 0x87, 0x51, 0xe1, 0x12, 0x12, 0x2a, 0xcf, 0xfa, 0xca, 0xbf, 0xd4, 0xbe, 0xd4, 0x6b, 0x50, 0xab, 0x25, 0xd9, 0xc8, 0xc0, 0x84, 0xad, 0x92, 0xac, 0xba, 0xbe, 0xb1, 0x57, 0x68, 0x36, 0x59, 0x12, 0x90, 0x54, 0x9f, 0x26, 0x38, 0xd3, 0xa7, 0x25, 0x9b, 0x0a, 0xb0, 0xdd, 0xd2, 0xf9, 0x0d, 0x49, 0x0c, 0xc2, 0x2a, 0xef, 0xa0, 0xea, 0x3b, 0xee, 0x27, 0x56, 0x21, 0x09, 0xe7, 0xdc, 0xee, 0x1c, 0x5f, 0x4c, 0x52, 0xf6, 0xaa, 0x58, 0xdc, 0xe7, 0x1f, 0x42, 0x3b, 0xcc, 0xbd, 0xfe, 0x01, 0xf3, 0x55, 0xaf, 0xcd, 0x07, 0x20, 0x8d, 0x51, 0x89, 0xe4, 0x28, 0xaa, 0xc9, 0x83, 0x3d, 0x46, 0xa6, 0xaa, 0x17, 0xa0, 0xc7, 0x26, 0x24, 0xaa, 0x39, 0x81, 0x3a, 0xc1, 0x95, 0x95, 0x6d, 0xc7, 0x6b, 0x09, 0xa6, 0x8a, 0x50, 0xf6, 0xda, 0x51, 0x9f, 0xd7, 0x03, 0x81, 0xad, 0xa3, 0x35, 0x28, 0xc5, 0xfd, 0xcc, 0x4a, 0x32, 0xda, 0x72, 0x93, 0xb3, 0x0f, 0xc7, 0x01, 0x1b, 0x06, 0x9b, 0x1a, 0x27, 0x19, 0x2d, 0x30, 0x97, 0x5d, 0xae, 0x05, 0x95, 0xca, 0xbd, 0x84, 0x4d, 0xde, 0xbf, 0xc3, 0x74, 0x41, 0x1d, 0x85, 0x12, 0x24, 0x54, 0x25, 0x72, 0x72, 0xaa, 0x50, 0x6d, 0xf7, 0x6b, 0xb2, 0xea, 0xba, 0x5e, 0xd9, 0x1a, 0x9a, 0x2d, 0x55, 0x5f, 0xb5, 0x01, 0x3b, 0x2a, 0x51, 0xde, 0x31, 0xc2, 0xdb, 0x4f, 0x02, 0xca, 0xa3, 0x06, 0x69, 0x04, 0x51, 0xc8, 0xf7, 0xb7, 0x08, 0x63, 0x57, 0x19, 0x08, 0xd9, 0xb7, 0x57, 0x60, 0xa2, 0x54, 0xeb, 0x83, 0x6a, 0x64, 0xd0, 0xec, 0x4b, 0x3d, 0x4a, 0x9c, 0x14, 0x00, 0x94, 0x5f, 0x39, 0x91, 0x19, 0x04, 0x7a, 0xa4, 0xe7, 0xc2, 0x5f, 0xb2, 0x36, 0xe6, 0x20, 0x65, 0xb8, 0x0e, 0x88, 0x09, 0xde, 0xca, 0x0f, 0x4d, 0x12, 0x66, 0x93, 0x21, 0xa2, 0xe5, 0x00, 0xfa, 0x83, 0x92, 0xca, 0x3a, 0x3d, 0xb7, 0x29, 0xaa, 0xa7, 0x0f, 0xa3, 0x2b, 0xbe, 0xf7, 0xdd, 0xb4, 0xcd, 0x34, 0x49, 0x61, 0x5c, 0xe1, 0x92, 0x8e, 0x09, 0xd7, 0x88, 0xb0, 0xd6, 0xc0, 0x29, 0x42, 0xa8, 0xa6, 0xa6, 0x01, 0x77, 0x0a, 0xee, 0xa3, 0x96, 0x08, 0x25, 0x41, 0x46, 0x64, 0x5c, 0x3c, 0xcc, 0x8b, 0x9b, 0x0e, 0x8c, 0x53, 0x1a, 0xb9, 0xe2, 0xb3, 0xb4, 0xec, 0x1c, 0xd9, 0xd8, 0xbb, 0xd7, 0x4a, 0x63, 0x92, 0x6d, 0x5e, 0x61, 0xd6, 0x57, 0x6e, 0x31, 0xed, 0xbe, 0x25, 0xb9, 0xb0, 0x24, 0x57, 0xf8, 0x41, 0x39, 0x2e, 0xaa, 0x4f, 0x84, 0xf2, 0xd5, 0xc9, 0x87, 0xf4, 0xed, 0x1b, 0x05, 0x92, 0x52, 0xde, 0x61, 0xc7, 0x32, 0x3f, 0x41, 0x34, 0x93, 0x8d, 0x75, 0x3b, 0x94, 0x55, 0xb9, 0x27, 0x64, 0x25, 0x49, 0x31, 0x12, 0x10, 0xeb, 0x74, 0x22, 0x06, 0xcf, 0x3e, 0xa4, 0x16, 0x3f, 0x41, 0x06, 0xae, 0x8d, 0xd4, 0xf8, 0xfc, 0x24, 0x65, 0xa2, 0x95, 0x95, 0x99, 0x37, 0x48, 0xb6, 0x13, 0x09, 0xf0, 0xde, 0xe5, 0xe0, 0x92, 0xd6, 0x58, 0x34, 0xc2, 0x94, 0x1c, 0x1d, 0x47, 0x51, 0xe0, 0x61, 0x19, 0x5a, 0x67, 0x04, 0x9d, 0x19, 0x39, 0x22, 0x64, 0xf2, 0xd6, 0x1b, 0x4f, 0xba, 0xe6, 0xc7, 0x8b, 0xa2, 0x94, 0x5e, 0x3f, 0xbe, 0x06, 0xcd, 0x06, 0x3a, 0x1a, 0x8b, 0xe6, 0xb9, 0x54, 0xbf, 0xc4, 0x49, 0xdc, 0xf5, 0x1b, 0x75, 0x17, 0x7d, 0xd5, 0x45, 0xea, 0x66, 0xe1, 0x16, 0x63, 0xf6, 0x43, 0x4b, 0xaa, 0x1c, 0x37, 0x9a, 0x32, 0xb6, 0xfe, 0xff, 0xff, 0x04, 0x00, 0x00, 0x00, 0x40, 0x00, 0x00, 0x00, 0xfc, 0xff, 0xff, 0xff, 0x00, 0x00, 0x00, 0x00, 0x00, 0x00, 0x00, 0x00, 0xf2, 0xff, 0xff, 0xff, 0xf7, 0xff, 0xff, 0xff, 0xe4, 0xff, 0xff, 0xff, 0xef, 0xff, 0xff, 0xff, 0xf3, 0xff, 0xff, 0xff, 0xf2, 0xff, 0xff, 0xff, 0xd9, 0xff, 0xff, 0xff, 0x00, 0x00, 0x00, 0x00, 0xf3, 0xff, 0xff, 0xff, 0x00, 0x00, 0x00, 0x00, 0xf9, 0xff, 0xff, 0xff, 0xec, 0xff, 0xff, 0xff, 0xf0, 0xff, 0xff, 0xff, 0x02, 0xff, 0xff, 0xff, 0x04, 0x00, 0x00, 0x00, 0x30, 0x00, 0x00, 0x00, 0x50, 0x7c, 0x11, 0x83, 0xd5, 0xf0, 0x82, 0xab, 0x33, 0x7f, 0xdf, 0xb5, 0x00, 0xee, 0xa3, 0x70, 0x18, 0x81, 0x91, 0x91, 0x4e, 0x45, 0x61, 0xe9, 0x42, 0x21, 0x8e, 0x60, 0x2a, 0xc6, 0x6f, 0x64, 0x7f, 0xf2, 0x24, 0x2a, 0x08, 0x1c, 0x50, 0x71, 0x99, 0x28, 0xca, 0x0a, 0x92, 0xb7, 0x97, 0x73, 0x3e, 0xff, 0xff, 0xff, 0x04, 0x00, 0x00, 0x00, 0x0c, 0x00, 0x00, 0x00, 0xb9, 0xff, 0xff, 0xff, 0x2e, 0x00, 0x00, 0x00, 0x1e, 0x00, 0x00, 0x00, 0x56, 0xff, 0xff, 0xff, 0x04, 0x00, 0x00, 0x00, 0x08, 0x00, 0x00, 0x00, 0xff, 0xff, 0xff, 0xff, 0x80, 0x01, 0x00, 0x00, 0xf8, 0xf0, 0xff, 0xff, 0xfc, 0xf0, 0xff, 0xff, 0x0f, 0x00, 0x00, 0x00, 0x4d, 0x4c, 0x49, 0x52, 0x20, 0x43, 0x6f, 0x6e, 0x76, 0x65, 0x72, 0x74, 0x65, 0x64, 0x2e, 0x00, 0x01, 0x00, 0x00, 0x00, 0x14, 0x00, 0x00, 0x00, 0x00, 0x00, 0x0e, 0x00, 0x18, 0x00, 0x14, 0x00, 0x10, 0x00, 0x0c, 0x00, 0x08, 0x00, 0x04, 0x00, 0x0e, 0x00, 0x00, 0x00, 0x14, 0x00, 0x00, 0x00, 0x1c, 0x00, 0x00, 0x00, 0x4c, 0x02, 0x00, 0x00, 0x50, 0x02, 0x00, 0x00, 0x54, 0x02, 0x00, 0x00, 0x04, 0x00, 0x00, 0x00, 0x6d, 0x61, 0x69, 0x6e, 0x00, 0x00, 0x00, 0x00, 0x08, 0x00, 0x00, 0x00, 0xe8, 0x01, 0x00, 0x00, 0x84, 0x01, 0x00, 0x00, 0x34, 0x01, 0x00, 0x00, 0xf0, 0x00, 0x00, 0x00, 0xc8, 0x00, 0x00, 0x00, 0x78, 0x00, 0x00, 0x00, 0x40, 0x00, 0x00, 0x00, 0x04, 0x00, 0x00, 0x00, 0xa6, 0xfe, 0xff, 0xff, 0x1c, 0x00, 0x00, 0x00, 0x00, 0x00, 0x00, 0x09, 0x1c, 0x00, 0x00, 0x00, 0x20, 0x00, 0x00, 0x00, 0x04, 0x00, 0x00, 0x00, 0x00, 0x00, 0x06, 0x00, 0x08, 0x00, 0x04, 0x00, 0x06, 0x00, 0x00, 0x00, 0x00, 0x00, 0x80, 0x3f, 0x01, 0x00, 0x00, 0x00, 0x11, 0x00, 0x00, 0x00, 0x01, 0x00, 0x00, 0x00, 0x10, 0x00, 0x00, 0x00, 0xde, 0xfe, 0xff, 0xff, 0x14, 0x00, 0x00, 0x00, 0x00, 0x00, 0x00, 0x08, 0x10, 0x00, 0x00, 0x00, 0x14, 0x00, 0x00, 0x00, 0x03, 0x00, 0x00, 0x00, 0xc4, 0xf1, 0xff, 0xff, 0x01, 0x00, 0x00, 0x00, 0x10, 0x00, 0x00, 0x00, 0x03, 0x00, 0x00, 0x00, 0x0f, 0x00, 0x00, 0x00, 0x03, 0x00, 0x00, 0x00, 0x02, 0x00, 0x00, 0x00, 0x12, 0xff, 0xff, 0xff, 0x1c, 0x00, 0x00, 0x00, 0x00, 0x00, 0x00, 0x08, 0x1c, 0x00, 0x00, 0x00, 0x20, 0x00, 0x00, 0x00, 0x03, 0x00, 0x00, 0x00, 0x00, 0x00, 0x06, 0x00, 0x08, 0x00, 0x07, 0x00, 0x06, 0x00, 0x00, 0x00, 0x00, 0x00, 0x00, 0x01, 0x01, 0x00, 0x00, 0x00, 0x0f, 0x00, 0x00, 0x00, 0x03, 0x00, 0x00, 0x00, 0x0e, 0x00, 0x00, 0x00, 0x05, 0x00, 0x00, 0x00, 0x04, 0x00, 0x00, 0x00, 0x00, 0x00, 0x0a, 0x00, 0x10, 0x00, 0x0c, 0x00, 0x08, 0x00, 0x04, 0x00, 0x0a, 0x00, 0x00, 0x00, 0x0c, 0x00, 0x00, 0x00, 0x10, 0x00, 0x00, 0x00, 0x02, 0x00, 0x00, 0x00, 0x01, 0x00, 0x00, 0x00, 0x0e, 0x00, 0x00, 0x00, 0x02, 0x00, 0x00, 0x00, 0x0d, 0x00, 0x00, 0x00, 0x01, 0x00, 0x00, 0x00, 0x82, 0xff, 0xff, 0xff, 0x14, 0x00, 0x00, 0x00, 0x00, 0x00, 0x00, 0x05, 0x24, 0x00, 0x00, 0x00, 0x28, 0x00, 0x00, 0x00, 0x01, 0x00, 0x00, 0x00, 0x72, 0xff, 0xff, 0xff, 0x02, 0x00, 0x00, 0x00, 0x02, 0x00, 0x00, 0x00, 0x02, 0x00, 0x00, 0x00, 0x02, 0x00, 0x00, 0x00, 0x00, 0x00, 0x00, 0x01, 0x01, 0x00, 0x00, 0x00, 0x0d, 0x00, 0x00, 0x00, 0x01, 0x00, 0x00, 0x00, 0x0c, 0x00, 0x00, 0x00, 0x62, 0xff, 0xff, 0xff, 0x10, 0x00, 0x00, 0x00, 0x00, 0x00, 0x00, 0x01, 0x18, 0x00, 0x00, 0x00, 0x1c, 0x00, 0x00, 0x00, 0x54, 0xff, 0xff, 0xff, 0x00, 0x00, 0x00, 0x01, 0x01, 0x00, 0x00, 0x00, 0x01, 0x00, 0x00, 0x00, 0x01, 0x00, 0x00, 0x00, 0x0c, 0x00, 0x00, 0x00, 0x03, 0x00, 0x00, 0x00, 0x0b, 0x00, 0x00, 0x00, 0x07, 0x00, 0x00, 0x00, 0x06, 0x00, 0x00, 0x00, 0x00, 0x00, 0x0e, 0x00, 0x1a, 0x00, 0x14, 0x00, 0x10, 0x00, 0x0c, 0x00, 0x0b, 0x00, 0x04, 0x00, 0x0e, 0x00, 0x00, 0x00, 0x24, 0x00, 0x00, 0x00, 0x00, 0x00, 0x00, 0x05, 0x34, 0x00, 0x00, 0x00, 0x38, 0x00, 0x00, 0x00, 0x01, 0x00, 0x00, 0x00, 0x00, 0x00, 0x0e, 0x00, 0x18, 0x00, 0x17, 0x00, 0x10, 0x00, 0x0c, 0x00, 0x08, 0x00, 0x04, 0x00, 0x0e, 0x00, 0x00, 0x00, 0x02, 0x00, 0x00, 0x00, 0x02, 0x00, 0x00, 0x00, 0x02, 0x00, 0x00, 0x00, 0x02, 0x00, 0x00, 0x00, 0x00, 0x00, 0x00, 0x01, 0x01, 0x00, 0x00, 0x00, 0x0b, 0x00, 0x00, 0x00, 0x01, 0x00, 0x00, 0x00, 0x0a, 0x00, 0x00, 0x00, 0x00, 0x00, 0x0e, 0x00, 0x14, 0x00, 0x00, 0x00, 0x10, 0x00, 0x0c, 0x00, 0x0b, 0x00, 0x04, 0x00, 0x0e, 0x00, 0x00, 0x00, 0x1c, 0x00, 0x00, 0x00, 0x00, 0x00, 0x00, 0x01, 0x24, 0x00, 0x00, 0x00, 0x28, 0x00, 0x00, 0x00, 0x0c, 0x00, 0x10, 0x00, 0x00, 0x00, 0x0c, 0x00, 0x08, 0x00, 0x07, 0x00, 0x0c, 0x00, 0x00, 0x00, 0x00, 0x00, 0x00, 0x01, 0x01, 0x00, 0x00, 0x00, 0x01, 0x00, 0x00, 0x00, 0x01, 0x00, 0x00, 0x00, 0x0a, 0x00, 0x00, 0x00, 0x03, 0x00, 0x00, 0x00, 0x00, 0x00, 0x00, 0x00, 0x09, 0x00, 0x00, 0x00, 0x08, 0x00, 0x00, 0x00, 0x01, 0x00, 0x00, 0x00, 0x11, 0x00, 0x00, 0x00, 0x01, 0x00, 0x00, 0x00, 0x00, 0x00, 0x00, 0x00, 0x12, 0x00, 0x00, 0x00, 0xa4, 0x0c, 0x00, 0x00, 0x48, 0x0c, 0x00, 0x00, 0xb8, 0x0b, 0x00, 0x00, 0x3c, 0x0b, 0x00, 0x00, 0x28, 0x0a, 0x00, 0x00, 0x0c, 0x09, 0x00, 0x00, 0xf8, 0x07, 0x00, 0x00, 0xd4, 0x06, 0x00, 0x00, 0x20, 0x06, 0x00, 0x00, 0x5c, 0x05, 0x00, 0x00, 0x88, 0x04, 0x00, 0x00, 0xec, 0x03, 0x00, 0x00, 0xf8, 0x02, 0x00, 0x00, 0x5c, 0x02, 0x00, 0x00, 0xd8, 0x01, 0x00, 0x00, 0x24, 0x01, 0x00, 0x00, 0x80, 0x00, 0x00, 0x00, 0x04, 0x00, 0x00, 0x00, 0xba, 0xf3, 0xff, 0xff, 0x00, 0x00, 0x00, 0x01, 0x18, 0x00, 0x00, 0x00, 0x20, 0x00, 0x00, 0x00, 0x3c, 0x00, 0x00, 0x00, 0x12, 0x00, 0x00, 0x00, 0x00, 0x00, 0x00, 0x09, 0x50, 0x00, 0x00, 0x00, 0x02, 0x00, 0x00, 0x00, 0xff, 0xff, 0xff, 0xff, 0x03, 0x00, 0x00, 0x00, 0x9c, 0xf3, 0xff, 0xff, 0x08, 0x00, 0x00, 0x00, 0x10, 0x00, 0x00, 0x00, 0x01, 0x00, 0x00, 0x00, 0x80, 0xff, 0xff, 0xff, 0xff, 0xff, 0xff, 0xff, 0x01, 0x00, 0x00, 0x00, 0x00, 0x00, 0x80, 0x3b, 0x1b, 0x00, 0x00, 0x00, 0x53, 0x74, 0x61, 0x74, 0x65, 0x66, 0x75, 0x6c, 0x50, 0x61, 0x72, 0x74, 0x69, 0x74, 0x69, 0x6f, 0x6e, 0x65, 0x64, 0x43, 0x61, 0x6c, 0x6c, 0x5f, 0x31, 0x3a, 0x30, 0x00, 0x02, 0x00, 0x00, 0x00, 0x01, 0x00, 0x00, 0x00, 0x03, 0x00, 0x00, 0x00, 0x32, 0xf4, 0xff, 0xff, 0x00, 0x00, 0x00, 0x01, 0x18, 0x00, 0x00, 0x00, 0x20, 0x00, 0x00, 0x00, 0x40, 0x00, 0x00, 0x00, 0x11, 0x00, 0x00, 0x00, 0x00, 0x00, 0x00, 0x09, 0x78, 0x00, 0x00, 0x00, 0x02, 0x00, 0x00, 0x00, 0xff, 0xff, 0xff, 0xff, 0x03, 0x00, 0x00, 0x00, 0x14, 0xf4, 0xff, 0xff, 0x08, 0x00, 0x00, 0x00, 0x14, 0x00, 0x00, 0x00, 0x01, 0x00, 0x00, 0x00, 0x2a, 0x00, 0x00, 0x00, 0x00, 0x00, 0x00, 0x00, 0x00, 0x00, 0x00, 0x00, 0x01, 0x00, 0x00, 0x00, 0xd2, 0x9c, 0x92, 0x3e, 0x3c, 0x00, 0x00, 0x00, 0x73, 0x65, 0x71, 0x75, 0x65, 0x6e, 0x74, 0x69, 0x61, 0x6c, 0x5f, 0x31, 0x2f, 0x64, 0x65, 0x6e, 0x73, 0x65, 0x5f, 0x31, 0x5f, 0x32, 0x2f, 0x4d, 0x61, 0x74, 0x4d, 0x75, 0x6c, 0x3b, 0x73, 0x65, 0x71, 0x75, 0x65, 0x6e, 0x74, 0x69, 0x61, 0x6c, 0x5f, 0x31, 0x2f, 0x64, 0x65, 0x6e, 0x73, 0x65, 0x5f, 0x31, 0x5f, 0x32, 0x2f, 0x42, 0x69, 0x61, 0x73, 0x41, 0x64, 0x64, 0x00, 0x00, 0x00, 0x00, 0x02, 0x00, 0x00, 0x00, 0x01, 0x00, 0x00, 0x00, 0x03, 0x00, 0x00, 0x00, 0xd2, 0xf4, 0xff, 0xff, 0x00, 0x00, 0x00, 0x01, 0x18, 0x00, 0x00, 0x00, 0x20, 0x00, 0x00, 0x00, 0x3c, 0x00, 0x00, 0x00, 0x10, 0x00, 0x00, 0x00, 0x00, 0x00, 0x00, 0x09, 0x88, 0x00, 0x00, 0x00, 0x02, 0x00, 0x00, 0x00, 0xff, 0xff, 0xff, 0xff, 0x10, 0x00, 0x00, 0x00, 0xb4, 0xf4, 0xff, 0xff, 0x08, 0x00, 0x00, 0x00, 0x10, 0x00, 0x00, 0x00, 0x01, 0x00, 0x00, 0x00, 0x80, 0xff, 0xff, 0xff, 0xff, 0xff, 0xff, 0xff, 0x01, 0x00, 0x00, 0x00, 0xc1, 0x24, 0x69, 0x3e, 0x52, 0x00, 0x00, 0x00, 0x73, 0x65, 0x71, 0x75, 0x65, 0x6e, 0x74, 0x69, 0x61, 0x6c, 0x5f, 0x31, 0x2f, 0x64, 0x65, 0x6e, 0x73, 0x65, 0x5f, 0x31, 0x2f, 0x4d, 0x61, 0x74, 0x4d, 0x75, 0x6c, 0x3b, 0x73, 0x65, 0x71, 0x75, 0x65, 0x6e, 0x74, 0x69, 0x61, 0x6c, 0x5f, 0x31, 0x2f, 0x64, 0x65, 0x6e, 0x73, 0x65, 0x5f, 0x31, 0x2f, 0x52, 0x65, 0x6c, 0x75, 0x3b, 0x73, 0x65, 0x71, 0x75, 0x65, 0x6e, 0x74, 0x69, 0x61, 0x6c, 0x5f, 0x31, 0x2f, 0x64, 0x65, 0x6e, 0x73, 0x65, 0x5f, 0x31, 0x2f, 0x42, 0x69, 0x61, 0x73, 0x41, 0x64, 0x64, 0x00, 0x00, 0x02, 0x00, 0x00, 0x00, 0x01, 0x00, 0x00, 0x00, 0x10, 0x00, 0x00, 0x00, 0x82, 0xf5, 0xff, 0xff, 0x00, 0x00, 0x00, 0x01, 0x18, 0x00, 0x00, 0x00, 0x20, 0x00, 0x00, 0x00, 0x40, 0x00, 0x00, 0x00, 0x0f, 0x00, 0x00, 0x00, 0x00, 0x00, 0x00, 0x09, 0x58, 0x00, 0x00, 0x00, 0x02, 0x00, 0x00, 0x00, 0xff, 0xff, 0xff, 0xff, 0x80, 0x01, 0x00, 0x00, 0x64, 0xf5, 0xff, 0xff, 0x08, 0x00, 0x00, 0x00, 0x14, 0x00, 0x00, 0x00, 0x01, 0x00, 0x00, 0x00, 0x80, 0xff, 0xff, 0xff, 0xff, 0xff, 0xff, 0xff, 0x00, 0x00, 0x00, 0x00, 0x01, 0x00, 0x00, 0x00, 0xec, 0x49, 0xc9, 0x3e, 0x1e, 0x00, 0x00, 0x00, 0x73, 0x65, 0x71, 0x75, 0x65, 0x6e, 0x74, 0x69, 0x61, 0x6c, 0x5f, 0x31, 0x2f, 0x66, 0x6c, 0x61, 0x74, 0x74, 0x65, 0x6e, 0x5f, 0x31, 0x2f, 0x52, 0x65, 0x73, 0x68, 0x61, 0x70, 0x65, 0x00, 0x00, 0x02, 0x00, 0x00, 0x00, 0x01, 0x00, 0x00, 0x00, 0x80, 0x01, 0x00, 0x00, 0x02, 0xf6, 0xff, 0xff, 0x00, 0x00, 0x00, 0x01, 0x18, 0x00, 0x00, 0x00, 0x28, 0x00, 0x00, 0x00, 0x44, 0x00, 0x00, 0x00, 0x0e, 0x00, 0x00, 0x00, 0x00, 0x00, 0x00, 0x09, 0x68, 0x00, 0x00, 0x00, 0x04, 0x00, 0x00, 0x00, 0xff, 0xff, 0xff, 0xff, 0x08, 0x00, 0x00, 0x00, 0x03, 0x00, 0x00, 0x00, 0x10, 0x00, 0x00, 0x00, 0xec, 0xf5, 0xff, 0xff, 0x08, 0x00, 0x00, 0x00, 0x10, 0x00, 0x00, 0x00, 0x01, 0x00, 0x00, 0x00, 0x80, 0xff, 0xff, 0xff, 0xff, 0xff, 0xff, 0xff, 0x01, 0x00, 0x00, 0x00, 0xec, 0x49, 0xc9, 0x3e, 0x28, 0x00, 0x00, 0x00, 0x73, 0x65, 0x71, 0x75, 0x65, 0x6e, 0x74, 0x69, 0x61, 0x6c, 0x5f, 0x31, 0x2f, 0x6d, 0x61, 0x78, 0x5f, 0x70, 0x6f, 0x6f, 0x6c, 0x69, 0x6e, 0x67, 0x32, 0x64, 0x5f, 0x31, 0x5f, 0x32, 0x2f, 0x4d, 0x61, 0x78, 0x50, 0x6f, 0x6f, 0x6c, 0x32, 0x64, 0x00, 0x00, 0x00, 0x00, 0x04, 0x00, 0x00, 0x00, 0x01, 0x00, 0x00, 0x00, 0x08, 0x00, 0x00, 0x00, 0x03, 0x00, 0x00, 0x00, 0x10, 0x00, 0x00, 0x00, 0x9a, 0xf6, 0xff, 0xff, 0x00, 0x00, 0x00, 0x01, 0x18, 0x00, 0x00, 0x00, 0x28, 0x00, 0x00, 0x00, 0x44, 0x00, 0x00, 0x00, 0x0d, 0x00, 0x00, 0x00, 0x00, 0x00, 0x00, 0x09, 0xc0, 0x00, 0x00, 0x00, 0x04, 0x00, 0x00, 0x00, 0xff, 0xff, 0xff, 0xff, 0x10, 0x00, 0x00, 0x00, 0x06, 0x00, 0x00, 0x00, 0x10, 0x00, 0x00, 0x00, 0x84, 0xf6, 0xff, 0xff, 0x08, 0x00, 0x00, 0x00, 0x10, 0x00, 0x00, 0x00, 0x01, 0x00, 0x00, 0x00, 0x80, 0xff, 0xff, 0xff, 0xff, 0xff, 0xff, 0xff, 0x01, 0x00, 0x00, 0x00, 0xec, 0x49, 0xc9, 0x3e, 0x80, 0x00, 0x00, 0x00, 0x73, 0x65, 0x71, 0x75, 0x65, 0x6e, 0x74, 0x69, 0x61, 0x6c, 0x5f, 0x31, 0x2f, 0x63, 0x6f, 0x6e, 0x76, 0x32, 0x64, 0x5f, 0x31, 0x5f, 0x32, 0x2f, 0x52, 0x65, 0x6c, 0x75, 0x3b, 0x73, 0x65, 0x71, 0x75, 0x65, 0x6e, 0x74, 0x69, 0x61, 0x6c, 0x5f, 0x31, 0x2f, 0x63, 0x6f, 0x6e, 0x76, 0x32, 0x64, 0x5f, 0x31, 0x5f, 0x32, 0x2f, 0x42, 0x69, 0x61, 0x73, 0x41, 0x64, 0x64, 0x3b, 0x73, 0x65, 0x71, 0x75, 0x65, 0x6e, 0x74, 0x69, 0x61, 0x6c, 0x5f, 0x31, 0x2f, 0x63, 0x6f, 0x6e, 0x76, 0x32, 0x64, 0x5f, 0x31, 0x5f, 0x32, 0x2f, 0x63, 0x6f, 0x6e, 0x76, 0x6f, 0x6c, 0x75, 0x74, 0x69, 0x6f, 0x6e, 0x3b, 0x73, 0x65, 0x71, 0x75, 0x65, 0x6e, 0x74, 0x69, 0x61, 0x6c, 0x5f, 0x31, 0x2f, 0x63, 0x6f, 0x6e, 0x76, 0x32, 0x64, 0x5f, 0x31, 0x5f, 0x32, 0x2f, 0x53, 0x71, 0x75, 0x65, 0x65, 0x7a, 0x65, 0x00, 0x00, 0x00, 0x00, 0x04, 0x00, 0x00, 0x00, 0x01, 0x00, 0x00, 0x00, 0x10, 0x00, 0x00, 0x00, 0x06, 0x00, 0x00, 0x00, 0x10, 0x00, 0x00, 0x00, 0x8a, 0xf7, 0xff, 0xff, 0x00, 0x00, 0x00, 0x01, 0x18, 0x00, 0x00, 0x00, 0x28, 0x00, 0x00, 0x00, 0x48, 0x00, 0x00, 0x00, 0x0c, 0x00, 0x00, 0x00, 0x00, 0x00, 0x00, 0x09, 0x68, 0x00, 0x00, 0x00, 0x04, 0x00, 0x00, 0x00, 0xff, 0xff, 0xff, 0xff, 0x10, 0x00, 0x00, 0x00, 0x06, 0x00, 0x00, 0x00, 0x08, 0x00, 0x00, 0x00, 0x74, 0xf7, 0xff, 0xff, 0x08, 0x00, 0x00, 0x00, 0x14, 0x00, 0x00, 0x00, 0x01, 0x00, 0x00, 0x00, 0x80, 0xff, 0xff, 0xff, 0xff, 0xff, 0xff, 0xff, 0x00, 0x00, 0x00, 0x00, 0x01, 0x00, 0x00, 0x00, 0x5c, 0x31, 0x84, 0x3f, 0x26, 0x00, 0x00, 0x00, 0x73, 0x65, 0x71, 0x75, 0x65, 0x6e, 0x74, 0x69, 0x61, 0x6c, 0x5f, 0x31, 0x2f, 0x6d, 0x61, 0x78, 0x5f, 0x70, 0x6f, 0x6f, 0x6c, 0x69, 0x6e, 0x67, 0x32, 0x64, 0x5f, 0x31, 0x2f, 0x4d, 0x61, 0x78, 0x50, 0x6f, 0x6f, 0x6c, 0x32, 0x64, 0x00, 0x00, 0x04, 0x00, 0x00, 0x00, 0x01, 0x00, 0x00, 0x00, 0x10, 0x00, 0x00, 0x00, 0x06, 0x00, 0x00, 0x00, 0x08, 0x00, 0x00, 0x00, 0x22, 0xf8, 0xff, 0xff, 0x00, 0x00, 0x00, 0x01, 0x18, 0x00, 0x00, 0x00, 0x28, 0x00, 0x00, 0x00, 0x48, 0x00, 0x00, 0x00, 0x0b, 0x00, 0x00, 0x00, 0x00, 0x00, 0x00, 0x09, 0xa0, 0x00, 0x00, 0x00, 0x04, 0x00, 0x00, 0x00, 0xff, 0xff, 0xff, 0xff, 0x20, 0x00, 0x00, 0x00, 0x0d, 0x00, 0x00, 0x00, 0x08, 0x00, 0x00, 0x00, 0x0c, 0xf8, 0xff, 0xff, 0x08, 0x00, 0x00, 0x00, 0x14, 0x00, 0x00, 0x00, 0x01, 0x00, 0x00, 0x00, 0x80, 0xff, 0xff, 0xff, 0xff, 0xff, 0xff, 0xff, 0x00, 0x00, 0x00, 0x00, 0x01, 0x00, 0x00, 0x00, 0x5c, 0x31, 0x84, 0x3f, 0x5c, 0x00, 0x00, 0x00, 0x73, 0x65, 0x71, 0x75, 0x65, 0x6e, 0x74, 0x69, 0x61, 0x6c, 0x5f, 0x31, 0x2f, 0x63, 0x6f, 0x6e, 0x76, 0x32, 0x64, 0x5f, 0x31, 0x2f, 0x52, 0x65, 0x6c, 0x75, 0x3b, 0x73, 0x65, 0x71, 0x75, 0x65, 0x6e, 0x74, 0x69, 0x61, 0x6c, 0x5f, 0x31, 0x2f, 0x63, 0x6f, 0x6e, 0x76, 0x32, 0x64, 0x5f, 0x31, 0x2f, 0x42, 0x69, 0x61, 0x73, 0x41, 0x64, 0x64, 0x3b, 0x73, 0x65, 0x71, 0x75, 0x65, 0x6e, 0x74, 0x69, 0x61, 0x6c, 0x5f, 0x31, 0x2f, 0x63, 0x6f, 0x6e, 0x76, 0x32, 0x64, 0x5f, 0x31, 0x2f, 0x63, 0x6f, 0x6e, 0x76, 0x6f, 0x6c, 0x75, 0x74, 0x69, 0x6f, 0x6e, 0x3b, 0x31, 0x00, 0x00, 0x00, 0x00, 0x04, 0x00, 0x00, 0x00, 0x01, 0x00, 0x00, 0x00, 0x20, 0x00, 0x00, 0x00, 0x0d, 0x00, 0x00, 0x00, 0x08, 0x00, 0x00, 0x00, 0x4a, 0xf9, 0xff, 0xff, 0x00, 0x00, 0x00, 0x01, 0x14, 0x00, 0x00, 0x00, 0x88, 0x00, 0x00, 0x00, 0x0a, 0x00, 0x00, 0x00, 0x00, 0x00, 0x00, 0x09, 0x94, 0x00, 0x00, 0x00, 0xc4, 0xf8, 0xff, 0xff, 0x08, 0x00, 0x00, 0x00, 0x4c, 0x00, 0x00, 0x00, 0x08, 0x00, 0x00, 0x00, 0x00, 0x00, 0x00, 0x00, 0x00, 0x00, 0x00, 0x00, 0x00, 0x00, 0x00, 0x00, 0x00, 0x00, 0x00, 0x00, 0x00, 0x00, 0x00, 0x00, 0x00, 0x00, 0x00, 0x00, 0x00, 0x00, 0x00, 0x00, 0x00, 0x00, 0x00, 0x00, 0x00, 0x00, 0x00, 0x00, 0x00, 0x00, 0x00, 0x00, 0x00, 0x00, 0x00, 0x00, 0x00, 0x00, 0x00, 0x00, 0x00, 0x00, 0x00, 0x00, 0x00, 0x00, 0x00, 0x00, 0x00, 0x00, 0x00, 0x00, 0x00, 0x00, 0x00, 0x00, 0x00, 0x00, 0x00, 0x00, 0x08, 0x00, 0x00, 0x00, 0x14, 0x11, 0xea, 0x3a, 0x4e, 0x8e, 0xab, 0x3a, 0xac, 0x52, 0x16, 0x3b, 0xe6, 0xef, 0xb4, 0x3a, 0xc4, 0x31, 0x0a, 0x3b, 0x1e, 0xc2, 0x10, 0x3b, 0x37, 0x63, 0xf9, 0x3a, 0xa6, 0x36, 0x09, 0x3b, 0x12, 0x00, 0x00, 0x00, 0x74, 0x66, 0x6c, 0x2e, 0x70, 0x73, 0x65, 0x75, 0x64, 0x6f, 0x5f, 0x71, 0x63, 0x6f, 0x6e, 0x73, 0x74, 0x37, 0x00, 0x00, 0x04, 0x00, 0x00, 0x00, 0x08, 0x00, 0x00, 0x00, 0x03, 0x00, 0x00, 0x00, 0x03, 0x00, 0x00, 0x00, 0x01, 0x00, 0x00, 0x00, 0x0a, 0xfa, 0xff, 0xff, 0x00, 0x00, 0x00, 0x01, 0x14, 0x00, 0x00, 0x00, 0x84, 0x00, 0x00, 0x00, 0x09, 0x00, 0x00, 0x00, 0x00, 0x00, 0x00, 0x02, 0x90, 0x00, 0x00, 0x00, 0x84, 0xf9, 0xff, 0xff, 0x08, 0x00, 0x00, 0x00, 0x48, 0x00, 0x00, 0x00, 0x08, 0x00, 0x00, 0x00, 0x00, 0x00, 0x00, 0x00, 0x00, 0x00, 0x00, 0x00, 0x00, 0x00, 0x00, 0x00, 0x00, 0x00, 0x00, 0x00, 0x00, 0x00, 0x00, 0x00, 0x00, 0x00, 0x00, 0x00, 0x00, 0x00, 0x00, 0x00, 0x00, 0x00, 0x00, 0x00, 0x00, 0x00, 0x00, 0x00, 0x00, 0x00, 0x00, 0x00, 0x00, 0x00, 0x00, 0x00, 0x00, 0x00, 0x00, 0x00, 0x00, 0x00, 0x00, 0x00, 0x00, 0x00, 0x00, 0x00, 0x00, 0x00, 0x00, 0x00, 0x00, 0x00, 0x00, 0x00, 0x08, 0x00, 0x00, 0x00, 0xf0, 0xb9, 0xa9, 0x3b, 0x08, 0xcc, 0x78, 0x3b, 0x11, 0x01, 0xda, 0x3b, 0x75, 0x33, 0x83, 0x3b, 0x36, 0x6a, 0xc8, 0x3b, 0x1f, 0xef, 0xd1, 0x3b, 0xf4, 0xd5, 0xb4, 0x3b, 0x08, 0xfe, 0xc6, 0x3b, 0x12, 0x00, 0x00, 0x00, 0x74, 0x66, 0x6c, 0x2e, 0x70, 0x73, 0x65, 0x75, 0x64, 0x6f, 0x5f, 0x71, 0x63, 0x6f, 0x6e, 0x73, 0x74, 0x36, 0x00, 0x00, 0x01, 0x00, 0x00, 0x00, 0x08, 0x00, 0x00, 0x00, 0xba, 0xfa, 0xff, 0xff, 0x00, 0x00, 0x00, 0x01, 0x14, 0x00, 0x00, 0x00, 0xe8, 0x00, 0x00, 0x00, 0x08, 0x00, 0x00, 0x00, 0x00, 0x00, 0x00, 0x09, 0xf4, 0x00, 0x00, 0x00, 0x34, 0xfa, 0xff, 0xff, 0x08, 0x00, 0x00, 0x00, 0x8c, 0x00, 0x00, 0x00, 0x10, 0x00, 0x00, 0x00, 0x00, 0x00, 0x00, 0x00, 0x00, 0x00, 0x00, 0x00, 0x00, 0x00, 0x00, 0x00, 0x00, 0x00, 0x00, 0x00, 0x00, 0x00, 0x00, 0x00, 0x00, 0x00, 0x00, 0x00, 0x00, 0x00, 0x00, 0x00, 0x00, 0x00, 0x00, 0x00, 0x00, 0x00, 0x00, 0x00, 0x00, 0x00, 0x00, 0x00, 0x00, 0x00, 0x00, 0x00, 0x00, 0x00, 0x00, 0x00, 0x00, 0x00, 0x00, 0x00, 0x00, 0x00, 0x00, 0x00, 0x00, 0x00, 0x00, 0x00, 0x00, 0x00, 0x00, 0x00, 0x00, 0x00, 0x00, 0x00, 0x00, 0x00, 0x00, 0x00, 0x00, 0x00, 0x00, 0x00, 0x00, 0x00, 0x00, 0x00, 0x00, 0x00, 0x00, 0x00, 0x00, 0x00, 0x00, 0x00, 0x00, 0x00, 0x00, 0x00, 0x00, 0x00, 0x00, 0x00, 0x00, 0x00, 0x00, 0x00, 0x00, 0x00, 0x00, 0x00, 0x00, 0x00, 0x00, 0x00, 0x00, 0x00, 0x00, 0x00, 0x00, 0x00, 0x00, 0x00, 0x00, 0x00, 0x00, 0x00, 0x00, 0x00, 0x00, 0x00, 0x00, 0x00, 0x00, 0x00, 0x00, 0x00, 0x00, 0x00, 0x10, 0x00, 0x00, 0x00, 0x9a, 0xa5, 0xb5, 0x3a, 0x23, 0xd4, 0xbd, 0x3a, 0x4a, 0x92, 0xba, 0x3a, 0x6c, 0xcc, 0xc9, 0x3a, 0xc3, 0xc8, 0xb4, 0x3a, 0x9f, 0x3c, 0x9f, 0x3a, 0xeb, 0x76, 0xcc, 0x3a, 0x5e, 0xcc, 0xa7, 0x3a, 0xeb, 0xb8, 0xbc, 0x3a, 0x89, 0x49, 0xa0, 0x3a, 0x3c, 0x91, 0xb5, 0x3a, 0xb5, 0xe3, 0xb8, 0x3a, 0xe4, 0x39, 0xcf, 0x3a, 0x3d, 0x34, 0xa8, 0x3a, 0x32, 0x14, 0xb7, 0x3a, 0x97, 0x79, 0xc9, 0x3a, 0x12, 0x00, 0x00, 0x00, 0x74, 0x66, 0x6c, 0x2e, 0x70, 0x73, 0x65, 0x75, 0x64, 0x6f, 0x5f, 0x71, 0x63, 0x6f, 0x6e, 0x73, 0x74, 0x35, 0x00, 0x00, 0x04, 0x00, 0x00, 0x00, 0x10, 0x00, 0x00, 0x00, 0x03, 0x00, 0x00, 0x00, 0x03, 0x00, 0x00, 0x00, 0x08, 0x00, 0x00, 0x00, 0xda, 0xfb, 0xff, 0xff, 0x00, 0x00, 0x00, 0x01, 0x14, 0x00, 0x00, 0x00, 0xe4, 0x00, 0x00, 0x00, 0x07, 0x00, 0x00, 0x00, 0x00, 0x00, 0x00, 0x02, 0xf0, 0x00, 0x00, 0x00, 0x54, 0xfb, 0xff, 0xff, 0x08, 0x00, 0x00, 0x00, 0x88, 0x00, 0x00, 0x00, 0x10, 0x00, 0x00, 0x00, 0x00, 0x00, 0x00, 0x00, 0x00, 0x00, 0x00, 0x00, 0x00, 0x00, 0x00, 0x00, 0x00, 0x00, 0x00, 0x00, 0x00, 0x00, 0x00, 0x00, 0x00, 0x00, 0x00, 0x00, 0x00, 0x00, 0x00, 0x00, 0x00, 0x00, 0x00, 0x00, 0x00, 0x00, 0x00, 0x00, 0x00, 0x00, 0x00, 0x00, 0x00, 0x00, 0x00, 0x00, 0x00, 0x00, 0x00, 0x00, 0x00, 0x00, 0x00, 0x00, 0x00, 0x00, 0x00, 0x00, 0x00, 0x00, 0x00, 0x00, 0x00, 0x00, 0x00, 0x00, 0x00, 0x00, 0x00, 0x00, 0x00, 0x00, 0x00, 0x00, 0x00, 0x00, 0x00, 0x00, 0x00, 0x00, 0x00, 0x00, 0x00, 0x00, 0x00, 0x00, 0x00, 0x00, 0x00, 0x00, 0x00, 0x00, 0x00, 0x00, 0x00, 0x00, 0x00, 0x00, 0x00, 0x00, 0x00, 0x00, 0x00, 0x00, 0x00, 0x00, 0x00, 0x00, 0x00, 0x00, 0x00, 0x00, 0x00, 0x00, 0x00, 0x00, 0x00, 0x00, 0x00, 0x00, 0x00, 0x00, 0x00, 0x00, 0x00, 0x00, 0x00, 0x00, 0x00, 0x00, 0x10, 0x00, 0x00, 0x00, 0xd3, 0x98, 0xbb, 0x3a, 0xf8, 0x0b, 0xc4, 0x3a, 0xce, 0xae, 0xc0, 0x3a, 0xa1, 0x68, 0xd0, 0x3a, 0xc0, 0xb4, 0xba, 0x3a, 0xec, 0x73, 0xa4, 0x3a, 0x7b, 0x29, 0xd3, 0x3a, 0x76, 0x4b, 0xad, 0x3a, 0x79, 0xe7, 0xc2, 0x3a, 0xa5, 0x89, 0xa5, 0x3a, 0xca, 0x83, 0xbb, 0x3a, 0x1f, 0xf2, 0xbe, 0x3a, 0x9c, 0x03, 0xd6, 0x3a, 0xbc, 0xb6, 0xad, 0x3a, 0x6d, 0x13, 0xbd, 0x3a, 0x15, 0x13, 0xd0, 0x3a, 0x12, 0x00, 0x00, 0x00, 0x74, 0x66, 0x6c, 0x2e, 0x70, 0x73, 0x65, 0x75, 0x64, 0x6f, 0x5f, 0x71, 0x63, 0x6f, 0x6e, 0x73, 0x74, 0x34, 0x00, 0x00, 0x01, 0x00, 0x00, 0x00, 0x10, 0x00, 0x00, 0x00, 0xea, 0xfc, 0xff, 0xff, 0x00, 0x00, 0x00, 0x01, 0x14, 0x00, 0x00, 0x00, 0xe8, 0x00, 0x00, 0x00, 0x06, 0x00, 0x00, 0x00, 0x00, 0x00, 0x00, 0x09, 0xf4, 0x00, 0x00, 0x00, 0x64, 0xfc, 0xff, 0xff, 0x08, 0x00, 0x00, 0x00, 0x8c, 0x00, 0x00, 0x00, 0x10, 0x00, 0x00, 0x00, 0x00, 0x00, 0x00, 0x00, 0x00, 0x00, 0x00, 0x00, 0x00, 0x00, 0x00, 0x00, 0x00, 0x00, 0x00, 0x00, 0x00, 0x00, 0x00, 0x00, 0x00, 0x00, 0x00, 0x00, 0x00, 0x00, 0x00, 0x00, 0x00, 0x00, 0x00, 0x00, 0x00, 0x00, 0x00, 0x00, 0x00, 0x00, 0x00, 0x00, 0x00, 0x00, 0x00, 0x00, 0x00, 0x00, 0x00, 0x00, 0x00, 0x00, 0x00, 0x00, 0x00, 0x00, 0x00, 0x00, 0x00, 0x00, 0x00, 0x00, 0x00, 0x00, 0x00, 0x00, 0x00, 0x00, 0x00, 0x00, 0x00, 0x00, 0x00, 0x00, 0x00, 0x00, 0x00, 0x00, 0x00, 0x00, 0x00, 0x00, 0x00, 0x00, 0x00, 0x00, 0x00, 0x00, 0x00, 0x00, 0x00, 0x00, 0x00, 0x00, 0x00, 0x00, 0x00, 0x00, 0x00, 0x00, 0x00, 0x00, 0x00, 0x00, 0x00, 0x00, 0x00, 0x00, 0x00, 0x00, 0x00, 0x00, 0x00, 0x00, 0x00, 0x00, 0x00, 0x00, 0x00, 0x00, 0x00, 0x00, 0x00, 0x00, 0x00, 0x00, 0x00, 0x00, 0x00, 0x00, 0x00, 0x00, 0x00, 0x00, 0x10, 0x00, 0x00, 0x00, 0x29, 0x8e, 0xe4, 0x3a, 0xc4, 0x7d, 0xa2, 0x3a, 0xf3, 0x47, 0x7c, 0x3a, 0x3a, 0x01, 0x84, 0x3a, 0x64, 0xb2, 0xba, 0x3a, 0x38, 0x8e, 0x86, 0x3a, 0x35, 0xa3, 0xaa, 0x3a, 0x02, 0xb0, 0x81, 0x3a, 0xd3, 0x11, 0x95, 0x3a, 0x43, 0x7c, 0x8d, 0x3a, 0x97, 0xe9, 0xb7, 0x3a, 0xdd, 0x68, 0x82, 0x3a, 0x9e, 0xc2, 0x7b, 0x3a, 0x76, 0xc6, 0xc9, 0x3a, 0x6d, 0x7b, 0x86, 0x3a, 0xfc, 0xf2, 0x84, 0x3a, 0x12, 0x00, 0x00, 0x00, 0x74, 0x66, 0x6c, 0x2e, 0x70, 0x73, 0x65, 0x75, 0x64, 0x6f, 0x5f, 0x71, 0x63, 0x6f, 0x6e, 0x73, 0x74, 0x33, 0x00, 0x00, 0x02, 0x00, 0x00, 0x00, 0x10, 0x00, 0x00, 0x00, 0x80, 0x01, 0x00, 0x00, 0x02, 0xfe, 0xff, 0xff, 0x00, 0x00, 0x00, 0x01, 0x14, 0x00, 0x00, 0x00, 0xe4, 0x00, 0x00, 0x00, 0x05, 0x00, 0x00, 0x00, 0x00, 0x00, 0x00, 0x02, 0xf0, 0x00, 0x00, 0x00, 0x7c, 0xfd, 0xff, 0xff, 0x08, 0x00, 0x00, 0x00, 0x88, 0x00, 0x00, 0x00, 0x10, 0x00, 0x00, 0x00, 0x00, 0x00, 0x00, 0x00, 0x00, 0x00, 0x00, 0x00, 0x00, 0x00, 0x00, 0x00, 0x00, 0x00, 0x00, 0x00, 0x00, 0x00, 0x00, 0x00, 0x00, 0x00, 0x00, 0x00, 0x00, 0x00, 0x00, 0x00, 0x00, 0x00, 0x00, 0x00, 0x00, 0x00, 0x00, 0x00, 0x00, 0x00, 0x00, 0x00, 0x00, 0x00, 0x00, 0x00, 0x00, 0x00, 0x00, 0x00, 0x00, 0x00, 0x00, 0x00, 0x00, 0x00, 0x00, 0x00, 0x00, 0x00, 0x00, 0x00, 0x00, 0x00, 0x00, 0x00, 0x00, 0x00, 0x00, 0x00, 0x00, 0x00, 0x00, 0x00, 0x00, 0x00, 0x00, 0x00, 0x00, 0x00, 0x00, 0x00, 0x00, 0x00, 0x00, 0x00, 0x00, 0x00, 0x00, 0x00, 0x00, 0x00, 0x00, 0x00, 0x00, 0x00, 0x00, 0x00, 0x00, 0x00, 0x00, 0x00, 0x00, 0x00, 0x00, 0x00, 0x00, 0x00, 0x00, 0x00, 0x00, 0x00, 0x00, 0x00, 0x00, 0x00, 0x00, 0x00, 0x00, 0x00, 0x00, 0x00, 0x00, 0x00, 0x00, 0x00, 0x00, 0x00, 0x00, 0x00, 0x10, 0x00, 0x00, 0x00, 0x9d, 0xb5, 0x33, 0x3a, 0x55, 0x87, 0xff, 0x39, 0x57, 0x5d, 0xc6, 0x39, 0x29, 0x96, 0xcf, 0x39, 0xf9, 0xcb, 0x12, 0x3a, 0x09, 0x99, 0xd3, 0x39, 0x6a, 0x2b, 0x06, 0x3a, 0x49, 0xf1, 0xcb, 0x39, 0x14, 0x6c, 0xea, 0x39, 0xd7, 0x7e, 0xde, 0x39, 0x83, 0x9b, 0x10, 0x3a, 0xfb, 0x13, 0xcd, 0x39, 0x81, 0xf4, 0xc5, 0x39, 0x16, 0xa7, 0x1e, 0x3a, 0x7c, 0x7b, 0xd3, 0x39, 0x57, 0x12, 0xd1, 0x39, 0x12, 0x00, 0x00, 0x00, 0x74, 0x66, 0x6c, 0x2e, 0x70, 0x73, 0x65, 0x75, 0x64, 0x6f, 0x5f, 0x71, 0x63, 0x6f, 0x6e, 0x73, 0x74, 0x32, 0x00, 0x00, 0x01, 0x00, 0x00, 0x00, 0x10, 0x00, 0x00, 0x00, 0x12, 0xff, 0xff, 0xff, 0x00, 0x00, 0x00, 0x01, 0x14, 0x00, 0x00, 0x00, 0x48, 0x00, 0x00, 0x00, 0x04, 0x00, 0x00, 0x00, 0x00, 0x00, 0x00, 0x09, 0x54, 0x00, 0x00, 0x00, 0x8c, 0xfe, 0xff, 0xff, 0x08, 0x00, 0x00, 0x00, 0x20, 0x00, 0x00, 0x00, 0x03, 0x00, 0x00, 0x00, 0x00, 0x00, 0x00, 0x00, 0x00, 0x00, 0x00, 0x00, 0x00, 0x00, 0x00, 0x00, 0x00, 0x00, 0x00, 0x00, 0x00, 0x00, 0x00, 0x00, 0x00, 0x00, 0x00, 0x00, 0x03, 0x00, 0x00, 0x00, 0x06, 0x10, 0x87, 0x3b, 0x11, 0x3c, 0x88, 0x3b, 0xfe, 0x56, 0x8d, 0x3b, 0x12, 0x00, 0x00, 0x00, 0x74, 0x66, 0x6c, 0x2e, 0x70, 0x73, 0x65, 0x75, 0x64, 0x6f, 0x5f, 0x71, 0x63, 0x6f, 0x6e, 0x73, 0x74, 0x31, 0x00, 0x00, 0x02, 0x00, 0x00, 0x00, 0x03, 0x00, 0x00, 0x00, 0x10, 0x00, 0x00, 0x00, 0x8a, 0xff, 0xff, 0xff, 0x00, 0x00, 0x00, 0x01, 0x14, 0x00, 0x00, 0x00, 0x48, 0x00, 0x00, 0x00, 0x03, 0x00, 0x00, 0x00, 0x00, 0x00, 0x00, 0x02, 0x54, 0x00, 0x00, 0x00, 0x04, 0xff, 0xff, 0xff, 0x08, 0x00, 0x00, 0x00, 0x20, 0x00, 0x00, 0x00, 0x03, 0x00, 0x00, 0x00, 0x00, 0x00, 0x00, 0x00, 0x00, 0x00, 0x00, 0x00, 0x00, 0x00, 0x00, 0x00, 0x00, 0x00, 0x00, 0x00, 0x00, 0x00, 0x00, 0x00, 0x00, 0x00, 0x00, 0x00, 0x03, 0x00, 0x00, 0x00, 0xf3, 0x01, 0x76, 0x3a, 0x75, 0x24, 0x78, 0x3a, 0x78, 0xb8, 0x80, 0x3a, 0x11, 0x00, 0x00, 0x00, 0x74, 0x66, 0x6c, 0x2e, 0x70, 0x73, 0x65, 0x75, 0x64, 0x6f, 0x5f, 0x71, 0x63, 0x6f, 0x6e, 0x73, 0x74, 0x00, 0x00, 0x00, 0x01, 0x00, 0x00, 0x00, 0x03, 0x00, 0x00, 0x00, 0x00, 0x00, 0x16, 0x00, 0x1c, 0x00, 0x18, 0x00, 0x17, 0x00, 0x10, 0x00, 0x0c, 0x00, 0x08, 0x00, 0x00, 0x00, 0x00, 0x00, 0x00, 0x00, 0x07, 0x00, 0x16, 0x00, 0x00, 0x00, 0x00, 0x00, 0x00, 0x01, 0x18, 0x00, 0x00, 0x00, 0x18, 0x00, 0x00, 0x00, 0x02, 0x00, 0x00, 0x00, 0x00, 0x00, 0x00, 0x02, 0x20, 0x00, 0x00, 0x00, 0x04, 0x00, 0x04, 0x00, 0x04, 0x00, 0x00, 0x00, 0x0e, 0x00, 0x00, 0x00, 0x61, 0x72, 0x69, 0x74, 0x68, 0x2e, 0x63, 0x6f, 0x6e, 0x73, 0x74, 0x61, 0x6e, 0x74, 0x00, 0x00, 0x01, 0x00, 0x00, 0x00, 0x02, 0x00, 0x00, 0x00, 0x00, 0x00, 0x16, 0x00, 0x20, 0x00, 0x1c, 0x00, 0x1b, 0x00, 0x14, 0x00, 0x10, 0x00, 0x0c, 0x00, 0x00, 0x00, 0x00, 0x00, 0x08, 0x00, 0x07, 0x00, 0x16, 0x00, 0x00, 0x00, 0x00, 0x00, 0x00, 0x01, 0x18, 0x00, 0x00, 0x00, 0x34, 0x00, 0x00, 0x00, 0x54, 0x00, 0x00, 0x00, 0x01, 0x00, 0x00, 0x00, 0x00, 0x00, 0x00, 0x09, 0x6c, 0x00, 0x00, 0x00, 0x04, 0x00, 0x00, 0x00, 0xff, 0xff, 0xff, 0xff, 0x20, 0x00, 0x00, 0x00, 0x0d, 0x00, 0x00, 0x00, 0x01, 0x00, 0x00, 0x00, 0x0c, 0x00, 0x0c, 0x00, 0x00, 0x00, 0x00, 0x00, 0x08, 0x00, 0x04, 0x00, 0x0c, 0x00, 0x00, 0x00, 0x08, 0x00, 0x00, 0x00, 0x14, 0x00, 0x00, 0x00, 0x01, 0x00, 0x00, 0x00, 0x36, 0x00, 0x00, 0x00, 0x00, 0x00, 0x00, 0x00, 0x00, 0x00, 0x00, 0x00, 0x01, 0x00, 0x00, 0x00, 0x6d, 0xa1, 0x39, 0x40, 0x1e, 0x00, 0x00, 0x00, 0x73, 0x65, 0x72, 0x76, 0x69, 0x6e, 0x67, 0x5f, 0x64, 0x65, 0x66, 0x61, 0x75, 0x6c, 0x74, 0x5f, 0x6b, 0x65, 0x72, 0x61, 0x73, 0x5f, 0x74, 0x65, 0x6e, 0x73, 0x6f, 0x72, 0x3a, 0x30, 0x00, 0x00, 0x04, 0x00, 0x00, 0x00, 0x01, 0x00, 0x00, 0x00, 0x20, 0x00, 0x00, 0x00, 0x0d, 0x00, 0x00, 0x00, 0x01, 0x00, 0x00, 0x00, 0x05, 0x00, 0x00, 0x00, 0x68, 0x00, 0x00, 0x00, 0x48, 0x00, 0x00, 0x00, 0x38, 0x00, 0x00, 0x00, 0x18, 0x00, 0x00, 0x00, 0x04, 0x00, 0x00, 0x00, 0xb8, 0xff, 0xff, 0xff, 0x19, 0x00, 0x00, 0x00, 0x02, 0x00, 0x00, 0x00, 0x00, 0x00, 0x00, 0x19, 0xc8, 0xff, 0xff, 0xff, 0x09, 0x00, 0x00, 0x00, 0x04, 0x00, 0x00, 0x00, 0x00, 0x00, 0x00, 0x09, 0x0c, 0x00, 0x0c, 0x00, 0x0b, 0x00, 0x00, 0x00, 0x00, 0x00, 0x04, 0x00, 0x0c, 0x00, 0x00, 0x00, 0x16, 0x00, 0x00, 0x00, 0x00, 0x00, 0x00, 0x16, 0xf0, 0xff, 0xff, 0xff, 0x11, 0x00, 0x00, 0x00, 0x02, 0x00, 0x00, 0x00, 0x00, 0x00, 0x00, 0x11, 0x0c, 0x00, 0x10, 0x00, 0x0f, 0x00, 0x00, 0x00, 0x08, 0x00, 0x04, 0x00, 0x0c, 0x00, 0x00, 0x00, 0x03, 0x00, 0x00, 0x00, 0x03, 0x00, 0x00, 0x00, 0x00, 0x00, 0x00, 0x03
};
const unsigned int audio_model_len = 12488;
