// Auto-generated by pipeline
#include <stdint.h>

const unsigned char audio_model[] = {
0x1c, 0x00, 0x00, 0x00, 0x54, 0x46, 0x4c, 0x33, 0x14, 0x00, 0x20, 0x00, 0x1c, 0x00, 0x18, 0x00, 0x14, 0x00, 0x10, 0x00, 0x0c, 0x00, 0x00, 0x00, 0x08, 0x00, 0x04, 0x00, 0x14, 0x00, 0x00, 0x00, 0x1c, 0x00, 0x00, 0x00, 0x8c, 0x00, 0x00, 0x00, 0x0c, 0x01, 0x00, 0x00, 0x48, 0x20, 0x00, 0x00, 0x58, 0x20, 0x00, 0x00, 0x18, 0x30, 0x00, 0x00, 0x03, 0x00, 0x00, 0x00, 0x01, 0x00, 0x00, 0x00, 0x04, 0x00, 0x00, 0x00, 0xae, 0xde, 0xff, 0xff, 0x0c, 0x00, 0x00, 0x00, 0x1c, 0x00, 0x00, 0x00, 0x3c, 0x00, 0x00, 0x00, 0x0f, 0x00, 0x00, 0x00, 0x73, 0x65, 0x72, 0x76, 0x69, 0x6e, 0x67, 0x5f, 0x64, 0x65, 0x66, 0x61, 0x75, 0x6c, 0x74, 0x00, 0x01, 0x00, 0x00, 0x00, 0x04, 0x00, 0x00, 0x00, 0x68, 0xff, 0xff, 0xff, 0x11, 0x00, 0x00, 0x00, 0x04, 0x00, 0x00, 0x00, 0x08, 0x00, 0x00, 0x00, 0x6f, 0x75, 0x74, 0x70, 0x75, 0x74, 0x5f, 0x30, 0x00, 0x00, 0x00, 0x00, 0x01, 0x00, 0x00, 0x00, 0x04, 0x00, 0x00, 0x00, 0x92, 0xdf, 0xff, 0xff, 0x04, 0x00, 0x00, 0x00, 0x0c, 0x00, 0x00, 0x00, 0x6b, 0x65, 0x72, 0x61, 0x73, 0x5f, 0x74, 0x65, 0x6e, 0x73, 0x6f, 0x72, 0x00, 0x00, 0x00, 0x00, 0x03, 0x00, 0x00, 0x00, 0x5c, 0x00, 0x00, 0x00, 0x2c, 0x00, 0x00, 0x00, 0x04, 0x00, 0x00, 0x00, 0xb8, 0xff, 0xff, 0xff, 0x15, 0x00, 0x00, 0x00, 0x04, 0x00, 0x00, 0x00, 0x13, 0x00, 0x00, 0x00, 0x43, 0x4f, 0x4e, 0x56, 0x45, 0x52, 0x53, 0x49, 0x4f, 0x4e, 0x5f, 0x4d, 0x45, 0x54, 0x41, 0x44, 0x41, 0x54, 0x41, 0x00, 0xdc, 0xff, 0xff, 0xff, 0x14, 0x00, 0x00, 0x00, 0x04, 0x00, 0x00, 0x00, 0x13, 0x00, 0x00, 0x00, 0x6d, 0x69, 0x6e, 0x5f, 0x72, 0x75, 0x6e, 0x74, 0x69, 0x6d, 0x65, 0x5f, 0x76, 0x65, 0x72, 0x73, 0x69, 0x6f, 0x6e, 0x00, 0x08, 0x00, 0x0c, 0x00, 0x08, 0x00, 0x04, 0x00, 0x08, 0x00, 0x00, 0x00, 0x13, 0x00, 0x00, 0x00, 0x04, 0x00, 0x00, 0x00, 0x13, 0x00, 0x00, 0x00, 0x6d, 0x69, 0x6e, 0x5f, 0x72, 0x75, 0x6e, 0x74, 0x69, 0x6d, 0x65, 0x5f, 0x76, 0x65, 0x72, 0x73, 0x69, 0x6f, 0x6e, 0x00, 0x16, 0x00, 0x00, 0x00, 0x38, 0x1f, 0x00, 0x00, 0x30, 0x1f, 0x00, 0x00, 0x18, 0x1f, 0x00, 0x00, 0xfc, 0x1e, 0x00, 0x00, 0xbc, 0x1e, 0x00, 0x00, 0x6c, 0x1e, 0x00, 0x00, 0x5c, 0x06, 0x00, 0x00, 0x0c, 0x06, 0x00, 0x00, 0x7c, 0x01, 0x00, 0x00, 0x4c, 0x01, 0x00, 0x00, 0xf4, 0x00, 0x00, 0x00, 0xec, 0x00, 0x00, 0x00, 0xe4, 0x00, 0x00, 0x00, 0xdc, 0x00, 0x00, 0x00, 0xd4, 0x00, 0x00, 0x00, 0xcc, 0x00, 0x00, 0x00, 0xc4, 0x00, 0x00, 0x00, 0xbc, 0x00, 0x00, 0x00, 0xb4, 0x00, 0x00, 0x00, 0x94, 0x00, 0x00, 0x00, 0x74, 0x00, 0x00, 0x00, 0x04, 0x00, 0x00, 0x00, 0x8e, 0xe0, 0xff, 0xff, 0x04, 0x00, 0x00, 0x00, 0x60, 0x00, 0x00, 0x00, 0x0c, 0x00, 0x00, 0x00, 0x08, 0x00, 0x0e, 0x00, 0x08, 0x00, 0x04, 0x00, 0x08, 0x00, 0x00, 0x00, 0x10, 0x00, 0x00, 0x00, 0x28, 0x00, 0x00, 0x00, 0x00, 0x00, 0x06, 0x00, 0x08, 0x00, 0x04, 0x00, 0x06, 0x00, 0x00, 0x00, 0x04, 0x00, 0x00, 0x00, 0x01, 0x00, 0x00, 0x00, 0xeb, 0x03, 0x00, 0x00, 0x0c, 0x00, 0x18, 0x00, 0x14, 0x00, 0x10, 0x00, 0x0c, 0x00, 0x04, 0x00, 0x0c, 0x00, 0x00, 0x00, 0xbb, 0x46, 0x89, 0xff, 0xc6, 0x44, 0x1d, 0x13, 0x02, 0x00, 0x00, 0x00, 0x02, 0x00, 0x00, 0x00, 0x04, 0x00, 0x00, 0x00, 0x06, 0x00, 0x00, 0x00, 0x32, 0x2e, 0x31, 0x39, 0x2e, 0x30, 0x00, 0x00, 0xfa, 0xe0, 0xff, 0xff, 0x04, 0x00, 0x00, 0x00, 0x10, 0x00, 0x00, 0x00, 0x00, 0x00, 0x00, 0x00, 0x00, 0x00, 0x00, 0x00, 0x00, 0x00, 0x00, 0x00, 0x00, 0x00, 0x00, 0x00, 0x16, 0xe1, 0xff, 0xff, 0x04, 0x00, 0x00, 0x00, 0x10, 0x00, 0x00, 0x00, 0x31, 0x2e, 0x31, 0x34, 0x2e, 0x30, 0x00, 0x00, 0x00, 0x00, 0x00, 0x00, 0x00, 0x00, 0x00, 0x00, 0xc0, 0xd2, 0xff, 0xff, 0xc4, 0xd2, 0xff, 0xff, 0xc8, 0xd2, 0xff, 0xff, 0xcc, 0xd2, 0xff, 0xff, 0xd0, 0xd2, 0xff, 0xff, 0xd4, 0xd2, 0xff, 0xff, 0xd8, 0xd2, 0xff, 0xff, 0xdc, 0xd2, 0xff, 0xff, 0x52, 0xe1, 0xff, 0xff, 0x04, 0x00, 0x00, 0x00, 0x48, 0x00, 0x00, 0x00, 0x74, 0x7f, 0x37, 0x63, 0xe2, 0x1e, 0x52, 0xf4, 0x67, 0x61, 0xc2, 0x94, 0x20, 0x50, 0xd0, 0x19, 0x7f, 0xad, 0xb6, 0x81, 0xc7, 0x5a, 0x1f, 0xdf, 0x95, 0x01, 0x70, 0xd2, 0xf7, 0x87, 0xa2, 0x18, 0x81, 0xd2, 0x8c, 0x83, 0xfc, 0x28, 0x16, 0x81, 0x1c, 0x2f, 0x0b, 0xcb, 0x14, 0x14, 0x73, 0x81, 0x13, 0x38, 0x31, 0xb4, 0x5f, 0x98, 0x40, 0x40, 0x48, 0xc2, 0xdf, 0x19, 0x81, 0xfa, 0xa1, 0xcf, 0xdd, 0xde, 0x76, 0x52, 0x91, 0x86, 0x42, 0x81, 0xa6, 0xe1, 0xff, 0xff, 0x04, 0x00, 0x00, 0x00, 0x20, 0x00, 0x00, 0x00, 0x00, 0x00, 0x00, 0x00, 0x01, 0x00, 0x00, 0x00, 0xff, 0xff, 0xff, 0xff, 0xff, 0xff, 0xff, 0xff, 0x01, 0x00, 0x00, 0x00, 0x02, 0x00, 0x00, 0x00, 0xfb, 0xff, 0xff, 0xff, 0x04, 0x00, 0x00, 0x00, 0xd2, 0xe1, 0xff, 0xff, 0x04, 0x00, 0x00, 0x00, 0x80, 0x04, 0x00, 0x00, 0xf6, 0xe7, 0xa8, 0xb1, 0x35, 0xb1, 0x97, 0xef, 0xe2, 0xf1, 0x55, 0x67, 0x46, 0x30, 0x1f, 0x2a, 0x1a, 0xc7, 0xbd, 0x22, 0xe2, 0x34, 0xb3, 0x19, 0xf9, 0x67, 0xdf, 0xbf, 0xa1, 0x4d, 0x42, 0xb6, 0x81, 0xf0, 0x42, 0x0d, 0xc5, 0x44, 0x2b, 0x1d, 0x9d, 0x9f, 0xb4, 0x5b, 0xd6, 0x9d, 0xf9, 0x05, 0x52, 0x4e, 0x67, 0x6f, 0xdc, 0x44, 0x3f, 0x6d, 0xa3, 0xd4, 0x20, 0x68, 0xae, 0xbf, 0x4b, 0x92, 0x2f, 0xac, 0xa5, 0xda, 0x91, 0x8f, 0x04, 0x1b, 0xb5, 0x98, 0x04, 0xc1, 0x18, 0xeb, 0xc3, 0x37, 0xc3, 0xc5, 0x2d, 0x5e, 0x60, 0x26, 0xc4, 0x81, 0x39, 0x6f, 0xdb, 0xe8, 0xe6, 0xf0, 0x30, 0xe1, 0xe5, 0x9b, 0x88, 0x60, 0xb3, 0xc2, 0x41, 0xd1, 0x3a, 0xea, 0x36, 0xa4, 0xd7, 0x8e, 0x62, 0x88, 0x1d, 0x0f, 0x0b, 0xb8, 0x85, 0xae, 0xff, 0x7f, 0x88, 0x1b, 0x45, 0xa0, 0x41, 0xd1, 0xc2, 0xc7, 0x51, 0xb9, 0x4c, 0x36, 0x2f, 0x84, 0xc3, 0x3e, 0xe4, 0x6a, 0xc7, 0x9b, 0xbb, 0x38, 0xd0, 0x44, 0x8c, 0x3f, 0xce, 0xbb, 0x65, 0x01, 0x0f, 0x0e, 0x47, 0xb9, 0xe9, 0x1e, 0x74, 0x0b, 0x17, 0xd3, 0xd4, 0xd8, 0xf9, 0x5d, 0x71, 0xbb, 0x94, 0xcd, 0x54, 0x3a, 0x1e, 0xab, 0x60, 0x86, 0xb5, 0x21, 0x71, 0x7f, 0x08, 0x45, 0xcf, 0x6d, 0xbb, 0x6a, 0x42, 0xe5, 0xcd, 0x60, 0x74, 0xaf, 0xc7, 0x35, 0xa4, 0xe9, 0xa7, 0x41, 0x78, 0xab, 0xf3, 0x2f, 0x51, 0x45, 0x8d, 0x85, 0x35, 0x70, 0x5c, 0xc5, 0x54, 0x94, 0x73, 0x36, 0xdb, 0x17, 0x60, 0x53, 0x8d, 0x3c, 0xd8, 0xcf, 0xd6, 0xc5, 0xa4, 0xc6, 0x4d, 0x93, 0xcf, 0x55, 0x24, 0x89, 0xd8, 0xc1, 0x5c, 0xba, 0xf6, 0xa1, 0x4b, 0x8a, 0xd8, 0xb4, 0x46, 0xdc, 0xd1, 0x11, 0xde, 0x88, 0x8a, 0x05, 0x5d, 0xb9, 0xcb, 0x5e, 0x6a, 0x81, 0x04, 0x20, 0x39, 0x97, 0xe0, 0x6d, 0x67, 0x32, 0x65, 0x3f, 0xdf, 0xe8, 0xff, 0x9a, 0xcd, 0xaf, 0x92, 0x3a, 0x33, 0xac, 0x9b, 0xe3, 0x64, 0x1b, 0x02, 0xb8, 0xfc, 0x0e, 0x61, 0x78, 0xe6, 0xe2, 0xcc, 0x2f, 0xd0, 0xf4, 0x6a, 0x96, 0xa0, 0x77, 0x24, 0x25, 0xb8, 0x60, 0x48, 0x17, 0xb5, 0xf2, 0x1f, 0x4c, 0x85, 0x28, 0x03, 0xd0, 0x74, 0x42, 0x2e, 0x50, 0xb2, 0x47, 0x70, 0x06, 0x48, 0x2a, 0x5f, 0xc1, 0xde, 0x3d, 0xc2, 0x86, 0x0e, 0xa1, 0xf7, 0x38, 0x08, 0x2f, 0xeb, 0x9a, 0x6b, 0xc7, 0x9b, 0x4a, 0xd0, 0x36, 0x7f, 0xc8, 0x2e, 0xcc, 0x29, 0xf6, 0xed, 0x1d, 0x56, 0x31, 0x59, 0x19, 0x6c, 0x91, 0x5a, 0xea, 0x09, 0xb0, 0xe7, 0xba, 0x94, 0xab, 0x6a, 0x40, 0xde, 0xdc, 0xd4, 0x55, 0x58, 0x25, 0x2b, 0x8b, 0x59, 0xa6, 0x4f, 0xe3, 0xb5, 0x49, 0xca, 0x13, 0x4f, 0xc7, 0xbf, 0xad, 0xb3, 0x0c, 0xdf, 0x65, 0x2e, 0xb1, 0x2a, 0x60, 0xdc, 0xc3, 0x18, 0xa6, 0x0f, 0xa3, 0xd1, 0xa2, 0x13, 0xb8, 0xc1, 0x2f, 0x37, 0xa6, 0xa4, 0x7f, 0xa7, 0x00, 0xfe, 0xcd, 0x06, 0x30, 0xbd, 0x62, 0x5e, 0xc3, 0x02, 0x4f, 0x12, 0x3f, 0x35, 0x5e, 0xc1, 0x35, 0x72, 0x7c, 0x49, 0x97, 0x0d, 0x0d, 0xa7, 0xa9, 0xaf, 0xba, 0xbd, 0xc5, 0x4b, 0x3a, 0x26, 0xc9, 0xb5, 0x1b, 0xe1, 0x8e, 0xf8, 0x72, 0x9f, 0x08, 0x6b, 0x08, 0xab, 0xd9, 0x9d, 0x27, 0xcf, 0x3b, 0xa2, 0x5e, 0x63, 0x30, 0x26, 0x07, 0xde, 0x4f, 0x6e, 0x96, 0xf0, 0xbb, 0x07, 0xe3, 0xcb, 0x7f, 0x9f, 0xa7, 0xc8, 0x41, 0x2b, 0x39, 0xba, 0xf4, 0x55, 0x42, 0xb7, 0x1c, 0x17, 0x39, 0xfc, 0x3f, 0xbd, 0xc8, 0x8f, 0x7b, 0x70, 0xad, 0x13, 0xfd, 0x24, 0xa7, 0x39, 0xc6, 0x7b, 0xd5, 0x0f, 0x08, 0xb9, 0xb9, 0x06, 0xbd, 0xe3, 0xd5, 0xe2, 0x26, 0xb5, 0x7f, 0x9d, 0x62, 0x1c, 0xea, 0x33, 0xc3, 0xe5, 0xe3, 0x6b, 0x6f, 0xc2, 0x27, 0x14, 0x46, 0xb4, 0xe9, 0xea, 0x38, 0x21, 0x43, 0xb2, 0xcf, 0xc7, 0x5f, 0x15, 0x01, 0x53, 0x29, 0x39, 0x21, 0xf7, 0x7d, 0x20, 0x21, 0xe5, 0xb6, 0xeb, 0x34, 0x5b, 0xed, 0x27, 0x05, 0x12, 0xc1, 0xce, 0x61, 0xec, 0x3b, 0x6a, 0xae, 0x4f, 0x22, 0xa5, 0xf1, 0xb1, 0xed, 0xbf, 0xbf, 0x9e, 0x20, 0x27, 0x4c, 0x16, 0xaa, 0xde, 0x22, 0x00, 0xb6, 0xc2, 0x97, 0xed, 0x37, 0x4e, 0x81, 0xa7, 0x32, 0x0a, 0x01, 0x4b, 0x2e, 0x5e, 0xe4, 0x2f, 0x62, 0x46, 0x17, 0xf0, 0x68, 0x24, 0x85, 0xc2, 0x2b, 0x69, 0xf6, 0xd5, 0xf7, 0x5a, 0xae, 0x21, 0x2f, 0xf9, 0x00, 0x4d, 0x15, 0xac, 0xc5, 0x93, 0x3c, 0x0b, 0xbc, 0xa8, 0x8e, 0x5b, 0x21, 0x3c, 0x5b, 0x40, 0x22, 0xae, 0x61, 0xe9, 0x50, 0x4f, 0x37, 0x90, 0x23, 0xcd, 0x08, 0x96, 0x2e, 0xa6, 0xbb, 0xb8, 0x86, 0xb6, 0xf7, 0xdb, 0x7f, 0x38, 0x09, 0xb0, 0x9d, 0x52, 0x86, 0x5c, 0xf0, 0x99, 0x58, 0xe1, 0xb6, 0x78, 0xc8, 0x75, 0xdb, 0x16, 0x07, 0xa3, 0x76, 0x1e, 0x7b, 0x5b, 0xea, 0xad, 0xbc, 0xa3, 0x47, 0xfd, 0x6c, 0x63, 0xdf, 0x46, 0x2a, 0xc5, 0xd6, 0xa0, 0xcf, 0xef, 0xbf, 0x5a, 0xc7, 0x50, 0xed, 0xbb, 0x32, 0xb1, 0x5b, 0xbe, 0x36, 0xf5, 0x31, 0x8b, 0x51, 0x9e, 0x6f, 0x05, 0x50, 0x0e, 0xcf, 0x82, 0x13, 0xe7, 0xe9, 0x2a, 0x12, 0x35, 0x15, 0x68, 0xda, 0x21, 0xec, 0x9d, 0xc2, 0x3f, 0x53, 0x8b, 0x0a, 0x20, 0x9a, 0x9c, 0xb2, 0x46, 0xa5, 0xd0, 0x3a, 0x89, 0xe1, 0xb7, 0xcf, 0xba, 0x60, 0x33, 0x77, 0xd8, 0x6e, 0xba, 0x69, 0xdc, 0x4d, 0x6d, 0x55, 0x32, 0x65, 0x5c, 0x3c, 0xbc, 0x12, 0xef, 0x7f, 0xc1, 0x56, 0x3a, 0x24, 0x57, 0x0f, 0xa3, 0x96, 0x1c, 0xa4, 0x07, 0xb5, 0xc7, 0xdf, 0x4f, 0xd1, 0x4e, 0xc3, 0x73, 0x3c, 0x22, 0x62, 0xb1, 0x76, 0xac, 0x04, 0x32, 0x2e, 0x7a, 0x93, 0x61, 0x53, 0xc5, 0x6c, 0xd5, 0xb5, 0xab, 0x2a, 0xd0, 0x73, 0x36, 0xae, 0x18, 0xcc, 0x26, 0x4e, 0xa5, 0x81, 0x4f, 0xed, 0x69, 0x0f, 0xe3, 0x0e, 0x39, 0x47, 0x71, 0xbb, 0x8f, 0x45, 0x70, 0xc2, 0x5a, 0x27, 0xe4, 0x1b, 0xe5, 0xbe, 0xc6, 0xc1, 0xcc, 0xbb, 0x1f, 0x01, 0x64, 0xe8, 0x96, 0xd0, 0xdd, 0xf0, 0x13, 0x51, 0x03, 0x09, 0xb7, 0x3d, 0xa4, 0x17, 0x55, 0xd5, 0xf6, 0xea, 0x60, 0xdc, 0xae, 0xf9, 0xbd, 0xc2, 0xaf, 0x6a, 0x3c, 0x33, 0x9b, 0xdc, 0x74, 0xed, 0x15, 0xb0, 0x5c, 0x0f, 0x20, 0xba, 0xe0, 0xa6, 0x8b, 0xf5, 0x84, 0x60, 0x9c, 0x14, 0x4a, 0x46, 0x73, 0x4b, 0x7f, 0xf3, 0x32, 0xd6, 0x03, 0x5b, 0xff, 0xa8, 0x2b, 0xe0, 0x56, 0x5a, 0x4a, 0xe0, 0xdc, 0xe9, 0xa5, 0x00, 0x0e, 0xb7, 0x4c, 0xab, 0x22, 0xbb, 0x88, 0x7b, 0xa6, 0x3b, 0x1b, 0x6a, 0x1f, 0xb6, 0x8b, 0xf4, 0x5e, 0xf8, 0xec, 0x13, 0xe4, 0x8c, 0x30, 0x3c, 0x65, 0xc5, 0x15, 0x20, 0x72, 0xe9, 0x2d, 0x24, 0x75, 0x54, 0x6f, 0x49, 0x4b, 0x9f, 0x96, 0x51, 0x6f, 0xbe, 0x9c, 0x9c, 0x53, 0xeb, 0xc0, 0xd0, 0xb7, 0xa4, 0xfc, 0xe9, 0x35, 0xe6, 0x85, 0x3b, 0xef, 0x81, 0x42, 0x4f, 0x40, 0x1d, 0x08, 0x79, 0x9c, 0xc5, 0x2b, 0x41, 0x2d, 0x72, 0x10, 0x7d, 0xfc, 0x8e, 0xbf, 0x9b, 0x2a, 0xa9, 0x0f, 0x6a, 0xb3, 0xef, 0xa9, 0x4d, 0x71, 0x8e, 0x3b, 0x76, 0x55, 0x49, 0x48, 0xb9, 0x66, 0x38, 0x1d, 0x0f, 0xff, 0xe2, 0x81, 0x25, 0xa3, 0x04, 0xaf, 0x97, 0x66, 0xed, 0x1d, 0xdf, 0x07, 0x33, 0xf0, 0xf5, 0xff, 0x56, 0xfe, 0x6a, 0xef, 0xdd, 0x2d, 0xc3, 0xfc, 0xe3, 0xd7, 0x07, 0x17, 0xe2, 0x15, 0xc7, 0x3d, 0xba, 0x5c, 0xc7, 0x9d, 0x12, 0x77, 0xbe, 0x7f, 0xeb, 0x4a, 0xfd, 0x08, 0xef, 0x1c, 0x0b, 0x51, 0x0e, 0x9a, 0xc5, 0x88, 0x3e, 0x62, 0x86, 0xfb, 0x54, 0xb8, 0x19, 0x47, 0xdb, 0xe6, 0xcf, 0xba, 0xd5, 0xd9, 0xc5, 0x6e, 0xea, 0x14, 0xa7, 0x32, 0x5b, 0x42, 0xa6, 0x31, 0x42, 0xaa, 0xa6, 0x16, 0x41, 0x03, 0x87, 0x4e, 0x63, 0xfe, 0xba, 0x0a, 0xbe, 0x95, 0x9d, 0x8f, 0xfc, 0x18, 0x55, 0x1a, 0x07, 0x30, 0x81, 0x31, 0xcc, 0x3c, 0x74, 0x8d, 0xb3, 0xb7, 0x8c, 0x95, 0x5b, 0x08, 0x1a, 0xdd, 0xb7, 0xc1, 0x9b, 0xb2, 0x60, 0xad, 0xc0, 0x63, 0x9c, 0x16, 0xc1, 0x8a, 0xfc, 0x30, 0xc9, 0x74, 0xc1, 0x6d, 0x70, 0x9c, 0xf7, 0x0a, 0x84, 0x25, 0x1d, 0x33, 0xcf, 0x71, 0x6e, 0xcc, 0xa9, 0x0c, 0xc5, 0x8b, 0xce, 0x99, 0x96, 0xa7, 0x22, 0x5e, 0xe6, 0xff, 0xff, 0x04, 0x00, 0x00, 0x00, 0x40, 0x00, 0x00, 0x00, 0xf9, 0xff, 0xff, 0xff, 0xf1, 0xff, 0xff, 0xff, 0x01, 0x00, 0x00, 0x00, 0xf5, 0xff, 0xff, 0xff, 0x0c, 0x00, 0x00, 0x00, 0x00, 0x00, 0x00, 0x00, 0x12, 0x00, 0x00, 0x00, 0x0c, 0x00, 0x00, 0x00, 0xff, 0xff, 0xff, 0xff, 0xf6, 0xff, 0xff, 0xff, 0x04, 0x00, 0x00, 0x00, 0xf9, 0xff, 0xff, 0xff, 0x01, 0x00, 0x00, 0x00, 0x10, 0x00, 0x00, 0x00, 0x06, 0x00, 0x00, 0x00, 0x09, 0x00, 0x00, 0x00, 0xaa, 0xe6, 0xff, 0xff, 0x04, 0x00, 0x00, 0x00, 0x00, 0x18, 0x00, 0x00, 0x48, 0x2e, 0x0f, 0xc3, 0x56, 0x5a, 0xbc, 0x10, 0xd4, 0xb8, 0x40, 0x47, 0x4c, 0x92, 0x93, 0x26, 0x2d, 0x09, 0x0b, 0x5d, 0x38, 0xec, 0x32, 0x62, 0xe3, 0x56, 0x9d, 0xf0, 0x94, 0x8a, 0x3b, 0x6a, 0xa5, 0x42, 0x11, 0x00, 0x0c, 0x1c, 0xff, 0x23, 0xb5, 0xbd, 0x31, 0x00, 0xb0, 0xd7, 0xd1, 0xcb, 0x1d, 0x97, 0xa1, 0x60, 0xa3, 0xf5, 0x33, 0x2b, 0x42, 0xfc, 0x48, 0x86, 0xe7, 0x30, 0xd6, 0x48, 0xb7, 0xdf, 0xde, 0xe8, 0x3a, 0xc4, 0x9a, 0xc6, 0xf1, 0xf3, 0x2d, 0xbd, 0xd0, 0xda, 0xb5, 0x3d, 0x5a, 0xd8, 0xde, 0xf9, 0xa8, 0xcf, 0x0e, 0xb6, 0xd2, 0x11, 0x22, 0x51, 0x0e, 0xf9, 0xac, 0xa2, 0xd7, 0xfb, 0x5e, 0x5a, 0xec, 0xdd, 0x41, 0x46, 0x1b, 0xae, 0xa8, 0x0d, 0x92, 0xbc, 0x9c, 0xcc, 0x3d, 0xd7, 0x35, 0x93, 0xc0, 0x03, 0xc3, 0x78, 0x04, 0xa5, 0xf0, 0x97, 0xc9, 0x04, 0x1a, 0x3d, 0xed, 0x25, 0x04, 0xf6, 0xc8, 0x25, 0x34, 0xb7, 0xa4, 0x6a, 0xc5, 0xdc, 0x1a, 0x19, 0x4b, 0xa3, 0xaf, 0x1d, 0x6d, 0xff, 0x1a, 0xae, 0x89, 0xef, 0xc4, 0xb4, 0x49, 0xba, 0x24, 0xb9, 0xfc, 0xe2, 0xd6, 0x99, 0xb7, 0xeb, 0x2f, 0x58, 0x8c, 0x2c, 0xe0, 0x2f, 0xea, 0x47, 0xcb, 0xb5, 0x23, 0xf1, 0xf3, 0x2b, 0xc8, 0x99, 0x17, 0x3e, 0x34, 0x67, 0x52, 0x55, 0x0a, 0x50, 0x8f, 0x12, 0x39, 0x8e, 0x8c, 0x26, 0x54, 0x17, 0x0a, 0xc8, 0x36, 0x1b, 0x05, 0x61, 0x60, 0xd6, 0x97, 0xd3, 0xcc, 0xfc, 0xd6, 0x18, 0xbb, 0x99, 0xef, 0xaa, 0xf7, 0x7f, 0x23, 0xbc, 0xfc, 0xcb, 0xfa, 0x31, 0x4e, 0x01, 0xe8, 0x38, 0x9d, 0x60, 0xba, 0x66, 0x6f, 0x25, 0xaa, 0x5a, 0x1d, 0x69, 0x5a, 0x26, 0xaf, 0x46, 0xe8, 0x55, 0x1c, 0xc0, 0xd3, 0x03, 0x63, 0x56, 0x40, 0x9a, 0x20, 0xbb, 0x21, 0xf2, 0xa2, 0x44, 0xc3, 0xf4, 0x4b, 0x5d, 0xc9, 0x72, 0x62, 0x26, 0x5d, 0x54, 0xa0, 0xe6, 0x53, 0x95, 0xd2, 0x2e, 0x18, 0x95, 0xaa, 0x0d, 0x30, 0x29, 0xbf, 0x37, 0xc0, 0xe6, 0x6a, 0xd7, 0x28, 0x4c, 0x56, 0x5b, 0x5d, 0x62, 0x1d, 0xbb, 0xc4, 0x99, 0xb2, 0xf6, 0xf7, 0x03, 0x29, 0x88, 0xcc, 0x3d, 0xcc, 0x43, 0xf6, 0xc7, 0x68, 0xc8, 0x88, 0x37, 0x44, 0x7e, 0xd3, 0x5e, 0xc7, 0xa7, 0xf0, 0x2d, 0x4b, 0x6e, 0x9f, 0x47, 0x3b, 0xa7, 0x20, 0x64, 0x03, 0x04, 0xd2, 0xb0, 0xd8, 0x02, 0x1e, 0xe7, 0x48, 0xd2, 0x3b, 0xb3, 0x4f, 0x01, 0xee, 0xad, 0xe7, 0xd4, 0x54, 0x47, 0xd8, 0xe6, 0x11, 0x5a, 0x6c, 0x41, 0xd0, 0x2a, 0xb7, 0x30, 0x31, 0xc8, 0x1a, 0xb9, 0x46, 0x21, 0xf4, 0xa1, 0xdb, 0x60, 0x53, 0xd8, 0x4a, 0xbd, 0x2e, 0x28, 0x81, 0x59, 0xc3, 0x96, 0x51, 0xaa, 0xcc, 0x16, 0xd4, 0xdc, 0x3a, 0x2b, 0x9e, 0x2e, 0xc1, 0xa2, 0x35, 0xa7, 0xc8, 0x4f, 0x65, 0x5c, 0xfb, 0x1d, 0x16, 0x60, 0x0a, 0x38, 0xba, 0x22, 0xf7, 0x24, 0xb1, 0xae, 0x48, 0x8e, 0xa3, 0x91, 0x2c, 0xcc, 0xe7, 0xb1, 0xfc, 0x9a, 0x62, 0xf2, 0xcc, 0x42, 0xc1, 0xed, 0xee, 0x22, 0xb2, 0xc3, 0xa1, 0x06, 0xc6, 0xb5, 0x48, 0xb3, 0xb1, 0x3c, 0xdc, 0x1d, 0xfd, 0x37, 0x21, 0x43, 0x0d, 0x18, 0x1c, 0xe2, 0xc6, 0x1d, 0xd0, 0x2c, 0xaa, 0xcd, 0x2f, 0xf2, 0xf9, 0xd6, 0xa5, 0xc2, 0xd1, 0x26, 0x59, 0xb0, 0xfd, 0xb3, 0xa7, 0x40, 0xd1, 0xcb, 0x32, 0x0e, 0x1e, 0xb3, 0x4e, 0x16, 0xb3, 0xe4, 0x18, 0xd3, 0xb7, 0xfd, 0xc2, 0xc7, 0x3b, 0xc2, 0xcf, 0xf2, 0x9f, 0x22, 0x20, 0xb1, 0x41, 0x68, 0x01, 0x15, 0xc3, 0x04, 0xef, 0xd0, 0x17, 0xb6, 0x2c, 0x28, 0x38, 0x3d, 0xc2, 0xb0, 0x36, 0x06, 0xa6, 0x48, 0x9f, 0xae, 0x0f, 0x3b, 0xe9, 0xc2, 0xef, 0x5f, 0x9a, 0xcb, 0x07, 0xef, 0x0c, 0xb6, 0xa4, 0xa3, 0x3b, 0x55, 0xdd, 0x2e, 0xce, 0x63, 0xf5, 0x63, 0xed, 0xa6, 0xf7, 0x6d, 0xda, 0xd5, 0x07, 0x39, 0x28, 0x65, 0xd2, 0x3f, 0x14, 0x1e, 0x48, 0xe3, 0xaa, 0xdc, 0xff, 0x20, 0x1b, 0xbc, 0x2b, 0x58, 0x2b, 0x5e, 0x14, 0xd6, 0xb8, 0xbb, 0xc5, 0xb1, 0x3d, 0x4b, 0xa4, 0xea, 0xf4, 0x11, 0x55, 0xa8, 0x4f, 0x81, 0x5d, 0x32, 0x47, 0x35, 0xc2, 0x14, 0xc9, 0x2c, 0x5f, 0x7e, 0x9a, 0xe6, 0xd7, 0x00, 0x68, 0xbb, 0x3d, 0xae, 0xa8, 0x57, 0x0d, 0x42, 0xbb, 0xb0, 0x61, 0xc5, 0x1f, 0x46, 0x47, 0x03, 0x31, 0xe0, 0xdb, 0x9a, 0xa8, 0x50, 0x06, 0xca, 0x8a, 0xcd, 0x97, 0x07, 0xde, 0x34, 0xa1, 0x0c, 0x49, 0x3f, 0x63, 0x6f, 0x09, 0xb1, 0xcc, 0x2c, 0x60, 0xa3, 0x5f, 0xc3, 0xe3, 0x21, 0x08, 0xdb, 0x18, 0xfc, 0xdb, 0xc8, 0x32, 0xe2, 0x01, 0xca, 0x2a, 0xd5, 0xfb, 0x0a, 0x0e, 0xd8, 0xf2, 0xa4, 0x52, 0xf6, 0x68, 0xb1, 0x08, 0xd4, 0x15, 0xad, 0xd8, 0x33, 0x87, 0x2e, 0x65, 0xad, 0xcf, 0xd1, 0xcb, 0x8e, 0x08, 0x33, 0xbf, 0x5a, 0x50, 0xd4, 0x06, 0xe2, 0xd3, 0x00, 0xda, 0xb5, 0x55, 0x05, 0x2f, 0x1c, 0x98, 0xf8, 0xb2, 0xcc, 0xe8, 0x5b, 0xc1, 0x05, 0x70, 0x16, 0x5f, 0xa2, 0x1d, 0x1b, 0xb8, 0x3e, 0xbe, 0xba, 0x00, 0x51, 0x38, 0x03, 0x29, 0x69, 0x32, 0x3a, 0x55, 0xf6, 0x12, 0xf5, 0x29, 0xf3, 0x2c, 0xd4, 0xd9, 0x16, 0x4e, 0xb4, 0xc7, 0x49, 0x47, 0xde, 0x59, 0x09, 0xf4, 0xca, 0xe1, 0x49, 0x62, 0xe0, 0x39, 0xbf, 0x5d, 0x1c, 0xb4, 0x06, 0xb5, 0x2d, 0xe0, 0x62, 0x5d, 0x4b, 0x9f, 0xa7, 0xa1, 0xd9, 0x05, 0x50, 0x26, 0x3a, 0x31, 0x0a, 0x1a, 0xff, 0x45, 0xd6, 0x5d, 0xc2, 0x65, 0xe6, 0xb3, 0x16, 0x65, 0xd9, 0xfc, 0x21, 0xce, 0x42, 0x75, 0x28, 0xcf, 0xe1, 0x17, 0xae, 0xf5, 0x15, 0x85, 0x60, 0x8b, 0x36, 0xa7, 0xff, 0x77, 0xa5, 0x08, 0x25, 0x51, 0xbd, 0x1c, 0xb2, 0x17, 0xf2, 0x4b, 0xd7, 0x2e, 0xed, 0x81, 0xba, 0x08, 0x59, 0xeb, 0x17, 0x82, 0xc6, 0x71, 0x24, 0xbf, 0x8d, 0xaf, 0xce, 0x3a, 0xd0, 0xc5, 0x17, 0xa2, 0x4a, 0x4d, 0x39, 0x18, 0xc7, 0x75, 0xcd, 0x4f, 0xe0, 0xbd, 0x88, 0xce, 0x1b, 0x89, 0x4a, 0xc3, 0x03, 0xbf, 0x74, 0x8c, 0x17, 0xb7, 0x51, 0x6b, 0xb1, 0xa8, 0x4b, 0x06, 0x11, 0x9f, 0xad, 0x1d, 0x63, 0x39, 0x47, 0x1b, 0xa9, 0x94, 0x52, 0x57, 0x9f, 0x43, 0x28, 0xd2, 0x11, 0x92, 0x93, 0xca, 0x0c, 0x0f, 0x4f, 0x46, 0x6f, 0xa6, 0xce, 0x29, 0x51, 0x8d, 0xba, 0x1f, 0xb9, 0x3e, 0x68, 0x37, 0xd3, 0xea, 0xc9, 0xc2, 0xc8, 0x48, 0x30, 0x92, 0x2f, 0x0c, 0xc5, 0x43, 0xd8, 0xdc, 0x73, 0xc4, 0xde, 0x0d, 0xec, 0x17, 0xde, 0x9e, 0x6a, 0xa1, 0x49, 0x0b, 0x89, 0xc6, 0x6f, 0x41, 0xbf, 0x8e, 0x39, 0x29, 0x2d, 0xf6, 0x00, 0x48, 0x92, 0x14, 0x67, 0xf3, 0xf8, 0x3f, 0xba, 0xf5, 0x91, 0x01, 0x9c, 0xe5, 0xa5, 0xae, 0x29, 0x98, 0x57, 0xd2, 0x75, 0xe7, 0x3f, 0xb2, 0x8a, 0x93, 0x12, 0x1f, 0xf3, 0x69, 0x6d, 0x0c, 0xac, 0xe7, 0x11, 0x3b, 0xde, 0x51, 0x5e, 0x12, 0x3d, 0x9a, 0xee, 0x98, 0xf8, 0x16, 0x35, 0x6a, 0x97, 0x24, 0xc7, 0xe8, 0xfa, 0xa8, 0x8b, 0xb4, 0xe8, 0x2c, 0xfe, 0x73, 0xc6, 0xa9, 0x00, 0x50, 0xa1, 0x47, 0xcd, 0x5e, 0x0c, 0x01, 0x65, 0xce, 0x32, 0x9b, 0x1a, 0xfb, 0xbe, 0x90, 0x88, 0xab, 0x05, 0x39, 0x3e, 0x6c, 0x3b, 0x6f, 0xff, 0xd3, 0xbd, 0x00, 0x15, 0xf3, 0xd8, 0xfd, 0x67, 0x8c, 0xf6, 0x35, 0x38, 0x48, 0xbd, 0x6b, 0x0d, 0xb7, 0x78, 0x04, 0xe3, 0x39, 0x82, 0x3f, 0x04, 0xbb, 0xad, 0xb3, 0x73, 0x51, 0xc4, 0xf5, 0x89, 0xb9, 0x8c, 0xfe, 0xae, 0xd1, 0xf0, 0x00, 0xe6, 0xa8, 0x71, 0x63, 0xa2, 0x6b, 0x83, 0x20, 0x42, 0x59, 0xf8, 0x94, 0xe7, 0x8c, 0x8c, 0x21, 0x89, 0x71, 0xb3, 0x98, 0xd7, 0x39, 0xff, 0x2d, 0x9f, 0xa6, 0x4d, 0x4a, 0xbf, 0x1c, 0xb6, 0xb0, 0x89, 0xef, 0x20, 0xf3, 0x02, 0x0d, 0x84, 0xac, 0x26, 0x1c, 0xd3, 0x4a, 0x0a, 0x32, 0x63, 0xb2, 0x0c, 0xe8, 0xd0, 0xc0, 0x58, 0x8b, 0x6f, 0x1f, 0x14, 0xbd, 0x2b, 0xbd, 0x55, 0x90, 0xc6, 0xcd, 0xbc, 0xc0, 0x6d, 0x08, 0xd0, 0xcb, 0xd9, 0x8f, 0x52, 0x4e, 0xe2, 0xe1, 0x04, 0x2b, 0xb2, 0xff, 0xef, 0xd2, 0x1d, 0xdd, 0xa6, 0x4f, 0xd5, 0x1c, 0x9e, 0xd3, 0x4f, 0x25, 0xd6, 0x2e, 0x1d, 0xa8, 0x08, 0x00, 0x5f, 0x57, 0xbc, 0x12, 0x3b, 0xf0, 0xe4, 0x20, 0xec, 0xd5, 0x0e, 0x01, 0xc9, 0x44, 0xe7, 0xd9, 0xf7, 0x38, 0xdc, 0xe9, 0x3b, 0xc2, 0xf2, 0x45, 0xcd, 0x17, 0x0c, 0x3b, 0xdb, 0x05, 0xc1, 0xba, 0xdc, 0x35, 0xfd, 0x39, 0xbe, 0x48, 0x4c, 0x38, 0xc0, 0xaa, 0x14, 0xb5, 0x3a, 0xf1, 0xd2, 0x11, 0x07, 0x26, 0x56, 0x10, 0x0a, 0x4e, 0xf1, 0x41, 0xe8, 0x2e, 0xa4, 0xcb, 0x15, 0x50, 0x36, 0xf3, 0xb6, 0x26, 0x3f, 0x22, 0x1d, 0xa7, 0x42, 0x1a, 0xdc, 0xdd, 0x5c, 0x36, 0x03, 0x0d, 0xc8, 0xdb, 0x9b, 0x5a, 0x0c, 0xb1, 0x37, 0x13, 0x26, 0x47, 0x0c, 0xb1, 0x22, 0x00, 0xac, 0xf0, 0xcf, 0x04, 0xf6, 0x38, 0x37, 0xef, 0xd9, 0x3f, 0x47, 0xd4, 0xd7, 0x35, 0x49, 0x20, 0x4e, 0x3c, 0x20, 0xf2, 0xea, 0xf8, 0x5b, 0xc0, 0x04, 0x3c, 0xfe, 0xd2, 0xb3, 0xfd, 0x13, 0xfd, 0xc9, 0xb4, 0x1f, 0x39, 0x95, 0x2c, 0x5c, 0xd4, 0x2c, 0xbe, 0x13, 0xf5, 0xba, 0xd6, 0x54, 0x88, 0x3f, 0xfa, 0x3d, 0x2f, 0xde, 0xaf, 0x19, 0x99, 0xd9, 0x54, 0x09, 0x69, 0xdd, 0xe4, 0x16, 0x1c, 0x4c, 0x3f, 0x06, 0x33, 0x17, 0x01, 0x2a, 0x10, 0x4a, 0x3f, 0xa6, 0xdd, 0xae, 0x49, 0xeb, 0x3a, 0xf1, 0x57, 0xbf, 0x3e, 0xeb, 0xcd, 0xe7, 0xd8, 0x13, 0x34, 0x58, 0xbb, 0xe1, 0x04, 0x5b, 0xba, 0xe5, 0xfe, 0xa8, 0xa2, 0x2a, 0x59, 0xc5, 0x08, 0xb2, 0x7f, 0x11, 0xf5, 0xe6, 0xed, 0xac, 0x34, 0xd8, 0x44, 0x1d, 0xf1, 0x13, 0xce, 0x08, 0x3c, 0x3b, 0xf9, 0xf1, 0x1a, 0xba, 0xcd, 0x38, 0xdf, 0x10, 0xd8, 0xc1, 0x27, 0xfa, 0x2c, 0x4a, 0xc4, 0x06, 0x0e, 0xc3, 0xc1, 0xf1, 0xcc, 0x3c, 0x23, 0x0f, 0xea, 0x87, 0x12, 0xd0, 0x54, 0xed, 0xac, 0x98, 0xc0, 0x00, 0x52, 0x12, 0xe6, 0xc6, 0xc0, 0xcd, 0x60, 0xf7, 0x19, 0xb9, 0xc4, 0xc3, 0x42, 0xb5, 0xc1, 0xfb, 0xcc, 0x29, 0xb1, 0xcc, 0x32, 0xcb, 0x39, 0x95, 0x40, 0x2a, 0xf2, 0x39, 0xfa, 0xdc, 0xf4, 0x13, 0xf1, 0x17, 0xe9, 0x69, 0xd0, 0xda, 0x99, 0x06, 0xba, 0x46, 0x39, 0x43, 0xc4, 0xdb, 0x3d, 0xe4, 0xde, 0xff, 0xa5, 0xe3, 0x51, 0x26, 0x17, 0x06, 0xd7, 0x4c, 0x0b, 0xdd, 0x39, 0xa7, 0xc1, 0xb1, 0x38, 0xd4, 0x2d, 0x46, 0x57, 0x1a, 0xb5, 0xd8, 0x4d, 0x29, 0xad, 0x0a, 0x06, 0xcc, 0x14, 0xcd, 0x50, 0xbf, 0xe3, 0xfd, 0xad, 0xcd, 0xf6, 0x27, 0xe8, 0xc1, 0xf8, 0xcd, 0x1f, 0x03, 0x1b, 0x46, 0xba, 0xd3, 0x4c, 0xad, 0xb6, 0x03, 0x4f, 0xf5, 0xaa, 0xe0, 0xbd, 0x10, 0xdf, 0xf0, 0x02, 0xd0, 0x54, 0x4b, 0x2d, 0x38, 0xd9, 0xb3, 0xbb, 0xd1, 0xf6, 0x1d, 0x32, 0xe5, 0xee, 0x22, 0xec, 0xe7, 0xe5, 0xb8, 0xb1, 0xb9, 0x36, 0xcc, 0xef, 0xf0, 0x52, 0xd2, 0x51, 0xc8, 0x00, 0x2f, 0xaf, 0xa8, 0xfb, 0xcf, 0x93, 0x0c, 0x06, 0x3e, 0x5d, 0x71, 0x3d, 0xea, 0xf5, 0x8d, 0xb8, 0x19, 0x9a, 0xe3, 0x11, 0xe0, 0xdc, 0x15, 0x1f, 0x0a, 0x5a, 0x4c, 0xc6, 0xd2, 0x87, 0xa8, 0xc0, 0x49, 0xf3, 0x4f, 0x4c, 0x1f, 0x40, 0xc3, 0xb2, 0x66, 0x6c, 0xc0, 0x08, 0xdf, 0xdb, 0xf2, 0x54, 0xc2, 0x1a, 0xc7, 0x86, 0xa0, 0x73, 0xe7, 0x93, 0x33, 0x51, 0xdd, 0xff, 0x54, 0x99, 0x9a, 0xce, 0xe8, 0xf2, 0x56, 0xc6, 0x10, 0x89, 0x10, 0xba, 0x43, 0x53, 0x38, 0x17, 0x3e, 0xba, 0xba, 0x2e, 0xc0, 0x82, 0x14, 0xfb, 0xbf, 0x75, 0xf3, 0x01, 0x18, 0x17, 0x8c, 0x8a, 0xe3, 0x2a, 0xa0, 0x85, 0xa1, 0xed, 0x08, 0xe8, 0xe6, 0xcb, 0xdb, 0x70, 0x2c, 0x42, 0xd9, 0x08, 0xcf, 0x46, 0xad, 0xbd, 0x16, 0x8f, 0xcf, 0x0f, 0x43, 0xad, 0x1f, 0xb3, 0x0b, 0x65, 0xc9, 0xce, 0xb5, 0x72, 0x33, 0x71, 0xd3, 0x82, 0xd7, 0xea, 0x2e, 0x2c, 0xfa, 0x55, 0x40, 0x0c, 0xa9, 0x34, 0xa6, 0x1a, 0xcf, 0x36, 0x29, 0xf7, 0xbb, 0x46, 0x96, 0x15, 0x8f, 0x28, 0x64, 0x84, 0x91, 0x37, 0xb2, 0x5b, 0xb5, 0x94, 0xb6, 0xa5, 0x7a, 0xc4, 0x16, 0x65, 0x6c, 0x6f, 0x6d, 0x31, 0xdb, 0x1a, 0xba, 0x92, 0xaa, 0x99, 0x9b, 0x54, 0x39, 0xed, 0xe3, 0xe0, 0xfe, 0x47, 0x78, 0xe2, 0xb5, 0xb6, 0xe6, 0x43, 0x63, 0xde, 0x69, 0x57, 0x77, 0x83, 0x97, 0xda, 0xba, 0xf5, 0xd5, 0x6d, 0xa0, 0x8f, 0x7a, 0xfd, 0x44, 0x32, 0xc9, 0xe4, 0xb4, 0xc8, 0x79, 0x53, 0x47, 0x29, 0xd8, 0x51, 0xa4, 0x42, 0xd8, 0x7d, 0x8e, 0x0e, 0x07, 0xf1, 0xfa, 0xa9, 0x3b, 0x9e, 0xeb, 0x0e, 0xa3, 0x00, 0x2a, 0x96, 0x5e, 0x23, 0xc0, 0x08, 0x4c, 0xbd, 0x59, 0x52, 0x72, 0x4a, 0x7e, 0xa6, 0x4d, 0xa7, 0xc6, 0xbe, 0x23, 0x5b, 0x16, 0x8f, 0x48, 0x43, 0x93, 0x3a, 0x6b, 0x8d, 0xd5, 0xf7, 0x68, 0x5f, 0xc1, 0x0c, 0xe0, 0xcb, 0xcc, 0xed, 0x1f, 0x94, 0xd0, 0xd9, 0x17, 0x36, 0x62, 0x2a, 0xa6, 0x47, 0x4c, 0x4e, 0xb3, 0xa3, 0xdf, 0xe7, 0x90, 0x93, 0xbf, 0x2d, 0x24, 0xee, 0xea, 0x21, 0xc8, 0x9f, 0xd0, 0xd5, 0x55, 0xf0, 0x10, 0x84, 0x2e, 0xbb, 0x07, 0x14, 0x50, 0xa7, 0x56, 0x11, 0x35, 0xc1, 0xac, 0x6a, 0x45, 0x16, 0x78, 0xd1, 0x1c, 0x05, 0x7f, 0xac, 0xc3, 0xe6, 0x9c, 0xb8, 0x11, 0xfd, 0xe9, 0x57, 0x78, 0x2d, 0xf9, 0x13, 0x14, 0x62, 0x23, 0x58, 0x43, 0x7f, 0x0d, 0xfb, 0xd0, 0xfe, 0xea, 0x96, 0xee, 0x1c, 0xc0, 0x24, 0xd3, 0x4c, 0xb6, 0xef, 0x6c, 0x83, 0x24, 0x6a, 0xef, 0xe4, 0x22, 0xca, 0x9e, 0x82, 0x2c, 0x4d, 0xf7, 0x4b, 0x4f, 0x8c, 0xb0, 0x9b, 0x61, 0x3e, 0xb3, 0x08, 0xbc, 0x8a, 0x2f, 0x67, 0x4a, 0xdc, 0x1e, 0x17, 0x4a, 0xfb, 0xaa, 0x24, 0x84, 0x6b, 0x55, 0x78, 0x12, 0x09, 0x71, 0x62, 0xf2, 0xf4, 0x9c, 0x2b, 0xa9, 0xc6, 0xb6, 0xba, 0xeb, 0xb1, 0x55, 0x2f, 0xc5, 0x2a, 0xc8, 0x4b, 0xd5, 0x44, 0x90, 0x38, 0x0f, 0x8a, 0x45, 0x9b, 0xab, 0xf5, 0xaf, 0x88, 0x9d, 0x47, 0x0d, 0x73, 0xe0, 0x36, 0xc0, 0x9b, 0x3b, 0x89, 0xc0, 0x83, 0x2c, 0x03, 0x7e, 0xc7, 0x91, 0x37, 0x3b, 0xda, 0x84, 0xcd, 0x9a, 0x73, 0x70, 0xfa, 0x38, 0x09, 0xa9, 0xc3, 0xc6, 0x92, 0x4f, 0x45, 0xca, 0xa9, 0xb8, 0x6b, 0x2b, 0x5e, 0x4a, 0xa9, 0xe1, 0xc9, 0x04, 0x12, 0xad, 0xce, 0x8c, 0xc7, 0x2e, 0xac, 0x01, 0x3c, 0xd6, 0xc0, 0xc3, 0x51, 0x66, 0x9f, 0x42, 0xd4, 0xaa, 0x9c, 0x53, 0xc9, 0x9a, 0x5a, 0x25, 0x78, 0xfc, 0xa1, 0xb2, 0x6a, 0xde, 0xa1, 0xc9, 0x5d, 0xd1, 0xd4, 0xbd, 0x39, 0xf3, 0x2b, 0x89, 0xe1, 0xf1, 0x6c, 0x2a, 0xc4, 0x01, 0x7c, 0xd4, 0xda, 0x0c, 0x30, 0x2b, 0x90, 0x72, 0x5b, 0x84, 0xfb, 0x4e, 0x65, 0x90, 0xda, 0xc0, 0x04, 0xee, 0x57, 0x0a, 0x9a, 0xf1, 0xb4, 0xaa, 0x14, 0x76, 0x90, 0x1e, 0xd3, 0x0e, 0x01, 0x0a, 0xe1, 0xba, 0x60, 0x1e, 0x26, 0x1f, 0xa4, 0x05, 0x0e, 0x5a, 0x61, 0xab, 0xbe, 0x39, 0xbb, 0xe6, 0x73, 0xd8, 0x58, 0xb4, 0x27, 0xd0, 0xf6, 0xaa, 0x1a, 0x39, 0xd7, 0x28, 0xe1, 0x0e, 0x6c, 0x73, 0x72, 0xf5, 0x44, 0x96, 0x38, 0xbf, 0xdc, 0x92, 0x55, 0x39, 0xf2, 0x5d, 0xee, 0x56, 0xda, 0x0a, 0x9a, 0x40, 0xfa, 0x4c, 0xa3, 0xf6, 0xae, 0x0f, 0x68, 0x04, 0xba, 0x54, 0xba, 0xbf, 0xf1, 0xe4, 0xb4, 0x7d, 0xdd, 0xa2, 0x8c, 0xad, 0x8b, 0xdd, 0x9c, 0x21, 0x72, 0xb8, 0x89, 0x99, 0xdd, 0x58, 0x08, 0xe8, 0xc0, 0x25, 0x8b, 0xaf, 0xae, 0x89, 0x43, 0x35, 0x32, 0xd5, 0xc1, 0x46, 0xca, 0x9f, 0xd3, 0x02, 0x19, 0xee, 0x4a, 0x10, 0xb7, 0x55, 0x78, 0x4a, 0x56, 0x7f, 0x44, 0x8a, 0xe4, 0x0a, 0x6b, 0x15, 0x24, 0xd3, 0xf7, 0x53, 0xa0, 0xec, 0x79, 0x2e, 0x37, 0x3c, 0x56, 0xfc, 0xbb, 0xf3, 0x1f, 0x0e, 0xa3, 0x16, 0x9e, 0xab, 0x8a, 0xe1, 0xa7, 0xf8, 0x50, 0x1a, 0x58, 0x12, 0x15, 0xba, 0xb1, 0x69, 0x4b, 0x0e, 0xc1, 0xcc, 0xf2, 0x28, 0x01, 0x41, 0x46, 0x7b, 0xa1, 0xde, 0x74, 0x3b, 0xd5, 0xe2, 0xd8, 0xce, 0x8f, 0x8f, 0xfe, 0x3f, 0xfa, 0xb7, 0xb2, 0x93, 0xa5, 0x08, 0xcb, 0x69, 0xad, 0x9d, 0x82, 0xfe, 0x92, 0xd2, 0xfa, 0x11, 0x26, 0x62, 0x16, 0x11, 0x96, 0x2b, 0xab, 0x6a, 0x7f, 0xf1, 0x25, 0xa0, 0x3c, 0xee, 0xf3, 0xd9, 0x0e, 0x84, 0x6c, 0xcb, 0x26, 0x4f, 0x37, 0x79, 0xf3, 0x5e, 0x8d, 0xa6, 0xd0, 0x55, 0x34, 0x03, 0xce, 0xea, 0xb0, 0x03, 0x4d, 0x5a, 0xb7, 0x40, 0xe1, 0xdb, 0xb4, 0xfe, 0x1a, 0xfc, 0xdc, 0xd9, 0x74, 0xa5, 0xb0, 0xb0, 0xd9, 0x3b, 0xc9, 0xa9, 0x50, 0xff, 0x32, 0x8d, 0x0c, 0x1d, 0xc2, 0xde, 0xbf, 0xb6, 0xf4, 0x4b, 0x2f, 0x52, 0xdc, 0xaa, 0xc3, 0xa4, 0x35, 0x5c, 0x92, 0x26, 0x8c, 0x22, 0x98, 0xe8, 0xf4, 0x39, 0x8e, 0x44, 0x5d, 0x6a, 0x96, 0xcf, 0x08, 0xc7, 0x63, 0x62, 0xc1, 0x15, 0xd0, 0x7f, 0xd5, 0x31, 0xcb, 0x55, 0xba, 0xd0, 0xc7, 0x2e, 0x66, 0xe6, 0xc6, 0xdf, 0xed, 0xb5, 0xec, 0xbf, 0x47, 0x9c, 0xa7, 0x37, 0x61, 0xa4, 0xf6, 0x18, 0x71, 0x50, 0xdd, 0xe8, 0xa6, 0x1b, 0xfe, 0x37, 0xc9, 0xa8, 0x01, 0x5b, 0x9b, 0xd3, 0x1b, 0x36, 0x36, 0xb4, 0x54, 0x6d, 0x21, 0xbf, 0x38, 0x41, 0xb0, 0x0c, 0x61, 0xab, 0xbe, 0x27, 0xdd, 0xc1, 0x6c, 0xfa, 0xec, 0x60, 0xc4, 0xb7, 0xdc, 0x40, 0x15, 0x74, 0x67, 0xf0, 0x83, 0xd1, 0xbb, 0xef, 0x96, 0x37, 0x3f, 0x10, 0x22, 0x40, 0x4b, 0x19, 0xcf, 0x94, 0xdb, 0x6e, 0x34, 0x69, 0x5d, 0x02, 0x60, 0xcd, 0xe8, 0xd2, 0xd7, 0xec, 0x5b, 0xb6, 0xed, 0xf7, 0xa8, 0xc1, 0xd5, 0x4a, 0x35, 0xa0, 0x5e, 0x86, 0x65, 0xdd, 0x58, 0xba, 0x58, 0x5b, 0x89, 0x19, 0xc6, 0x59, 0x9f, 0xa2, 0xef, 0x24, 0x41, 0x77, 0x47, 0xac, 0x9d, 0xbf, 0x9d, 0x15, 0xa2, 0xc9, 0x4f, 0xcb, 0xe8, 0xd7, 0x5a, 0x6e, 0xd9, 0xe1, 0x51, 0x1a, 0xed, 0x7b, 0x49, 0x39, 0x9d, 0x2a, 0x39, 0x1f, 0xff, 0xe4, 0x27, 0x03, 0xe1, 0x88, 0xec, 0x59, 0xeb, 0x57, 0xb7, 0x2b, 0xc9, 0x56, 0x1b, 0x61, 0x4d, 0xe1, 0xd6, 0x29, 0xad, 0xea, 0x5b, 0x57, 0x3f, 0x97, 0x3f, 0x1f, 0xd6, 0xab, 0xff, 0x14, 0x26, 0x1e, 0x5f, 0x65, 0x35, 0xf2, 0x5c, 0xab, 0xc0, 0x61, 0x49, 0xc5, 0xf6, 0x9e, 0xd4, 0x18, 0x56, 0x4c, 0xdf, 0xa5, 0x5c, 0xdb, 0xce, 0x8e, 0x1c, 0xd0, 0xae, 0xdb, 0xda, 0xd4, 0x48, 0x19, 0x12, 0x3a, 0x98, 0x45, 0xf0, 0x71, 0xe6, 0xef, 0x26, 0x64, 0x23, 0x9b, 0x22, 0x4e, 0x98, 0x6c, 0x50, 0x4c, 0xe7, 0xf9, 0x92, 0x46, 0xaf, 0xcb, 0xf2, 0x95, 0xa2, 0x50, 0xe3, 0x37, 0x2a, 0x3c, 0xb1, 0x52, 0xf4, 0x22, 0x75, 0x54, 0xbd, 0xfb, 0x31, 0xd2, 0xd9, 0xcf, 0x42, 0xfe, 0xf8, 0xd0, 0x10, 0xf4, 0x4c, 0x9e, 0x10, 0xf0, 0x9b, 0x10, 0xd1, 0xdb, 0x73, 0x34, 0x04, 0xf0, 0x2d, 0x33, 0xcf, 0xbd, 0x01, 0x91, 0x22, 0xf4, 0x00, 0x52, 0x6a, 0x1a, 0xa7, 0xf5, 0xb7, 0x70, 0x49, 0x23, 0xfa, 0xbb, 0xfd, 0x2c, 0xa7, 0x5e, 0x1f, 0xe4, 0x92, 0x57, 0x91, 0x18, 0x02, 0xa9, 0x2b, 0x2e, 0x30, 0x0a, 0x69, 0xbc, 0x6b, 0xab, 0x2a, 0x72, 0x4e, 0xfb, 0x5a, 0x51, 0x14, 0xf4, 0xa8, 0xcf, 0xc3, 0xfb, 0x12, 0xec, 0xe5, 0xf2, 0xe9, 0xd8, 0xfa, 0xb0, 0xf4, 0x06, 0xd7, 0x50, 0xc9, 0xc6, 0xfa, 0x2d, 0xcc, 0xdb, 0x48, 0x06, 0x0e, 0x1d, 0x28, 0x34, 0x30, 0x49, 0xcc, 0xd6, 0x16, 0x4b, 0x42, 0x31, 0x4d, 0x48, 0x31, 0xae, 0xc8, 0x06, 0x3c, 0xc7, 0x47, 0x4c, 0xb3, 0x2f, 0xb7, 0x10, 0xf3, 0x3a, 0x09, 0xf4, 0x3c, 0xfd, 0xdd, 0xf2, 0xb6, 0xfb, 0xed, 0x39, 0xf6, 0x1e, 0x4e, 0x3a, 0x42, 0x50, 0x42, 0x0d, 0xd6, 0xd5, 0xe7, 0x39, 0x24, 0x23, 0xbd, 0x15, 0x39, 0x14, 0xce, 0x0c, 0xe1, 0x3c, 0x37, 0xed, 0x1d, 0x17, 0xd5, 0xee, 0xf7, 0xbd, 0x2f, 0x3c, 0x25, 0x28, 0x34, 0x04, 0x0d, 0x42, 0x04, 0xc4, 0xfd, 0x26, 0x27, 0xdc, 0x4d, 0x30, 0x2a, 0xc3, 0xf0, 0xe3, 0xe2, 0x24, 0xf2, 0xb5, 0x0e, 0x57, 0x08, 0x16, 0xe5, 0xfb, 0x28, 0xc7, 0x4b, 0x45, 0x31, 0x0d, 0xd6, 0xbe, 0x44, 0x4e, 0xf6, 0x35, 0x11, 0xe4, 0x05, 0x3e, 0x2d, 0x1a, 0xf7, 0x10, 0x0c, 0x18, 0xdf, 0x48, 0xcd, 0x05, 0xbe, 0xdb, 0xd9, 0x40, 0x31, 0x0d, 0x1e, 0xea, 0x34, 0x23, 0xfc, 0x21, 0x46, 0xe4, 0xbc, 0x21, 0xee, 0x13, 0xc1, 0x0d, 0x55, 0xb8, 0xb7, 0x38, 0xd2, 0x03, 0xb4, 0xbd, 0xff, 0x43, 0x3d, 0xc2, 0xb6, 0x0d, 0xe8, 0xd4, 0xaf, 0x4a, 0x26, 0x3c, 0xba, 0x04, 0xb1, 0xc5, 0xe3, 0x25, 0xf4, 0xf7, 0xc5, 0xb9, 0x31, 0x24, 0xfa, 0xc1, 0x4e, 0x1a, 0xfc, 0xda, 0xe4, 0x03, 0x4b, 0x27, 0x4b, 0xde, 0xf5, 0x16, 0x0a, 0xfa, 0x53, 0xa8, 0x41, 0x31, 0xbf, 0x34, 0xa7, 0x09, 0x07, 0x0f, 0xfa, 0xb9, 0x4f, 0x00, 0xb7, 0x01, 0xe0, 0xeb, 0xbc, 0xd7, 0x1c, 0xfb, 0x02, 0x1c, 0x06, 0xce, 0x4a, 0xad, 0x04, 0x19, 0x43, 0x4b, 0xf3, 0x10, 0xcf, 0xdf, 0x51, 0x27, 0xbc, 0xe8, 0xde, 0xc3, 0xb2, 0xee, 0x2b, 0x0a, 0x29, 0xbd, 0x39, 0xf3, 0xea, 0x48, 0x03, 0xfd, 0xdf, 0x19, 0xbc, 0xfa, 0xca, 0xcc, 0x18, 0x1a, 0xcc, 0xd9, 0x07, 0x5b, 0x48, 0x35, 0x1f, 0xfe, 0xeb, 0xf4, 0x21, 0x1c, 0xb7, 0xcd, 0x4f, 0x3e, 0x4c, 0x44, 0xd2, 0xce, 0xe9, 0xc7, 0xb1, 0x26, 0x2d, 0x08, 0x0e, 0x31, 0xca, 0x38, 0xed, 0xf8, 0xe3, 0xee, 0x7f, 0xbd, 0x25, 0x1b, 0xf5, 0x4e, 0xc9, 0x09, 0xc2, 0x2a, 0xef, 0x3e, 0x4f, 0xda, 0x4e, 0x3b, 0xd5, 0xf9, 0x48, 0xe4, 0xd6, 0xdd, 0xdf, 0xbb, 0xeb, 0xe6, 0xd2, 0xea, 0xb9, 0x0d, 0xe4, 0x10, 0xea, 0x0a, 0xb7, 0x26, 0x56, 0xd3, 0xca, 0xec, 0x3c, 0x42, 0x3e, 0x0a, 0xe4, 0x5c, 0xcd, 0xf4, 0x1d, 0xb1, 0x36, 0xb0, 0x22, 0xed, 0x0e, 0x46, 0x33, 0xd9, 0x5b, 0x02, 0xd6, 0xc2, 0x1f, 0x2b, 0x25, 0xe4, 0xf0, 0x1a, 0xb3, 0x3a, 0xed, 0xd5, 0x4e, 0x38, 0x5b, 0x07, 0x16, 0x0b, 0x1f, 0xb0, 0x1c, 0x19, 0xf6, 0x20, 0xe7, 0x9d, 0x0b, 0x0a, 0xa3, 0x13, 0x5c, 0x59, 0x52, 0x05, 0x1b, 0xec, 0x0f, 0x50, 0xe1, 0x4a, 0xff, 0x1e, 0xa9, 0xdb, 0x0a, 0x57, 0xd3, 0x2a, 0xd5, 0xe4, 0x69, 0x23, 0x10, 0xbe, 0x13, 0x33, 0xe2, 0x59, 0xbd, 0x5f, 0x14, 0xd4, 0x49, 0xf6, 0xfe, 0x95, 0x01, 0xc8, 0xff, 0xe3, 0xa2, 0xf9, 0x40, 0x13, 0xe6, 0x30, 0x1a, 0x12, 0x8e, 0xae, 0x3d, 0xb0, 0x19, 0x0a, 0x33, 0x6e, 0x2b, 0x8d, 0xf5, 0x19, 0xdb, 0xa3, 0x0e, 0xfc, 0xd8, 0x5c, 0x27, 0xf9, 0xee, 0xad, 0xca, 0x4d, 0xc7, 0x4f, 0xfd, 0x57, 0x43, 0x46, 0x9c, 0x71, 0xac, 0x97, 0x23, 0x03, 0xbd, 0xe7, 0x1b, 0xe1, 0xc0, 0x2d, 0x09, 0xd4, 0xa9, 0x22, 0x25, 0x50, 0x86, 0x13, 0x7f, 0x27, 0x0d, 0x62, 0x27, 0xef, 0x1f, 0xc5, 0x5d, 0xc8, 0x3f, 0xe3, 0xef, 0x4a, 0xff, 0x26, 0x34, 0xc6, 0x16, 0x8b, 0xed, 0xbc, 0x2a, 0xe1, 0xb3, 0x43, 0xd5, 0x8f, 0x4f, 0xb1, 0xda, 0xe0, 0x64, 0xfd, 0x2e, 0x26, 0xb9, 0xc7, 0xf8, 0xca, 0x64, 0x63, 0x58, 0xea, 0x13, 0x0c, 0x14, 0xbe, 0xc9, 0xef, 0x37, 0xc1, 0xe4, 0xf4, 0xb5, 0x89, 0x24, 0x4e, 0x70, 0x57, 0x38, 0x31, 0x40, 0xde, 0x46, 0x1e, 0x49, 0x15, 0x49, 0xce, 0x35, 0x22, 0x63, 0x14, 0x1a, 0x43, 0xbc, 0x67, 0xbc, 0x22, 0x06, 0xe1, 0xcb, 0xd4, 0x2f, 0xb0, 0x02, 0xc8, 0x57, 0x39, 0xb6, 0x09, 0x04, 0xec, 0x7a, 0xa2, 0x02, 0x18, 0xdd, 0xbf, 0xc6, 0xdc, 0xdb, 0x04, 0x4d, 0xb4, 0xc0, 0x38, 0x0d, 0x01, 0xef, 0x07, 0x1b, 0x5e, 0xe6, 0xd7, 0xeb, 0xa8, 0xbf, 0x90, 0x35, 0x58, 0x52, 0xfa, 0xc6, 0x5c, 0xc3, 0x5c, 0xa6, 0xe7, 0x67, 0xcc, 0x37, 0x32, 0xf9, 0x35, 0x1a, 0x52, 0xcc, 0x18, 0xbd, 0x42, 0x02, 0xe5, 0x19, 0xf6, 0x2e, 0x38, 0x70, 0x6c, 0xec, 0x50, 0x11, 0xef, 0x56, 0x38, 0xb1, 0xfb, 0xef, 0x2a, 0xc9, 0x69, 0xf0, 0x1c, 0x93, 0x02, 0x01, 0x11, 0x64, 0x27, 0xf0, 0x32, 0x78, 0x30, 0xe3, 0x47, 0xfa, 0x67, 0xf7, 0xae, 0x05, 0xf8, 0x4e, 0xdc, 0x33, 0xcf, 0x21, 0xd8, 0x24, 0x25, 0x27, 0xa3, 0x49, 0xf1, 0xab, 0x3d, 0xa7, 0x0e, 0x2d, 0xee, 0x8f, 0xf6, 0xf8, 0x1f, 0x18, 0xe8, 0xf5, 0x02, 0x57, 0x03, 0x0d, 0x6c, 0xd1, 0xe2, 0x1d, 0xbc, 0x49, 0xa2, 0x6b, 0xf7, 0xbb, 0xb7, 0xc1, 0x0e, 0x5d, 0x04, 0x49, 0xcd, 0x32, 0x58, 0xfe, 0x5f, 0x5a, 0x03, 0x56, 0xaf, 0xaf, 0xa8, 0xe2, 0x39, 0x05, 0xc1, 0x44, 0xc3, 0xfa, 0x02, 0xa0, 0xc7, 0xac, 0x22, 0x05, 0xbc, 0x17, 0xc0, 0xf7, 0xf7, 0x45, 0x2c, 0x97, 0x2b, 0x4e, 0xcb, 0xa0, 0x1b, 0xf6, 0x69, 0xdc, 0xb3, 0x5b, 0x51, 0x4c, 0x3f, 0xad, 0x46, 0x5a, 0x21, 0x27, 0x95, 0x43, 0x47, 0xa5, 0xb9, 0x1c, 0x4d, 0x3c, 0xff, 0xf5, 0x57, 0x67, 0xfc, 0xc0, 0x69, 0xdd, 0xdb, 0x28, 0x1f, 0x21, 0x9f, 0x1c, 0x59, 0xf0, 0x23, 0xb5, 0x2b, 0xac, 0x03, 0x5e, 0xd6, 0xbb, 0x5d, 0x83, 0xea, 0x48, 0x04, 0xed, 0xad, 0x34, 0xaa, 0xd1, 0xe7, 0xff, 0x09, 0xc3, 0x64, 0x73, 0x27, 0xdb, 0xbe, 0x62, 0x03, 0xfe, 0xf6, 0x27, 0x15, 0x3b, 0xa8, 0x30, 0x3e, 0x49, 0x11, 0xf8, 0xa3, 0xcd, 0xf7, 0xde, 0xd8, 0x6a, 0x29, 0xba, 0x12, 0xfa, 0xdb, 0x1f, 0xc5, 0xb1, 0xa4, 0x1b, 0xa9, 0x9e, 0xc2, 0x3b, 0x03, 0xa3, 0xb2, 0x75, 0xc7, 0x9c, 0x44, 0x5f, 0x06, 0xad, 0xdd, 0xdf, 0x38, 0xcf, 0xac, 0x37, 0x4d, 0x03, 0x96, 0xd0, 0xca, 0x97, 0xfb, 0x97, 0xe3, 0xb3, 0x5d, 0xcf, 0xcb, 0xd4, 0x8e, 0x25, 0xd2, 0xa5, 0x1f, 0x0c, 0x58, 0x17, 0x0c, 0xe6, 0xff, 0x99, 0x1b, 0x20, 0x67, 0xa3, 0xe6, 0xec, 0xba, 0x44, 0xcc, 0xc0, 0x96, 0x46, 0x40, 0xa8, 0x6e, 0x9c, 0x3d, 0x51, 0x42, 0xc1, 0x09, 0xe7, 0xe6, 0xca, 0xf5, 0xb9, 0xf8, 0x35, 0x5b, 0xac, 0x9a, 0xb0, 0xda, 0xf7, 0xc0, 0x12, 0x2d, 0xe4, 0x58, 0x32, 0xe3, 0xb2, 0xe3, 0x2b, 0xb2, 0xbd, 0x58, 0xa8, 0x32, 0x87, 0xf5, 0x99, 0xf1, 0x97, 0x4c, 0x58, 0xad, 0x93, 0x28, 0xe3, 0x89, 0x59, 0x33, 0xa6, 0x67, 0x23, 0xfe, 0x00, 0x1e, 0xbe, 0xfc, 0xb0, 0x59, 0x10, 0xf3, 0x36, 0x1c, 0xaa, 0xe2, 0x38, 0x84, 0xab, 0xa5, 0xd4, 0xae, 0x25, 0x66, 0x46, 0x69, 0x50, 0xc4, 0x3b, 0x47, 0x47, 0x16, 0x2d, 0x00, 0xb1, 0xbd, 0x11, 0x68, 0xfd, 0x39, 0x1a, 0xd0, 0x6d, 0xa2, 0x4a, 0x81, 0xed, 0xd6, 0xf2, 0x9c, 0xde, 0x05, 0x34, 0x48, 0xf9, 0xd9, 0x83, 0x0b, 0xc3, 0xb3, 0x03, 0xc9, 0x40, 0x31, 0xe7, 0x2a, 0xf9, 0x1b, 0x05, 0x0d, 0xed, 0xdc, 0x16, 0xa7, 0xbd, 0xd6, 0xf5, 0x08, 0xd8, 0x98, 0xbf, 0xaf, 0xb7, 0x67, 0xdb, 0x89, 0x0f, 0x18, 0x2c, 0x4b, 0xa6, 0xb0, 0xc2, 0x0c, 0x84, 0x23, 0x37, 0xb9, 0xab, 0xbd, 0x86, 0xdb, 0x8e, 0x06, 0x55, 0xd4, 0xe8, 0x38, 0x54, 0x90, 0xc3, 0x92, 0xa7, 0xbc, 0xba, 0x1d, 0x45, 0xa1, 0x4f, 0xf8, 0xb1, 0x99, 0xa6, 0xa5, 0xa7, 0x38, 0x68, 0xba, 0xa5, 0x42, 0x94, 0xc8, 0x7b, 0x9c, 0x02, 0x97, 0xe6, 0xca, 0x30, 0xbb, 0x00, 0xfb, 0xab, 0x91, 0xc1, 0x4d, 0x5a, 0x2e, 0xfa, 0xf8, 0xf0, 0xf5, 0x38, 0xed, 0x3d, 0x0a, 0xef, 0xd3, 0xd1, 0xa9, 0xcf, 0x31, 0x4a, 0x26, 0x31, 0x2d, 0x8e, 0x59, 0xc8, 0xdd, 0x2b, 0xe7, 0x38, 0x5f, 0xf9, 0x93, 0x39, 0x0b, 0xf6, 0x35, 0x59, 0xd2, 0xec, 0x59, 0x0c, 0xc4, 0xd5, 0x4f, 0x1b, 0x3b, 0xe3, 0xa5, 0xb0, 0x29, 0x5d, 0xf3, 0x98, 0x6a, 0xd6, 0x15, 0x2a, 0x34, 0x00, 0x18, 0xa9, 0x5e, 0x99, 0x24, 0x78, 0x86, 0x6e, 0xde, 0xb9, 0xcf, 0xca, 0x0b, 0x51, 0xdc, 0xdc, 0xba, 0x12, 0xf4, 0x8b, 0xc6, 0x07, 0xc8, 0xf0, 0x45, 0x69, 0xba, 0x84, 0x34, 0x97, 0x86, 0xc9, 0xc0, 0x59, 0x44, 0x75, 0xc1, 0x9d, 0x57, 0x5d, 0x55, 0xc9, 0x33, 0x0c, 0x31, 0xa1, 0x8b, 0x54, 0x9a, 0x09, 0xda, 0xf7, 0xfe, 0xf6, 0xa4, 0xbb, 0xa0, 0x18, 0x11, 0x8e, 0x69, 0xbe, 0xb3, 0xa6, 0x3c, 0x15, 0x52, 0x00, 0x34, 0xa8, 0xa7, 0x2a, 0xed, 0x98, 0x6e, 0xce, 0x32, 0xf7, 0x23, 0x23, 0xc8, 0xff, 0xc6, 0x74, 0xcc, 0x97, 0x98, 0x56, 0x5b, 0xa5, 0x6e, 0xeb, 0x38, 0xb8, 0xf4, 0xa2, 0x6f, 0x21, 0x7b, 0x24, 0xc0, 0x5c, 0x2d, 0x9a, 0x5c, 0x14, 0xce, 0x34, 0x2c, 0xb7, 0x88, 0xed, 0x67, 0xa7, 0xa9, 0x8d, 0x2c, 0xab, 0x6d, 0x1f, 0x73, 0x5c, 0x2e, 0x74, 0x20, 0x15, 0x42, 0x26, 0x1c, 0xed, 0x19, 0xa1, 0x72, 0xfb, 0xff, 0x67, 0xd3, 0xad, 0xe1, 0xb4, 0xed, 0x5e, 0x18, 0xe5, 0x28, 0x85, 0xaa, 0x8a, 0x72, 0x27, 0xd7, 0x54, 0x3e, 0x21, 0x6f, 0xcb, 0xca, 0xae, 0x66, 0x11, 0xc1, 0xda, 0x0f, 0x3b, 0x62, 0x4a, 0xcb, 0xa9, 0xbb, 0xee, 0x50, 0xaa, 0xe9, 0x3c, 0xbf, 0xed, 0x21, 0x85, 0x26, 0x9a, 0x3a, 0xc0, 0x43, 0x38, 0x36, 0xd8, 0x9f, 0x56, 0xde, 0xf4, 0x3a, 0x71, 0x7a, 0x01, 0x1d, 0x41, 0x5e, 0x99, 0x36, 0x46, 0x0c, 0xe8, 0x2d, 0x47, 0x71, 0x6f, 0x95, 0xe3, 0xb5, 0xe3, 0xf6, 0x71, 0xb2, 0xa0, 0x31, 0x8c, 0x26, 0xdb, 0xb8, 0xd5, 0x8d, 0xa1, 0xd7, 0x5f, 0x39, 0x53, 0x2f, 0xb6, 0xa6, 0x70, 0x3c, 0x0e, 0xb4, 0x02, 0xd0, 0x15, 0x19, 0xe5, 0x96, 0x68, 0xff, 0x95, 0x06, 0xb7, 0xce, 0x8c, 0x56, 0x87, 0x75, 0x2f, 0x57, 0xdd, 0xc9, 0x4b, 0x11, 0x01, 0x96, 0x69, 0xcc, 0x00, 0x6f, 0x3b, 0x2d, 0xdf, 0x79, 0xee, 0x87, 0x35, 0x29, 0x3e, 0x0e, 0xb5, 0x78, 0x44, 0x0c, 0x45, 0x5e, 0x90, 0xa2, 0x50, 0x63, 0xc5, 0x3c, 0x1f, 0xb8, 0xb9, 0x99, 0x50, 0xff, 0x09, 0x8e, 0xf3, 0x9b, 0xdd, 0x83, 0x8b, 0x95, 0x6d, 0x90, 0x6b, 0xf0, 0x6b, 0x46, 0x8f, 0x8b, 0xad, 0xa3, 0xb3, 0x00, 0xdd, 0x55, 0xe2, 0x9f, 0x15, 0xdf, 0x92, 0x76, 0xda, 0x41, 0xf6, 0x4c, 0xd3, 0x17, 0xdb, 0xc3, 0xfe, 0x81, 0xed, 0x55, 0xc6, 0xbb, 0x97, 0x4e, 0xe8, 0x24, 0x89, 0x3e, 0xab, 0x16, 0xd1, 0x64, 0x66, 0x8e, 0x92, 0x62, 0xc7, 0x11, 0xb9, 0x75, 0xbd, 0xf1, 0xd9, 0x53, 0xc1, 0x01, 0x56, 0x04, 0xfe, 0xe2, 0x6d, 0x52, 0xc2, 0x59, 0xd2, 0xfa, 0xcb, 0x19, 0xcc, 0x3e, 0xd3, 0x10, 0x03, 0x46, 0xe9, 0xe8, 0x6a, 0x5b, 0xe1, 0x3d, 0xd0, 0x3c, 0x09, 0xa4, 0x5c, 0xf9, 0xca, 0x32, 0x35, 0x59, 0x07, 0xe7, 0x36, 0xbf, 0xc7, 0x4d, 0x88, 0x08, 0x23, 0x5b, 0xc1, 0x32, 0x1b, 0x49, 0x5f, 0xab, 0xc4, 0x70, 0x82, 0xb2, 0x3b, 0x27, 0xe6, 0xc3, 0xe1, 0xae, 0x40, 0x18, 0xdb, 0x06, 0xa3, 0xd0, 0x9b, 0x3c, 0xb3, 0x61, 0x1c, 0xd4, 0x50, 0x2b, 0x07, 0xb8, 0xc3, 0x06, 0x54, 0x2b, 0x23, 0xdf, 0xb2, 0xca, 0x45, 0xc4, 0x57, 0xe6, 0x17, 0x3c, 0x20, 0xb0, 0xd6, 0x44, 0x37, 0x43, 0xa0, 0xd6, 0x26, 0xbc, 0x2a, 0xad, 0xa3, 0x19, 0xd6, 0x28, 0x45, 0x52, 0x2a, 0x17, 0x48, 0xf2, 0x10, 0xb0, 0x64, 0xb9, 0xe4, 0x3d, 0xe5, 0x43, 0xa0, 0xa1, 0x14, 0xca, 0xe8, 0xc3, 0x9d, 0x12, 0xa4, 0xbd, 0xc9, 0xcf, 0x46, 0x6a, 0x68, 0xa9, 0xe9, 0x8b, 0x3d, 0x9d, 0x8e, 0xbd, 0xdb, 0x69, 0xf4, 0x75, 0x69, 0x71, 0xc1, 0x26, 0x8c, 0xa7, 0x18, 0xb8, 0x26, 0xa3, 0xfe, 0xbe, 0x50, 0x07, 0x5c, 0xc1, 0xa5, 0xca, 0xb1, 0xc2, 0xc7, 0x5a, 0x55, 0x87, 0x6e, 0x08, 0xb5, 0x62, 0xf7, 0x0e, 0x90, 0xe3, 0x8e, 0x41, 0x0c, 0xaf, 0xe2, 0xa3, 0xd7, 0xcd, 0x5c, 0x5a, 0x38, 0xf1, 0xdf, 0x8b, 0x30, 0xcd, 0xd5, 0x90, 0xc4, 0x4d, 0x4e, 0x6e, 0x32, 0x0d, 0x64, 0x62, 0xa0, 0xb9, 0x36, 0x18, 0x0d, 0xef, 0xcd, 0xc6, 0x9f, 0x1c, 0x1c, 0x60, 0x69, 0xad, 0x71, 0x45, 0x42, 0xfd, 0xed, 0x47, 0x46, 0x0b, 0xcb, 0x9d, 0x11, 0x56, 0xa1, 0xe5, 0x97, 0x5f, 0x88, 0xa0, 0x1e, 0xa1, 0x52, 0x83, 0x70, 0x35, 0xb2, 0xa8, 0xae, 0xb6, 0xfc, 0x98, 0xaf, 0xef, 0x81, 0x1b, 0xb4, 0x11, 0x59, 0x8d, 0x2d, 0x69, 0x8b, 0x8f, 0xb4, 0xe9, 0x99, 0xe2, 0x39, 0xd5, 0x42, 0xfa, 0x95, 0x47, 0xd6, 0xc4, 0x51, 0x29, 0xcb, 0x55, 0x70, 0xa6, 0x92, 0x8a, 0xe6, 0x23, 0x96, 0x3d, 0x06, 0x8d, 0xf5, 0x54, 0x46, 0x88, 0xc1, 0x47, 0xa7, 0xd9, 0xa1, 0x2c, 0x48, 0xc2, 0xc7, 0x1c, 0xee, 0x6d, 0x3e, 0x66, 0xd6, 0x23, 0x05, 0x0d, 0xac, 0xd1, 0xd4, 0x36, 0x60, 0x29, 0x8a, 0x09, 0x10, 0xed, 0x70, 0x9a, 0x3f, 0xd3, 0x38, 0x2f, 0x0f, 0x2b, 0xc3, 0x21, 0x6a, 0x3f, 0x3b, 0x5a, 0xe3, 0x87, 0xdd, 0xe0, 0xd6, 0x60, 0x0b, 0xe3, 0x63, 0x4d, 0x6a, 0x5e, 0x68, 0xf4, 0xce, 0x34, 0x8e, 0x83, 0xa0, 0x3c, 0xcc, 0x02, 0x07, 0x84, 0x26, 0x98, 0x64, 0xfa, 0x98, 0xd3, 0x6b, 0x8d, 0x55, 0x46, 0x3a, 0xcb, 0xd9, 0x8a, 0xd1, 0xc4, 0xf8, 0xbf, 0x51, 0xc7, 0xdb, 0xcc, 0x40, 0x82, 0x92, 0xa4, 0x4b, 0xce, 0xb6, 0xce, 0x6b, 0x14, 0x1d, 0xe9, 0xb9, 0x01, 0x8e, 0xa2, 0x49, 0x2c, 0xa6, 0xf6, 0x15, 0x60, 0xc1, 0xa6, 0x59, 0x95, 0x40, 0x3a, 0xc0, 0x1e, 0xe5, 0x59, 0xe8, 0x1f, 0x4c, 0xcc, 0x0f, 0xcb, 0xa5, 0x22, 0xb4, 0x20, 0x4e, 0x09, 0x41, 0xb6, 0x5e, 0x46, 0xbe, 0xdb, 0xf7, 0xed, 0x68, 0xd8, 0xe7, 0x44, 0x55, 0x54, 0xea, 0xbe, 0xc7, 0x22, 0xc7, 0xf1, 0x45, 0x14, 0x58, 0x02, 0x40, 0x40, 0x6d, 0x19, 0x21, 0xcb, 0xf7, 0xc0, 0x0c, 0x38, 0x49, 0x15, 0xaa, 0x39, 0xb1, 0x0a, 0x5a, 0xe5, 0xcc, 0xc4, 0xab, 0xed, 0x70, 0xdd, 0xb5, 0x04, 0xf2, 0xf8, 0xcf, 0xa8, 0xc2, 0x0e, 0x0b, 0x9f, 0xf1, 0xb1, 0x2b, 0x9d, 0xea, 0x67, 0x44, 0x10, 0xf0, 0x30, 0x39, 0xb0, 0xf6, 0xf8, 0xe4, 0x6d, 0x36, 0x3d, 0x13, 0xdb, 0x35, 0xd5, 0x3f, 0x28, 0xcc, 0x36, 0x08, 0xcf, 0x57, 0x12, 0x1d, 0xbb, 0x0d, 0x32, 0xa7, 0x68, 0x66, 0x24, 0xfb, 0x6d, 0x06, 0x5d, 0x2f, 0x11, 0xbf, 0xd5, 0xcf, 0x3c, 0x07, 0x30, 0x1a, 0xa5, 0xb0, 0x2a, 0xc9, 0x30, 0xfd, 0xc2, 0x12, 0xbb, 0x07, 0xe1, 0x94, 0x04, 0x9d, 0xdb, 0xb1, 0xa7, 0xa4, 0x93, 0x51, 0x0a, 0xe9, 0x81, 0x97, 0x43, 0xd6, 0xc0, 0x3e, 0xfb, 0xee, 0x87, 0x1b, 0xe5, 0x90, 0x5e, 0x14, 0x6b, 0xfc, 0xaf, 0xfb, 0xd9, 0xae, 0x91, 0xff, 0xcf, 0xf8, 0x57, 0x34, 0xb2, 0x40, 0xba, 0x74, 0x2b, 0xe7, 0xca, 0xe8, 0xc3, 0x9e, 0x38, 0x57, 0xc1, 0xdb, 0xb8, 0x3f, 0x56, 0x2d, 0xf1, 0x57, 0xa1, 0x99, 0xcc, 0xb2, 0x1b, 0x1c, 0x14, 0x24, 0x0f, 0x13, 0xcf, 0xda, 0xd4, 0xcd, 0xaa, 0x97, 0x3a, 0xcf, 0xc6, 0xbb, 0x11, 0x56, 0x26, 0xc3, 0xcc, 0x90, 0x20, 0xcf, 0x8d, 0xfe, 0x1d, 0xb8, 0xf4, 0xc6, 0x26, 0xf3, 0xf4, 0xfa, 0x1a, 0xcb, 0xc8, 0xbc, 0x37, 0xe5, 0xb0, 0xe2, 0x13, 0xd7, 0xe9, 0xcf, 0x17, 0x11, 0xeb, 0xf1, 0x32, 0x1f, 0xc8, 0x40, 0x00, 0x8c, 0xec, 0x10, 0xd6, 0x17, 0x97, 0xb4, 0xf1, 0x18, 0x29, 0xa0, 0xe9, 0x2a, 0x13, 0x37, 0xf9, 0xcf, 0xff, 0xbd, 0x50, 0xaf, 0xfb, 0x57, 0xed, 0xf2, 0x57, 0x14, 0xf6, 0x40, 0x0c, 0xfe, 0x0e, 0x56, 0xf0, 0xf1, 0x2e, 0x24, 0x12, 0x90, 0x1e, 0xb3, 0x96, 0x59, 0x2c, 0xff, 0x9a, 0x3d, 0xfb, 0xf7, 0x37, 0x94, 0x4e, 0xa9, 0xf3, 0x6a, 0x21, 0xa1, 0xe2, 0x1d, 0x5e, 0x99, 0xfc, 0xcc, 0xac, 0xee, 0x31, 0xbe, 0x76, 0xbf, 0x52, 0x2a, 0x1e, 0x2f, 0x05, 0xc5, 0x3f, 0x30, 0x54, 0x0f, 0x0a, 0x2f, 0x1e, 0x4a, 0x19, 0x32, 0x5e, 0x99, 0x4f, 0xf2, 0x5b, 0xbd, 0xa2, 0xed, 0x5d, 0x5f, 0xc0, 0x01, 0x2a, 0xc2, 0xc1, 0x19, 0x35, 0xd2, 0x41, 0xb3, 0x23, 0xcf, 0xf1, 0xe9, 0x0c, 0x46, 0xe9, 0x9d, 0x1c, 0xb6, 0xdd, 0xa8, 0x3d, 0xb6, 0x1a, 0xa4, 0xdf, 0xca, 0xb9, 0x44, 0xfb, 0xa7, 0xdd, 0x43, 0xb2, 0x27, 0x3e, 0xfa, 0x59, 0x40, 0xc3, 0xf1, 0xc4, 0x5a, 0xfc, 0xdb, 0x59, 0xc1, 0x97, 0xa4, 0x0e, 0x7b, 0x3d, 0x6f, 0x38, 0xf1, 0xb5, 0xd8, 0x34, 0x1c, 0xdd, 0x0a, 0x54, 0xbc, 0x9e, 0x0d, 0x93, 0x37, 0x55, 0x73, 0x32, 0x9c, 0x58, 0xc3, 0xe7, 0xdd, 0x40, 0xe8, 0x3f, 0xae, 0x5f, 0x3b, 0x63, 0xa9, 0x04, 0x11, 0x2b, 0x5c, 0xa0, 0x11, 0xbe, 0xf7, 0x51, 0xce, 0xdd, 0xa0, 0x00, 0x43, 0x25, 0xa2, 0xfe, 0xee, 0x1f, 0xa1, 0xf7, 0x12, 0xa7, 0xd0, 0xc6, 0x4e, 0xcc, 0x8d, 0xc3, 0x1b, 0xa6, 0xa8, 0xec, 0x18, 0x08, 0x94, 0x05, 0x45, 0xe3, 0x67, 0xbd, 0x43, 0x8a, 0xff, 0x27, 0x32, 0x56, 0x8b, 0x83, 0xa0, 0x8a, 0x2f, 0x56, 0x34, 0xcc, 0x3e, 0x0b, 0x0e, 0xcc, 0xc5, 0x27, 0x6b, 0x9f, 0xbb, 0xb4, 0xe2, 0x58, 0x5f, 0xd7, 0x3c, 0x11, 0x63, 0x30, 0x6d, 0xf4, 0x56, 0x47, 0x17, 0xfb, 0x39, 0x02, 0x65, 0xad, 0xb6, 0x3d, 0x10, 0x99, 0x21, 0xbe, 0x66, 0xef, 0xd2, 0xdd, 0x86, 0x43, 0x90, 0xe4, 0x21, 0xa6, 0x15, 0x3b, 0xd7, 0x9b, 0x93, 0xa6, 0x61, 0x32, 0x29, 0x08, 0xe3, 0xd9, 0xe7, 0x34, 0x8c, 0xcf, 0x6e, 0x06, 0x8d, 0x48, 0x96, 0xe2, 0xbe, 0xc9, 0x9d, 0x5d, 0x72, 0xf6, 0xda, 0x4c, 0xb2, 0xed, 0xd7, 0xf5, 0x36, 0x32, 0x13, 0xc2, 0x1c, 0xe4, 0x4a, 0x3d, 0x14, 0xd2, 0xf1, 0xa7, 0x16, 0x4a, 0xb9, 0xaa, 0x63, 0xe2, 0x67, 0xce, 0x14, 0x8a, 0xa6, 0xf4, 0x41, 0x49, 0x3c, 0x35, 0x2a, 0x12, 0xb4, 0xbb, 0x1b, 0x17, 0xb5, 0x39, 0xae, 0x92, 0x2c, 0xbe, 0x33, 0xee, 0x8e, 0x35, 0x65, 0x4a, 0xaf, 0x11, 0x15, 0xcd, 0x2e, 0xb9, 0xc9, 0x5e, 0xd2, 0x20, 0xed, 0xfb, 0x11, 0x91, 0xf8, 0x00, 0x1b, 0xe1, 0xdd, 0x67, 0x46, 0x6f, 0x8e, 0x37, 0xb7, 0x16, 0xc1, 0xf4, 0x28, 0xfc, 0x52, 0xea, 0xc9, 0x0e, 0x30, 0x03, 0x2f, 0x9e, 0xec, 0xd5, 0x6a, 0xf8, 0x9b, 0xa4, 0x63, 0x7f, 0x2f, 0xdd, 0xf2, 0x0f, 0xeb, 0xb5, 0x98, 0xa0, 0x4c, 0xac, 0x9c, 0x20, 0xb0, 0xe7, 0x69, 0xf0, 0x3f, 0xb7, 0x5f, 0xbf, 0xda, 0xca, 0xf7, 0x49, 0x4e, 0xe5, 0x8c, 0x03, 0x27, 0x25, 0xe1, 0xfd, 0xc7, 0x9d, 0x1d, 0xd4, 0x41, 0xf7, 0x21, 0x5d, 0x30, 0x86, 0x95, 0xde, 0xf8, 0xeb, 0xa5, 0xa1, 0xfb, 0xbd, 0xdb, 0x05, 0x20, 0xb2, 0x32, 0x18, 0x58, 0x88, 0xb6, 0xfa, 0x44, 0xa2, 0x0f, 0xb2, 0x0d, 0x35, 0x8c, 0xcb, 0xc2, 0x43, 0x98, 0x87, 0x45, 0x8f, 0x0b, 0xa9, 0xdf, 0xa9, 0x08, 0x17, 0x1e, 0x11, 0xb2, 0x2d, 0xef, 0x99, 0xa3, 0xd5, 0xe1, 0x91, 0xdd, 0x32, 0x41, 0xc3, 0x32, 0x6f, 0xc2, 0x21, 0xae, 0x2b, 0xe6, 0x27, 0x4e, 0xc1, 0x2c, 0x7f, 0x1d, 0x09, 0xc2, 0x2f, 0xc9, 0x49, 0xdb, 0xbd, 0x06, 0xbf, 0x23, 0x14, 0xf9, 0xe0, 0x01, 0xb5, 0xbf, 0xe0, 0x26, 0x14, 0x4b, 0xde, 0x49, 0xdb, 0x19, 0xf3, 0x43, 0x15, 0x48, 0x27, 0x0b, 0xa3, 0xee, 0xd3, 0x37, 0xba, 0xed, 0x47, 0xd5, 0xb9, 0xac, 0x2a, 0xdb, 0xee, 0xb6, 0xaa, 0xd0, 0x07, 0x5e, 0x05, 0x36, 0xdc, 0xb2, 0x47, 0xc8, 0xc0, 0x56, 0xd9, 0xce, 0xcd, 0x45, 0xb5, 0x62, 0x26, 0x17, 0xb2, 0x47, 0x10, 0x75, 0x23, 0x2b, 0x41, 0xd4, 0x4e, 0x4f, 0x61, 0x18, 0x05, 0x2b, 0x1f, 0xc6, 0x53, 0x5b, 0x65, 0x3f, 0x15, 0x2e, 0x0c, 0xfe, 0xc9, 0x58, 0xd2, 0x1d, 0xc1, 0x0f, 0xef, 0xf0, 0xff, 0xf8, 0x42, 0xdc, 0x43, 0x08, 0x37, 0x47, 0xdb, 0x57, 0x46, 0xe9, 0x26, 0xdf, 0x37, 0xfd, 0x02, 0xcb, 0xf3, 0xf7, 0xdc, 0xdf, 0x4d, 0x1f, 0xd6, 0xf4, 0x02, 0x13, 0xf9, 0xd3, 0xec, 0xc6, 0x0c, 0x0a, 0x3a, 0x00, 0xd5, 0x29, 0xe7, 0x3b, 0x4b, 0xf7, 0x51, 0xb0, 0xd0, 0x2a, 0xd0, 0x3e, 0x41, 0x38, 0x4e, 0xf7, 0xc8, 0x48, 0xf6, 0xd0, 0x3b, 0x33, 0xe7, 0x12, 0x20, 0x2f, 0xce, 0xd4, 0x10, 0x3d, 0xdf, 0x07, 0xf6, 0xf7, 0x2d, 0xd0, 0x16, 0x00, 0xcf, 0xde, 0xec, 0xf4, 0xe1, 0xef, 0x39, 0xe4, 0x34, 0x44, 0x44, 0xd2, 0x56, 0xd1, 0xb3, 0xfb, 0xe5, 0xb8, 0x2c, 0x13, 0x94, 0x30, 0xf9, 0x45, 0xdf, 0xc7, 0xad, 0x16, 0xb0, 0xaa, 0x37, 0xc6, 0xbb, 0xbc, 0xc4, 0x47, 0x34, 0xad, 0x11, 0x30, 0x98, 0x45, 0xa6, 0xdb, 0x08, 0x2a, 0x35, 0xd7, 0x35, 0xdf, 0x37, 0xc2, 0xf3, 0x37, 0xe2, 0xb6, 0x4b, 0x13, 0xf6, 0x4a, 0x50, 0x07, 0x47, 0x0a, 0x17, 0x99, 0x29, 0x54, 0x27, 0xb1, 0x47, 0xad, 0x0b, 0xf7, 0x1a, 0x24, 0x3e, 0x1b, 0xcb, 0x3c, 0xa9, 0xe0, 0xed, 0x29, 0x3b, 0xe3, 0xf4, 0x3e, 0xc5, 0x29, 0xf8, 0xfe, 0x3f, 0xba, 0xc2, 0xb4, 0x26, 0x51, 0x9f, 0xb2, 0x41, 0xfe, 0x2e, 0x4e, 0x10, 0xfe, 0x00, 0xd2, 0x30, 0x2e, 0x1f, 0x07, 0xf2, 0xa0, 0x21, 0xfc, 0x36, 0xd2, 0xf0, 0xab, 0x30, 0x01, 0xbc, 0x45, 0xff, 0xa7, 0xd4, 0xd5, 0x43, 0xbc, 0xec, 0x03, 0xc7, 0xd6, 0xff, 0xaf, 0xd6, 0xfe, 0xef, 0x50, 0xcc, 0x03, 0xdc, 0xbb, 0x5e, 0x19, 0xc6, 0xca, 0xc0, 0x37, 0x24, 0xc3, 0x05, 0x0c, 0xcb, 0xc6, 0x40, 0x36, 0x03, 0x26, 0x2a, 0xbe, 0xc6, 0xbb, 0xd1, 0x13, 0xe5, 0xdf, 0xea, 0x0d, 0x24, 0xe2, 0xe3, 0x4a, 0x42, 0x52, 0xf4, 0xce, 0x39, 0xf6, 0xaf, 0x42, 0xd1, 0x53, 0xa7, 0x16, 0xd4, 0x0c, 0x08, 0xef, 0xb4, 0xd4, 0x49, 0x28, 0xd8, 0xd2, 0x19, 0xb8, 0x14, 0x07, 0xf2, 0x1f, 0x3b, 0xcd, 0x9f, 0x49, 0xe3, 0xc5, 0xe9, 0x01, 0x1c, 0xc3, 0xbb, 0x26, 0xc9, 0x0f, 0xe3, 0x3c, 0xc8, 0x15, 0xd3, 0x5b, 0xbb, 0xc4, 0xb2, 0xe3, 0xd5, 0xc3, 0x5b, 0xf5, 0x34, 0x6a, 0x47, 0x04, 0xee, 0x10, 0x19, 0x13, 0xd5, 0xc7, 0xc8, 0xea, 0x08, 0x07, 0xba, 0x4c, 0x58, 0xfa, 0x31, 0xbe, 0x4a, 0xb4, 0xf1, 0x16, 0xf9, 0xf5, 0xe7, 0xc4, 0xd4, 0x4a, 0x4b, 0x05, 0x1a, 0x2b, 0x28, 0x10, 0xd7, 0xcb, 0x07, 0xb6, 0xf1, 0xee, 0xe9, 0x03, 0x55, 0x98, 0xb7, 0xc3, 0x26, 0x4c, 0x4d, 0xbf, 0x01, 0xb3, 0x2a, 0xd3, 0xe0, 0x1e, 0xb0, 0x1f, 0xf2, 0x13, 0x35, 0xe0, 0xe0, 0xdf, 0x45, 0x04, 0x09, 0xc2, 0xc3, 0xfc, 0xe0, 0x26, 0x1f, 0x35, 0xba, 0xe1, 0x00, 0xf1, 0xd6, 0x32, 0xf0, 0x43, 0x33, 0xa2, 0x01, 0x3f, 0xcc, 0xf2, 0x40, 0xa5, 0x45, 0x2c, 0x5b, 0xa2, 0x33, 0x39, 0xa8, 0xc7, 0x2c, 0x0a, 0xa1, 0xea, 0xe5, 0xe8, 0xb5, 0x27, 0xce, 0xab, 0xe6, 0xf8, 0xff, 0xdc, 0xf6, 0x81, 0xdf, 0x02, 0x2f, 0x4e, 0x18, 0x96, 0x3f, 0xd7, 0x20, 0x49, 0xfa, 0x14, 0x1c, 0x18, 0x37, 0xc0, 0x0f, 0x1a, 0xcf, 0xe9, 0x5d, 0xc8, 0xee, 0x48, 0xc0, 0xba, 0x29, 0x3a, 0x4d, 0xe7, 0x49, 0xc6, 0xe9, 0xae, 0xe6, 0xe3, 0x4a, 0xfc, 0x29, 0x32, 0x10, 0xdb, 0x2e, 0x55, 0xd0, 0xcb, 0x42, 0x9a, 0xd7, 0xdd, 0xec, 0x04, 0xae, 0x34, 0xd0, 0x4e, 0x3d, 0x55, 0x13, 0x3d, 0xc1, 0xd4, 0x41, 0xbc, 0x1a, 0xb2, 0xce, 0x18, 0x39, 0xe0, 0x52, 0x35, 0xe0, 0x0d, 0xe2, 0xf6, 0x5d, 0x29, 0x2d, 0x6c, 0xbd, 0x3b, 0x4e, 0x9b, 0x0a, 0xd2, 0xbb, 0x47, 0x4e, 0xc3, 0xc1, 0x04, 0xe4, 0x0c, 0x0d, 0x2e, 0x0a, 0xc0, 0x0f, 0xbb, 0xa2, 0x25, 0xc1, 0x35, 0xf4, 0x0e, 0xe3, 0x08, 0x18, 0xb8, 0xd2, 0x40, 0x49, 0xaf, 0x4b, 0xbc, 0xf3, 0xde, 0xe4, 0x24, 0x30, 0x3b, 0x1c, 0xb8, 0xd2, 0x23, 0xf5, 0xf7, 0xa9, 0xc6, 0x0a, 0xdd, 0xfd, 0xd2, 0xc2, 0x10, 0x3a, 0x3f, 0xc7, 0xe5, 0x5d, 0xa7, 0xa7, 0x8b, 0x20, 0xb6, 0xfc, 0xfc, 0xfe, 0x19, 0xc8, 0xaa, 0xdf, 0xcd, 0xb5, 0x42, 0xbd, 0x1d, 0x26, 0xf4, 0x2e, 0x28, 0xe1, 0xfb, 0x40, 0x1d, 0xfd, 0xf5, 0xc7, 0x46, 0xe2, 0xde, 0xf6, 0x3d, 0xb9, 0xf5, 0x91, 0xf7, 0xd2, 0x41, 0x39, 0xd2, 0x2f, 0x4c, 0x2b, 0x30, 0xc0, 0x2b, 0x15, 0x1c, 0xb8, 0xbf, 0x3d, 0xdb, 0xf1, 0x62, 0xa3, 0xdb, 0xac, 0xd7, 0xae, 0x28, 0xab, 0xc0, 0x0c, 0xee, 0xf4, 0xb9, 0x32, 0x3f, 0xb9, 0x35, 0xfd, 0x1b, 0x3d, 0xfb, 0xbc, 0x3c, 0xb9, 0x21, 0x09, 0x45, 0xf8, 0xfc, 0xf1, 0x3c, 0x3c, 0x54, 0xda, 0x09, 0xd6, 0xdc, 0x24, 0xfd, 0xd6, 0x47, 0x43, 0x35, 0x46, 0x3d, 0x56, 0xec, 0x0c, 0xbb, 0x01, 0xde, 0x1f, 0x10, 0x0b, 0xb6, 0xfe, 0xff, 0xff, 0x04, 0x00, 0x00, 0x00, 0x40, 0x00, 0x00, 0x00, 0xf4, 0xff, 0xff, 0xff, 0x04, 0x00, 0x00, 0x00, 0xf2, 0xff, 0xff, 0xff, 0x08, 0x00, 0x00, 0x00, 0x00, 0x00, 0x00, 0x00, 0x00, 0x00, 0x00, 0x00, 0xfb, 0xff, 0xff, 0xff, 0x07, 0x00, 0x00, 0x00, 0x0d, 0x00, 0x00, 0x00, 0xe1, 0xff, 0xff, 0xff, 0xff, 0xff, 0xff, 0xff, 0xed, 0xff, 0xff, 0xff, 0xeb, 0xff, 0xff, 0xff, 0xe9, 0xff, 0xff, 0xff, 0xf7, 0xff, 0xff, 0xff, 0x05, 0x00, 0x00, 0x00, 0x02, 0xff, 0xff, 0xff, 0x04, 0x00, 0x00, 0x00, 0x30, 0x00, 0x00, 0x00, 0x31, 0x3b, 0xe5, 0xfc, 0x1b, 0x4c, 0xed, 0x31, 0x3b, 0x7f, 0x1f, 0xc6, 0x92, 0xfe, 0x56, 0x6e, 0x38, 0xab, 0xc3, 0xcb, 0x3c, 0x6b, 0xcc, 0x3a, 0xf8, 0xa8, 0x51, 0xa7, 0xfe, 0x6d, 0x7f, 0x4e, 0x77, 0x81, 0x57, 0xb2, 0xc3, 0xf1, 0x9f, 0x94, 0x60, 0x14, 0x38, 0x2a, 0xb8, 0x52, 0x4e, 0x42, 0x3e, 0xff, 0xff, 0xff, 0x04, 0x00, 0x00, 0x00, 0x0c, 0x00, 0x00, 0x00, 0xbc, 0xff, 0xff, 0xff, 0x0e, 0x00, 0x00, 0x00, 0x44, 0x00, 0x00, 0x00, 0x56, 0xff, 0xff, 0xff, 0x04, 0x00, 0x00, 0x00, 0x08, 0x00, 0x00, 0x00, 0xff, 0xff, 0xff, 0xff, 0x80, 0x01, 0x00, 0x00, 0xf8, 0xf0, 0xff, 0xff, 0xfc, 0xf0, 0xff, 0xff, 0x0f, 0x00, 0x00, 0x00, 0x4d, 0x4c, 0x49, 0x52, 0x20, 0x43, 0x6f, 0x6e, 0x76, 0x65, 0x72, 0x74, 0x65, 0x64, 0x2e, 0x00, 0x01, 0x00, 0x00, 0x00, 0x14, 0x00, 0x00, 0x00, 0x00, 0x00, 0x0e, 0x00, 0x18, 0x00, 0x14, 0x00, 0x10, 0x00, 0x0c, 0x00, 0x08, 0x00, 0x04, 0x00, 0x0e, 0x00, 0x00, 0x00, 0x14, 0x00, 0x00, 0x00, 0x1c, 0x00, 0x00, 0x00, 0x4c, 0x02, 0x00, 0x00, 0x50, 0x02, 0x00, 0x00, 0x54, 0x02, 0x00, 0x00, 0x04, 0x00, 0x00, 0x00, 0x6d, 0x61, 0x69, 0x6e, 0x00, 0x00, 0x00, 0x00, 0x08, 0x00, 0x00, 0x00, 0xe8, 0x01, 0x00, 0x00, 0x84, 0x01, 0x00, 0x00, 0x34, 0x01, 0x00, 0x00, 0xf0, 0x00, 0x00, 0x00, 0xc8, 0x00, 0x00, 0x00, 0x78, 0x00, 0x00, 0x00, 0x40, 0x00, 0x00, 0x00, 0x04, 0x00, 0x00, 0x00, 0xa6, 0xfe, 0xff, 0xff, 0x1c, 0x00, 0x00, 0x00, 0x00, 0x00, 0x00, 0x09, 0x1c, 0x00, 0x00, 0x00, 0x20, 0x00, 0x00, 0x00, 0x04, 0x00, 0x00, 0x00, 0x00, 0x00, 0x06, 0x00, 0x08, 0x00, 0x04, 0x00, 0x06, 0x00, 0x00, 0x00, 0x00, 0x00, 0x80, 0x3f, 0x01, 0x00, 0x00, 0x00, 0x11, 0x00, 0x00, 0x00, 0x01, 0x00, 0x00, 0x00, 0x10, 0x00, 0x00, 0x00, 0xde, 0xfe, 0xff, 0xff, 0x14, 0x00, 0x00, 0x00, 0x00, 0x00, 0x00, 0x08, 0x10, 0x00, 0x00, 0x00, 0x14, 0x00, 0x00, 0x00, 0x03, 0x00, 0x00, 0x00, 0xc4, 0xf1, 0xff, 0xff, 0x01, 0x00, 0x00, 0x00, 0x10, 0x00, 0x00, 0x00, 0x03, 0x00, 0x00, 0x00, 0x0f, 0x00, 0x00, 0x00, 0x03, 0x00, 0x00, 0x00, 0x02, 0x00, 0x00, 0x00, 0x12, 0xff, 0xff, 0xff, 0x1c, 0x00, 0x00, 0x00, 0x00, 0x00, 0x00, 0x08, 0x1c, 0x00, 0x00, 0x00, 0x20, 0x00, 0x00, 0x00, 0x03, 0x00, 0x00, 0x00, 0x00, 0x00, 0x06, 0x00, 0x08, 0x00, 0x07, 0x00, 0x06, 0x00, 0x00, 0x00, 0x00, 0x00, 0x00, 0x01, 0x01, 0x00, 0x00, 0x00, 0x0f, 0x00, 0x00, 0x00, 0x03, 0x00, 0x00, 0x00, 0x0e, 0x00, 0x00, 0x00, 0x05, 0x00, 0x00, 0x00, 0x04, 0x00, 0x00, 0x00, 0x00, 0x00, 0x0a, 0x00, 0x10, 0x00, 0x0c, 0x00, 0x08, 0x00, 0x04, 0x00, 0x0a, 0x00, 0x00, 0x00, 0x0c, 0x00, 0x00, 0x00, 0x10, 0x00, 0x00, 0x00, 0x02, 0x00, 0x00, 0x00, 0x01, 0x00, 0x00, 0x00, 0x0e, 0x00, 0x00, 0x00, 0x02, 0x00, 0x00, 0x00, 0x0d, 0x00, 0x00, 0x00, 0x01, 0x00, 0x00, 0x00, 0x82, 0xff, 0xff, 0xff, 0x14, 0x00, 0x00, 0x00, 0x00, 0x00, 0x00, 0x05, 0x24, 0x00, 0x00, 0x00, 0x28, 0x00, 0x00, 0x00, 0x01, 0x00, 0x00, 0x00, 0x72, 0xff, 0xff, 0xff, 0x02, 0x00, 0x00, 0x00, 0x02, 0x00, 0x00, 0x00, 0x02, 0x00, 0x00, 0x00, 0x02, 0x00, 0x00, 0x00, 0x00, 0x00, 0x00, 0x01, 0x01, 0x00, 0x00, 0x00, 0x0d, 0x00, 0x00, 0x00, 0x01, 0x00, 0x00, 0x00, 0x0c, 0x00, 0x00, 0x00, 0x62, 0xff, 0xff, 0xff, 0x10, 0x00, 0x00, 0x00, 0x00, 0x00, 0x00, 0x01, 0x18, 0x00, 0x00, 0x00, 0x1c, 0x00, 0x00, 0x00, 0x54, 0xff, 0xff, 0xff, 0x00, 0x00, 0x00, 0x01, 0x01, 0x00, 0x00, 0x00, 0x01, 0x00, 0x00, 0x00, 0x01, 0x00, 0x00, 0x00, 0x0c, 0x00, 0x00, 0x00, 0x03, 0x00, 0x00, 0x00, 0x0b, 0x00, 0x00, 0x00, 0x07, 0x00, 0x00, 0x00, 0x06, 0x00, 0x00, 0x00, 0x00, 0x00, 0x0e, 0x00, 0x1a, 0x00, 0x14, 0x00, 0x10, 0x00, 0x0c, 0x00, 0x0b, 0x00, 0x04, 0x00, 0x0e, 0x00, 0x00, 0x00, 0x24, 0x00, 0x00, 0x00, 0x00, 0x00, 0x00, 0x05, 0x34, 0x00, 0x00, 0x00, 0x38, 0x00, 0x00, 0x00, 0x01, 0x00, 0x00, 0x00, 0x00, 0x00, 0x0e, 0x00, 0x18, 0x00, 0x17, 0x00, 0x10, 0x00, 0x0c, 0x00, 0x08, 0x00, 0x04, 0x00, 0x0e, 0x00, 0x00, 0x00, 0x02, 0x00, 0x00, 0x00, 0x02, 0x00, 0x00, 0x00, 0x02, 0x00, 0x00, 0x00, 0x02, 0x00, 0x00, 0x00, 0x00, 0x00, 0x00, 0x01, 0x01, 0x00, 0x00, 0x00, 0x0b, 0x00, 0x00, 0x00, 0x01, 0x00, 0x00, 0x00, 0x0a, 0x00, 0x00, 0x00, 0x00, 0x00, 0x0e, 0x00, 0x14, 0x00, 0x00, 0x00, 0x10, 0x00, 0x0c, 0x00, 0x0b, 0x00, 0x04, 0x00, 0x0e, 0x00, 0x00, 0x00, 0x1c, 0x00, 0x00, 0x00, 0x00, 0x00, 0x00, 0x01, 0x24, 0x00, 0x00, 0x00, 0x28, 0x00, 0x00, 0x00, 0x0c, 0x00, 0x10, 0x00, 0x00, 0x00, 0x0c, 0x00, 0x08, 0x00, 0x07, 0x00, 0x0c, 0x00, 0x00, 0x00, 0x00, 0x00, 0x00, 0x01, 0x01, 0x00, 0x00, 0x00, 0x01, 0x00, 0x00, 0x00, 0x01, 0x00, 0x00, 0x00, 0x0a, 0x00, 0x00, 0x00, 0x03, 0x00, 0x00, 0x00, 0x00, 0x00, 0x00, 0x00, 0x09, 0x00, 0x00, 0x00, 0x08, 0x00, 0x00, 0x00, 0x01, 0x00, 0x00, 0x00, 0x11, 0x00, 0x00, 0x00, 0x01, 0x00, 0x00, 0x00, 0x00, 0x00, 0x00, 0x00, 0x12, 0x00, 0x00, 0x00, 0xa4, 0x0c, 0x00, 0x00, 0x48, 0x0c, 0x00, 0x00, 0xb8, 0x0b, 0x00, 0x00, 0x3c, 0x0b, 0x00, 0x00, 0x28, 0x0a, 0x00, 0x00, 0x0c, 0x09, 0x00, 0x00, 0xf8, 0x07, 0x00, 0x00, 0xd4, 0x06, 0x00, 0x00, 0x20, 0x06, 0x00, 0x00, 0x5c, 0x05, 0x00, 0x00, 0x88, 0x04, 0x00, 0x00, 0xec, 0x03, 0x00, 0x00, 0xf8, 0x02, 0x00, 0x00, 0x5c, 0x02, 0x00, 0x00, 0xd8, 0x01, 0x00, 0x00, 0x24, 0x01, 0x00, 0x00, 0x80, 0x00, 0x00, 0x00, 0x04, 0x00, 0x00, 0x00, 0xba, 0xf3, 0xff, 0xff, 0x00, 0x00, 0x00, 0x01, 0x18, 0x00, 0x00, 0x00, 0x20, 0x00, 0x00, 0x00, 0x3c, 0x00, 0x00, 0x00, 0x12, 0x00, 0x00, 0x00, 0x00, 0x00, 0x00, 0x09, 0x50, 0x00, 0x00, 0x00, 0x02, 0x00, 0x00, 0x00, 0xff, 0xff, 0xff, 0xff, 0x03, 0x00, 0x00, 0x00, 0x9c, 0xf3, 0xff, 0xff, 0x08, 0x00, 0x00, 0x00, 0x10, 0x00, 0x00, 0x00, 0x01, 0x00, 0x00, 0x00, 0x80, 0xff, 0xff, 0xff, 0xff, 0xff, 0xff, 0xff, 0x01, 0x00, 0x00, 0x00, 0x00, 0x00, 0x80, 0x3b, 0x1b, 0x00, 0x00, 0x00, 0x53, 0x74, 0x61, 0x74, 0x65, 0x66, 0x75, 0x6c, 0x50, 0x61, 0x72, 0x74, 0x69, 0x74, 0x69, 0x6f, 0x6e, 0x65, 0x64, 0x43, 0x61, 0x6c, 0x6c, 0x5f, 0x31, 0x3a, 0x30, 0x00, 0x02, 0x00, 0x00, 0x00, 0x01, 0x00, 0x00, 0x00, 0x03, 0x00, 0x00, 0x00, 0x32, 0xf4, 0xff, 0xff, 0x00, 0x00, 0x00, 0x01, 0x18, 0x00, 0x00, 0x00, 0x20, 0x00, 0x00, 0x00, 0x40, 0x00, 0x00, 0x00, 0x11, 0x00, 0x00, 0x00, 0x00, 0x00, 0x00, 0x09, 0x78, 0x00, 0x00, 0x00, 0x02, 0x00, 0x00, 0x00, 0xff, 0xff, 0xff, 0xff, 0x03, 0x00, 0x00, 0x00, 0x14, 0xf4, 0xff, 0xff, 0x08, 0x00, 0x00, 0x00, 0x14, 0x00, 0x00, 0x00, 0x01, 0x00, 0x00, 0x00, 0xeb, 0xff, 0xff, 0xff, 0xff, 0xff, 0xff, 0xff, 0x00, 0x00, 0x00, 0x00, 0x01, 0x00, 0x00, 0x00, 0x02, 0xc0, 0x77, 0x3e, 0x3c, 0x00, 0x00, 0x00, 0x73, 0x65, 0x71, 0x75, 0x65, 0x6e, 0x74, 0x69, 0x61, 0x6c, 0x5f, 0x31, 0x2f, 0x64, 0x65, 0x6e, 0x73, 0x65, 0x5f, 0x31, 0x5f, 0x32, 0x2f, 0x4d, 0x61, 0x74, 0x4d, 0x75, 0x6c, 0x3b, 0x73, 0x65, 0x71, 0x75, 0x65, 0x6e, 0x74, 0x69, 0x61, 0x6c, 0x5f, 0x31, 0x2f, 0x64, 0x65, 0x6e, 0x73, 0x65, 0x5f, 0x31, 0x5f, 0x32, 0x2f, 0x42, 0x69, 0x61, 0x73, 0x41, 0x64, 0x64, 0x00, 0x00, 0x00, 0x00, 0x02, 0x00, 0x00, 0x00, 0x01, 0x00, 0x00, 0x00, 0x03, 0x00, 0x00, 0x00, 0xd2, 0xf4, 0xff, 0xff, 0x00, 0x00, 0x00, 0x01, 0x18, 0x00, 0x00, 0x00, 0x20, 0x00, 0x00, 0x00, 0x3c, 0x00, 0x00, 0x00, 0x10, 0x00, 0x00, 0x00, 0x00, 0x00, 0x00, 0x09, 0x88, 0x00, 0x00, 0x00, 0x02, 0x00, 0x00, 0x00, 0xff, 0xff, 0xff, 0xff, 0x10, 0x00, 0x00, 0x00, 0xb4, 0xf4, 0xff, 0xff, 0x08, 0x00, 0x00, 0x00, 0x10, 0x00, 0x00, 0x00, 0x01, 0x00, 0x00, 0x00, 0x80, 0xff, 0xff, 0xff, 0xff, 0xff, 0xff, 0xff, 0x01, 0x00, 0x00, 0x00, 0x78, 0x59, 0x36, 0x3e, 0x52, 0x00, 0x00, 0x00, 0x73, 0x65, 0x71, 0x75, 0x65, 0x6e, 0x74, 0x69, 0x61, 0x6c, 0x5f, 0x31, 0x2f, 0x64, 0x65, 0x6e, 0x73, 0x65, 0x5f, 0x31, 0x2f, 0x4d, 0x61, 0x74, 0x4d, 0x75, 0x6c, 0x3b, 0x73, 0x65, 0x71, 0x75, 0x65, 0x6e, 0x74, 0x69, 0x61, 0x6c, 0x5f, 0x31, 0x2f, 0x64, 0x65, 0x6e, 0x73, 0x65, 0x5f, 0x31, 0x2f, 0x52, 0x65, 0x6c, 0x75, 0x3b, 0x73, 0x65, 0x71, 0x75, 0x65, 0x6e, 0x74, 0x69, 0x61, 0x6c, 0x5f, 0x31, 0x2f, 0x64, 0x65, 0x6e, 0x73, 0x65, 0x5f, 0x31, 0x2f, 0x42, 0x69, 0x61, 0x73, 0x41, 0x64, 0x64, 0x00, 0x00, 0x02, 0x00, 0x00, 0x00, 0x01, 0x00, 0x00, 0x00, 0x10, 0x00, 0x00, 0x00, 0x82, 0xf5, 0xff, 0xff, 0x00, 0x00, 0x00, 0x01, 0x18, 0x00, 0x00, 0x00, 0x20, 0x00, 0x00, 0x00, 0x40, 0x00, 0x00, 0x00, 0x0f, 0x00, 0x00, 0x00, 0x00, 0x00, 0x00, 0x09, 0x58, 0x00, 0x00, 0x00, 0x02, 0x00, 0x00, 0x00, 0xff, 0xff, 0xff, 0xff, 0x80, 0x01, 0x00, 0x00, 0x64, 0xf5, 0xff, 0xff, 0x08, 0x00, 0x00, 0x00, 0x14, 0x00, 0x00, 0x00, 0x01, 0x00, 0x00, 0x00, 0x80, 0xff, 0xff, 0xff, 0xff, 0xff, 0xff, 0xff, 0x00, 0x00, 0x00, 0x00, 0x01, 0x00, 0x00, 0x00, 0xa6, 0x7d, 0xb3, 0x3e, 0x1e, 0x00, 0x00, 0x00, 0x73, 0x65, 0x71, 0x75, 0x65, 0x6e, 0x74, 0x69, 0x61, 0x6c, 0x5f, 0x31, 0x2f, 0x66, 0x6c, 0x61, 0x74, 0x74, 0x65, 0x6e, 0x5f, 0x31, 0x2f, 0x52, 0x65, 0x73, 0x68, 0x61, 0x70, 0x65, 0x00, 0x00, 0x02, 0x00, 0x00, 0x00, 0x01, 0x00, 0x00, 0x00, 0x80, 0x01, 0x00, 0x00, 0x02, 0xf6, 0xff, 0xff, 0x00, 0x00, 0x00, 0x01, 0x18, 0x00, 0x00, 0x00, 0x28, 0x00, 0x00, 0x00, 0x44, 0x00, 0x00, 0x00, 0x0e, 0x00, 0x00, 0x00, 0x00, 0x00, 0x00, 0x09, 0x68, 0x00, 0x00, 0x00, 0x04, 0x00, 0x00, 0x00, 0xff, 0xff, 0xff, 0xff, 0x08, 0x00, 0x00, 0x00, 0x03, 0x00, 0x00, 0x00, 0x10, 0x00, 0x00, 0x00, 0xec, 0xf5, 0xff, 0xff, 0x08, 0x00, 0x00, 0x00, 0x10, 0x00, 0x00, 0x00, 0x01, 0x00, 0x00, 0x00, 0x80, 0xff, 0xff, 0xff, 0xff, 0xff, 0xff, 0xff, 0x01, 0x00, 0x00, 0x00, 0xa6, 0x7d, 0xb3, 0x3e, 0x28, 0x00, 0x00, 0x00, 0x73, 0x65, 0x71, 0x75, 0x65, 0x6e, 0x74, 0x69, 0x61, 0x6c, 0x5f, 0x31, 0x2f, 0x6d, 0x61, 0x78, 0x5f, 0x70, 0x6f, 0x6f, 0x6c, 0x69, 0x6e, 0x67, 0x32, 0x64, 0x5f, 0x31, 0x5f, 0x32, 0x2f, 0x4d, 0x61, 0x78, 0x50, 0x6f, 0x6f, 0x6c, 0x32, 0x64, 0x00, 0x00, 0x00, 0x00, 0x04, 0x00, 0x00, 0x00, 0x01, 0x00, 0x00, 0x00, 0x08, 0x00, 0x00, 0x00, 0x03, 0x00, 0x00, 0x00, 0x10, 0x00, 0x00, 0x00, 0x9a, 0xf6, 0xff, 0xff, 0x00, 0x00, 0x00, 0x01, 0x18, 0x00, 0x00, 0x00, 0x28, 0x00, 0x00, 0x00, 0x44, 0x00, 0x00, 0x00, 0x0d, 0x00, 0x00, 0x00, 0x00, 0x00, 0x00, 0x09, 0xc0, 0x00, 0x00, 0x00, 0x04, 0x00, 0x00, 0x00, 0xff, 0xff, 0xff, 0xff, 0x10, 0x00, 0x00, 0x00, 0x06, 0x00, 0x00, 0x00, 0x10, 0x00, 0x00, 0x00, 0x84, 0xf6, 0xff, 0xff, 0x08, 0x00, 0x00, 0x00, 0x10, 0x00, 0x00, 0x00, 0x01, 0x00, 0x00, 0x00, 0x80, 0xff, 0xff, 0xff, 0xff, 0xff, 0xff, 0xff, 0x01, 0x00, 0x00, 0x00, 0xa6, 0x7d, 0xb3, 0x3e, 0x80, 0x00, 0x00, 0x00, 0x73, 0x65, 0x71, 0x75, 0x65, 0x6e, 0x74, 0x69, 0x61, 0x6c, 0x5f, 0x31, 0x2f, 0x63, 0x6f, 0x6e, 0x76, 0x32, 0x64, 0x5f, 0x31, 0x5f, 0x32, 0x2f, 0x52, 0x65, 0x6c, 0x75, 0x3b, 0x73, 0x65, 0x71, 0x75, 0x65, 0x6e, 0x74, 0x69, 0x61, 0x6c, 0x5f, 0x31, 0x2f, 0x63, 0x6f, 0x6e, 0x76, 0x32, 0x64, 0x5f, 0x31, 0x5f, 0x32, 0x2f, 0x42, 0x69, 0x61, 0x73, 0x41, 0x64, 0x64, 0x3b, 0x73, 0x65, 0x71, 0x75, 0x65, 0x6e, 0x74, 0x69, 0x61, 0x6c, 0x5f, 0x31, 0x2f, 0x63, 0x6f, 0x6e, 0x76, 0x32, 0x64, 0x5f, 0x31, 0x5f, 0x32, 0x2f, 0x63, 0x6f, 0x6e, 0x76, 0x6f, 0x6c, 0x75, 0x74, 0x69, 0x6f, 0x6e, 0x3b, 0x73, 0x65, 0x71, 0x75, 0x65, 0x6e, 0x74, 0x69, 0x61, 0x6c, 0x5f, 0x31, 0x2f, 0x63, 0x6f, 0x6e, 0x76, 0x32, 0x64, 0x5f, 0x31, 0x5f, 0x32, 0x2f, 0x53, 0x71, 0x75, 0x65, 0x65, 0x7a, 0x65, 0x00, 0x00, 0x00, 0x00, 0x04, 0x00, 0x00, 0x00, 0x01, 0x00, 0x00, 0x00, 0x10, 0x00, 0x00, 0x00, 0x06, 0x00, 0x00, 0x00, 0x10, 0x00, 0x00, 0x00, 0x8a, 0xf7, 0xff, 0xff, 0x00, 0x00, 0x00, 0x01, 0x18, 0x00, 0x00, 0x00, 0x28, 0x00, 0x00, 0x00, 0x48, 0x00, 0x00, 0x00, 0x0c, 0x00, 0x00, 0x00, 0x00, 0x00, 0x00, 0x09, 0x68, 0x00, 0x00, 0x00, 0x04, 0x00, 0x00, 0x00, 0xff, 0xff, 0xff, 0xff, 0x10, 0x00, 0x00, 0x00, 0x06, 0x00, 0x00, 0x00, 0x08, 0x00, 0x00, 0x00, 0x74, 0xf7, 0xff, 0xff, 0x08, 0x00, 0x00, 0x00, 0x14, 0x00, 0x00, 0x00, 0x01, 0x00, 0x00, 0x00, 0x80, 0xff, 0xff, 0xff, 0xff, 0xff, 0xff, 0xff, 0x00, 0x00, 0x00, 0x00, 0x01, 0x00, 0x00, 0x00, 0x15, 0xf4, 0x32, 0x3f, 0x26, 0x00, 0x00, 0x00, 0x73, 0x65, 0x71, 0x75, 0x65, 0x6e, 0x74, 0x69, 0x61, 0x6c, 0x5f, 0x31, 0x2f, 0x6d, 0x61, 0x78, 0x5f, 0x70, 0x6f, 0x6f, 0x6c, 0x69, 0x6e, 0x67, 0x32, 0x64, 0x5f, 0x31, 0x2f, 0x4d, 0x61, 0x78, 0x50, 0x6f, 0x6f, 0x6c, 0x32, 0x64, 0x00, 0x00, 0x04, 0x00, 0x00, 0x00, 0x01, 0x00, 0x00, 0x00, 0x10, 0x00, 0x00, 0x00, 0x06, 0x00, 0x00, 0x00, 0x08, 0x00, 0x00, 0x00, 0x22, 0xf8, 0xff, 0xff, 0x00, 0x00, 0x00, 0x01, 0x18, 0x00, 0x00, 0x00, 0x28, 0x00, 0x00, 0x00, 0x48, 0x00, 0x00, 0x00, 0x0b, 0x00, 0x00, 0x00, 0x00, 0x00, 0x00, 0x09, 0xa0, 0x00, 0x00, 0x00, 0x04, 0x00, 0x00, 0x00, 0xff, 0xff, 0xff, 0xff, 0x20, 0x00, 0x00, 0x00, 0x0d, 0x00, 0x00, 0x00, 0x08, 0x00, 0x00, 0x00, 0x0c, 0xf8, 0xff, 0xff, 0x08, 0x00, 0x00, 0x00, 0x14, 0x00, 0x00, 0x00, 0x01, 0x00, 0x00, 0x00, 0x80, 0xff, 0xff, 0xff, 0xff, 0xff, 0xff, 0xff, 0x00, 0x00, 0x00, 0x00, 0x01, 0x00, 0x00, 0x00, 0x15, 0xf4, 0x32, 0x3f, 0x5c, 0x00, 0x00, 0x00, 0x73, 0x65, 0x71, 0x75, 0x65, 0x6e, 0x74, 0x69, 0x61, 0x6c, 0x5f, 0x31, 0x2f, 0x63, 0x6f, 0x6e, 0x76, 0x32, 0x64, 0x5f, 0x31, 0x2f, 0x52, 0x65, 0x6c, 0x75, 0x3b, 0x73, 0x65, 0x71, 0x75, 0x65, 0x6e, 0x74, 0x69, 0x61, 0x6c, 0x5f, 0x31, 0x2f, 0x63, 0x6f, 0x6e, 0x76, 0x32, 0x64, 0x5f, 0x31, 0x2f, 0x42, 0x69, 0x61, 0x73, 0x41, 0x64, 0x64, 0x3b, 0x73, 0x65, 0x71, 0x75, 0x65, 0x6e, 0x74, 0x69, 0x61, 0x6c, 0x5f, 0x31, 0x2f, 0x63, 0x6f, 0x6e, 0x76, 0x32, 0x64, 0x5f, 0x31, 0x2f, 0x63, 0x6f, 0x6e, 0x76, 0x6f, 0x6c, 0x75, 0x74, 0x69, 0x6f, 0x6e, 0x3b, 0x31, 0x00, 0x00, 0x00, 0x00, 0x04, 0x00, 0x00, 0x00, 0x01, 0x00, 0x00, 0x00, 0x20, 0x00, 0x00, 0x00, 0x0d, 0x00, 0x00, 0x00, 0x08, 0x00, 0x00, 0x00, 0x4a, 0xf9, 0xff, 0xff, 0x00, 0x00, 0x00, 0x01, 0x14, 0x00, 0x00, 0x00, 0x88, 0x00, 0x00, 0x00, 0x0a, 0x00, 0x00, 0x00, 0x00, 0x00, 0x00, 0x09, 0x94, 0x00, 0x00, 0x00, 0xc4, 0xf8, 0xff, 0xff, 0x08, 0x00, 0x00, 0x00, 0x4c, 0x00, 0x00, 0x00, 0x08, 0x00, 0x00, 0x00, 0x00, 0x00, 0x00, 0x00, 0x00, 0x00, 0x00, 0x00, 0x00, 0x00, 0x00, 0x00, 0x00, 0x00, 0x00, 0x00, 0x00, 0x00, 0x00, 0x00, 0x00, 0x00, 0x00, 0x00, 0x00, 0x00, 0x00, 0x00, 0x00, 0x00, 0x00, 0x00, 0x00, 0x00, 0x00, 0x00, 0x00, 0x00, 0x00, 0x00, 0x00, 0x00, 0x00, 0x00, 0x00, 0x00, 0x00, 0x00, 0x00, 0x00, 0x00, 0x00, 0x00, 0x00, 0x00, 0x00, 0x00, 0x00, 0x00, 0x00, 0x00, 0x00, 0x00, 0x00, 0x00, 0x00, 0x00, 0x00, 0x08, 0x00, 0x00, 0x00, 0x81, 0x14, 0x10, 0x3b, 0xfd, 0xa6, 0x1b, 0x3b, 0xba, 0x4f, 0xfc, 0x3a, 0x6d, 0xf5, 0x0c, 0x3b, 0xdb, 0x0c, 0xbb, 0x3a, 0x8d, 0x2a, 0xf7, 0x3a, 0x19, 0xd7, 0x9d, 0x3a, 0xe6, 0xd4, 0xe0, 0x3a, 0x12, 0x00, 0x00, 0x00, 0x74, 0x66, 0x6c, 0x2e, 0x70, 0x73, 0x65, 0x75, 0x64, 0x6f, 0x5f, 0x71, 0x63, 0x6f, 0x6e, 0x73, 0x74, 0x37, 0x00, 0x00, 0x04, 0x00, 0x00, 0x00, 0x08, 0x00, 0x00, 0x00, 0x03, 0x00, 0x00, 0x00, 0x03, 0x00, 0x00, 0x00, 0x01, 0x00, 0x00, 0x00, 0x0a, 0xfa, 0xff, 0xff, 0x00, 0x00, 0x00, 0x01, 0x14, 0x00, 0x00, 0x00, 0x84, 0x00, 0x00, 0x00, 0x09, 0x00, 0x00, 0x00, 0x00, 0x00, 0x00, 0x02, 0x90, 0x00, 0x00, 0x00, 0x84, 0xf9, 0xff, 0xff, 0x08, 0x00, 0x00, 0x00, 0x48, 0x00, 0x00, 0x00, 0x08, 0x00, 0x00, 0x00, 0x00, 0x00, 0x00, 0x00, 0x00, 0x00, 0x00, 0x00, 0x00, 0x00, 0x00, 0x00, 0x00, 0x00, 0x00, 0x00, 0x00, 0x00, 0x00, 0x00, 0x00, 0x00, 0x00, 0x00, 0x00, 0x00, 0x00, 0x00, 0x00, 0x00, 0x00, 0x00, 0x00, 0x00, 0x00, 0x00, 0x00, 0x00, 0x00, 0x00, 0x00, 0x00, 0x00, 0x00, 0x00, 0x00, 0x00, 0x00, 0x00, 0x00, 0x00, 0x00, 0x00, 0x00, 0x00, 0x00, 0x00, 0x00, 0x00, 0x00, 0x00, 0x00, 0x00, 0x00, 0x08, 0x00, 0x00, 0x00, 0x36, 0x51, 0xd8, 0x3b, 0xfd, 0xb0, 0xe9, 0x3b, 0xf9, 0x67, 0xbd, 0x3b, 0x80, 0xa1, 0xd3, 0x3b, 0x65, 0x6a, 0x8c, 0x3b, 0x31, 0x8b, 0xb9, 0x3b, 0xec, 0xf9, 0x6c, 0x3b, 0x0a, 0xc7, 0xa8, 0x3b, 0x12, 0x00, 0x00, 0x00, 0x74, 0x66, 0x6c, 0x2e, 0x70, 0x73, 0x65, 0x75, 0x64, 0x6f, 0x5f, 0x71, 0x63, 0x6f, 0x6e, 0x73, 0x74, 0x36, 0x00, 0x00, 0x01, 0x00, 0x00, 0x00, 0x08, 0x00, 0x00, 0x00, 0xba, 0xfa, 0xff, 0xff, 0x00, 0x00, 0x00, 0x01, 0x14, 0x00, 0x00, 0x00, 0xe8, 0x00, 0x00, 0x00, 0x08, 0x00, 0x00, 0x00, 0x00, 0x00, 0x00, 0x09, 0xf4, 0x00, 0x00, 0x00, 0x34, 0xfa, 0xff, 0xff, 0x08, 0x00, 0x00, 0x00, 0x8c, 0x00, 0x00, 0x00, 0x10, 0x00, 0x00, 0x00, 0x00, 0x00, 0x00, 0x00, 0x00, 0x00, 0x00, 0x00, 0x00, 0x00, 0x00, 0x00, 0x00, 0x00, 0x00, 0x00, 0x00, 0x00, 0x00, 0x00, 0x00, 0x00, 0x00, 0x00, 0x00, 0x00, 0x00, 0x00, 0x00, 0x00, 0x00, 0x00, 0x00, 0x00, 0x00, 0x00, 0x00, 0x00, 0x00, 0x00, 0x00, 0x00, 0x00, 0x00, 0x00, 0x00, 0x00, 0x00, 0x00, 0x00, 0x00, 0x00, 0x00, 0x00, 0x00, 0x00, 0x00, 0x00, 0x00, 0x00, 0x00, 0x00, 0x00, 0x00, 0x00, 0x00, 0x00, 0x00, 0x00, 0x00, 0x00, 0x00, 0x00, 0x00, 0x00, 0x00, 0x00, 0x00, 0x00, 0x00, 0x00, 0x00, 0x00, 0x00, 0x00, 0x00, 0x00, 0x00, 0x00, 0x00, 0x00, 0x00, 0x00, 0x00, 0x00, 0x00, 0x00, 0x00, 0x00, 0x00, 0x00, 0x00, 0x00, 0x00, 0x00, 0x00, 0x00, 0x00, 0x00, 0x00, 0x00, 0x00, 0x00, 0x00, 0x00, 0x00, 0x00, 0x00, 0x00, 0x00, 0x00, 0x00, 0x00, 0x00, 0x00, 0x00, 0x00, 0x00, 0x00, 0x00, 0x00, 0x00, 0x10, 0x00, 0x00, 0x00, 0x74, 0x93, 0xc2, 0x3a, 0x4b, 0x4b, 0xbe, 0x3a, 0xdc, 0x21, 0xa5, 0x3a, 0xad, 0xbe, 0xb7, 0x3a, 0x06, 0x4a, 0xaf, 0x3a, 0xbd, 0xa1, 0xc8, 0x3a, 0x90, 0x75, 0xb5, 0x3a, 0xa5, 0xfb, 0xcf, 0x3a, 0xcd, 0x6e, 0xbd, 0x3a, 0x28, 0x43, 0xb1, 0x3a, 0x78, 0xa0, 0xb5, 0x3a, 0x5c, 0x69, 0xba, 0x3a, 0xf9, 0x7b, 0xaf, 0x3a, 0xf5, 0x11, 0xb0, 0x3a, 0x97, 0x01, 0xc0, 0x3a, 0xfa, 0xc1, 0xb1, 0x3a, 0x12, 0x00, 0x00, 0x00, 0x74, 0x66, 0x6c, 0x2e, 0x70, 0x73, 0x65, 0x75, 0x64, 0x6f, 0x5f, 0x71, 0x63, 0x6f, 0x6e, 0x73, 0x74, 0x35, 0x00, 0x00, 0x04, 0x00, 0x00, 0x00, 0x10, 0x00, 0x00, 0x00, 0x03, 0x00, 0x00, 0x00, 0x03, 0x00, 0x00, 0x00, 0x08, 0x00, 0x00, 0x00, 0xda, 0xfb, 0xff, 0xff, 0x00, 0x00, 0x00, 0x01, 0x14, 0x00, 0x00, 0x00, 0xe4, 0x00, 0x00, 0x00, 0x07, 0x00, 0x00, 0x00, 0x00, 0x00, 0x00, 0x02, 0xf0, 0x00, 0x00, 0x00, 0x54, 0xfb, 0xff, 0xff, 0x08, 0x00, 0x00, 0x00, 0x88, 0x00, 0x00, 0x00, 0x10, 0x00, 0x00, 0x00, 0x00, 0x00, 0x00, 0x00, 0x00, 0x00, 0x00, 0x00, 0x00, 0x00, 0x00, 0x00, 0x00, 0x00, 0x00, 0x00, 0x00, 0x00, 0x00, 0x00, 0x00, 0x00, 0x00, 0x00, 0x00, 0x00, 0x00, 0x00, 0x00, 0x00, 0x00, 0x00, 0x00, 0x00, 0x00, 0x00, 0x00, 0x00, 0x00, 0x00, 0x00, 0x00, 0x00, 0x00, 0x00, 0x00, 0x00, 0x00, 0x00, 0x00, 0x00, 0x00, 0x00, 0x00, 0x00, 0x00, 0x00, 0x00, 0x00, 0x00, 0x00, 0x00, 0x00, 0x00, 0x00, 0x00, 0x00, 0x00, 0x00, 0x00, 0x00, 0x00, 0x00, 0x00, 0x00, 0x00, 0x00, 0x00, 0x00, 0x00, 0x00, 0x00, 0x00, 0x00, 0x00, 0x00, 0x00, 0x00, 0x00, 0x00, 0x00, 0x00, 0x00, 0x00, 0x00, 0x00, 0x00, 0x00, 0x00, 0x00, 0x00, 0x00, 0x00, 0x00, 0x00, 0x00, 0x00, 0x00, 0x00, 0x00, 0x00, 0x00, 0x00, 0x00, 0x00, 0x00, 0x00, 0x00, 0x00, 0x00, 0x00, 0x00, 0x00, 0x00, 0x00, 0x00, 0x00, 0x00, 0x10, 0x00, 0x00, 0x00, 0x0b, 0x04, 0x88, 0x3a, 0xca, 0x05, 0x85, 0x3a, 0xfa, 0xdd, 0x66, 0x3a, 0xc5, 0x71, 0x80, 0x3a, 0x32, 0x11, 0x75, 0x3a, 0xc0, 0x3f, 0x8c, 0x3a, 0x82, 0xb1, 0x7d, 0x3a, 0x46, 0x63, 0x91, 0x3a, 0xa8, 0x6b, 0x84, 0x3a, 0x69, 0xd3, 0x77, 0x3a, 0x7f, 0xed, 0x7d, 0x3a, 0xfe, 0x4e, 0x82, 0x3a, 0x07, 0x57, 0x75, 0x3a, 0xb8, 0x28, 0x76, 0x3a, 0x2c, 0x38, 0x86, 0x3a, 0xb7, 0x84, 0x78, 0x3a, 0x12, 0x00, 0x00, 0x00, 0x74, 0x66, 0x6c, 0x2e, 0x70, 0x73, 0x65, 0x75, 0x64, 0x6f, 0x5f, 0x71, 0x63, 0x6f, 0x6e, 0x73, 0x74, 0x34, 0x00, 0x00, 0x01, 0x00, 0x00, 0x00, 0x10, 0x00, 0x00, 0x00, 0xea, 0xfc, 0xff, 0xff, 0x00, 0x00, 0x00, 0x01, 0x14, 0x00, 0x00, 0x00, 0xe8, 0x00, 0x00, 0x00, 0x06, 0x00, 0x00, 0x00, 0x00, 0x00, 0x00, 0x09, 0xf4, 0x00, 0x00, 0x00, 0x64, 0xfc, 0xff, 0xff, 0x08, 0x00, 0x00, 0x00, 0x8c, 0x00, 0x00, 0x00, 0x10, 0x00, 0x00, 0x00, 0x00, 0x00, 0x00, 0x00, 0x00, 0x00, 0x00, 0x00, 0x00, 0x00, 0x00, 0x00, 0x00, 0x00, 0x00, 0x00, 0x00, 0x00, 0x00, 0x00, 0x00, 0x00, 0x00, 0x00, 0x00, 0x00, 0x00, 0x00, 0x00, 0x00, 0x00, 0x00, 0x00, 0x00, 0x00, 0x00, 0x00, 0x00, 0x00, 0x00, 0x00, 0x00, 0x00, 0x00, 0x00, 0x00, 0x00, 0x00, 0x00, 0x00, 0x00, 0x00, 0x00, 0x00, 0x00, 0x00, 0x00, 0x00, 0x00, 0x00, 0x00, 0x00, 0x00, 0x00, 0x00, 0x00, 0x00, 0x00, 0x00, 0x00, 0x00, 0x00, 0x00, 0x00, 0x00, 0x00, 0x00, 0x00, 0x00, 0x00, 0x00, 0x00, 0x00, 0x00, 0x00, 0x00, 0x00, 0x00, 0x00, 0x00, 0x00, 0x00, 0x00, 0x00, 0x00, 0x00, 0x00, 0x00, 0x00, 0x00, 0x00, 0x00, 0x00, 0x00, 0x00, 0x00, 0x00, 0x00, 0x00, 0x00, 0x00, 0x00, 0x00, 0x00, 0x00, 0x00, 0x00, 0x00, 0x00, 0x00, 0x00, 0x00, 0x00, 0x00, 0x00, 0x00, 0x00, 0x00, 0x00, 0x00, 0x00, 0x00, 0x10, 0x00, 0x00, 0x00, 0x5f, 0xd4, 0x92, 0x3a, 0x64, 0x29, 0x9a, 0x3a, 0x9e, 0xaf, 0x82, 0x3a, 0xba, 0x28, 0xb0, 0x3a, 0x11, 0x4d, 0x7c, 0x3a, 0x88, 0x55, 0x7a, 0x3a, 0xe7, 0x94, 0x8a, 0x3a, 0xad, 0x63, 0xc5, 0x3a, 0x59, 0xbe, 0x97, 0x3a, 0x2b, 0x13, 0x88, 0x3a, 0x60, 0xf2, 0x80, 0x3a, 0xe8, 0xed, 0x84, 0x3a, 0x5c, 0xbb, 0x97, 0x3a, 0x6e, 0x50, 0x8c, 0x3a, 0x76, 0x2d, 0xbb, 0x3a, 0xad, 0xfd, 0xb4, 0x3a, 0x12, 0x00, 0x00, 0x00, 0x74, 0x66, 0x6c, 0x2e, 0x70, 0x73, 0x65, 0x75, 0x64, 0x6f, 0x5f, 0x71, 0x63, 0x6f, 0x6e, 0x73, 0x74, 0x33, 0x00, 0x00, 0x02, 0x00, 0x00, 0x00, 0x10, 0x00, 0x00, 0x00, 0x80, 0x01, 0x00, 0x00, 0x02, 0xfe, 0xff, 0xff, 0x00, 0x00, 0x00, 0x01, 0x14, 0x00, 0x00, 0x00, 0xe4, 0x00, 0x00, 0x00, 0x05, 0x00, 0x00, 0x00, 0x00, 0x00, 0x00, 0x02, 0xf0, 0x00, 0x00, 0x00, 0x7c, 0xfd, 0xff, 0xff, 0x08, 0x00, 0x00, 0x00, 0x88, 0x00, 0x00, 0x00, 0x10, 0x00, 0x00, 0x00, 0x00, 0x00, 0x00, 0x00, 0x00, 0x00, 0x00, 0x00, 0x00, 0x00, 0x00, 0x00, 0x00, 0x00, 0x00, 0x00, 0x00, 0x00, 0x00, 0x00, 0x00, 0x00, 0x00, 0x00, 0x00, 0x00, 0x00, 0x00, 0x00, 0x00, 0x00, 0x00, 0x00, 0x00, 0x00, 0x00, 0x00, 0x00, 0x00, 0x00, 0x00, 0x00, 0x00, 0x00, 0x00, 0x00, 0x00, 0x00, 0x00, 0x00, 0x00, 0x00, 0x00, 0x00, 0x00, 0x00, 0x00, 0x00, 0x00, 0x00, 0x00, 0x00, 0x00, 0x00, 0x00, 0x00, 0x00, 0x00, 0x00, 0x00, 0x00, 0x00, 0x00, 0x00, 0x00, 0x00, 0x00, 0x00, 0x00, 0x00, 0x00, 0x00, 0x00, 0x00, 0x00, 0x00, 0x00, 0x00, 0x00, 0x00, 0x00, 0x00, 0x00, 0x00, 0x00, 0x00, 0x00, 0x00, 0x00, 0x00, 0x00, 0x00, 0x00, 0x00, 0x00, 0x00, 0x00, 0x00, 0x00, 0x00, 0x00, 0x00, 0x00, 0x00, 0x00, 0x00, 0x00, 0x00, 0x00, 0x00, 0x00, 0x00, 0x00, 0x00, 0x00, 0x00, 0x00, 0x00, 0x10, 0x00, 0x00, 0x00, 0x1f, 0xe5, 0xcd, 0x39, 0x36, 0x2d, 0xd8, 0x39, 0xe0, 0x41, 0xb7, 0x39, 0xe0, 0x05, 0xf7, 0x39, 0xb8, 0xe5, 0xb0, 0x39, 0xac, 0x84, 0xaf, 0x39, 0x44, 0x54, 0xc2, 0x39, 0x94, 0x65, 0x0a, 0x3a, 0x25, 0xc9, 0xd4, 0x39, 0x61, 0xd0, 0xbe, 0x39, 0x86, 0xd1, 0xb4, 0x39, 0x2f, 0x67, 0xba, 0x39, 0xf4, 0xc4, 0xd4, 0x39, 0x36, 0xc2, 0xc4, 0x39, 0xa8, 0x3c, 0x03, 0x3a, 0x6a, 0xcc, 0xfd, 0x39, 0x12, 0x00, 0x00, 0x00, 0x74, 0x66, 0x6c, 0x2e, 0x70, 0x73, 0x65, 0x75, 0x64, 0x6f, 0x5f, 0x71, 0x63, 0x6f, 0x6e, 0x73, 0x74, 0x32, 0x00, 0x00, 0x01, 0x00, 0x00, 0x00, 0x10, 0x00, 0x00, 0x00, 0x12, 0xff, 0xff, 0xff, 0x00, 0x00, 0x00, 0x01, 0x14, 0x00, 0x00, 0x00, 0x48, 0x00, 0x00, 0x00, 0x04, 0x00, 0x00, 0x00, 0x00, 0x00, 0x00, 0x09, 0x54, 0x00, 0x00, 0x00, 0x8c, 0xfe, 0xff, 0xff, 0x08, 0x00, 0x00, 0x00, 0x20, 0x00, 0x00, 0x00, 0x03, 0x00, 0x00, 0x00, 0x00, 0x00, 0x00, 0x00, 0x00, 0x00, 0x00, 0x00, 0x00, 0x00, 0x00, 0x00, 0x00, 0x00, 0x00, 0x00, 0x00, 0x00, 0x00, 0x00, 0x00, 0x00, 0x00, 0x00, 0x03, 0x00, 0x00, 0x00, 0xb5, 0xec, 0x87, 0x3b, 0x6c, 0x30, 0x83, 0x3b, 0x8d, 0x76, 0x88, 0x3b, 0x12, 0x00, 0x00, 0x00, 0x74, 0x66, 0x6c, 0x2e, 0x70, 0x73, 0x65, 0x75, 0x64, 0x6f, 0x5f, 0x71, 0x63, 0x6f, 0x6e, 0x73, 0x74, 0x31, 0x00, 0x00, 0x02, 0x00, 0x00, 0x00, 0x03, 0x00, 0x00, 0x00, 0x10, 0x00, 0x00, 0x00, 0x8a, 0xff, 0xff, 0xff, 0x00, 0x00, 0x00, 0x01, 0x14, 0x00, 0x00, 0x00, 0x48, 0x00, 0x00, 0x00, 0x03, 0x00, 0x00, 0x00, 0x00, 0x00, 0x00, 0x02, 0x54, 0x00, 0x00, 0x00, 0x04, 0xff, 0xff, 0xff, 0x08, 0x00, 0x00, 0x00, 0x20, 0x00, 0x00, 0x00, 0x03, 0x00, 0x00, 0x00, 0x00, 0x00, 0x00, 0x00, 0x00, 0x00, 0x00, 0x00, 0x00, 0x00, 0x00, 0x00, 0x00, 0x00, 0x00, 0x00, 0x00, 0x00, 0x00, 0x00, 0x00, 0x00, 0x00, 0x00, 0x03, 0x00, 0x00, 0x00, 0x93, 0xa3, 0x41, 0x3a, 0x8c, 0xe4, 0x3a, 0x3a, 0xf3, 0x67, 0x42, 0x3a, 0x11, 0x00, 0x00, 0x00, 0x74, 0x66, 0x6c, 0x2e, 0x70, 0x73, 0x65, 0x75, 0x64, 0x6f, 0x5f, 0x71, 0x63, 0x6f, 0x6e, 0x73, 0x74, 0x00, 0x00, 0x00, 0x01, 0x00, 0x00, 0x00, 0x03, 0x00, 0x00, 0x00, 0x00, 0x00, 0x16, 0x00, 0x1c, 0x00, 0x18, 0x00, 0x17, 0x00, 0x10, 0x00, 0x0c, 0x00, 0x08, 0x00, 0x00, 0x00, 0x00, 0x00, 0x00, 0x00, 0x07, 0x00, 0x16, 0x00, 0x00, 0x00, 0x00, 0x00, 0x00, 0x01, 0x18, 0x00, 0x00, 0x00, 0x18, 0x00, 0x00, 0x00, 0x02, 0x00, 0x00, 0x00, 0x00, 0x00, 0x00, 0x02, 0x20, 0x00, 0x00, 0x00, 0x04, 0x00, 0x04, 0x00, 0x04, 0x00, 0x00, 0x00, 0x0e, 0x00, 0x00, 0x00, 0x61, 0x72, 0x69, 0x74, 0x68, 0x2e, 0x63, 0x6f, 0x6e, 0x73, 0x74, 0x61, 0x6e, 0x74, 0x00, 0x00, 0x01, 0x00, 0x00, 0x00, 0x02, 0x00, 0x00, 0x00, 0x00, 0x00, 0x16, 0x00, 0x20, 0x00, 0x1c, 0x00, 0x1b, 0x00, 0x14, 0x00, 0x10, 0x00, 0x0c, 0x00, 0x00, 0x00, 0x00, 0x00, 0x08, 0x00, 0x07, 0x00, 0x16, 0x00, 0x00, 0x00, 0x00, 0x00, 0x00, 0x01, 0x18, 0x00, 0x00, 0x00, 0x34, 0x00, 0x00, 0x00, 0x54, 0x00, 0x00, 0x00, 0x01, 0x00, 0x00, 0x00, 0x00, 0x00, 0x00, 0x09, 0x6c, 0x00, 0x00, 0x00, 0x04, 0x00, 0x00, 0x00, 0xff, 0xff, 0xff, 0xff, 0x20, 0x00, 0x00, 0x00, 0x0d, 0x00, 0x00, 0x00, 0x01, 0x00, 0x00, 0x00, 0x0c, 0x00, 0x0c, 0x00, 0x00, 0x00, 0x00, 0x00, 0x08, 0x00, 0x04, 0x00, 0x0c, 0x00, 0x00, 0x00, 0x08, 0x00, 0x00, 0x00, 0x14, 0x00, 0x00, 0x00, 0x01, 0x00, 0x00, 0x00, 0x38, 0x00, 0x00, 0x00, 0x00, 0x00, 0x00, 0x00, 0x00, 0x00, 0x00, 0x00, 0x01, 0x00, 0x00, 0x00, 0xd3, 0x2c, 0x40, 0x40, 0x1e, 0x00, 0x00, 0x00, 0x73, 0x65, 0x72, 0x76, 0x69, 0x6e, 0x67, 0x5f, 0x64, 0x65, 0x66, 0x61, 0x75, 0x6c, 0x74, 0x5f, 0x6b, 0x65, 0x72, 0x61, 0x73, 0x5f, 0x74, 0x65, 0x6e, 0x73, 0x6f, 0x72, 0x3a, 0x30, 0x00, 0x00, 0x04, 0x00, 0x00, 0x00, 0x01, 0x00, 0x00, 0x00, 0x20, 0x00, 0x00, 0x00, 0x0d, 0x00, 0x00, 0x00, 0x01, 0x00, 0x00, 0x00, 0x05, 0x00, 0x00, 0x00, 0x68, 0x00, 0x00, 0x00, 0x48, 0x00, 0x00, 0x00, 0x38, 0x00, 0x00, 0x00, 0x18, 0x00, 0x00, 0x00, 0x04, 0x00, 0x00, 0x00, 0xb8, 0xff, 0xff, 0xff, 0x19, 0x00, 0x00, 0x00, 0x02, 0x00, 0x00, 0x00, 0x00, 0x00, 0x00, 0x19, 0xc8, 0xff, 0xff, 0xff, 0x09, 0x00, 0x00, 0x00, 0x04, 0x00, 0x00, 0x00, 0x00, 0x00, 0x00, 0x09, 0x0c, 0x00, 0x0c, 0x00, 0x0b, 0x00, 0x00, 0x00, 0x00, 0x00, 0x04, 0x00, 0x0c, 0x00, 0x00, 0x00, 0x16, 0x00, 0x00, 0x00, 0x00, 0x00, 0x00, 0x16, 0xf0, 0xff, 0xff, 0xff, 0x11, 0x00, 0x00, 0x00, 0x02, 0x00, 0x00, 0x00, 0x00, 0x00, 0x00, 0x11, 0x0c, 0x00, 0x10, 0x00, 0x0f, 0x00, 0x00, 0x00, 0x08, 0x00, 0x04, 0x00, 0x0c, 0x00, 0x00, 0x00, 0x03, 0x00, 0x00, 0x00, 0x03, 0x00, 0x00, 0x00, 0x00, 0x00, 0x00, 0x03
};
const unsigned int audio_model_len = 12488;
